{
    "<pad>": 0,
    "<unk>": 1,
    "<s>": 2,
    "</s>": 3,
    "the": 4,
    "of": 5,
    "and": 6,
    "to": 7,
    "in": 8,
    "a": 9,
    "is": 10,
    "that": 11,
    "for": 12,
    "on": 13,
    "with": 14,
    "The": 15,
    "be": 16,
    "are": 17,
    "as": 18,
    "I": 19,
    "this": 20,
    "we": 21,
    "by": 22,
    "have": 23,
    "it": 24,
    "not": 25,
    "you": 26,
    "will": 27,
    "which": 28,
    "from": 29,
    "an": 30,
    "or": 31,
    "at": 32,
    "has": 33,
    "can": 34,
    "our": 35,
    "was": 36,
    "European": 37,
    ",": 38,
    ".": 39,
    "all": 40,
    "also": 41,
    "-": 42,
    "your": 43,
    "its": 44,
    "We": 45,
    "(@@": 46,
    "but": 47,
    "would": 48,
    "their": 49,
    "In": 50,
    "been": 51,
    "more": 52,
    "This": 53,
    "one": 54,
    "It": 55,
    "Mr": 56,
    "should": 57,
    "ing": 58,
    "s,": 59,
    "must": 60,
    "very": 61,
    "they": 62,
    "s.": 63,
    "-@@": 64,
    "new": 65,
    "only": 66,
    "like": 67,
    "other": 68,
    "do": 69,
    "about": 70,
    "there": 71,
    "s": 72,
    "these": 73,
    "who": 74,
    "\"@@": 75,
    "in@@": 76,
    "if": 77,
    "us": 78,
    "ed": 79,
    "Commission": 80,
    "any": 81,
    "up": 82,
    "no": 83,
    "es": 84,
    "into": 85,
    "so": 86,
    "re@@": 87,
    "un@@": 88,
    "President,": 89,
    "were": 90,
    "es,": 91,
    "what": 92,
    "such": 93,
    ":": 94,
    "than": 95,
    "out": 96,
    "time": 97,
    "Member": 98,
    "–": 99,
    "A": 100,
    "most": 101,
    "when": 102,
    "my": 103,
    "'s": 104,
    "his": 105,
    "es.": 106,
    "some": 107,
    "able": 108,
    "need": 109,
    "use": 110,
    "y": 111,
    "make": 112,
    "many": 113,
    "first": 114,
    "between": 115,
    ")": 116,
    "c@@": 117,
    "take": 118,
    "people": 119,
    "because": 120,
    "S@@": 121,
    "important": 122,
    "s@@": 123,
    "well": 124,
    "d@@": 125,
    "If": 126,
    "now": 127,
    "just": 128,
    "C@@": 129,
    "ation": 130,
    "those": 131,
    "had": 132,
    "er": 133,
    "two": 134,
    "made": 135,
    "am": 136,
    "he": 137,
    "o": 138,
    "where": 139,
    "?": 140,
    "e@@": 141,
    "p@@": 142,
    "t@@": 143,
    "over": 144,
    "work": 145,
    "being": 146,
    "report": 147,
    "’s": 148,
    "de": 149,
    "Parliament": 150,
    "way": 151,
    "Union": 152,
    "support": 153,
    "may": 154,
    "even": 155,
    "y@@": 156,
    "ted": 157,
    "i": 158,
    "ing,": 159,
    "Council": 160,
    "EU": 161,
    "information": 162,
    "States": 163,
    "countries": 164,
    "P@@": 165,
    "y,": 166,
    "t": 167,
    "'@@": 168,
    "them": 169,
    "ts": 170,
    "b@@": 171,
    "t,": 172,
    "hotel": 173,
    "o@@": 174,
    "dis@@": 175,
    "/@@": 176,
    "You": 177,
    "A@@": 178,
    "y.": 179,
    "through": 180,
    "a@@": 181,
    "e": 182,
    "after": 183,
    "ing.": 184,
    "\"": 185,
    "al@@": 186,
    "T@@": 187,
    "As": 188,
    "e.": 189,
    "t.": 190,
    "D@@": 191,
    "Europe": 192,
    "i@@": 193,
    "political": 194,
    "B@@": 195,
    "right": 196,
    "order": 197,
    "al": 198,
    "economic": 199,
    "same": 200,
    ";": 201,
    "!": 202,
    "For": 203,
    "good": 204,
    "could": 205,
    "within": 206,
    "an@@": 207,
    "There": 208,
    "want": 209,
    "part": 210,
    "e,": 211,
    "H@@": 212,
    ").": 213,
    "own": 214,
    "see": 215,
    "how": 216,
    "G@@": 217,
    "ting": 218,
    "...": 219,
    "both": 220,
    "against": 221,
    "n@@": 222,
    "“@@": 223,
    "en@@": 224,
    "find": 225,
    "used": 226,
    "ate": 227,
    "de@@": 228,
    "M@@": 229,
    "es@@": 230,
    "F@@": 231,
    "under": 232,
    "does": 233,
    "m@@": 234,
    "E@@": 235,
    "without": 236,
    "g@@": 237,
    "L@@": 238,
    "then": 239,
    "di@@": 240,
    "ed.": 241,
    "a,": 242,
    "N@@": 243,
    "place": 244,
    "much": 245,
    "v@@": 246,
    "ers": 247,
    "international": 248,
    "number": 249,
    "years": 250,
    "ti@@": 251,
    "still": 252,
    "ar@@": 253,
    "policy": 254,
    "k@@": 255,
    "f@@": 256,
    "system": 257,
    "W@@": 258,
    "R@@": 259,
    "social": 260,
    "great": 261,
    "K@@": 262,
    "public": 263,
    "different": 264,
    "therefore": 265,
    "se@@": 266,
    "already": 267,
    "er@@": 268,
    "O@@": 269,
    "2": 270,
    "last": 271,
    "free": 272,
    "ch@@": 273,
    "set": 274,
    "development": 275,
    "end": 276,
    "'": 277,
    ".@@": 278,
    "believe": 279,
    "co@@": 280,
    "cannot": 281,
    "That": 282,
    "point": 283,
    "1": 284,
    "possible": 285,
    "get": 286,
    "me": 287,
    "),": 288,
    "before": 289,
    "area": 290,
    "le@@": 291,
    "here": 292,
    "human": 293,
    "V@@": 294,
    "l@@": 295,
    "Hotel": 296,
    "think": 297,
    "is@@": 298,
    "on@@": 299,
    "market": 300,
    "during": 301,
    "financial": 302,
    "available": 303,
    "ated": 304,
    "d": 305,
    "ation.": 306,
    "national": 307,
    "But": 308,
    "offers": 309,
    "rights": 310,
    "ri@@": 311,
    "say": 312,
    "every": 313,
    "or@@": 314,
    "a.": 315,
    "h@@": 316,
    "th@@": 317,
    "ac@@": 318,
    "li@@": 319,
    "ating": 320,
    "ed,": 321,
    "u@@": 322,
    "Our": 323,
    "it@@": 324,
    "world": 325,
    "m": 326,
    "ro@@": 327,
    "ation,": 328,
    "since": 329,
    "each": 330,
    "know": 331,
    "data": 332,
    "ly": 333,
    "best": 334,
    "high": 335,
    "view": 336,
    "fact": 337,
    "However,": 338,
    "ra@@": 339,
    "means": 340,
    "and,": 341,
    "lo@@": 342,
    "including": 343,
    "j@@": 344,
    "year": 345,
    "3": 346,
    "ad@@": 347,
    "give": 348,
    "help": 349,
    "con@@": 350,
    "small": 351,
    "ations": 352,
    "next": 353,
    "common": 354,
    "ic": 355,
    "st@@": 356,
    "provide": 357,
    "few": 358,
    "put": 359,
    "at@@": 360,
    "I@@": 361,
    "go": 362,
    "quality": 363,
    "All": 364,
    "ensure": 365,
    "On": 366,
    "long": 367,
    "tions": 368,
    "z@@": 369,
    "en": 370,
    "w@@": 371,
    "am@@": 372,
    "To": 373,
    "that,": 374,
    "three": 375,
    "services": 376,
    "access": 377,
    "Committee": 378,
    "d,": 379,
    "offer": 380,
    "while": 381,
    "taken": 382,
    "clear": 383,
    "as@@": 384,
    "country": 385,
    "p": 386,
    "el@@": 387,
    "using": 388,
    "large": 389,
    "it.": 390,
    "service": 391,
    "shall": 392,
    "based": 393,
    "With": 394,
    "ent": 395,
    "room": 396,
    "given": 397,
    "al,": 398,
    "her": 399,
    "come": 400,
    "At": 401,
    "business": 402,
    "tion": 403,
    "case": 404,
    "They": 405,
    "further": 406,
    "Re@@": 407,
    "proposal": 408,
    "always": 409,
    "products": 410,
    "why": 411,
    "4": 412,
    "United": 413,
    "5": 414,
    "far": 415,
    "current": 416,
    "question": 417,
    "back": 418,
    "te@@": 419,
    "be@@": 420,
    "located": 421,
    "main": 422,
    "k": 423,
    "energy": 424,
    "process": 425,
    "too": 426,
    "less": 427,
    "day": 428,
    "d.": 429,
    "debate": 430,
    "po@@": 431,
    "issue": 432,
    "sp@@": 433,
    "measures": 434,
    "im@@": 435,
    "ent@@": 436,
    "form": 437,
    "What": 438,
    "situation": 439,
    "future": 440,
    "working": 441,
    "And": 442,
    "ts,": 443,
    "become": 444,
    "2@@": 445,
    "3@@": 446,
    "real": 447,
    "When": 448,
    "city": 449,
    "whether": 450,
    "These": 451,
    "level": 452,
    "particularly": 453,
    "hope": 454,
    "tion,": 455,
    "U@@": 456,
    "le": 457,
    "Mrs": 458,
    "special": 459,
    "around": 460,
    "ver@@": 461,
    "tion.": 462,
    "der": 463,
    "legal": 464,
    "mo@@": 465,
    "no@@": 466,
    "to@@": 467,
    "did": 468,
    "agreement": 469,
    "rooms": 470,
    "position": 471,
    "si@@": 472,
    "ally": 473,
    "”": 474,
    "certain": 475,
    "ar": 476,
    "et@@": 477,
    "tra@@": 478,
    "ts.": 479,
    "however,": 480,
    "ous": 481,
    "down": 482,
    "stay": 483,
    "better": 484,
    "full": 485,
    "security": 486,
    "r@@": 487,
    "said": 488,
    "necessary": 489,
    "various": 490,
    "ity": 491,
    "ings": 492,
    "res@@": 493,
    "J@@": 494,
    "pro@@": 495,
    "us@@": 496,
    "open": 497,
    "th": 498,
    "per": 499,
    "em@@": 500,
    "op@@": 501,
    "change": 502,
    "l": 503,
    "especially": 504,
    "second": 505,
    "cooperation": 506,
    "particular": 507,
    "fully": 508,
    "look": 509,
    "vote": 510,
    "needs": 511,
    "ag@@": 512,
    "create": 513,
    "inter@@": 514,
    "company": 515,
    "specific": 516,
    "4@@": 517,
    "really": 518,
    "local": 519,
    "ci@@": 520,
    "problem": 521,
    "E": 522,
    "another": 523,
    "problems": 524,
    "ve": 525,
    "ant": 526,
    "ex@@": 527,
    "Y@@": 528,
    "old": 529,
    "production": 530,
    "areas": 531,
    "led": 532,
    "making": 533,
    "c": 534,
    "ing@@": 535,
    "going": 536,
    "several": 537,
    "major": 538,
    "line": 539,
    "ter": 540,
    "close": 541,
    "pre@@": 542,
    "terms": 543,
    "la@@": 544,
    "present": 545,
    "group": 546,
    "trade": 547,
    "global": 548,
    "action": 549,
    "er,": 550,
    "Community": 551,
    "Con@@": 552,
    "als": 553,
    "protection": 554,
    "role": 555,
    "ted.": 556,
    "course": 557,
    "Al@@": 558,
    "ine": 559,
    "power": 560,
    "5@@": 561,
    "car@@": 562,
    "together": 563,
    "al.": 564,
    "ab@@": 565,
    "President": 566,
    "something": 567,
    "Z@@": 568,
    "um@@": 569,
    "x": 570,
    "ask": 571,
    "for@@": 572,
    "per@@": 573,
    "ma@@": 574,
    "time,": 575,
    "following": 576,
    "gentlemen,": 577,
    "continue": 578,
    "ed@@": 579,
    "He": 580,
    "third": 581,
    "ce": 582,
    "out@@": 583,
    "state": 584,
    "often": 585,
    "te": 586,
    "towards": 587,
    "e-@@": 588,
    "n": 589,
    "result": 590,
    "om@@": 591,
    "single": 592,
    "until": 593,
    "range": 594,
    "Madam": 595,
    "whole": 596,
    "citizens": 597,
    "do@@": 598,
    "wish": 599,
    "bo@@": 600,
    "10": 601,
    "6": 602,
    "ic@@": 603,
    "x@@": 604,
    "is,": 605,
    "German": 606,
    "again": 607,
    "In@@": 608,
    "est": 609,
    "modern": 610,
    "sh@@": 611,
    "vi@@": 612,
    "today": 613,
    "&": 614,
    "pe@@": 615,
    "ter@@": 616,
    "control": 617,
    "S": 618,
    "thank": 619,
    "me@@": 620,
    "ded": 621,
    "se": 622,
    "ur@@": 623,
    "qu@@": 624,
    "once": 625,
    "ta@@": 626,
    "little": 627,
    "age": 628,
    "vo@@": 629,
    "7@@": 630,
    "ment": 631,
    "private": 632,
    "all,": 633,
    "account": 634,
    "quite": 635,
    "personal": 636,
    "increase": 637,
    "individual": 638,
    "6@@": 639,
    "tri@@": 640,
    "rather": 641,
    "Mar@@": 642,
    "health": 643,
    "ist": 644,
    "regard": 645,
    "example,": 646,
    "over@@": 647,
    "experience": 648,
    "life": 649,
    "X@@": 650,
    "basis": 651,
    "ne@@": 652,
    "start": 653,
    "name": 654,
    "among": 655,
    "des": 656,
    "welcome": 657,
    "million": 658,
    "having": 659,
    "agree": 660,
    "ge@@": 661,
    "fi@@": 662,
    "respect": 663,
    "8@@": 664,
    "ates": 665,
    "par@@": 666,
    "ladies": 667,
    "might": 668,
    "least": 669,
    "call": 670,
    "conditions": 671,
    "research": 672,
    "found": 673,
    "done": 674,
    "excellent": 675,
    "he@@": 676,
    "tive": 677,
    "ol@@": 678,
    "taking": 679,
    "b": 680,
    "US": 681,
    "ia": 682,
    "water": 683,
    "government": 684,
    "After": 685,
    "under@@": 686,
    "time.": 687,
    "u": 688,
    "No": 689,
    "opportunity": 690,
    "ho@@": 691,
    "er.": 692,
    "general": 693,
    "Commissioner": 694,
    "ability": 695,
    "[[@@": 696,
    "companies": 697,
    "8": 698,
    "so@@": 699,
    "ds": 700,
    "House": 701,
    "include": 702,
    "h": 703,
    "ap@@": 704,
    "allow": 705,
    "makes": 706,
    "issues": 707,
    "let": 708,
    "man@@": 709,
    "gra@@": 710,
    "20@@": 711,
    "key": 712,
    "called": 713,
    "due": 714,
    "An@@": 715,
    "la": 716,
    "law": 717,
    "matter": 718,
    "list": 719,
    "provided": 720,
    "subject": 721,
    "ans": 722,
    "course,": 723,
    "behalf": 724,
    "provides": 725,
    "Europe.": 726,
    "it,": 727,
    "9@@": 728,
    "enjoy": 729,
    "centre": 730,
    "el": 731,
    "off": 732,
    "ary": 733,
    "non-@@": 734,
    "7": 735,
    "One": 736,
    "il@@": 737,
    "management": 738,
    "days": 739,
    "up@@": 740,
    "ise": 741,
    "20": 742,
    "ations.": 743,
    "bi@@": 744,
    "simply": 745,
    "id@@": 746,
    "budget": 747,
    "Commissioner,": 748,
    "on,": 749,
    "product": 750,
    "Union.": 751,
    "rules": 752,
    "yet": 753,
    "Group": 754,
    "tic": 755,
    "ding": 756,
    "greater": 757,
    "s:": 758,
    "food": 759,
    "contact": 760,
    "site": 761,
    "favour": 762,
    "via": 763,
    "su@@": 764,
    "she": 765,
    "software": 766,
    "page": 767,
    "ou@@": 768,
    "known": 769,
    "forward": 770,
    "en,": 771,
    "women": 772,
    "project": 773,
    "environmental": 774,
    "value": 775,
    "complete": 776,
    "children": 777,
    "systems": 778,
    "recent": 779,
    "red": 780,
    "ments": 781,
    "us.": 782,
    "ch": 783,
    "ck@@": 784,
    "play": 785,
    "cultural": 786,
    "along": 787,
    "go@@": 788,
    "away": 789,
    "resolution": 790,
    "text": 791,
    "ha@@": 792,
    "show": 793,
    "ity.": 794,
    "price": 795,
    "et": 796,
    "effective": 797,
    "framework": 798,
    "ste@@": 799,
    "natural": 800,
    "Co@@": 801,
    "_@@": 802,
    "light": 803,
    "ations,": 804,
    "members": 805,
    "ted,": 806,
    "left": 807,
    "difficult": 808,
    "1@@": 809,
    "C": 810,
    "interest": 811,
    "/": 812,
    "try": 813,
    "ity,": 814,
    "transport": 815,
    "So": 816,
    "decision": 817,
    "ber@@": 818,
    "um": 819,
    "beautiful": 820,
    "things": 821,
    "work@@": 822,
    "adopted": 823,
    "currently": 824,
    "ir@@": 825,
    "sub@@": 826,
    "building": 827,
    "location": 828,
    "field": 829,
    "ke": 830,
    "10@@": 831,
    "T": 832,
    "30": 833,
    "above": 834,
    "technical": 835,
    "Members": 836,
    "comes": 837,
    "growth": 838,
    "World": 839,
    "bring": 840,
    "air": 841,
    "customers": 842,
    "end@@": 843,
    "internal": 844,
    "gu@@": 845,
    "directive": 846,
    "programme": 847,
    "directly": 848,
    "New": 849,
    "family": 850,
    "ul@@": 851,
    "com@@": 852,
    "itself": 853,
    "related": 854,
    "aid": 855,
    "achieve": 856,
    "From": 857,
    "lot": 858,
    "version": 859,
    "money": 860,
    "Please": 861,
    "ent,": 862,
    "easy": 863,
    "clearly": 864,
    "t-@@": 865,
    "deal": 866,
    "ak@@": 867,
    "und": 868,
    "them.": 869,
    "pl@@": 870,
    "ies": 871,
    "him": 872,
    "responsible": 873,
    "ph@@": 874,
    "attention": 875,
    "us,": 876,
    "approach": 877,
    "proposals": 878,
    "den@@": 879,
    "P": 880,
    "serious": 881,
    "ty": 882,
    "application": 883,
    "voted": 884,
    "example": 885,
    "progress": 886,
    "wide": 887,
    "da@@": 888,
    "mar@@": 889,
    "sure": 890,
    "O": 891,
    "extremely": 892,
    "fin@@": 893,
    "feel": 894,
    "sk@@": 895,
    "countries.": 896,
    "amendments": 897,
    "heart": 898,
    "never": 899,
    "au@@": 900,
    "side": 901,
    "importance": 902,
    "keep": 903,
    "staff": 904,
    "short": 905,
    "safety": 906,
    "top": 907,
    "9": 908,
    "kind": 909,
    "central": 910,
    "Ro@@": 911,
    "mer@@": 912,
    "rec@@": 913,
    "State": 914,
    "longer": 915,
    "EUR": 916,
    "near": 917,
    "ent.": 918,
    ",@@": 919,
    "industry": 920,
    "young": 921,
    "proposed": 922,
    "States.": 923,
    "solution": 924,
    "o,": 925,
    "ck": 926,
    "comm@@": 927,
    "tor@@": 928,
    "0@@": 929,
    "developed": 930,
    "period": 931,
    "four": 932,
    "town": 933,
    "upon": 934,
    "Treaty": 935,
    ":@@": 936,
    "please": 937,
    "ying": 938,
    "responsibility": 939,
    "tes": 940,
    "pages": 941,
    "man": 942,
    "costs": 943,
    "according": 944,
    "essential": 945,
    "on.": 946,
    "developing": 947,
    "meeting": 948,
    "sector": 949,
    "we@@": 950,
    "ative": 951,
    "g": 952,
    "additional": 953,
    "almost": 954,
    "type": 955,
    "points": 956,
    "[@@": 957,
    "sa@@": 958,
    "war@@": 959,
    "consider": 960,
    "step": 961,
    "home": 962,
    "gi@@": 963,
    "Ar@@": 964,
    "crisis": 965,
    "ves": 966,
    "ten@@": 967,
    "democratic": 968,
    "regional": 969,
    "Europe,": 970,
    "an,": 971,
    "looking": 972,
    "resources": 973,
    "min@@": 974,
    "ance": 975,
    "foreign": 976,
    "der@@": 977,
    "and@@": 978,
    "International": 979,
    "activities": 980,
    "tion@@": 981,
    "improve": 982,
    "design": 983,
    "fundamental": 984,
    "situated": 985,
    "actually": 986,
    "technology": 987,
    "results": 988,
    "thus": 989,
    "ful": 990,
    "ment.": 991,
    "strong": 992,
    "Mo@@": 993,
    "pa@@": 994,
    "y-@@": 995,
    "que": 996,
    "positive": 997,
    "15": 998,
    "world.": 999,
    "total": 1000,
    "wi@@": 1001,
    "famous": 1002,
    "é@@": 1003,
    "‘@@": 1004,
    "held": 1005,
    "meet": 1006,
    "address": 1007,
    "D": 1008,
    "os": 1009,
    "bar@@": 1010,
    "designed": 1011,
    "land": 1012,
    "visit": 1013,
    "takes": 1014,
    "reason": 1015,
    "ge": 1016,
    "low": 1017,
    "receive": 1018,
    "institutions": 1019,
    "ari@@": 1020,
    "ers,": 1021,
    "training": 1022,
    "minutes": 1023,
    "efforts": 1024,
    "implementation": 1025,
    "leading": 1026,
    "States,": 1027,
    "ass@@": 1028,
    "ian": 1029,
    "tions,": 1030,
    "share": 1031,
    "ally,": 1032,
    "file": 1033,
    "region": 1034,
    "pay": 1035,
    "19@@": 1036,
    "took": 1037,
    "\".": 1038,
    "required": 1039,
    "existing": 1040,
    "cor@@": 1041,
    "her@@": 1042,
    "unique": 1043,
    "appropriate": 1044,
    "accept": 1045,
    "ents": 1046,
    "countries,": 1047,
    "ob@@": 1048,
    "cu@@": 1049,
    "fac@@": 1050,
    "en.": 1051,
    "lead": 1052,
    "risk": 1053,
    "questions": 1054,
    "ren@@": 1055,
    "ged": 1056,
    "views": 1057,
    "By": 1058,
    "bre@@": 1059,
    "seen": 1060,
    "active": 1061,
    "early": 1062,
    "house": 1063,
    "direct": 1064,
    "live": 1065,
    "force": 1066,
    "Internet": 1067,
    "certainly": 1068,
    "50": 1069,
    "report.": 1070,
    "throughout": 1071,
    "principle": 1072,
    "sur@@": 1073,
    "lic@@": 1074,
    "ut@@": 1075,
    "Se@@": 1076,
    "har@@": 1077,
    "across": 1078,
    "changes": 1079,
    "created": 1080,
    "ors": 1081,
    "Le@@": 1082,
    "act": 1083,
    "tu@@": 1084,
    "M": 1085,
    "rate": 1086,
    "times": 1087,
    "est@@": 1088,
    "lin@@": 1089,
    "content": 1090,
    "reach": 1091,
    "amount": 1092,
    "ship": 1093,
    "guarantee": 1094,
    "final": 1095,
    "Ex@@": 1096,
    "American": 1097,
    "ten": 1098,
    "either": 1099,
    "s'": 1100,
    "traditional": 1101,
    "understand": 1102,
    "mon@@": 1103,
    "projects": 1104,
    "How": 1105,
    "living": 1106,
    "le,": 1107,
    "climate": 1108,
    "ence": 1109,
    "ru@@": 1110,
    "concerning": 1111,
    "rapporteur": 1112,
    "strategy": 1113,
    "legislation": 1114,
    "du@@": 1115,
    "tr@@": 1116,
    "run": 1117,
    "Commission,": 1118,
    "table": 1119,
    "thing": 1120,
    "significant": 1121,
    "ec@@": 1122,
    "everything": 1123,
    "ideal": 1124,
    "Commission's": 1125,
    "12": 1126,
    "re": 1127,
    "five": 1128,
    "Union,": 1129,
    "add": 1130,
    "although": 1131,
    "French": 1132,
    "mat@@": 1133,
    "Since": 1134,
    "ati@@": 1135,
    "cre@@": 1136,
    "big": 1137,
    "online": 1138,
    "De@@": 1139,
    "allows": 1140,
    "Mon@@": 1141,
    "outside": 1142,
    "you,": 1143,
    "Car@@": 1144,
    "this,": 1145,
    "years.": 1146,
    "ant@@": 1147,
    "tions.": 1148,
    "groups": 1149,
    "policies": 1150,
    "enc@@": 1151,
    "military": 1152,
    "standard": 1153,
    "bu@@": 1154,
    "Parliament,": 1155,
    "pres@@": 1156,
    "z": 1157,
    "idea": 1158,
    "My": 1159,
    "report,": 1160,
    "te,": 1161,
    "soon": 1162,
    "involved": 1163,
    "mis@@": 1164,
    "interests": 1165,
    "basic": 1166,
    "can@@": 1167,
    "entire": 1168,
    "ve@@": 1169,
    "Bo@@": 1170,
    "hard": 1171,
    "ever": 1172,
    "trans@@": 1173,
    "works": 1174,
    "website": 1175,
    "regarding": 1176,
    "enough": 1177,
    "th,": 1178,
    "art": 1179,
    "12@@": 1180,
    "completely": 1181,
    "authorities": 1182,
    "R": 1183,
    "comp@@": 1184,
    "18@@": 1185,
    "ence.": 1186,
    "Ad@@": 1187,
    "send": 1188,
    "member": 1189,
    "original": 1190,
    "star@@": 1191,
    "gen@@": 1192,
    "user": 1193,
    "ven@@": 1194,
    "includes": 1195,
    "win@@": 1196,
    "tax": 1197,
    "coming": 1198,
    "majority": 1199,
    "remain": 1200,
    "ation@@": 1201,
    "w": 1202,
    "network": 1203,
    "ness": 1204,
    "freedom": 1205,
    "Com@@": 1206,
    "solutions": 1207,
    "doing": 1208,
    "Be@@": 1209,
    "agricultural": 1210,
    "professional": 1211,
    "ment,": 1212,
    "parts": 1213,
    "car": 1214,
    "ly,": 1215,
    "ry": 1216,
    "Th@@": 1217,
    "needed": 1218,
    "included": 1219,
    "ers.": 1220,
    "environment": 1221,
    "cost": 1222,
    "standards": 1223,
    "contains": 1224,
    "char@@": 1225,
    "turn": 1226,
    "An": 1227,
    "ence,": 1228,
    "true": 1229,
    "1.@@": 1230,
    "wor@@": 1231,
    "care": 1232,
    "apply": 1233,
    "14@@": 1234,
    "built": 1235,
    "Tra@@": 1236,
    "equipped": 1237,
    "aware": 1238,
    "impact": 1239,
    "day,": 1240,
    "opinion": 1241,
    "road": 1242,
    "policy.": 1243,
    "ving": 1244,
    "years,": 1245,
    "ment@@": 1246,
    "men": 1247,
    "peace": 1248,
    "sea": 1249,
    "%": 1250,
    "economy": 1251,
    "f": 1252,
    "ts@@": 1253,
    "team": 1254,
    "ite": 1255,
    "regulation": 1256,
    "this.": 1257,
    "ters": 1258,
    "develop": 1259,
    "language": 1260,
    "past": 1261,
    "ways": 1262,
    "perfect": 1263,
    "il": 1264,
    "comfortable": 1265,
    "guests": 1266,
    "space": 1267,
    "features": 1268,
    "fight": 1269,
    "Lo@@": 1270,
    "En@@": 1271,
    "concerns": 1272,
    "seems": 1273,
    "wa@@": 1274,
    "ad": 1275,
    "year.": 1276,
    "cra@@": 1277,
    "les": 1278,
    "move": 1279,
    "prevent": 1280,
    "Let": 1281,
    "men@@": 1282,
    "book": 1283,
    "choose": 1284,
    "ance.": 1285,
    "nothing": 1286,
    "\",": 1287,
    "fe@@": 1288,
    "2009": 1289,
    "ties": 1290,
    "king": 1291,
    "dra@@": 1292,
    "ens": 1293,
    "Ma@@": 1294,
    "employment": 1295,
    "focus": 1296,
    "established": 1297,
    "themselves": 1298,
    "sta@@": 1299,
    "communication": 1300,
    "whose": 1301,
    "investment": 1302,
    "though": 1303,
    "lack": 1304,
    "Germany": 1305,
    "loc@@": 1306,
    "L": 1307,
    "000": 1308,
    "area.": 1309,
    "events": 1310,
    "received": 1311,
    "bur@@": 1312,
    "nature": 1313,
    "aim": 1314,
    "requirements": 1315,
    "event": 1316,
    "words": 1317,
    "carried": 1318,
    "benefit": 1319,
    "back@@": 1320,
    "read": 1321,
    "ep@@": 1322,
    "ke@@": 1323,
    "á@@": 1324,
    "Some": 1325,
    "(": 1326,
    "ess@@": 1327,
    "ble": 1328,
    "ance,": 1329,
    "friendly": 1330,
    "ons": 1331,
    "highly": 1332,
    "competition": 1333,
    "ide@@": 1334,
    "m,": 1335,
    "fer@@": 1336,
    "huge": 1337,
    "nuclear": 1338,
    "negotiations": 1339,
    "check": 1340,
    "hor@@": 1341,
    "te.": 1342,
    "Pro@@": 1343,
    "\\\">@@": 1344,
    "Council,": 1345,
    "enable": 1346,
    "hand": 1347,
    "person": 1348,
    "which,": 1349,
    "walk": 1350,
    "se,": 1351,
    "ill@@": 1352,
    "web": 1353,
    "click": 1354,
    "sal@@": 1355,
    "funds": 1356,
    "ders": 1357,
    "in,": 1358,
    "previous": 1359,
    "war": 1360,
    "history": 1361,
    "breakfast": 1362,
    "effect": 1363,
    "Finally,": 1364,
    "Ch@@": 1365,
    "mean": 1366,
    "tors": 1367,
    "ins": 1368,
    "AT@@": 1369,
    "le.": 1370,
    "iz@@": 1371,
    "Article": 1372,
    "guest": 1373,
    "di": 1374,
    "parties": 1375,
    "plan": 1376,
    "capital": 1377,
    "program": 1378,
    "China": 1379,
    "tim@@": 1380,
    "tur@@": 1381,
    "Cor@@": 1382,
    "music": 1383,
    "reduce": 1384,
    "year,": 1385,
    "ms": 1386,
    "Gu@@": 1387,
    "ran@@": 1388,
    "promote": 1389,
    "knowledge": 1390,
    "stop": 1391,
    "you.": 1392,
    "return": 1393,
    "form@@": 1394,
    "relations": 1395,
    "15@@": 1396,
    "etc.": 1397,
    "system.": 1398,
    "request": 1399,
    "presented": 1400,
    "’": 1401,
    "external": 1402,
    "tor": 1403,
    "connection": 1404,
    "providing": 1405,
    "forms": 1406,
    "]]": 1407,
    "joint": 1408,
    "came": 1409,
    "as,": 1410,
    "lu@@": 1411,
    "test": 1412,
    "km": 1413,
    "de,": 1414,
    "reform": 1415,
    "states": 1416,
    "den": 1417,
    "South": 1418,
    "regions": 1419,
    "sustainable": 1420,
    "market.": 1421,
    "higher": 1422,
    "m.": 1423,
    "added": 1424,
    "possibility": 1425,
    "others": 1426,
    "months": 1427,
    "Of": 1428,
    "o.": 1429,
    "increased": 1430,
    "function": 1431,
    "shown": 1432,
    "face": 1433,
    "rates": 1434,
    "successful": 1435,
    "ver": 1436,
    "St@@": 1437,
    "e:": 1438,
    "d-@@": 1439,
    "produc@@": 1440,
    "ine@@": 1441,
    "asked": 1442,
    "agreed": 1443,
    "body": 1444,
    "perhaps": 1445,
    "prices": 1446,
    "potential": 1447,
    "$@@": 1448,
    "customer": 1449,
    "Court": 1450,
    "latest": 1451,
    "id": 1452,
    "cap@@": 1453,
    "]": 1454,
    "thanks": 1455,
    "plan@@": 1456,
    "uses": 1457,
    "addition": 1458,
    "tic@@": 1459,
    "gives": 1460,
    "later": 1461,
    "Commission.": 1462,
    "users": 1463,
    "beginning": 1464,
    "sc@@": 1465,
    "day.": 1466,
    "av@@": 1467,
    "gener@@": 1468,
    "cur@@": 1469,
    "industrial": 1470,
    "former": 1471,
    "possible.": 1472,
    "13@@": 1473,
    "demand": 1474,
    "protect": 1475,
    "cases": 1476,
    "increasing": 1477,
    "For@@": 1478,
    "es:": 1479,
    "series": 1480,
    "shows": 1481,
    "self-@@": 1482,
    "files": 1483,
    "decisions": 1484,
    "Central": 1485,
    "success": 1486,
    "n.": 1487,
    "submitted": 1488,
    "or,": 1489,
    "half": 1490,
    "st": 1491,
    "F": 1492,
    "ical": 1493,
    "performance": 1494,
    "remains": 1495,
    "people.": 1496,
    "100": 1497,
    "education": 1498,
    "search": 1499,
    "party": 1500,
    "civil": 1501,
    "mentioned": 1502,
    "commercial": 1503,
    "creating": 1504,
    "image": 1505,
    "IT@@": 1506,
    "considered": 1507,
    "fil@@": 1508,
    "ess": 1509,
    "society": 1510,
    "sion": 1511,
    "date": 1512,
    "bed": 1513,
    "holiday": 1514,
    "nation@@": 1515,
    "here.": 1516,
    "all@@": 1517,
    "popular": 1518,
    "largest": 1519,
    "term": 1520,
    "ents.": 1521,
    ",000": 1522,
    "Here": 1523,
    "work.": 1524,
    "res": 1525,
    "behind": 1526,
    "a's": 1527,
    "prepared": 1528,
    "2.@@": 1529,
    "anc@@": 1530,
    "restaurant": 1531,
    "ा@@": 1532,
    "brought": 1533,
    "board": 1534,
    "commitment": 1535,
    "ys": 1536,
    "ism": 1537,
    "media": 1538,
    "ig@@": 1539,
    "recently": 1540,
    "ther@@": 1541,
    "future.": 1542,
    "ator": 1543,
    "cal@@": 1544,
    "25": 1545,
    "night": 1546,
    "press": 1547,
    "fa@@": 1548,
    "video": 1549,
    "decided": 1550,
    "facilities": 1551,
    "card": 1552,
    "&@@": 1553,
    "concern": 1554,
    "simple": 1555,
    "X": 1556,
    "became": 1557,
    "Presidency": 1558,
    "n,": 1559,
    "sion,": 1560,
    "enter": 1561,
    "lies": 1562,
    "fact,": 1563,
    "199@@": 1564,
    "Po@@": 1565,
    "objective": 1566,
    "way,": 1567,
    "ist@@": 1568,
    "ris@@": 1569,
    "hol@@": 1570,
    "relevant": 1571,
    "IS@@": 1572,
    "i,": 1573,
    "ents,": 1574,
    "comple@@": 1575,
    "reached": 1576,
    "th.": 1577,
    "Ne@@": 1578,
    "easily": 1579,
    "choice": 1580,
    "17@@": 1581,
    "pleased": 1582,
    "front": 1583,
    "similar": 1584,
    "Government": 1585,
    "person@@": 1586,
    "able.": 1587,
    "travel": 1588,
    "gre@@": 1589,
    "exchange": 1590,
    "century": 1591,
    "16@@": 1592,
    "bas@@": 1593,
    "Parliament.": 1594,
    "double": 1595,
    "relation": 1596,
    "ments.": 1597,
    "quickly": 1598,
    "Lisbon": 1599,
    "rest": 1600,
    "regards": 1601,
    "del": 1602,
    "se.": 1603,
    "IN@@": 1604,
    "democracy": 1605,
    "game": 1606,
    "IC@@": 1607,
    "ish": 1608,
    "bar": 1609,
    "ER@@": 1610,
    "ell@@": 1611,
    "complex": 1612,
    "note": 1613,
    "markets": 1614,
    "EC@@": 1615,
    "May": 1616,
    "leave": 1617,
    "setting": 1618,
    "pu@@": 1619,
    "internet": 1620,
    "independent": 1621,
    "bor@@": 1622,
    "tal@@": 1623,
    "particular,": 1624,
    "cause": 1625,
    "material": 1626,
    "creation": 1627,
    "produced": 1628,
    "an.": 1629,
    "des@@": 1630,
    "population": 1631,
    "sense": 1632,
    "balance": 1633,
    "initiative": 1634,
    "context": 1635,
    "B": 1636,
    "giving": 1637,
    "During": 1638,
    "Par@@": 1639,
    "pri@@": 1640,
    "AR@@": 1641,
    "stor@@": 1642,
    "ists": 1643,
    "model": 1644,
    "values": 1645,
    "British": 1646,
    "met@@": 1647,
    "gl@@": 1648,
    "ow@@": 1649,
    "concerned": 1650,
    "supported": 1651,
    "variety": 1652,
    "tell": 1653,
    "ure": 1654,
    "play@@": 1655,
    "agreements": 1656,
    "June": 1657,
    "answer": 1658,
    "book@@": 1659,
    "r": 1660,
    "way.": 1661,
    "hand,": 1662,
    "da": 1663,
    "k,": 1664,
    "workers": 1665,
    "ge,": 1666,
    "ard": 1667,
    "treatment": 1668,
    "written": 1669,
    "achieved": 1670,
    "ps": 1671,
    "don@@": 1672,
    "keyword": 1673,
    "speak": 1674,
    "Russia": 1675,
    "hours": 1676,
    "produce": 1677,
    "lower": 1678,
    "people,": 1679,
    "actions": 1680,
    "tre@@": 1681,
    "pressure": 1682,
    "any@@": 1683,
    "Many": 1684,
    ")@@": 1685,
    "package": 1686,
    "Sch@@": 1687,
    "ter,": 1688,
    "tru@@": 1689,
    "procedure": 1690,
    "places": 1691,
    "clo@@": 1692,
    "National": 1693,
    "11": 1694,
    "ton@@": 1695,
    "Q@@": 1696,
    "said,": 1697,
    "limited": 1698,
    "beach": 1699,
    "wh@@": 1700,
    "ful@@": 1701,
    "reports": 1702,
    "rich": 1703,
    "200@@": 1704,
    "cas@@": 1705,
    "bro@@": 1706,
    "governments": 1707,
    "effects": 1708,
    "bus": 1709,
    "land@@": 1710,
    "principles": 1711,
    "size": 1712,
    "follow": 1713,
    "job": 1714,
    "integration": 1715,
    "sound": 1716,
    "g,": 1717,
    "ast@@": 1718,
    "our@@": 1719,
    "goods": 1720,
    "item": 1721,
    "ings.": 1722,
    "allowed": 1723,
    "ear@@": 1724,
    "annual": 1725,
    "response": 1726,
    "fair": 1727,
    "a-@@": 1728,
    "dialogue": 1729,
    "hand@@": 1730,
    "policy,": 1731,
    "express": 1732,
    "La": 1733,
    "sha@@": 1734,
    "style": 1735,
    "author@@": 1736,
    "ging": 1737,
    "highest": 1738,
    "historical": 1739,
    "source": 1740,
    "lines": 1741,
    "nor": 1742,
    "app@@": 1743,
    "Parliament's": 1744,
    "programmes": 1745,
    "one.": 1746,
    "bl@@": 1747,
    "AN@@": 1748,
    "require": 1749,
    "credit": 1750,
    "Although": 1751,
    "capacity": 1752,
    "ges": 1753,
    "s?": 1754,
    "link": 1755,
    "committee": 1756,
    "equal": 1757,
    "als,": 1758,
    "euro": 1759,
    "+@@": 1760,
    "six": 1761,
    "Y": 1762,
    "ale": 1763,
    "die": 1764,
    "avoid": 1765,
    "numerous": 1766,
    "consumer": 1767,
    "Your": 1768,
    "ie": 1769,
    "legislative": 1770,
    "amendment": 1771,
    "efficient": 1772,
    "col@@": 1773,
    "indeed": 1774,
    "well-@@": 1775,
    "aspects": 1776,
    "v": 1777,
    "Su@@": 1778,
    "�@@": 1779,
    "official": 1780,
    "enti@@": 1781,
    "supply": 1782,
    "ia,": 1783,
    "ties,": 1784,
    "s;": 1785,
    "opportunities": 1786,
    "interesting": 1787,
    "integrated": 1788,
    "steps": 1789,
    "code": 1790,
    "everyone": 1791,
    "build": 1792,
    "ality": 1793,
    "ile": 1794,
    "community": 1795,
    "speci@@": 1796,
    "sm@@": 1797,
    "started": 1798,
    "oper@@": 1799,
    "To@@": 1800,
    "types": 1801,
    "station": 1802,
    "und@@": 1803,
    "cy@@": 1804,
    "draft": 1805,
    "dic@@": 1806,
    "2010": 1807,
    "paid": 1808,
    "objectives": 1809,
    "ings,": 1810,
    "ce,": 1811,
    "growing": 1812,
    "oil": 1813,
    "draw": 1814,
    "nice": 1815,
    "®": 1816,
    "re-@@": 1817,
    "Italian": 1818,
    "ances": 1819,
    "law@@": 1820,
    "Lu@@": 1821,
    "digital": 1822,
    "sent": 1823,
    "Di@@": 1824,
    "all.": 1825,
    "air@@": 1826,
    "goes": 1827,
    "Bar@@": 1828,
    "de.": 1829,
    "ba@@": 1830,
    "'.": 1831,
    "English": 1832,
    "requires": 1833,
    "document": 1834,
    "view,": 1835,
    "AS@@": 1836,
    "क@@": 1837,
    "ches": 1838,
    "Even": 1839,
    "establish": 1840,
    "24": 1841,
    "writing.": 1842,
    "funding": 1843,
    "ach@@": 1844,
    "pool": 1845,
    "operating": 1846,
    "dec@@": 1847,
    "un": 1848,
    "hear@@": 1849,
    "center": 1850,
    "ze": 1851,
    "offering": 1852,
    "computer": 1853,
    "s)": 1854,
    "Do": 1855,
    "historic": 1856,
    "bio@@": 1857,
    "congratulate": 1858,
    "00@@": 1859,
    "ple@@": 1860,
    "fo@@": 1861,
    "No@@": 1862,
    "ev@@": 1863,
    "AL@@": 1864,
    "contribution": 1865,
    "General": 1866,
    "well.": 1867,
    "construction": 1868,
    "accommodation": 1869,
    "carry": 1870,
    "got": 1871,
    "word": 1872,
    "ta": 1873,
    "While": 1874,
    "ending": 1875,
    "Qu@@": 1876,
    "instead": 1877,
    "ics": 1878,
    "fied": 1879,
    "cli@@": 1880,
    "starting": 1881,
    "G": 1882,
    "ational": 1883,
    "sion.": 1884,
    "ited": 1885,
    "mor@@": 1886,
    "ES@@": 1887,
    "ly.": 1888,
    "January": 1889,
    "happy": 1890,
    "able,": 1891,
    "hold": 1892,
    "0.@@": 1893,
    "Now": 1894,
    "level.": 1895,
    "Amendment": 1896,
    "pi@@": 1897,
    "in.": 1898,
    "vis@@": 1899,
    "sive": 1900,
    "econom@@": 1901,
    "distribution": 1902,
    "message": 1903,
    "talk": 1904,
    "ma": 1905,
    "property": 1906,
    "ages": 1907,
    "Spanish": 1908,
    "case,": 1909,
    "equipment": 1910,
    "December": 1911,
    "maximum": 1912,
    "Therefore,": 1913,
    "bit": 1914,
    "custom@@": 1915,
    "Western": 1916,
    "relating": 1917,
    "addition,": 1918,
    "levels": 1919,
    "’@@": 1920,
    "ently": 1921,
    "2008": 1922,
    "ser@@": 1923,
    "ger@@": 1924,
    "North": 1925,
    "conference": 1926,
    "beyond": 1927,
    "East": 1928,
    "placed": 1929,
    "study": 1930,
    "practical": 1931,
    "partners": 1932,
    "age,": 1933,
    "stage": 1934,
    "rule": 1935,
    "office": 1936,
    "ready": 1937,
    "í@@": 1938,
    "ised": 1939,
    "reasons": 1940,
    "accordance": 1941,
    "caused": 1942,
    "ences": 1943,
    "Europe@@": 1944,
    "ks": 1945,
    "probably": 1946,
    "class": 1947,
    "mobile": 1948,
    "at,": 1949,
    "stand": 1950,
    "fishing": 1951,
    "ces": 1952,
    "ens@@": 1953,
    "AC@@": 1954,
    ".com": 1955,
    "ft@@": 1956,
    "Go@@": 1957,
    "pan@@": 1958,
    "world,": 1959,
    "cal": 1960,
    "sometimes": 1961,
    "multi@@": 1962,
    "payment": 1963,
    "concept": 1964,
    "reference": 1965,
    "selected": 1966,
    "1,": 1967,
    "ground": 1968,
    "daily": 1969,
    "process.": 1970,
    "comprehensive": 1971,
    "tro@@": 1972,
    "billion": 1973,
    "movement": 1974,
    "che@@": 1975,
    "culture": 1976,
    "option": 1977,
    "priority": 1978,
    "hom@@": 1979,
    "provisions": 1980,
    "assistance": 1981,
    "N": 1982,
    "40": 1983,
    "despite": 1984,
    "Un@@": 1985,
    "acc@@": 1986,
    "Ver@@": 1987,
    "offered": 1988,
    "download": 1989,
    "ate@@": 1990,
    "stra@@": 1991,
    "jobs": 1992,
    "practice": 1993,
    "expect": 1994,
    "long-term": 1995,
    "ated.": 1996,
    "Mediterranean": 1997,
    "Thank": 1998,
    "ct": 1999,
    "today.": 2000,
    "scientific": 2001,
    "wanted": 2002,
    "sho@@": 2003,
    "0": 2004,
    "Turkey": 2005,
    "strategic": 2006,
    "ski": 2007,
    "coun@@": 2008,
    "minimum": 2009,
    "hotels": 2010,
    "ve.": 2011,
    "ago": 2012,
    "oc@@": 2013,
    "labour": 2014,
    "Bu@@": 2015,
    "section": 2016,
    "23@@": 2017,
    "applications": 2018,
    "TV": 2019,
    "damage": 2020,
    "March": 2021,
    "discussion": 2022,
    "high-@@": 2023,
    "Windows": 2024,
    "age.": 2025,
    "ity@@": 2026,
    "off@@": 2027,
    "September": 2028,
    "ce@@": 2029,
    "the@@": 2030,
    "lan@@": 2031,
    "learn": 2032,
    "mi@@": 2033,
    "Ac@@": 2034,
    "benefits": 2035,
    "Furthermore,": 2036,
    "ve,": 2037,
    "ate,": 2038,
    "cri@@": 2039,
    "published": 2040,
    "matters": 2041,
    "summer": 2042,
    "distance": 2043,
    "moment": 2044,
    "services.": 2045,
    "interested": 2046,
    "ate.": 2047,
    "Only": 2048,
    "effort": 2049,
    "tool": 2050,
    "as.": 2051,
    "begin": 2052,
    "sit@@": 2053,
    "area,": 2054,
    "apartment": 2055,
    "advantage": 2056,
    "Or@@": 2057,
    "correc@@": 2058,
    "tour@@": 2059,
    "too,": 2060,
    "cont@@": 2061,
    "France": 2062,
    "bra@@": 2063,
    "them,": 2064,
    "cut": 2065,
    "optim@@": 2066,
    "absolutely": 2067,
    ">": 2068,
    "ments,": 2069,
    "week": 2070,
    "crucial": 2071,
    "gas": 2072,
    "details": 2073,
    "system,": 2074,
    "Moreover,": 2075,
    "Per@@": 2076,
    "that.": 2077,
    "reduction": 2078,
    "trying": 2079,
    "extra": 2080,
    "14": 2081,
    "Inter@@": 2082,
    "therefore,": 2083,
    "October": 2084,
    "ni@@": 2085,
    "ina": 2086,
    "finally": 2087,
    "select": 2088,
    "drive": 2089,
    "Sh@@": 2090,
    "pen@@": 2091,
    "cent@@": 2092,
    "voting": 2093,
    "secure": 2094,
    "ff@@": 2095,
    "EN@@": 2096,
    "mention": 2097,
    "July": 2098,
    "st,": 2099,
    "review": 2100,
    "statement": 2101,
    "rise": 2102,
    "worked": 2103,
    "innovative": 2104,
    "vari@@": 2105,
    "partner": 2106,
    "K": 2107,
    "als.": 2108,
    "Chinese": 2109,
    "ib@@": 2110,
    "cour@@": 2111,
    "Sp@@": 2112,
    "base": 2113,
    "floor": 2114,
    "Li@@": 2115,
    "dri@@": 2116,
    "top@@": 2117,
    "val@@": 2118,
    "purpose": 2119,
    "saying": 2120,
    "country.": 2121,
    "implement": 2122,
    "Council.": 2123,
    "liber@@": 2124,
    "usually": 2125,
    "Secondly,": 2126,
    "um,": 2127,
    "applied": 2128,
    "Its": 2129,
    "ann@@": 2130,
    "18": 2131,
    "ously": 2132,
    "useful": 2133,
    "work,": 2134,
    "pass": 2135,
    "consumers": 2136,
    "UN": 2137,
    "today,": 2138,
    "monitoring": 2139,
    "Ab@@": 2140,
    "cul@@": 2141,
    "é": 2142,
    "mainly": 2143,
    "vel@@": 2144,
    "status": 2145,
    "train": 2146,
    "rights.": 2147,
    "ated,": 2148,
    "anti@@": 2149,
    ">@@": 2150,
    "Man@@": 2151,
    "ar,": 2152,
    "increasingly": 2153,
    "ster@@": 2154,
    "First": 2155,
    "now,": 2156,
    "cat@@": 2157,
    "ourselves": 2158,
    "sch@@": 2159,
    "read@@": 2160,
    "mind": 2161,
    "Russian": 2162,
    "compromise": 2163,
    "getting": 2164,
    "Is": 2165,
    "pain@@": 2166,
    "links": 2167,
    "me,": 2168,
    "water@@": 2169,
    "Affairs": 2170,
    "materials": 2171,
    "mountain": 2172,
    "<emph>@@": 2173,
    "bes@@": 2174,
    "ay@@": 2175,
    "my@@": 2176,
    "ly@@": 2177,
    "San": 2178,
    "dro@@": 2179,
    "adopt": 2180,
    "pp@@": 2181,
    "3.@@": 2182,
    "selection": 2183,
    "join": 2184,
    "mu@@": 2185,
    "fl@@": 2186,
    "structural": 2187,
    "ish@@": 2188,
    "leg@@": 2189,
    "elements": 2190,
    "V": 2191,
    "Ho@@": 2192,
    "30@@": 2193,
    "ities": 2194,
    "gar@@": 2195,
    "pat@@": 2196,
    "ese": 2197,
    "ds,": 2198,
    "not,": 2199,
    "ali@@": 2200,
    "2,": 2201,
    "fine": 2202,
    "task": 2203,
    "maintain": 2204,
    "met": 2205,
    "ming": 2206,
    "suitable": 2207,
    "safe": 2208,
    "country,": 2209,
    "intended": 2210,
    "village": 2211,
    "structure": 2212,
    "ture": 2213,
    "co-@@": 2214,
    "transfer": 2215,
    "anti-@@": 2216,
    "stri@@": 2217,
    "fu@@": 2218,
    "More": 2219,
    "ah@@": 2220,
    "opening": 2221,
    "197@@": 2222,
    "Union's": 2223,
    "charge": 2224,
    "igh@@": 2225,
    "web@@": 2226,
    "are@@": 2227,
    "late": 2228,
    "''@@": 2229,
    "products.": 2230,
    "talking": 2231,
    "exc@@": 2232,
    "sales": 2233,
    "consequences": 2234,
    "af@@": 2235,
    "one,": 2236,
    "ge.": 2237,
    "wer@@": 2238,
    "appear": 2239,
    "La@@": 2240,
    "Public": 2241,
    "round": 2242,
    "reading": 2243,
    "ely": 2244,
    "forces": 2245,
    "chance": 2246,
    "German@@": 2247,
    "ju@@": 2248,
    "ty@@": 2249,
    "objec@@": 2250,
    "stability": 2251,
    "quiet": 2252,
    "regulations": 2253,
    "16": 2254,
    "Republic": 2255,
    "overall": 2256,
    "expressed": 2257,
    "rights,": 2258,
    "speed": 2259,
    "2000": 2260,
    "proper": 2261,
    "lam@@": 2262,
    "ll@@": 2263,
    "ne": 2264,
    "um.": 2265,
    "tt@@": 2266,
    "market,": 2267,
    "dy": 2268,
    "Indeed,": 2269,
    "Euro@@": 2270,
    "Minister": 2271,
    "gam@@": 2272,
    "Convention": 2273,
    "Click": 2274,
    "ce.": 2275,
    "calls": 2276,
    "ensuring": 2277,
    "ger": 2278,
    "island": 2279,
    "re.": 2280,
    "pol@@": 2281,
    "sites": 2282,
    "Each": 2283,
    "tics": 2284,
    "November": 2285,
    "RE@@": 2286,
    "ó@@": 2287,
    "ur": 2288,
    "committed": 2289,
    "head": 2290,
    "g.": 2291,
    "Dis@@": 2292,
    "ends": 2293,
    "ction": 2294,
    "sen@@": 2295,
    "ca@@": 2296,
    "ching": 2297,
    "encourage": 2298,
    "school": 2299,
    "Development": 2300,
    "cover": 2301,
    "ter.": 2302,
    "here,": 2303,
    "instruments": 2304,
    "sign": 2305,
    "ra": 2306,
    "supports": 2307,
    "critical": 2308,
    "direction": 2309,
    "accession": 2310,
    "fication": 2311,
    "tiv@@": 2312,
    "challenges": 2313,
    "changed": 2314,
    "collec@@": 2315,
    "swimming": 2316,
    "son": 2317,
    "serve": 2318,
    "playing": 2319,
    "fall": 2320,
    "ion": 2321,
    "tan@@": 2322,
    "UN@@": 2323,
    "ize": 2324,
    "Pre@@": 2325,
    "ory": 2326,
    "contribute": 2327,
    "enlargement": 2328,
    "ei@@": 2329,
    "scope": 2330,
    "influence": 2331,
    "separate": 2332,
    "reviews": 2333,
    "green": 2334,
    "electronic": 2335,
    "activity": 2336,
    "ological": 2337,
    "ling": 2338,
    "ure@@": 2339,
    "correct": 2340,
    "imp@@": 2341,
    "poor": 2342,
    "tourist": 2343,
    "sti@@": 2344,
    "whom": 2345,
    "clean": 2346,
    "raised": 2347,
    "Not": 2348,
    "weak@@": 2349,
    "sign@@": 2350,
    "illegal": 2351,
    "namely": 2352,
    "ary,": 2353,
    "lab@@": 2354,
    "aimed": 2355,
    "documents": 2356,
    "va": 2357,
    "post@@": 2358,
    "sun@@": 2359,
    "death": 2360,
    "ably": 2361,
    "server": 2362,
    "2007": 2363,
    "it's": 2364,
    "April": 2365,
    "extensive": 2366,
    "ded.": 2367,
    "alternative": 2368,
    "vital": 2369,
    "Can@@": 2370,
    "ing-@@": 2371,
    "star": 2372,
    "medi@@": 2373,
    "shopping": 2374,
    "becoming": 2375,
    "thought": 2376,
    "tes@@": 2377,
    "Bank": 2378,
    "played": 2379,
    "running": 2380,
    "immediately": 2381,
    "analysis": 2382,
    "ology": 2383,
    "So@@": 2384,
    "CO@@": 2385,
    "likely": 2386,
    "500": 2387,
    "apartments": 2388,
    "tools": 2389,
    "tas@@": 2390,
    "direc@@": 2391,
    "k.": 2392,
    "leaders": 2393,
    "larger": 2394,
    "anything": 2395,
    "below": 2396,
    "began": 2397,
    "decide": 2398,
    "fellow": 2399,
    "procedures": 2400,
    "detailed": 2401,
    "Pal@@": 2402,
    "ets": 2403,
    "eng@@": 2404,
    "sin@@": 2405,
    "por@@": 2406,
    "rural": 2407,
    "film": 2408,
    "ell": 2409,
    "don't": 2410,
    "Security": 2411,
    "hotel.": 2412,
    "lost": 2413,
    "served": 2414,
    "sports": 2415,
    "covered": 2416,
    "colleagues": 2417,
    "Party": 2418,
    "shor@@": 2419,
    "life.": 2420,
    "sub-categories": 2421,
    "Just": 2422,
    "25@@": 2423,
    "walking": 2424,
    "200": 2425,
    "oo@@": 2426,
    "target": 2427,
    "limit@@": 2428,
    "ved": 2429,
    "el,": 2430,
    "day@@": 2431,
    "wine": 2432,
    "ik@@": 2433,
    "represents": 2434,
    "defined": 2435,
    "Gra@@": 2436,
    "budgetary": 2437,
    "US@@": 2438,
    "wal@@": 2439,
    "st.": 2440,
    "discuss": 2441,
    "Web": 2442,
    "is.": 2443,
    "exactly": 2444,
    "ME@@": 2445,
    "linked": 2446,
    "processing": 2447,
    "We@@": 2448,
    "24@@": 2449,
    "harmon@@": 2450,
    "parking": 2451,
    "cl@@": 2452,
    "services,": 2453,
    "run@@": 2454,
    "13": 2455,
    "rapporteur,": 2456,
    "powerful": 2457,
    "operation": 2458,
    "sions": 2459,
    "y:": 2460,
    "hi@@": 2461,
    "Air@@": 2462,
    "od@@": 2463,
    "release": 2464,
    "Mor@@": 2465,
    "ver,": 2466,
    "regular": 2467,
    "instrument": 2468,
    "e?": 2469,
    "criteria": 2470,
    "violence": 2471,
    "contrac@@": 2472,
    "s’": 2473,
    "thousands": 2474,
    "listed": 2475,
    "sol@@": 2476,
    "automatically": 2477,
    "atory": 2478,
    "strengthen": 2479,
    "ins@@": 2480,
    "Mal@@": 2481,
    "War@@": 2482,
    "ko@@": 2483,
    "so-called": 2484,
    "ici@@": 2485,
    "ze@@": 2486,
    "conflict": 2487,
    "representatives": 2488,
    "save": 2489,
    "Middle": 2490,
    "mit@@": 2491,
    "Fin@@": 2492,
    "Berlin": 2493,
    "managed": 2494,
    "waste": 2495,
    "place.": 2496,
    "Nor@@": 2497,
    "tax@@": 2498,
    "year@@": 2499,
    "heard": 2500,
    "fra@@": 2501,
    "institutional": 2502,
    "198@@": 2503,
    "ana": 2504,
    "differ@@": 2505,
    "IM@@": 2506,
    "60": 2507,
    "development.": 2508,
    "sou@@": 2509,
    "ron@@": 2510,
    "im": 2511,
    "relationship": 2512,
    "medical": 2513,
    "information.": 2514,
    "fol@@": 2515,
    "ally.": 2516,
    "challenge": 2517,
    "ther,": 2518,
    "inform@@": 2519,
    "method": 2520,
    "founded": 2521,
    "vol@@": 2522,
    "supporting": 2523,
    "wants": 2524,
    "referred": 2525,
    "spend": 2526,
    "Europe's": 2527,
    "administrative": 2528,
    "news": 2529,
    "Gar@@": 2530,
    "aries": 2531,
    "atmosphere": 2532,
    "worth": 2533,
    "ants": 2534,
    "Ber@@": 2535,
    "implemented": 2536,
    "zi@@": 2537,
    "OR@@": 2538,
    "Her@@": 2539,
    "ideas": 2540,
    "ans,": 2541,
    "precisely": 2542,
    "alle@@": 2543,
    "options": 2544,
    "organiz@@": 2545,
    "His": 2546,
    "y's": 2547,
    "went": 2548,
    "transparency": 2549,
    "ago,": 2550,
    "hal@@": 2551,
    "ber": 2552,
    "feature": 2553,
    "ash@@": 2554,
    "entry": 2555,
    "expected": 2556,
    "U": 2557,
    "ning": 2558,
    "ess,": 2559,
    "ished": 2560,
    "boo@@": 2561,
    "-S@@": 2562,
    "son@@": 2563,
    "stress": 2564,
    "cks": 2565,
    "sed": 2566,
    "bon@@": 2567,
    "H": 2568,
    "demands": 2569,
    "She": 2570,
    "stated": 2571,
    "ure,": 2572,
    "br@@": 2573,
    "blo@@": 2574,
    "spe@@": 2575,
    "ili@@": 2576,
    "considerable": 2577,
    "phone": 2578,
    "spo@@": 2579,
    "competitive": 2580,
    "Cas@@": 2581,
    "ca": 2582,
    "border": 2583,
    "improving": 2584,
    "words,": 2585,
    "opened": 2586,
    "mark": 2587,
    "child": 2588,
    "pay@@": 2589,
    "5.@@": 2590,
    "approved": 2591,
    "ones": 2592,
    "introduction": 2593,
    "know,": 2594,
    "minute": 2595,
    "born": 2596,
    "eb@@": 2597,
    "in-@@": 2598,
    "doubt": 2599,
    "ie@@": 2600,
    "broad": 2601,
    "state@@": 2602,
    "deb@@": 2603,
    "University": 2604,
    "super@@": 2605,
    "relate": 2606,
    "ising": 2607,
    "Most": 2608,
    "connected": 2609,
    "typical": 2610,
    "democra@@": 2611,
    "ak": 2612,
    "ि@@": 2613,
    "Rom@@": 2614,
    "players": 2615,
    "4.@@": 2616,
    "a’s": 2617,
    "was@@": 2618,
    "room,": 2619,
    "amp@@": 2620,
    "efficiency": 2621,
    "tabled": 2622,
    "motion": 2623,
    "es?": 2624,
    "parliamentary": 2625,
    "iti@@": 2626,
    "too.": 2627,
    "wing": 2628,
    "rel@@": 2629,
    "extent": 2630,
    "gave": 2631,
    "represent": 2632,
    "ern@@": 2633,
    "Social": 2634,
    "ses": 2635,
    "nor@@": 2636,
    "reduced": 2637,
    "actual": 2638,
    "or.": 2639,
    "photo@@": 2640,
    "ous@@": 2641,
    "park": 2642,
    "solidarity": 2643,
    "seem": 2644,
    "facing": 2645,
    "exclusive": 2646,
    "airport": 2647,
    "He@@": 2648,
    "so,": 2649,
    "love": 2650,
    "law.": 2651,
    "introduced": 2652,
    "employees": 2653,
    "fre@@": 2654,
    "dealing": 2655,
    "ard@@": 2656,
    "affected": 2657,
    "According": 2658,
    "bank": 2659,
    "Economic": 2660,
    "bin@@": 2661,
    "wonderful": 2662,
    "domestic": 2663,
    "prior": 2664,
    "powers": 2665,
    "accepted": 2666,
    "nam@@": 2667,
    "ang@@": 2668,
    "alism": 2669,
    "specifically": 2670,
    "participation": 2671,
    "refer": 2672,
    "ner@@": 2673,
    "fields": 2674,
    "public@@": 2675,
    "Gre@@": 2676,
    "che": 2677,
    "every@@": 2678,
    "let@@": 2679,
    "posi@@": 2680,
    "Once": 2681,
    "3,": 2682,
    "protected": 2683,
    "Czech": 2684,
    "bal@@": 2685,
    "white": 2686,
    "Pri@@": 2687,
    "email": 2688,
    "visitors": 2689,
    "suggest": 2690,
    "ast": 2691,
    "processes": 2692,
    "ton": 2693,
    "America": 2694,
    "glob@@": 2695,
    "Directive": 2696,
    "areas.": 2697,
    "rooms,": 2698,
    "Because": 2699,
    "becomes": 2700,
    "ice": 2701,
    "are,": 2702,
    "environment.": 2703,
    "ine,": 2704,
    "methods": 2705,
    "ately": 2706,
    "Free": 2707,
    "al-@@": 2708,
    "50@@": 2709,
    "region.": 2710,
    "lives": 2711,
    "pul@@": 2712,
    "ies.": 2713,
    "Spain": 2714,
    "followed": 2715,
    "forced": 2716,
    "entirely": 2717,
    "dam@@": 2718,
    "<ahelp": 2719,
    "pleasant": 2720,
    "Why": 2721,
    "organis@@": 2722,
    "hear": 2723,
    "fast": 2724,
    "fresh": 2725,
    "monetary": 2726,
    "collection": 2727,
    "player": 2728,
    "traffic": 2729,
    "financing": 2730,
    "ingly": 2731,
    "cc@@": 2732,
    "ano": 2733,
    "re,": 2734,
    "record": 2735,
    "limit": 2736,
    "RO@@": 2737,
    "gri@@": 2738,
    "cy": 2739,
    "tain@@": 2740,
    "tun@@": 2741,
    "machine": 2742,
    "cou@@": 2743,
    "understanding": 2744,
    "ded,": 2745,
    "ties.": 2746,
    "hon@@": 2747,
    "inst@@": 2748,
    "tive,": 2749,
    "edi@@": 2750,
    "Service": 2751,
    "EU.": 2752,
    "Conference": 2753,
    "out.": 2754,
    "Ste@@": 2755,
    "(S@@": 2756,
    "atic": 2757,
    "sector.": 2758,
    "az@@": 2759,
    "ambi@@": 2760,
    "ies,": 2761,
    "Du@@": 2762,
    "improved": 2763,
    "ement": 2764,
    "dat@@": 2765,
    "11@@": 2766,
    "Room": 2767,
    "associated": 2768,
    "out,": 2769,
    "gh@@": 2770,
    "sufficient": 2771,
    "delivery": 2772,
    "closely": 2773,
    "o-@@": 2774,
    "map": 2775,
    "promoting": 2776,
    "ns": 2777,
    "citizens.": 2778,
    "planning": 2779,
    "ous,": 2780,
    "more.": 2781,
    "issue.": 2782,
    "inside": 2783,
    "mil@@": 2784,
    "loss": 2785,
    "EU's": 2786,
    "menu": 2787,
    "40@@": 2788,
    "lon@@": 2789,
    "ched": 2790,
    "concerned,": 2791,
    "advanced": 2792,
    "ir": 2793,
    "images": 2794,
    "discussed": 2795,
    "cally": 2796,
    "ON@@": 2797,
    "ars": 2798,
    "plans": 2799,
    "persons": 2800,
    "Then": 2801,
    "Im@@": 2802,
    "confidence": 2803,
    "President-in-Office": 2804,
    "reducing": 2805,
    "ty.": 2806,
    "cities": 2807,
    "ay": 2808,
    "information,": 2809,
    "rit@@": 2810,
    "elections": 2811,
    "Group.": 2812,
    "friends": 2813,
    "animal": 2814,
    "Tri@@": 2815,
    "es;": 2816,
    "AD@@": 2817,
    "say,": 2818,
    "contract": 2819,
    "initiatives": 2820,
    "degree": 2821,
    "foo@@": 2822,
    "farmers": 2823,
    "IT": 2824,
    "ro": 2825,
    "City": 2826,
    "bad": 2827,
    "plac@@": 2828,
    "so.": 2829,
    "fish": 2830,
    "pal@@": 2831,
    "weeks": 2832,
    "again,": 2833,
    "signed": 2834,
    "age@@": 2835,
    "1.": 2836,
    "pe": 2837,
    "port@@": 2838,
    "cro@@": 2839,
    "Human": 2840,
    "ss@@": 2841,
    "popul@@": 2842,
    "dly": 2843,
    "Ri@@": 2844,
    "warm": 2845,
    "process@@": 2846,
    "ancient": 2847,
    "clu@@": 2848,
    "ure.": 2849,
    "es'": 2850,
    "attempt": 2851,
    "Har@@": 2852,
    "critic@@": 2853,
    "appears": 2854,
    "drawn": 2855,
    "police": 2856,
    "trust": 2857,
    "implementing": 2858,
    "enn@@": 2859,
    "buy": 2860,
    ".,": 2861,
    "possible,": 2862,
    "combat": 2863,
    "ship@@": 2864,
    "experienced": 2865,
    "port": 2866,
    "with@@": 2867,
    "pre-@@": 2868,
    "ges@@": 2869,
    "net": 2870,
    "gain": 2871,
    "humanitarian": 2872,
    "jo@@": 2873,
    "yourself": 2874,
    "Rights": 2875,
    "activ@@": 2876,
    "ov@@": 2877,
    "goal": 2878,
    "ities,": 2879,
    "Gi@@": 2880,
    "4,": 2881,
    "syn@@": 2882,
    "plant": 2883,
    "fy": 2884,
    "and/or": 2885,
    "box": 2886,
    "196@@": 2887,
    "ade": 2888,
    "organisations": 2889,
    "continu@@": 2890,
    "ble.": 2891,
    "remember": 2892,
    "00": 2893,
    "provision": 2894,
    "<@@": 2895,
    "modified": 2896,
    "applies": 2897,
    "ya": 2898,
    "*": 2899,
    "',": 2900,
    "says": 2901,
    "AM@@": 2902,
    "gs": 2903,
    "service.": 2904,
    "sion@@": 2905,
    "ch.": 2906,
    "assessment": 2907,
    "tive.": 2908,
    "show@@": 2909,
    "purchase": 2910,
    "ency": 2911,
    "street": 2912,
    "kin@@": 2913,
    "sum@@": 2914,
    "2.": 2915,
    "banks": 2916,
    "ds.": 2917,
    "ators": 2918,
    "Every": 2919,
    "100@@": 2920,
    "truly": 2921,
    "indic@@": 2922,
    "s!": 2923,
    "ad.": 2924,
    "inform": 2925,
    "able@@": 2926,
    "ier@@": 2927,
    "ner": 2928,
    "metres": 2929,
    "stable": 2930,
    "et,": 2931,
    "head@@": 2932,
    "presence": 2933,
    "?@@": 2934,
    "introduce": 2935,
    "discussions": 2936,
    "level,": 2937,
    "der,": 2938,
    "industry.": 2939,
    "80": 2940,
    "pas@@": 2941,
    "fic@@": 2942,
    "ban@@": 2943,
    "tional": 2944,
    "clients": 2945,
    "Bur@@": 2946,
    "poverty": 2947,
    "e-mail": 2948,
    "log@@": 2949,
    "ug@@": 2950,
    "West": 2951,
    "ther": 2952,
    "sitting": 2953,
    "immediate": 2954,
    "fle@@": 2955,
    "told": 2956,
    "display": 2957,
    "(the": 2958,
    "opinion,": 2959,
    "combination": 2960,
    "ises": 2961,
    "Swiss": 2962,
    "ven": 2963,
    "mp@@": 2964,
    "enables": 2965,
    "clear@@": 2966,
    "saw": 2967,
    "Due": 2968,
    "commun@@": 2969,
    "proper@@": 2970,
    "installation": 2971,
    "LE@@": 2972,
    "criminal": 2973,
    "calling": 2974,
    "...@@": 2975,
    "allowing": 2976,
    "generally": 2977,
    "e!": 2978,
    "waiting": 2979,
    "agenda": 2980,
    "dr@@": 2981,
    "Germany,": 2982,
    "DE@@": 2983,
    "capable": 2984,
    "normal": 2985,
    "ban": 2986,
    "there,": 2987,
    "mal@@": 2988,
    "bul@@": 2989,
    "ines": 2990,
    "tour": 2991,
    "laws": 2992,
    "scre@@": 2993,
    "na@@": 2994,
    "stands": 2995,
    "II": 2996,
    "at.": 2997,
    "currency": 2998,
    "income": 2999,
    "valid": 3000,
    "unless": 3001,
    "raise": 3002,
    "speaking": 3003,
    "peaceful": 3004,
    "stre@@": 3005,
    "tex@@": 3006,
    "partnership": 3007,
    "closed": 3008,
    "shared": 3009,
    "fisheries": 3010,
    "Am@@": 3011,
    "www.@@": 3012,
    "22@@": 3013,
    "greatest": 3014,
    "measure": 3015,
    "restaurants": 3016,
    "voice": 3017,
    "risks": 3018,
    "cohesion": 3019,
    "informed": 3020,
    "ing:": 3021,
    "os@@": 3022,
    "alis@@": 3023,
    "obtain": 3024,
    "seek": 3025,
    "ch,": 3026,
    "then,": 3027,
    "ental": 3028,
    "develop@@": 3029,
    "again.": 3030,
    "credi@@": 3031,
    "me.": 3032,
    "el.": 3033,
    "e)": 3034,
    "core": 3035,
    "contain": 3036,
    "co": 3037,
    "Firstly,": 3038,
    "ath@@": 3039,
    "continued": 3040,
    "sor@@": 3041,
    "gro@@": 3042,
    "Africa": 3043,
    "reasonable": 3044,
    "pped": 3045,
    "र@@": 3046,
    "track": 3047,
    "power@@": 3048,
    "inf@@": 3049,
    "average": 3050,
    "au": 3051,
    "à": 3052,
    "products,": 3053,
    "Cre@@": 3054,
    "marketing": 3055,
    "ori@@": 3056,
    "parti@@": 3057,
    "constitu@@": 3058,
    "establishment": 3059,
    "fixed": 3060,
    "reforms": 3061,
    "keeping": 3062,
    "Me@@": 3063,
    "ious": 3064,
    "Comm@@": 3065,
    "changing": 3066,
    "bri@@": 3067,
    "genuine": 3068,
    "systems.": 3069,
    "om": 3070,
    "Another": 3071,
    "stat@@": 3072,
    "success@@": 3073,
    "students": 3074,
    "technologies": 3075,
    "sport": 3076,
    "tical": 3077,
    "inv@@": 3078,
    "Nations": 3079,
    "ture.": 3080,
    "religious": 3081,
    "mission": 3082,
    "GmbH": 3083,
    "photo": 3084,
    "future,": 3085,
    "alised": 3086,
    "ship.": 3087,
    "nu@@": 3088,
    "ka": 3089,
    "alist": 3090,
    "path": 3091,
    "forget": 3092,
    "victims": 3093,
    "concrete": 3094,
    "aims": 3095,
    "El@@": 3096,
    "otherwise": 3097,
    "comments": 3098,
    "respond": 3099,
    "administra@@": 3100,
    "Such": 3101,
    "far@@": 3102,
    "estate": 3103,
    "travel@@": 3104,
    "wards": 3105,
    "announced": 3106,
    "Mil@@": 3107,
    "functions": 3108,
    "et.": 3109,
    "respon@@": 3110,
    "chi@@": 3111,
    "recogn@@": 3112,
    "problem.": 3113,
    "alization": 3114,
    "negative": 3115,
    "sed.": 3116,
    "propose": 3117,
    "development,": 3118,
    "duc@@": 3119,
    "cop@@": 3120,
    "17": 3121,
    "generation": 3122,
    "x,": 3123,
    "Irish": 3124,
    "quo@@": 3125,
    "bank@@": 3126,
    "February": 3127,
    "fiscal": 3128,
    "businesses": 3129,
    "dedicated": 3130,
    "pun@@": 3131,
    "Op@@": 3132,
    "surrounding": 3133,
    "med": 3134,
    "berg": 3135,
    "ary.": 3136,
    "2006": 3137,
    "righ@@": 3138,
    "ft": 3139,
    "ator@@": 3140,
    "Lin@@": 3141,
    "lic": 3142,
    "establishing": 3143,
    "compared": 3144,
    "ess.": 3145,
    "300": 3146,
    "strongly": 3147,
    "Prime": 3148,
    "Park": 3149,
    "explo@@": 3150,
    "doc@@": 3151,
    "adoption": 3152,
    "spent": 3153,
    "new@@": 3154,
    "low@@": 3155,
    "closer": 3156,
    "there.": 3157,
    "je@@": 3158,
    "kl@@": 3159,
    "ial": 3160,
    "sli@@": 3161,
    "now.": 3162,
    "flo@@": 3163,
    "respec@@": 3164,
    "combined": 3165,
    "ble,": 3166,
    "ey@@": 3167,
    "described": 3168,
    "Val@@": 3169,
    "on-@@": 3170,
    "d'@@": 3171,
    "sam@@": 3172,
    "ors,": 3173,
    "effectively": 3174,
    "developments": 3175,
    "Cal@@": 3176,
    "initial": 3177,
    "debt": 3178,
    "Italy": 3179,
    "ster": 3180,
    "coordination": 3181,
    "available.": 3182,
    "ke,": 3183,
    "ization": 3184,
    "5,": 3185,
    "t:": 3186,
    "law,": 3187,
    "initi@@": 3188,
    "manage": 3189,
    ".</ahelp>": 3190,
    "त@@": 3191,
    "trac@@": 3192,
    "els": 3193,
    "biggest": 3194,
    "hum@@": 3195,
    "(C@@": 3196,
    "cent": 3197,
    "Eastern": 3198,
    "ef@@": 3199,
    "flexible": 3200,
    "sing@@": 3201,
    "Great": 3202,
    "you@@": 3203,
    "ll": 3204,
    "African": 3205,
    "identi@@": 3206,
    "comfort": 3207,
    "sort": 3208,
    "p.": 3209,
    "land,": 3210,
    "St.": 3211,
    "SP@@": 3212,
    "totally": 3213,
    "ws": 3214,
    "games": 3215,
    "Is@@": 3216,
    "Por@@": 3217,
    "August": 3218,
    "screen": 3219,
    "aging": 3220,
    "corporate": 3221,
    "ck,": 3222,
    "pack@@": 3223,
    "i.": 3224,
    "Turkish": 3225,
    "Fund": 3226,
    "thinking": 3227,
    "ire": 3228,
    "registered": 3229,
    "yer": 3230,
    "positions": 3231,
    "administration": 3232,
    "Jo@@": 3233,
    "prin@@": 3234,
    "OS@@": 3235,
    "EM@@": 3236,
    "Direc@@": 3237,
    "connec@@": 3238,
    "unable": 3239,
    "ck.": 3240,
    "kes": 3241,
    "..": 3242,
    "von": 3243,
    "unto": 3244,
    "High": 3245,
    "mov@@": 3246,
    "marked": 3247,
    "cking": 3248,
    "%@@": 3249,
    "hot": 3250,
    "entitled": 3251,
    "spacious": 3252,
    "fill": 3253,
    "eding": 3254,
    "database": 3255,
    "ung@@": 3256,
    "of@@": 3257,
    "recommend": 3258,
    "origin@@": 3259,
    "termin@@": 3260,
    "vic@@": 3261,
    "ized": 3262,
    "rent": 3263,
    "inc@@": 3264,
    "TO@@": 3265,
    "(DE)": 3266,
    "ty,": 3267,
    "support.": 3268,
    "”.": 3269,
    "city.": 3270,
    "Bor@@": 3271,
    "radi@@": 3272,
    "counter@@": 3273,
    "emissions": 3274,
    "kept": 3275,
    "hotel,": 3276,
    "Guest": 3277,
    "them@@": 3278,
    "fores@@": 3279,
    "ok@@": 3280,
    "ax@@": 3281,
    "27": 3282,
    "spirit": 3283,
    "paragraph": 3284,
    "exp@@": 3285,
    "attractive": 3286,
    "permanent": 3287,
    "sensitive": 3288,
    "enormous": 3289,
    "remind": 3290,
    "middle": 3291,
    "honourable": 3292,
    "continues": 3293,
    "”,": 3294,
    "neither": 3295,
    "9,": 3296,
    "der.": 3297,
    "passed": 3298,
    "bear": 3299,
    "defence": 3300,
    "eds": 3301,
    "month": 3302,
    "Fi@@": 3303,
    "difference": 3304,
    "consider@@": 3305,
    "plat@@": 3306,
    "conf@@": 3307,
    "Ba@@": 3308,
    "worldwide": 3309,
    "Star@@": 3310,
    "%.": 3311,
    "guidelines": 3312,
    "ain@@": 3313,
    "ein@@": 3314,
    "Pol@@": 3315,
    "qual@@": 3316,
    "writ@@": 3317,
    "gan@@": 3318,
    "convinced": 3319,
    "garden": 3320,
    "acts": 3321,
    "Palestinian": 3322,
    "color": 3323,
    "8,": 3324,
    "achieving": 3325,
    "ung": 3326,
    "Unfortunately,": 3327,
    "moving": 3328,
    "Foreign": 3329,
    "1,@@": 3330,
    "elected": 3331,
    "recognition": 3332,
    "ke.": 3333,
    "Greek": 3334,
    "one-@@": 3335,
    "Ap@@": 3336,
    "items": 3337,
    "write": 3338,
    "tis@@": 3339,
    "guarantees": 3340,
    "Cam@@": 3341,
    "Are": 3342,
    "trading": 3343,
    "analy@@": 3344,
    "profession@@": 3345,
    "Business": 3346,
    "duty": 3347,
    "dist@@": 3348,
    "innovation": 3349,
    "vil@@": 3350,
    "down@@": 3351,
    "Green": 3352,
    "sectors": 3353,
    "pra@@": 3354,
    "na": 3355,
    "ligh@@": 3356,
    "justice": 3357,
    "fast@@": 3358,
    "key@@": 3359,
    "discover": 3360,
    "sec@@": 3361,
    "participate": 3362,
    "urgent": 3363,
    "elegant": 3364,
    "camera": 3365,
    "cs": 3366,
    "desire": 3367,
    "reality": 3368,
    "to,": 3369,
    "problems.": 3370,
    "approximately": 3371,
    "sions.": 3372,
    "tig@@": 3373,
    "balanced": 3374,
    "regul@@": 3375,
    "eas@@": 3376,
    "6,": 3377,
    "micro@@": 3378,
    "end,": 3379,
    "ring": 3380,
    "rightly": 3381,
    "infrastructure": 3382,
    "element": 3383,
    "exhibition": 3384,
    "paper": 3385,
    "dem@@": 3386,
    "character": 3387,
    "standing": 3388,
    "priorities": 3389,
    "winter": 3390,
    "tly": 3391,
    "session": 3392,
    "ek@@": 3393,
    "closed.": 3394,
    "tures": 3395,
    "evidence": 3396,
    "laid": 3397,
    "export": 3398,
    "aspect": 3399,
    "/0@@": 3400,
    "sources": 3401,
    "Tur@@": 3402,
    "organisation": 3403,
    "scale": 3404,
    "Er@@": 3405,
    "railway": 3406,
    "numbers": 3407,
    "ures": 3408,
    "Booking.com:": 3409,
    "tions@@": 3410,
    "surrounded": 3411,
    "cked": 3412,
    "scen@@": 3413,
    "ero@@": 3414,
    "structures": 3415,
    "process,": 3416,
    "alone": 3417,
    "inclu@@": 3418,
    "merely": 3419,
    "threat": 3420,
    "differences": 3421,
    "€@@": 3422,
    "ities.": 3423,
    "easier": 3424,
    "Bel@@": 3425,
    "Israel": 3426,
    "Debian": 3427,
    "-based": 3428,
    "seri@@": 3429,
    "anyone": 3430,
    "debate.": 3431,
    "situation.": 3432,
    "install": 3433,
    "y?": 3434,
    "W": 3435,
    "s-@@": 3436,
    "families": 3437,
    "cho@@": 3438,
    "sets": 3439,
    "break": 3440,
    "tel@@": 3441,
    "wn": 3442,
    "Research": 3443,
    "action.": 3444,
    "experts": 3445,
    "Use": 3446,
    "van": 3447,
    "Those": 3448,
    "print": 3449,
    "missi@@": 3450,
    "19": 3451,
    "Today,": 3452,
    "putting": 3453,
    "bringing": 3454,
    "Star": 3455,
    "ID@@": 3456,
    "Can": 3457,
    "contained": 3458,
    "graphic": 3459,
    "UK": 3460,
    "fron@@": 3461,
    "</emph>": 3462,
    "released": 3463,
    "medium-sized": 3464,
    "pointed": 3465,
    "availability": 3466,
    "ism,": 3467,
    "dangerous": 3468,
    "offic@@": 3469,
    "Health": 3470,
    "Nevertheless,": 3471,
    "nearly": 3472,
    "days.": 3473,
    "black": 3474,
    "Dec@@": 3475,
    "ush@@": 3476,
    "tele@@": 3477,
    "tried": 3478,
    "ou": 3479,
    "Any": 3480,
    "21": 3481,
    "constantly": 3482,
    "Te@@": 3483,
    "EL@@": 3484,
    "tation": 3485,
    "MP@@": 3486,
    "pleas@@": 3487,
    "charged": 3488,
    "qui@@": 3489,
    "statements": 3490,
    "named": 3491,
    "consists": 3492,
    "continuing": 3493,
    "shar@@": 3494,
    "organised": 3495,
    "ide": 3496,
    "win": 3497,
    "th-@@": 3498,
    "hr@@": 3499,
    "audi@@": 3500,
    "unemployment": 3501,
    "room.": 3502,
    "hu@@": 3503,
    "AG": 3504,
    "w,": 3505,
    "Both": 3506,
    "anim@@": 3507,
    "resulting": 3508,
    "but,": 3509,
    "=": 3510,
    "wood": 3511,
    "7,": 3512,
    "failed": 3513,
    "carefully": 3514,
    "human@@": 3515,
    "fair@@": 3516,
    "finance": 3517,
    "wrong": 3518,
    "mark@@": 3519,
    "graph@@": 3520,
    "use.": 3521,
    "break@@": 3522,
    "regime": 3523,
    "band": 3524,
    "ration": 3525,
    "failure": 3526,
    "relaxing": 3527,
    "Federal": 3528,
    "programs": 3529,
    "she@@": 3530,
    "leader": 3531,
    "reliable": 3532,
    "shop": 3533,
    "ute": 3534,
    "Other": 3535,
    "extra@@": 3536,
    "attrac@@": 3537,
    "Tor@@": 3538,
    "ous.": 3539,
    "languages": 3540,
    "assess@@": 3541,
    "weight": 3542,
    "extend": 3543,
    "bathroom": 3544,
    "soci@@": 3545,
    "Bal@@": 3546,
    "place,": 3547,
    "other@@": 3548,
    "l.": 3549,
    "Kar@@": 3550,
    "...\"": 3551,
    "primary": 3552,
    "asking": 3553,
    "perfectly": 3554,
    "sil@@": 3555,
    "scal@@": 3556,
    "Austrian": 3557,
    "remove": 3558,
    "older": 3559,
    "ters,": 3560,
    "leads": 3561,
    "design@@": 3562,
    "and.": 3563,
    "fund@@": 3564,
    "viol@@": 3565,
    "piece": 3566,
    "areas,": 3567,
    "Ca@@": 3568,
    "zz@@": 3569,
    "ting,": 3570,
    "sector,": 3571,
    "woo@@": 3572,
    "seeking": 3573,
    "up.": 3574,
    "deliver": 3575,
    "UR@@": 3576,
    "bel@@": 3577,
    "gen": 3578,
    "5-@@": 3579,
    "sions,": 3580,
    "pe.": 3581,
    "onto": 3582,
    "e.@@": 3583,
    "physical": 3584,
    "stock": 3585,
    "Located": 3586,
    "picture": 3587,
    "chosen": 3588,
    "s).": 3589,
    "स@@": 3590,
    "priv@@": 3591,
    "bit@@": 3592,
    "Ru@@": 3593,
    "technological": 3594,
    "tar@@": 3595,
    "n-@@": 3596,
    "difficulties": 3597,
    "translation": 3598,
    "ward": 3599,
    "brings": 3600,
    "cell@@": 3601,
    "dar@@": 3602,
    "treat@@": 3603,
    "seeing": 3604,
    "change.": 3605,
    "def@@": 3606,
    "extended": 3607,
    "flow": 3608,
    "Cap@@": 3609,
    "market@@": 3610,
    "agre@@": 3611,
    "firm": 3612,
    "fies": 3613,
    "ture,": 3614,
    "ा": 3615,
    "condition": 3616,
    "components": 3617,
    "inten@@": 3618,
    "EU,": 3619,
    "fear": 3620,
    "client": 3621,
    "host": 3622,
    "strengthening": 3623,
    "qualified": 3624,
    "camp@@": 3625,
    "flexibility": 3626,
    "brand": 3627,
    "turned": 3628,
    "improvement": 3629,
    "earlier": 3630,
    "claim": 3631,
    "opposition": 3632,
    "5%": 3633,
    "isation": 3634,
    "know@@": 3635,
    "candidate": 3636,
    "establish@@": 3637,
    "veget@@": 3638,
    "program@@": 3639,
    "exist": 3640,
    "claims": 3641,
    "Fo@@": 3642,
    "Do@@": 3643,
    "substantial": 3644,
    "\"...@@": 3645,
    "fund": 3646,
    "article": 3647,
    "Latin": 3648,
    "Mer@@": 3649,
    "Pi@@": 3650,
    "animals": 3651,
    "lit@@": 3652,
    "installed": 3653,
    "Information": 3654,
    "multiple": 3655,
    "PC@@": 3656,
    "ase": 3657,
    "्@@": 3658,
    "presid@@": 3659,
    "vision": 3660,
    "properly": 3661,
    "occup@@": 3662,
    "ble@@": 3663,
    "PC": 3664,
    "outstanding": 3665,
    "cies": 3666,
    "cast@@": 3667,
    "competi@@": 3668,
    "mer": 3669,
    "mid@@": 3670,
    "discrimination": 3671,
    "broad@@": 3672,
    "number@@": 3673,
    "istic": 3674,
    "point,": 3675,
    "acy": 3676,
    "borders": 3677,
    "ms,": 3678,
    "object": 3679,
    "terrorism": 3680,
    "someone": 3681,
    "sed,": 3682,
    "selec@@": 3683,
    "ich@@": 3684,
    "Ra@@": 3685,
    "uni@@": 3686,
    "looks": 3687,
    "order@@": 3688,
    "d:": 3689,
    "systems,": 3690,
    "Centre": 3691,
    "change,": 3692,
    "accep@@": 3693,
    "thereby": 3694,
    "seven": 3695,
    "SI@@": 3696,
    "time@@": 3697,
    "6.@@": 3698,
    "obviously": 3699,
    "expec@@": 3700,
    "Bra@@": 3701,
    "mass": 3702,
    ";@@": 3703,
    "insurance": 3704,
    "deep": 3705,
    "rapid": 3706,
    "ub@@": 3707,
    "plants": 3708,
    "multi-@@": 3709,
    "evening": 3710,
    "consul@@": 3711,
    "helpful": 3712,
    "dor@@": 3713,
    "conver@@": 3714,
    "happ@@": 3715,
    "consideration": 3716,
    "ia.": 3717,
    "€": 3718,
    "Office": 3719,
    "Despite": 3720,
    "ye@@": 3721,
    "ves@@": 3722,
    "individu@@": 3723,
    "iled": 3724,
    "ans@@": 3725,
    "ST@@": 3726,
    "euro@@": 3727,
    "votes": 3728,
    "govern@@": 3729,
    "cle": 3730,
    "summit": 3731,
    "issues.": 3732,
    "door": 3733,
    "ically": 3734,
    "morning": 3735,
    "War": 3736,
    "successfully": 3737,
    "thir@@": 3738,
    "fun@@": 3739,
    "+": 3740,
    "high@@": 3741,
    "Thanks": 3742,
    "writing": 3743,
    "er's": 3744,
    "60@@": 3745,
    "exercise": 3746,
    "abo@@": 3747,
    "Sa@@": 3748,
    "south": 3749,
    "bed@@": 3750,
    "Sal@@": 3751,
    "22": 3752,
    "primarily": 3753,
    "Board": 3754,
    "wishes": 3755,
    ":00": 3756,
    "society.": 3757,
    "economy.": 3758,
    "difficul@@": 3759,
    "ful,": 3760,
    "immigration": 3761,
    "names": 3762,
    "contemporary": 3763,
    "tin@@": 3764,
    "himself": 3765,
    "sett@@": 3766,
    "benef@@": 3767,
    ".”": 3768,
    "but@@": 3769,
    "tically": 3770,
    "fun": 3771,
    "storage": 3772,
    "southern": 3773,
    "relax": 3774,
    "possibilities": 3775,
    "yo@@": 3776,
    "bil@@": 3777,
    "authority": 3778,
    "accessible": 3779,
    "particip@@": 3780,
    "definition": 3781,
    "valu@@": 3782,
    "promotion": 3783,
    "learning": 3784,
    "ambitious": 3785,
    "è@@": 3786,
    "prefer@@": 3787,
    "alisation": 3788,
    "Paris": 3789,
    "spending": 3790,
    "Rules": 3791,
    "ord@@": 3792,
    "impossible": 3793,
    "sel@@": 3794,
    "न@@": 3795,
    "Agreement": 3796,
    "AP@@": 3797,
    "ves,": 3798,
    "sid@@": 3799,
    "format": 3800,
    "ables": 3801,
    "Grand": 3802,
    "speak@@": 3803,
    "terrace": 3804,
    "list@@": 3805,
    "granted": 3806,
    "ium": 3807,
    "AG@@": 3808,
    "eh@@": 3809,
    "luxury": 3810,
    "urge": 3811,
    "driving": 3812,
    "mit": 3813,
    "/200@@": 3814,
    "update": 3815,
    "smaller": 3816,
    "contents": 3817,
    "affect": 3818,
    "urban": 3819,
    "site.": 3820,
    "influ@@": 3821,
    "operations": 3822,
    "explain": 3823,
    "amongst": 3824,
    "advis@@": 3825,
    "lat@@": 3826,
    "gr@@": 3827,
    "eri@@": 3828,
    "dealt": 3829,
    "spread": 3830,
    "happened": 3831,
    "es)": 3832,
    "reason,": 3833,
    "ER": 3834,
    "dy@@": 3835,
    "understand@@": 3836,
    "sto@@": 3837,
    "myself": 3838,
    "ad,": 3839,
    "I,": 3840,
    "interpre@@": 3841,
    "Char@@": 3842,
    "mutual": 3843,
    "и@@": 3844,
    "du": 3845,
    "Before": 3846,
    "houses": 3847,
    "ites": 3848,
    "election": 3849,
    "ual": 3850,
    "reservation": 3851,
    "monitor": 3852,
    "wel@@": 3853,
    "OS": 3854,
    "well@@": 3855,
    "ign@@": 3856,
    "y’s": 3857,
    "plus": 3858,
    "Mat@@": 3859,
    "determined": 3860,
    "sis": 3861,
    "studies": 3862,
    "discrimin@@": 3863,
    "prepare": 3864,
    "respective": 3865,
    "Enjoy": 3866,
    "SE@@": 3867,
    "ore": 3868,
    "5.": 3869,
    "meters": 3870,
    "les,": 3871,
    "Fe@@": 3872,
    "itself.": 3873,
    "ic,": 3874,
    "aff@@": 3875,
    "by@@": 3876,
    "70": 3877,
    "crisis.": 3878,
    "concep@@": 3879,
    "iting": 3880,
    "asylum": 3881,
    "2005": 3882,
    "Very": 3883,
    "Bro@@": 3884,
    "—": 3885,
    "exclu@@": 3886,
    "ors.": 3887,
    "Min@@": 3888,
    "pon@@": 3889,
    "ga@@": 3890,
    "Also": 3891,
    "(The": 3892,
    "dynamic": 3893,
    "completed": 3894,
    "Germany.": 3895,
    "modi@@": 3896,
    "question.": 3897,
    "others.": 3898,
    "pping": 3899,
    "position.": 3900,
    "iel@@": 3901,
    "coffee": 3902,
    ",”": 3903,
    "quality,": 3904,
    "discussing": 3905,
    "week@@": 3906,
    "below.": 3907,
    "reviews.": 3908,
    "temporary": 3909,
    "resort": 3910,
    "signal": 3911,
    "reli@@": 3912,
    "ishing": 3913,
    "industry,": 3914,
    "happen": 3915,
    "construc@@": 3916,
    "elec@@": 3917,
    "relatively": 3918,
    "3.": 3919,
    "operate": 3920,
    "treated": 3921,
    "aus@@": 3922,
    "courses": 3923,
    "Management": 3924,
    "helping": 3925,
    "brow@@": 3926,
    "Ta@@": 3927,
    "Services": 3928,
    "ement.": 3929,
    "speech": 3930,
    "compliance": 3931,
    "comment": 3932,
    "alized": 3933,
    "thing.": 3934,
    "sale": 3935,
    "post": 3936,
    "Cent@@": 3937,
    "equ@@": 3938,
    "Ju@@": 3939,
    "Vo@@": 3940,
    "arri@@": 3941,
    "crisis,": 3942,
    "att@@": 3943,
    "Data": 3944,
    "mel@@": 3945,
    "button": 3946,
    "diversity": 3947,
    "Ben@@": 3948,
    "о@@": 3949,
    "gets": 3950,
    "conclusion": 3951,
    "Ireland": 3952,
    "Ser@@": 3953,
    "willing": 3954,
    "except": 3955,
    "buildings": 3956,
    "special@@": 3957,
    "ery": 3958,
    "bodies": 3959,
    "lif@@": 3960,
    "condition@@": 3961,
    "competitiveness": 3962,
    "tourism": 3963,
    "ans.": 3964,
    "thro@@": 3965,
    "pati@@": 3966,
    "quality.": 3967,
    "be.": 3968,
    "е@@": 3969,
    "ack": 3970,
    "ations@@": 3971,
    "thre@@": 3972,
    "stand@@": 3973,
    "Trade": 3974,
    "Col@@": 3975,
    "temp@@": 3976,
    "2-@@": 3977,
    "ended": 3978,
    "moved": 3979,
    "thing,": 3980,
    "adequate": 3981,
    "Au@@": 3982,
    "reception": 3983,
    "entered": 3984,
    "consistent": 3985,
    "с@@": 3986,
    "booking": 3987,
    "ar.": 3988,
    "era": 3989,
    "wers": 3990,
    "needs.": 3991,
    "ship,": 3992,
    "2009.": 3993,
    "valuable": 3994,
    "mountain@@": 3995,
    "architec@@": 3996,
    "service,": 3997,
    "manufacturing": 3998,
    "else": 3999,
    "part@@": 4000,
    "lose": 4001,
    "furnished": 4002,
    "attack": 4003,
    "Yet": 4004,
    "):": 4005,
    "ked": 4006,
    "won": 4007,
    "practic@@": 4008,
    "membership": 4009,
    "transpor@@": 4010,
    "Sea": 4011,
    "title": 4012,
    "ight": 4013,
    "more,": 4014,
    "-B@@": 4015,
    "vor@@": 4016,
    "proposal.": 4017,
    "Off@@": 4018,
    "80@@": 4019,
    "London": 4020,
    "ters.": 4021,
    "satellite": 4022,
    "serves": 4023,
    "mess@@": 4024,
    "stone": 4025,
    "Microsoft": 4026,
    "Ko@@": 4027,
    "</@@": 4028,
    "presidency": 4029,
    "page.": 4030,
    "appropri@@": 4031,
    "Wal@@": 4032,
    "offer@@": 4033,
    "23": 4034,
    "slo@@": 4035,
    "stu@@": 4036,
    "models": 4037,
    "e's": 4038,
    "THE": 4039,
    "Open": 4040,
    "oral": 4041,
    "agriculture": 4042,
    "pictures": 4043,
    "helps": 4044,
    "campaign": 4045,
    "kinds": 4046,
    "hands": 4047,
    "secon@@": 4048,
    "''": 4049,
    "Justice": 4050,
    "ker@@": 4051,
    "tari@@": 4052,
    "surface": 4053,
    "trip": 4054,
    "beauty": 4055,
    "quar@@": 4056,
    "ahead": 4057,
    "felt": 4058,
    "up,": 4059,
    "meetings": 4060,
    "i.e.": 4061,
    "x.": 4062,
    "guide": 4063,
    "causes": 4064,
    "ils": 4065,
    "ession": 4066,
    "finding": 4067,
    "nearby": 4068,
    "tomorrow": 4069,
    "ff": 4070,
    "195@@": 4071,
    "fire": 4072,
    "Two": 4073,
    "Pa@@": 4074,
    "planned": 4075,
    "outcome": 4076,
    "real@@": 4077,
    "investig@@": 4078,
    "advertising": 4079,
    "Em@@": 4080,
    "ined": 4081,
    "bet@@": 4082,
    "tests": 4083,
    "days,": 4084,
    "binding": 4085,
    "ships": 4086,
    "crime": 4087,
    "sing": 4088,
    "previously": 4089,
    "life,": 4090,
    "ples": 4091,
    "orders": 4092,
    "conc@@": 4093,
    "Regulation": 4094,
    "ism.": 4095,
    "IS": 4096,
    "ion@@": 4097,
    "figures": 4098,
    "conditions.": 4099,
    "highlight": 4100,
    "copy": 4101,
    "ja": 4102,
    "emer@@": 4103,
    "be,": 4104,
    "acting": 4105,
    "faced": 4106,
    "2004": 4107,
    "enterprises": 4108,
    "agreement.": 4109,
    "conclusions": 4110,
    "las@@": 4111,
    "hour": 4112,
    "cards": 4113,
    "buil@@": 4114,
    "memory": 4115,
    "coordin@@": 4116,
    "system@@": 4117,
    "mag@@": 4118,
    "follow@@": 4119,
    "celeb@@": 4120,
    "aliz@@": 4121,
    "matter.": 4122,
    "largely": 4123,
    "cer@@": 4124,
    "It's": 4125,
    "producing": 4126,
    "delivered": 4127,
    "ino": 4128,
    "reflect": 4129,
    "aro@@": 4130,
    "seriously": 4131,
    "however": 4132,
    "recognise": 4133,
    "ground@@": 4134,
    "rac@@": 4135,
    "Lake": 4136,
    "grounds": 4137,
    "renewable": 4138,
    "square": 4139,
    "less@@": 4140,
    "Take": 4141,
    "involving": 4142,
    "emphasis": 4143,
    "define": 4144,
    "Wi@@": 4145,
    "tion:": 4146,
    "river": 4147,
    "ps,": 4148,
    "cross-border": 4149,
    "compatible": 4150,
    "ai@@": 4151,
    "motor@@": 4152,
    "covers": 4153,
    "packages": 4154,
    "drawing": 4155,
    "EU@@": 4156,
    "commit@@": 4157,
    "व@@": 4158,
    "responsi@@": 4159,
    "machines": 4160,
    "Private": 4161,
    "window": 4162,
    "important.": 4163,
    "solve": 4164,
    "environment,": 4165,
    "city,": 4166,
    "DI@@": 4167,
    "liability": 4168,
    "determine": 4169,
    "filled": 4170,
    "ms.": 4171,
    "capac@@": 4172,
    "there@@": 4173,
    "maintenance": 4174,
    "Today": 4175,
    "e;": 4176,
    "vehicles": 4177,
    "ier": 4178,
    "cau@@": 4179,
    "bility": 4180,
    "emp@@": 4181,
    "comply": 4182,
    "ats": 4183,
    "platform": 4184,
    "separ@@": 4185,
    "2010.": 4186,
    "controlled": 4187,
    "represented": 4188,
    "meaning": 4189,
    "engine": 4190,
    "ail@@": 4191,
    "gone": 4192,
    "Le": 4193,
    "flight": 4194,
    "ine.": 4195,
    "tle": 4196,
    "yl@@": 4197,
    "ony": 4198,
    "inn@@": 4199,
    "emphasise": 4200,
    "Association": 4201,
    "ture@@": 4202,
    "vin@@": 4203,
    "device": 4204,
    "all-@@": 4205,
    "Airport": 4206,
    "practices": 4207,
    "f,": 4208,
    "ey": 4209,
    "asi@@": 4210,
    "Mac@@": 4211,
    "to.": 4212,
    "do,": 4213,
    "away.": 4214,
    "west": 4215,
    "well,": 4216,
    "television": 4217,
    "launched": 4218,
    "Pres@@": 4219,
    "whe@@": 4220,
    "point.": 4221,
    "expression": 4222,
    "attack@@": 4223,
    "194@@": 4224,
    "Liber@@": 4225,
    "„@@": 4226,
    "transparent": 4227,
    "world’s": 4228,
    "runs": 4229,
    "con": 4230,
    "calcul@@": 4231,
    "Breakfast": 4232,
    "citizens,": 4233,
    "ability.": 4234,
    "ert": 4235,
    "coast@@": 4236,
    "constant": 4237,
    "ET@@": 4238,
    "touch": 4239,
    "til@@": 4240,
    "fuel": 4241,
    "rising": 4242,
    "domin@@": 4243,
    "Dutch": 4244,
    "cru@@": 4245,
    "existence": 4246,
    "cases,": 4247,
    "ads": 4248,
    "tradition": 4249,
    "factor": 4250,
    "photograph@@": 4251,
    "result,": 4252,
    "del@@": 4253,
    "debate,": 4254,
    "San@@": 4255,
    "advance": 4256,
    "tively": 4257,
    "net@@": 4258,
    "ह@@": 4259,
    "olog@@": 4260,
    "north": 4261,
    "combating": 4262,
    "vehicle": 4263,
    "consumption": 4264,
    "France,": 4265,
    "obvious": 4266,
    "wo@@": 4267,
    "representative": 4268,
    "diseas@@": 4269,
    "tasks": 4270,
    "You@@": 4271,
    "ening": 4272,
    "reaching": 4273,
    "matic": 4274,
    "protecting": 4275,
    "eight": 4276,
    "helped": 4277,
    "ved.": 4278,
    "communic@@": 4279,
    "appreciate": 4280,
    "Barcelona": 4281,
    "whilst": 4282,
    "institutions.": 4283,
    "apart@@": 4284,
    "Bi@@": 4285,
    "will,": 4286,
    "automatic": 4287,
    "resolve": 4288,
    "quick": 4289,
    "Austria": 4290,
    "producers": 4291,
    "sn@@": 4292,
    "7.@@": 4293,
    "recommendations": 4294,
    "important,": 4295,
    "circumstances": 4296,
    "convenient": 4297,
    "mach@@": 4298,
    "edge": 4299,
    "una": 4300,
    "evaluation": 4301,
    "ada": 4302,
    "Rule": 4303,
    "payments": 4304,
    "appe@@": 4305,
    "ang": 4306,
    "Member@@": 4307,
    "whatever": 4308,
    ".00": 4309,
    "ye": 4310,
    "prove": 4311,
    "Where": 4312,
    "Best": 4313,
    "jud@@": 4314,
    "vit@@": 4315,
    "liter@@": 4316,
    "Last": 4317,
    "applic@@": 4318,
    "Europeans": 4319,
    "specific@@": 4320,
    "controls": 4321,
    "world's": 4322,
    "reg@@": 4323,
    "fying": 4324,
    "EC": 4325,
    "s/@@": 4326,
    "dependent": 4327,
    "tou@@": 4328,
    "rin@@": 4329,
    "district": 4330,
    "Da@@": 4331,
    "interface": 4332,
    "centre.": 4333,
    "Bas@@": 4334,
    "RA@@": 4335,
    "es’": 4336,
    "cam@@": 4337,
    "exclusively": 4338,
    "Their": 4339,
    "प@@": 4340,
    "pe,": 4341,
    "ler": 4342,
    "holding": 4343,
    "LA@@": 4344,
    "Villa": 4345,
    "IL@@": 4346,
    "tl@@": 4347,
    "significantly": 4348,
    "opposed": 4349,
    "Iraq": 4350,
    "issue,": 4351,
    "90": 4352,
    "sens@@": 4353,
    "glass": 4354,
    "page,": 4355,
    "website.": 4356,
    "tradition@@": 4357,
    "millions": 4358,
    "position,": 4359,
    "wind": 4360,
    "if@@": 4361,
    "fighting": 4362,
    "advantages": 4363,
    "Sol@@": 4364,
    "testing": 4365,
    "remaining": 4366,
    "networks": 4367,
    "disc@@": 4368,
    "limits": 4369,
    "advice": 4370,
    "Welcome": 4371,
    "ach": 4372,
    "conduc@@": 4373,
    "refer@@": 4374,
    "categor@@": 4375,
    "str@@": 4376,
    "ice,": 4377,
    "gran@@": 4378,
    "Tim@@": 4379,
    "commitments": 4380,
    "exist@@": 4381,
    "\\\"": 4382,
    "S.": 4383,
    "ñ@@": 4384,
    "s\"": 4385,
    "House,": 4386,
    "letter": 4387,
    "wait": 4388,
    "spec@@": 4389,
    "conduct": 4390,
    "Chi@@": 4391,
    "seas@@": 4392,
    "do.": 4393,
    "outdoor": 4394,
    "rail": 4395,
    "Greece": 4396,
    "increas@@": 4397,
    "default": 4398,
    "Home": 4399,
    "\\\"@@": 4400,
    "though,": 4401,
    "registration": 4402,
    "mean@@": 4403,
    "nation": 4404,
    "dre@@": 4405,
    "abl@@": 4406,
    "creates": 4407,
    "System": 4408,
    "economies": 4409,
    "store": 4410,
    "skills": 4411,
    "factors": 4412,
    "audio": 4413,
    "Software": 4414,
    "Ham@@": 4415,
    "sexual": 4416,
    "ologi@@": 4417,
    "e\"": 4418,
    "centre,": 4419,
    "mass@@": 4420,
    "leaving": 4421,
    "figure": 4422,
    "charming": 4423,
    "cars": 4424,
    "association": 4425,
    "reform@@": 4426,
    "heavy": 4427,
    "Sun@@": 4428,
    "feeling": 4429,
    "experim@@": 4430,
    "Financial": 4431,
    "your@@": 4432,
    "origin": 4433,
    "prohib@@": 4434,
    "cast": 4435,
    "two-@@": 4436,
    "zone": 4437,
    "golf": 4438,
    "zed": 4439,
    "Over": 4440,
    "spor@@": 4441,
    "telephone": 4442,
    "massive": 4443,
    "dig@@": 4444,
    "assist": 4445,
    "sides": 4446,
    "reserv@@": 4447,
    "assure": 4448,
    "survi@@": 4449,
    "los": 4450,
    "adv@@": 4451,
    "activities.": 4452,
    "pass@@": 4453,
    "budget.": 4454,
    "individuals": 4455,
    "end.": 4456,
    "regret": 4457,
    "Sub@@": 4458,
    "ack@@": 4459,
    "Swedish": 4460,
    "appro@@": 4461,
    "Bre@@": 4462,
    "intention": 4463,
    "TH@@": 4464,
    "pic@@": 4465,
    "4-@@": 4466,
    "court": 4467,
    "WTO": 4468,
    "rati@@": 4469,
    "2009,": 4470,
    "creative": 4471,
    "interven@@": 4472,
    "proved": 4473,
    "ago.": 4474,
    "rooms.": 4475,
    "A,": 4476,
    "test@@": 4477,
    "ented": 4478,
    "ep": 4479,
    "26": 4480,
    "stud@@": 4481,
    ",\"": 4482,
    "kitchen": 4483,
    "Sta@@": 4484,
    "ths": 4485,
    "Linux": 4486,
    "route": 4487,
    "perform": 4488,
    "etc@@": 4489,
    "eg@@": 4490,
    "sun": 4491,
    "addressed": 4492,
    "Acc@@": 4493,
    "(FR)": 4494,
    "replace": 4495,
    "]],": 4496,
    "extension": 4497,
    "regulatory": 4498,
    "fro@@": 4499,
    "flu@@": 4500,
    "Amsterdam": 4501,
    "markets.": 4502,
    "command": 4503,
    "Museum": 4504,
    "observ@@": 4505,
    "fail@@": 4506,
    "Mag@@": 4507,
    "dge": 4508,
    "weapons": 4509,
    "1-@@": 4510,
    "talks": 4511,
    "ral": 4512,
    "life@@": 4513,
    "improv@@": 4514,
    "conclu@@": 4515,
    "28": 4516,
    "sup@@": 4517,
    "some@@": 4518,
    "mem@@": 4519,
    "l,": 4520,
    "Mc@@": 4521,
    "fit": 4522,
    "Govern@@": 4523,
    "Prin@@": 4524,
    "way@@": 4525,
    "view.": 4526,
    "tives": 4527,
    "region,": 4528,
    "collective": 4529,
    "Tro@@": 4530,
    "CD": 4531,
    "das": 4532,
    "arms": 4533,
    "appeal": 4534,
    "purposes": 4535,
    "saf@@": 4536,
    "invest@@": 4537,
    "Christian": 4538,
    "depends": 4539,
    "constructive": 4540,
    "church": 4541,
    "a)": 4542,
    "minim@@": 4543,
    "2003": 4544,
    "visible": 4545,
    "sold": 4546,
    "institutions,": 4547,
    "Res@@": 4548,
    "Ladies": 4549,
    "Monetary": 4550,
    "ought": 4551,
    "post-@@": 4552,
    "beaches": 4553,
    "mas@@": 4554,
    "restric@@": 4555,
    "friend@@": 4556,
    "amounts": 4557,
    "Under": 4558,
    "28@@": 4559,
    "content,": 4560,
    "Gen@@": 4561,
    "register": 4562,
    "arm@@": 4563,
    "tage": 4564,
    "challen@@": 4565,
    "intervention": 4566,
    "tab@@": 4567,
    "C.": 4568,
    "curren@@": 4569,
    "van@@": 4570,
    "ick@@": 4571,
    "bs": 4572,
    "union": 4573,
    "mechanism": 4574,
    "exceptional": 4575,
    "depending": 4576,
    "story": 4577,
    "buffet": 4578,
    "accommod@@": 4579,
    "prepar@@": 4580,
    "Photo@@": 4581,
    "equality": 4582,
    "effec@@": 4583,
    "CH@@": 4584,
    "Japan": 4585,
    "provi@@": 4586,
    "facilitate": 4587,
    "MO@@": 4588,
    "unit": 4589,
    "Club": 4590,
    "group,": 4591,
    "appl@@": 4592,
    "examples": 4593,
    "background": 4594,
    "open@@": 4595,
    "discovered": 4596,
    "Fri@@": 4597,
    "others,": 4598,
    "demonstra@@": 4599,
    "requested": 4600,
    "arch@@": 4601,
    "presentation": 4602,
    "Pe@@": 4603,
    "John": 4604,
    "Center": 4605,
    "ä@@": 4606,
    "El": 4607,
    "steel": 4608,
    "children.": 4609,
    "sell": 4610,
    "mail": 4611,
    "dep@@": 4612,
    "proposal,": 4613,
    "agu@@": 4614,
    "science": 4615,
    "season": 4616,
    "vast": 4617,
    "ump@@": 4618,
    "ement,": 4619,
    "launch": 4620,
    "spaces": 4621,
    "organization": 4622,
    "TR@@": 4623,
    "4.": 4624,
    "ries": 4625,
    "ously,": 4626,
    "Minutes": 4627,
    "row": 4628,
    "fur@@": 4629,
    "resid@@": 4630,
    "projec@@": 4631,
    "opposite": 4632,
    "iss@@": 4633,
    "identify": 4634,
    "s.@@": 4635,
    "India": 4636,
    "rich@@": 4637,
    "lets": 4638,
    "Whether": 4639,
    "ON": 4640,
    "Ph@@": 4641,
    "intend": 4642,
    "Dra@@": 4643,
    "main@@": 4644,
    "ulation": 4645,
    "programme.": 4646,
    "dated": 4647,
    "smo@@": 4648,
    "participants": 4649,
    "il,": 4650,
    "Roman@@": 4651,
    "35": 4652,
    "involve": 4653,
    "Get": 4654,
    "accoun@@": 4655,
    "z,": 4656,
    "ons,": 4657,
    "olo@@": 4658,
    "suit@@": 4659,
    "agency": 4660,
    "partner@@": 4661,
    "mobil@@": 4662,
    "Select": 4663,
    "tory": 4664,
    "defend": 4665,
    "healthy": 4666,
    "glad": 4667,
    "equally": 4668,
    "hundreds": 4669,
    "ignor@@": 4670,
    "ced": 4671,
    "illustra@@": 4672,
    "w.": 4673,
    "hel@@": 4674,
    "Japanese": 4675,
    "long-@@": 4676,
    "knows": 4677,
    "import@@": 4678,
    "Medi@@": 4679,
    "train@@": 4680,
    "cle@@": 4681,
    "holds": 4682,
    "item@@": 4683,
    "insul@@": 4684,
    "Commission@@": 4685,
    "devices": 4686,
    "covering": 4687,
    "obligation": 4688,
    "bly": 4689,
    "Book": 4690,
    "bott@@": 4691,
    "aircraft": 4692,
    "sting": 4693,
    "joined": 4694,
    "(B@@": 4695,
    "consensus": 4696,
    "together.": 4697,
    "recovery": 4698,
    "poss@@": 4699,
    "cooper@@": 4700,
    "technology.": 4701,
    "Kingdom": 4702,
    "servic@@": 4703,
    "length": 4704,
    "because,": 4705,
    "ल@@": 4706,
    "elimin@@": 4707,
    "faces": 4708,
    "en-@@": 4709,
    "(and": 4710,
    "IP@@": 4711,
    "suite": 4712,
    "Brussels": 4713,
    "ting.": 4714,
    "cheap": 4715,
    "belie@@": 4716,
    "politics": 4717,
    "recognised": 4718,
    "detail": 4719,
    "ong": 4720,
    "focused": 4721,
    "databas@@": 4722,
    "confirmed": 4723,
    "90@@": 4724,
    "ethnic": 4725,
    "Cour@@": 4726,
    "obtained": 4727,
    "Vi@@": 4728,
    "divided": 4729,
    "century.": 4730,
    "attacks": 4731,
    "absolute": 4732,
    "mm": 4733,
    "lied": 4734,
    "form.": 4735,
    "document@@": 4736,
    "Europe’s": 4737,
    "Dr.": 4738,
    "sts": 4739,
    "hat@@": 4740,
    "economy,": 4741,
    "confer@@": 4742,
    "today's": 4743,
    "part,": 4744,
    "view@@": 4745,
    "les.": 4746,
    "distribu@@": 4747,
    "tra": 4748,
    "case.": 4749,
    "mostly": 4750,
    "releas@@": 4751,
    "stron@@": 4752,
    "physi@@": 4753,
    "ist,": 4754,
    "York": 4755,
    "val": 4756,
    "/9@@": 4757,
    "ages.": 4758,
    "Mi@@": 4759,
    "thes@@": 4760,
    "couple": 4761,
    "accompanied": 4762,
    "confirm": 4763,
    "Open@@": 4764,
    "category": 4765,
    "attitude": 4766,
    "appeared": 4767,
    "ks.": 4768,
    "eing": 4769,
    "spa": 4770,
    "obligations": 4771,
    "clean@@": 4772,
    "care@@": 4773,
    "A.": 4774,
    "7.": 4775,
    "issued": 4776,
    "watch": 4777,
    "thin@@": 4778,
    "ry@@": 4779,
    "realis@@": 4780,
    "preser@@": 4781,
    "IP": 4782,
    "cy,": 4783,
    "consultation": 4784,
    "rep@@": 4785,
    "OL@@": 4786,
    "ust": 4787,
    "agencies": 4788,
    "decor@@": 4789,
    "”@@": 4790,
    "ids": 4791,
    "prevention": 4792,
    "recommended": 4793,
    "pose": 4794,
    "pleasure": 4795,
    "one@@": 4796,
    "targets": 4797,
    "IN": 4798,
    "ential": 4799,
    "а@@": 4800,
    "race": 4801,
    "involvement": 4802,
    "Vis@@": 4803,
    "weigh@@": 4804,
    "group@@": 4805,
    "containing": 4806,
    "9.@@": 4807,
    "tors,": 4808,
    "organized": 4809,
    "impressive": 4810,
    "world@@": 4811,
    "situation,": 4812,
    "shape": 4813,
    "formul@@": 4814,
    "devic@@": 4815,
    "carbon": 4816,
    "ick": 4817,
    "sty@@": 4818,
    "cost@@": 4819,
    "je": 4820,
    "ric": 4821,
    "northern": 4822,
    "imag@@": 4823,
    "present@@": 4824,
    "p,": 4825,
    "Old": 4826,
    "VI@@": 4827,
    "naturally": 4828,
    "dates": 4829,
    "Costa": 4830,
    "eastern": 4831,
    "ums": 4832,
    "dining": 4833,
    "right.": 4834,
    "Ha@@": 4835,
    "submit": 4836,
    "hotel@@": 4837,
    "legislation.": 4838,
    "Fer@@": 4839,
    "opportun@@": 4840,
    "House.": 4841,
    "repres@@": 4842,
    "error": 4843,
    "volume": 4844,
    "improvements": 4845,
    "unacceptable": 4846,
    "j": 4847,
    "caf@@": 4848,
    "proof": 4849,
    "independence": 4850,
    "Roman": 4851,
    "Don@@": 4852,
    "(P@@": 4853,
    "6.": 4854,
    "territory": 4855,
    "sla@@": 4856,
    "situ@@": 4857,
    "ress": 4858,
    "output": 4859,
    "soft": 4860,
    "judicial": 4861,
    "handling": 4862,
    "versions": 4863,
    "coast": 4864,
    "wan@@": 4865,
    "loo@@": 4866,
    "club": 4867,
    "ers'": 4868,
    "western": 4869,
    "manner": 4870,
    "hit": 4871,
    "repe@@": 4872,
    "extreme": 4873,
    "expensive": 4874,
    "29": 4875,
    "prev@@": 4876,
    "endor@@": 4877,
    "block": 4878,
    "an-@@": 4879,
    "treat": 4880,
    "recei@@": 4881,
    "data.": 4882,
    "plays": 4883,
    "f.": 4884,
    "@@@": 4885,
    "ner,": 4886,
    "institution": 4887,
    "requirements.": 4888,
    "approval": 4889,
    "t?": 4890,
    "cuisine": 4891,
    "right,": 4892,
    "Cur@@": 4893,
    "holidays": 4894,
    "problem,": 4895,
    "ol,": 4896,
    "hood": 4897,
    "Out@@": 4898,
    "cooperation.": 4899,
    "other.": 4900,
    "line.": 4901,
    "agreement,": 4902,
    "Net@@": 4903,
    "–@@": 4904,
    "invite": 4905,
    "terrorist": 4906,
    "shops": 4907,
    "showing": 4908,
    "architecture": 4909,
    "CD@@": 4910,
    "2008.": 4911,
    "ently,": 4912,
    "burden": 4913,
    "Given": 4914,
    "low-@@": 4915,
    "ards": 4916,
    "Del@@": 4917,
    "sound@@": 4918,
    "suffering": 4919,
    "rout@@": 4920,
    "hin@@": 4921,
    "70@@": 4922,
    "increases": 4923,
    "rely": 4924,
    "foot": 4925,
    "ability,": 4926,
    "vote.": 4927,
    "Sil@@": 4928,
    "incid@@": 4929,
    "applicable": 4930,
    "maintaining": 4931,
    "conclude": 4932,
    "companies.": 4933,
    "EU-@@": 4934,
    "rating": 4935,
    "operational": 4936,
    "alo@@": 4937,
    "Polish": 4938,
    "%,": 4939,
    "phase": 4940,
    "(or": 4941,
    "ue": 4942,
    "temperature": 4943,
    "returned": 4944,
    "delighted": 4945,
    "But,": 4946,
    "expenditure": 4947,
    "Ter@@": 4948,
    "proud": 4949,
    "ass": 4950,
    "somewhat": 4951,
    "meant": 4952,
    "swe@@": 4953,
    "acceptable": 4954,
    "oul@@": 4955,
    "line,": 4956,
    "ation:": 4957,
    "China,": 4958,
    "y)": 4959,
    "guaranteed": 4960,
    "delegation": 4961,
    "wealth": 4962,
    "Iran": 4963,
    "appear@@": 4964,
    "promo@@": 4965,
    "mechanisms": 4966,
    "corresponding": 4967,
    "arrival": 4968,
    "000@@": 4969,
    "used.": 4970,
    "bom@@": 4971,
    "š@@": 4972,
    "-up": 4973,
    "suff@@": 4974,
    "newly": 4975,
    "confron@@": 4976,
    "Sou@@": 4977,
    "tool@@": 4978,
    "ene": 4979,
    "standards.": 4980,
    "Institute": 4981,
    "compromis@@": 4982,
    "ame": 4983,
    "ice.": 4984,
    "danger": 4985,
    "fix@@": 4986,
    "c,": 4987,
    "Google": 4988,
    "Soviet": 4989,
    "Safety": 4990,
    "ref@@": 4991,
    "les@@": 4992,
    "\"The": 4993,
    "ball": 4994,
    "IG@@": 4995,
    "tic,": 4996,
    "purchas@@": 4997,
    "presents": 4998,
    "ages,": 4999,
    "eth@@": 5000,
    "pr@@": 5001,
    "poin@@": 5002,
    "forest": 5003,
    "My@@": 5004,
    "White": 5005,
    "PR@@": 5006,
    "DA@@": 5007,
    "evalu@@": 5008,
    "cook@@": 5009,
    "ands": 5010,
    "carri@@": 5011,
    "Hor@@": 5012,
    "fantastic": 5013,
    "conducted": 5014,
    "´s": 5015,
    "countri@@": 5016,
    "co,": 5017,
    "technology,": 5018,
    "tac@@": 5019,
    "objects": 5020,
    "imm@@": 5021,
    "fri@@": 5022,
    "demanding": 5023,
    "lots": 5024,
    "king,": 5025,
    "chemical": 5026,
    "artists": 5027,
    "(A@@": 5028,
    "species": 5029,
    "relax@@": 5030,
    "involves": 5031,
    "AB@@": 5032,
    "location,": 5033,
    "compensation": 5034,
    "hard@@": 5035,
    "oll@@": 5036,
    "vers@@": 5037,
    "performed": 5038,
    "ish,": 5039,
    "exerc@@": 5040,
    "ini": 5041,
    "ticul@@": 5042,
    "children,": 5043,
    "1999": 5044,
    "resources.": 5045,
    "leadership": 5046,
    "bilateral": 5047,
    "TE@@": 5048,
    "competence": 5049,
    "ion.": 5050,
    "leisure": 5051,
    "displayed": 5052,
    "photos": 5053,
    "»": 5054,
    "mental": 5055,
    "intellectual": 5056,
    "fir@@": 5057,
    "accounts": 5058,
    "BI@@": 5059,
    "terra@@": 5060,
    "tain": 5061,
    "contra@@": 5062,
    "aged": 5063,
    "wis@@": 5064,
    "spir@@": 5065,
    "gle@@": 5066,
    "deliver@@": 5067,
    "public.": 5068,
    "grateful": 5069,
    "compar@@": 5070,
    "strength": 5071,
    "polic@@": 5072,
    "actively": 5073,
    "Energy": 5074,
    "De": 5075,
    "Arab": 5076,
    "thers": 5077,
    "histor@@": 5078,
    "targe@@": 5079,
    "project.": 5080,
    "infec@@": 5081,
    "Tre@@": 5082,
    "squ@@": 5083,
    "assist@@": 5084,
    "correspon@@": 5085,
    "Amendments": 5086,
    "latter": 5087,
    "ering": 5088,
    "concerned.": 5089,
    "basis.": 5090,
    "universal": 5091,
    "prec@@": 5092,
    "clari@@": 5093,
    "bing": 5094,
    "exten@@": 5095,
    "investments": 5096,
    "experience.": 5097,
    "exam@@": 5098,
    "change@@": 5099,
    "radio": 5100,
    "res,": 5101,
    "ö@@": 5102,
    "wall": 5103,
    "expres@@": 5104,
    "classic": 5105,
    "arly": 5106,
    "profit": 5107,
    "ned": 5108,
    "deals": 5109,
    "31": 5110,
    "sourc@@": 5111,
    "projects.": 5112,
    "times.": 5113,
    "meet@@": 5114,
    "atten@@": 5115,
    "signs": 5116,
    "impression": 5117,
    "discus@@": 5118,
    "row@@": 5119,
    "ful.": 5120,
    "visited": 5121,
    "ker": 5122,
    "security.": 5123,
    "ordin@@": 5124,
    "definitely": 5125,
    "question@@": 5126,
    "books": 5127,
    "declared": 5128,
    "rem@@": 5129,
    "deleg@@": 5130,
    "demonstrate": 5131,
    "effici@@": 5132,
    "Cha@@": 5133,
    "3-@@": 5134,
    "ena": 5135,
    "chair@@": 5136,
    "fruit": 5137,
    "fied.": 5138,
    "voc@@": 5139,
    "pos@@": 5140,
    "policies.": 5141,
    "order.": 5142,
    "atives": 5143,
    "raw": 5144,
    "functioning": 5145,
    "security,": 5146,
    "mann": 5147,
    "widely": 5148,
    "not.": 5149,
    "speakers": 5150,
    "install@@": 5151,
    "Asia": 5152,
    "#@@": 5153,
    "yed": 5154,
    "culture.": 5155,
    "transfer@@": 5156,
    "frequently": 5157,
    "Mu@@": 5158,
    "Je@@": 5159,
    "loy@@": 5160,
    "business.": 5161,
    "Air": 5162,
    "requests": 5163,
    "partly": 5164,
    "ley": 5165,
    "customs": 5166,
    "represent@@": 5167,
    "reject": 5168,
    "measures.": 5169,
    "patients": 5170,
    "bound": 5171,
    "Ara@@": 5172,
    "precise": 5173,
    "forc@@": 5174,
    "familiar": 5175,
    "45": 5176,
    "26@@": 5177,
    "ware": 5178,
    "ination": 5179,
    "deci@@": 5180,
    "aspec@@": 5181,
    "tal": 5182,
    "member@@": 5183,
    "Following": 5184,
    "Special": 5185,
    "IR@@": 5186,
    "“": 5187,
    "ks,": 5188,
    "ences,": 5189,
    "ham@@": 5190,
    "fail": 5191,
    "drop": 5192,
    "model@@": 5193,
    "grow@@": 5194,
    "directive.": 5195,
    "Art": 5196,
    "use@@": 5197,
    "strict": 5198,
    "expertise": 5199,
    "Agency": 5200,
    "tors.": 5201,
    "ancy": 5202,
    "Policy": 5203,
    "vers": 5204,
    "ular": 5205,
    "remote": 5206,
    "found@@": 5207,
    "associ@@": 5208,
    "gas@@": 5209,
    "floo@@": 5210,
    "companies,": 5211,
    "say@@": 5212,
    "Comp@@": 5213,
    "vehic@@": 5214,
    "nit@@": 5215,
    "le-@@": 5216,
    "400": 5217,
    "man,": 5218,
    "function@@": 5219,
    "Perhaps": 5220,
    "cip@@": 5221,
    "regularly": 5222,
    "pur@@": 5223,
    "Democra@@": 5224,
    "landscape": 5225,
    "1/@@": 5226,
    "ves.": 5227,
    "plenty": 5228,
    "TV,": 5229,
    "y;": 5230,
    "necessary.": 5231,
    "ongoing": 5232,
    "ic.": 5233,
    "IF@@": 5234,
    "Within": 5235,
    "possibly": 5236,
    "ion,": 5237,
    "awar@@": 5238,
    "load": 5239,
    "prefer": 5240,
    "imposed": 5241,
    "grant": 5242,
    "dating": 5243,
    "starts": 5244,
    "sending": 5245,
    "competent": 5246,
    "visiting": 5247,
    "sensi@@": 5248,
    "protection.": 5249,
    "died": 5250,
    "personally": 5251,
    "ved,": 5252,
    "educational": 5253,
    "bour@@": 5254,
    "gol@@": 5255,
    "century,": 5256,
    "burg": 5257,
    "rail@@": 5258,
    "times,": 5259,
    "question,": 5260,
    "ga": 5261,
    "awarded": 5262,
    "Charter": 5263,
    "nations": 5264,
    "Si@@": 5265,
    "side.": 5266,
    "unfortunately": 5267,
    "ill": 5268,
    "constitutional": 5269,
    "Israeli": 5270,
    "problems,": 5271,
    "ours": 5272,
    "reserve": 5273,
    "oblig@@": 5274,
    "8.@@": 5275,
    "cab@@": 5276,
    "193@@": 5277,
    "serv@@": 5278,
    "Tr@@": 5279,
    "ress@@": 5280,
    "regarded": 5281,
    "ol.": 5282,
    "engine@@": 5283,
    "capit@@": 5284,
    "boat": 5285,
    "So,": 5286,
    "made.": 5287,
    "As@@": 5288,
    "=@@": 5289,
    "une": 5290,
    "appointed": 5291,
    "publ@@": 5292,
    "ital@@": 5293,
    "decorated": 5294,
    "Wh@@": 5295,
    "UK@@": 5296,
    "formed": 5297,
    "tackle": 5298,
    "2008,": 5299,
    "lear@@": 5300,
    "Tour@@": 5301,
    "Structural": 5302,
    "DVD": 5303,
    "explore": 5304,
    "ss": 5305,
    "lau@@": 5306,
    "27@@": 5307,
    "machin@@": 5308,
    "fabri@@": 5309,
    "д@@": 5310,
    "assume": 5311,
    "sole": 5312,
    "serving": 5313,
    "sequ@@": 5314,
    "colour@@": 5315,
    "U.S.": 5316,
    "success.": 5317,
    "din@@": 5318,
    "d?": 5319,
    "adopting": 5320,
    "Kur@@": 5321,
    "preparation": 5322,
    "Without": 5323,
    "See": 5324,
    "Americ@@": 5325,
    "blue": 5326,
    "issues,": 5327,
    "demonstrated": 5328,
    "winning": 5329,
    "support,": 5330,
    "owned": 5331,
    "noise": 5332,
    "eu@@": 5333,
    "ain": 5334,
    "skin": 5335,
    "Presid@@": 5336,
    "reported": 5337,
    "pac@@": 5338,
    "embar@@": 5339,
    "stored": 5340,
    "sanctions": 5341,
    "Question": 5342,
    "Group@@": 5343,
    "manufacturers": 5344,
    "finished": 5345,
    "™": 5346,
    "notice": 5347,
    "money.": 5348,
    "Affairs,": 5349,
    "ç@@": 5350,
    "elling": 5351,
    "ace": 5352,
    "!@@": 5353,
    "sugges@@": 5354,
    "and-@@": 5355,
    "Des@@": 5356,
    "articles": 5357,
    "high-quality": 5358,
    "150": 5359,
    "perform@@": 5360,
    "*@@": 5361,
    "Will": 5362,
    "medium": 5363,
    "ett@@": 5364,
    "emergency": 5365,
    "secre@@": 5366,
    "lasting": 5367,
    "ensures": 5368,
    "education,": 5369,
    "institu@@": 5370,
    "cycle": 5371,
    "Group,": 5372,
    "issu@@": 5373,
    "foot@@": 5374,
    "Bri@@": 5375,
    "Br@@": 5376,
    "Stat@@": 5377,
    "1990@@": 5378,
    "yn@@": 5379,
    "exciting": 5380,
    "aller@@": 5381,
    "goals": 5382,
    "exper@@": 5383,
    "Northern": 5384,
    "Pic@@": 5385,
    "Sur@@": 5386,
    "Thus,": 5387,
    "lie": 5388,
    "Syri@@": 5389,
    "ultimately": 5390,
    "generated": 5391,
    "Develop@@": 5392,
    "careful": 5393,
    "democracy,": 5394,
    "awareness": 5395,
    "remin@@": 5396,
    "ath": 5397,
    "II@@": 5398,
    "God": 5399,
    "instance,": 5400,
    "een": 5401,
    "Lat@@": 5402,
    "essi@@": 5403,
    "Council's": 5404,
    "--": 5405,
    "oriented": 5406,
    "wise": 5407,
    "responsibilities": 5408,
    "exemp@@": 5409,
    "Web@@": 5410,
    "marks": 5411,
    "company.": 5412,
    "led.": 5413,
    "pension": 5414,
    "passenger": 5415,
    "holi@@": 5416,
    "`@@": 5417,
    "reserves": 5418,
    "mode": 5419,
    "access@@": 5420,
    "]]@@": 5421,
    "Paper": 5422,
    "applications.": 5423,
    "ele@@": 5424,
    "Hel@@": 5425,
    "Treaty.": 5426,
    "т@@": 5427,
    "listen": 5428,
    "pool,": 5429,
    "Choose": 5430,
    "privacy": 5431,
    "ect": 5432,
    "(in": 5433,
    "emerging": 5434,
    "use,": 5435,
    "understood": 5436,
    "oured": 5437,
    "za": 5438,
    "Indi@@": 5439,
    "s),": 5440,
    "E-@@": 5441,
    "generate": 5442,
    "cutting": 5443,
    "charges": 5444,
    "arrive": 5445,
    "necessary,": 5446,
    "lovely": 5447,
    "dimension": 5448,
    "preparing": 5449,
    "account.": 5450,
    "Schengen": 5451,
    "wonder@@": 5452,
    "solution.": 5453,
    "Cer@@": 5454,
    "wish@@": 5455,
    "sh": 5456,
    "exhib@@": 5457,
    "weap@@": 5458,
    "stimul@@": 5459,
    "repeat": 5460,
    "effor@@": 5461,
    "looked": 5462,
    "enhance": 5463,
    "cold": 5464,
    "ah": 5465,
    "Portuguese": 5466,
    "EN": 5467,
    "requirement": 5468,
    "lake": 5469,
    "ges,": 5470,
    "you'll": 5471,
    "replaced": 5472,
    "after@@": 5473,
    "situations": 5474,
    "moral": 5475,
    "Bon@@": 5476,
    "defin@@": 5477,
    "Ukraine": 5478,
    "past@@": 5479,
    "other,": 5480,
    "months.": 5481,
    "Company": 5482,
    "र": 5483,
    "für": 5484,
    "Rel@@": 5485,
    "scor@@": 5486,
    "roll@@": 5487,
    "rejected": 5488,
    "fit@@": 5489,
    "expert": 5490,
    "]].": 5491,
    "contin@@": 5492,
    "Russi@@": 5493,
    "journ@@": 5494,
    "cell": 5495,
    "Kon@@": 5496,
    "journey": 5497,
    "contain@@": 5498,
    "Control": 5499,
    "sci@@": 5500,
    "criticism": 5501,
    "am,": 5502,
    "neg@@": 5503,
    "swi@@": 5504,
    "red.": 5505,
    "var@@": 5506,
    "saving": 5507,
    "excep@@": 5508,
    "q@@": 5509,
    "Est@@": 5510,
    "noted": 5511,
    "mus@@": 5512,
    "discre@@": 5513,
    "configuration": 5514,
    "Baltic": 5515,
    "zu": 5516,
    "tely": 5517,
    "road@@": 5518,
    "pressed": 5519,
    "liberalisation": 5520,
    "decision-making": 5521,
    "ased": 5522,
    "acted": 5523,
    "Speci@@": 5524,
    "Pan@@": 5525,
    "people@@": 5526,
    "itself,": 5527,
    "fleet": 5528,
    "ets,": 5529,
    "educ@@": 5530,
    "disposal": 5531,
    "carrying": 5532,
    "Lam@@": 5533,
    "room@@": 5534,
    "han@@": 5535,
    "renovated": 5536,
    "printing": 5537,
    "2007.": 5538,
    "spring": 5539,
    "officials": 5540,
    "ding,": 5541,
    "Time": 5542,
    "ts:": 5543,
    "respect,": 5544,
    "field.": 5545,
    "Summit": 5546,
    "म@@": 5547,
    "updated": 5548,
    "ics,": 5549,
    "women,": 5550,
    "applying": 5551,
    "communities": 5552,
    "happening": 5553,
    "engineering": 5554,
    "electric": 5555,
    "Mun@@": 5556,
    "dem": 5557,
    "Rooms,": 5558,
    "happens": 5559,
    "blood": 5560,
    "Fund@@": 5561,
    "CE@@": 5562,
    "units": 5563,
    "politicians": 5564,
    "delay": 5565,
    "cross": 5566,
    "People": 5567,
    "eye": 5568,
    "Gro@@": 5569,
    "solely": 5570,
    "reply": 5571,
    "bou@@": 5572,
    "Sen@@": 5573,
    "Fl@@": 5574,
    "vely": 5575,
    "ft,": 5576,
    "sigh@@": 5577,
    "gender": 5578,
    "á": 5579,
    "de-@@": 5580,
    "recorded": 5581,
    "measures,": 5582,
    "bottom": 5583,
    "restrictions": 5584,
    "Nos": 5585,
    "context,": 5586,
    "At@@": 5587,
    "tly.": 5588,
    "res.": 5589,
    "rate.": 5590,
    "come.": 5591,
    "fig@@": 5592,
    "USA": 5593,
    "taste": 5594,
    "ners": 5595,
    "east": 5596,
    "discharge": 5597,
    "....": 5598,
    "pieces": 5599,
    "considering": 5600,
    "arian": 5601,
    "productive": 5602,
    "pers": 5603,
    "Sum@@": 5604,
    "facilities.": 5605,
    "ny": 5606,
    "impose": 5607,
    "examine": 5608,
    "experiences": 5609,
    "maritime": 5610,
    "Like": 5611,
    "thy": 5612,
    "lec@@": 5613,
    "gue": 5614,
    "arrangements": 5615,
    "Hungarian": 5616,
    "attractions": 5617,
    "visa": 5618,
    "seat": 5619,
    "exists": 5620,
    "t's": 5621,
    "concern@@": 5622,
    "magnificent": 5623,
    "Win@@": 5624,
    "Soci@@": 5625,
    "Hotels": 5626,
    "appli@@": 5627,
    "altern@@": 5628,
    "democracy.": 5629,
    "Therefore": 5630,
    "region@@": 5631,
    "deep@@": 5632,
    "production.": 5633,
    "recommendation": 5634,
    "match": 5635,
    "directed": 5636,
    "done.": 5637,
    "dity": 5638,
    "requ@@": 5639,
    "issi@@": 5640,
    "ano@@": 5641,
    "spectacular": 5642,
    "renowned": 5643,
    "programme,": 5644,
    "eventually": 5645,
    "functional": 5646,
    "ps.": 5647,
    "Poland": 5648,
    "billi@@": 5649,
    "specified": 5650,
    "consult@@": 5651,
    "solid": 5652,
    "cosy": 5653,
    "collaboration": 5654,
    "phas@@": 5655,
    "hundred": 5656,
    "transition": 5657,
    "int@@": 5658,
    "identity": 5659,
    "extraordinary": 5660,
    "master": 5661,
    "growth.": 5662,
    "2002": 5663,
    "shower": 5664,
    "cons@@": 5665,
    "indicated": 5666,
    "AV@@": 5667,
    "consci@@": 5668,
    "disease": 5669,
    "contributions": 5670,
    "justi@@": 5671,
    "frag@@": 5672,
    "conditions,": 5673,
    "opinions": 5674,
    "Market": 5675,
    "ut": 5676,
    "lea@@": 5677,
    "colour": 5678,
    "museum": 5679,
    "minority": 5680,
    "lay@@": 5681,
    "terror@@": 5682,
    "society,": 5683,
    "nar@@": 5684,
    "mail@@": 5685,
    "governance": 5686,
    "DS@@": 5687,
    "OM@@": 5688,
    "slightly": 5689,
    "em": 5690,
    "non@@": 5691,
    "refugees": 5692,
    "entr@@": 5693,
    "Good": 5694,
    "perspec@@": 5695,
    "GDP": 5696,
    "Ger@@": 5697,
    "tel": 5698,
    "Alliance": 5699,
    "receiving": 5700,
    "puts": 5701,
    "itation": 5702,
    "Nov@@": 5703,
    "fitness": 5704,
    "decisive": 5705,
    "virtual": 5706,
    "ouse": 5707,
    "mid-@@": 5708,
    "land.": 5709,
    "gained": 5710,
    "declaration": 5711,
    "Plan@@": 5712,
    "Having": 5713,
    "typ@@": 5714,
    "lag@@": 5715,
    "Thirdly,": 5716,
    "operators": 5717,
    "legitimate": 5718,
    "copy@@": 5719,
    "grow": 5720,
    "fru@@": 5721,
    "Sam@@": 5722,
    "tem@@": 5723,
    "ber,": 5724,
    "bar,": 5725,
    "price.": 5726,
    "cable": 5727,
    "ness,": 5728,
    "intensive": 5729,
    "bedroom": 5730,
    "ants.": 5731,
    "<link": 5732,
    "settings": 5733,
    "rejec@@": 5734,
    "i-@@": 5735,
    "—@@": 5736,
    "formal": 5737,
    "metal": 5738,
    "results.": 5739,
    "industri@@": 5740,
    "notic@@": 5741,
    "Dar@@": 5742,
    "enabling": 5743,
    "Scot@@": 5744,
    "plug@@": 5745,
    "fran@@": 5746,
    "blu@@": 5747,
    "Vienna": 5748,
    "Hol@@": 5749,
    "(PL)": 5750,
    "who,": 5751,
    "weather": 5752,
    "communications": 5753,
    "ox@@": 5754,
    "license": 5755,
    "ai": 5756,
    "eller": 5757,
    "depend@@": 5758,
    "connect": 5759,
    "Legal": 5760,
    "ID": 5761,
    "substances": 5762,
    "artistic": 5763,
    "its.": 5764,
    "Global": 5765,
    "power.": 5766,
    "Treaty,": 5767,
    "Russia,": 5768,
    "May@@": 5769,
    "messages": 5770,
    "p.m.": 5771,
    "Islamic": 5772,
    "Coun@@": 5773,
    "park@@": 5774,
    "tend": 5775,
    "residence": 5776,
    "removed": 5777,
    "ons.": 5778,
    "PL@@": 5779,
    "va@@": 5780,
    "paying": 5781,
    "oni@@": 5782,
    "bars": 5783,
    "Play@@": 5784,
    "ump": 5785,
    "things,": 5786,
    "proposes": 5787,
    "email@@": 5788,
    "answer@@": 5789,
    "Santa": 5790,
    "memor@@": 5791,
    "constitute": 5792,
    "Wor@@": 5793,
    "1st": 5794,
    "ica": 5795,
    "spoken": 5796,
    "lay": 5797,
    "water,": 5798,
    "points.": 5799,
    "g-@@": 5800,
    "archi@@": 5801,
    "resolu@@": 5802,
    "в@@": 5803,
    "ders.": 5804,
    "Vil@@": 5805,
    "press@@": 5806,
    "president": 5807,
    "2001": 5808,
    "(200@@": 5809,
    "locations": 5810,
    "izing": 5811,
    "classi@@": 5812,
    "Action": 5813,
    "schools": 5814,
    "overcome": 5815,
    "gy@@": 5816,
    "solutions.": 5817,
    "ISO": 5818,
    "sharing": 5819,
    "ordinary": 5820,
    "count": 5821,
    "author": 5822,
    "uss@@": 5823,
    "maintained": 5824,
    "ls": 5825,
    "realistic": 5826,
    "leader@@": 5827,
    "customers.": 5828,
    "Sloven@@": 5829,
    "Council@@": 5830,
    "pursue": 5831,
    "satisfied": 5832,
    "markets,": 5833,
    "everyday": 5834,
    "straight": 5835,
    "resolution,": 5836,
    "Gener@@": 5837,
    "2007,": 5838,
    "conflic@@": 5839,
    "P,": 5840,
    "Spe@@": 5841,
    "AL": 5842,
    "cher": 5843,
    "acceler@@": 5844,
    "migration": 5845,
    "thousand": 5846,
    "percent": 5847,
    "ater": 5848,
    "though@@": 5849,
    "encouraging": 5850,
    "Stu@@": 5851,
    "China’s": 5852,
    "offices": 5853,
    "libr@@": 5854,
    "drug": 5855,
    "e.g.": 5856,
    "Fre@@": 5857,
    "unity": 5858,
    "inspec@@": 5859,
    "destination": 5860,
    "tours": 5861,
    "invited": 5862,
    "interior": 5863,
    "colleague": 5864,
    "tho@@": 5865,
    "diverse": 5866,
    "ists.": 5867,
    "ists,": 5868,
    "ino@@": 5869,
    "entertainment": 5870,
    "Switzerland": 5871,
    "invest": 5872,
    "conciliation": 5873,
    "upper": 5874,
    "liberal": 5875,
    "bath": 5876,
    "groups,": 5877,
    "exit": 5878,
    "effectiveness": 5879,
    "depend": 5880,
    "bag@@": 5881,
    "spoke": 5882,
    "school@@": 5883,
    "growth,": 5884,
    "act.": 5885,
    "Ti@@": 5886,
    "voluntary": 5887,
    "properties": 5888,
    "proven": 5889,
    "concluded": 5890,
    "Red": 5891,
    "Constitution": 5892,
    "parties.": 5893,
    "dead@@": 5894,
    "absence": 5895,
    "toward": 5896,
    "mur@@": 5897,
    "gradu@@": 5898,
    "expectations": 5899,
    "browser": 5900,
    "%1": 5901,
    "production,": 5902,
    "debates": 5903,
    "you're": 5904,
    "bridge": 5905,
    "stronger": 5906,
    "recep@@": 5907,
    "inser@@": 5908,
    "Through": 5909,
    "predic@@": 5910,
    "commo@@": 5911,
    "Sk@@": 5912,
    "well-known": 5913,
    "date.": 5914,
    "streets": 5915,
    "rene@@": 5916,
    "irs": 5917,
    "cin@@": 5918,
    "texts": 5919,
    "independ@@": 5920,
    "flow@@": 5921,
    "attempts": 5922,
    "wrote": 5923,
    "Framework": 5924,
    "ticket": 5925,
    "Euro": 5926,
    "2)": 5927,
    "perspective": 5928,
    "nex@@": 5929,
    "tered": 5930,
    "sum": 5931,
    "meat": 5932,
    "hardly": 5933,
    "elem@@": 5934,
    "Black": 5935,
    "spac@@": 5936,
    "necessarily": 5937,
    "ben@@": 5938,
    "zing": 5939,
    "excessive": 5940,
    "35@@": 5941,
    "geo@@": 5942,
    "sheet": 5943,
    "foundation": 5944,
    "control.": 5945,
    "period.": 5946,
    "vent@@": 5947,
    "cris@@": 5948,
    "chan@@": 5949,
    "shoo@@": 5950,
    "TI@@": 5951,
    "beginn@@": 5952,
    "Men@@": 5953,
    "preventing": 5954,
    "mountains": 5955,
    "Egyp@@": 5956,
    "cross-@@": 5957,
    "ports": 5958,
    "P.": 5959,
    "complain@@": 5960,
    "hardware": 5961,
    "supposed": 5962,
    "suppl@@": 5963,
    "ES": 5964,
    "greatly": 5965,
    "friend": 5966,
    "Roma": 5967,
    "Alban@@": 5968,
    "directive,": 5969,
    "(e.g.": 5970,
    "mandate": 5971,
    "import": 5972,
    "easi@@": 5973,
    "log": 5974,
    "diagno@@": 5975,
    "brief": 5976,
    "Ministers": 5977,
    "manufactur@@": 5978,
    "entrance": 5979,
    "Yes,": 5980,
    "Situated": 5981,
    "tested": 5982,
    "ek": 5983,
    "answers": 5984,
    "themselves.": 5985,
    "refers": 5986,
    "ein": 5987,
    "taxes": 5988,
    "MEPs": 5989,
    "password": 5990,
    "9.": 5991,
    "strategies": 5992,
    "obliged": 5993,
    "beds": 5994,
    "regions.": 5995,
    "metho@@": 5996,
    "directives": 5997,
    "continuous": 5998,
    "beach@@": 5999,
    "ly-@@": 6000,
    "encoura@@": 6001,
    "ney": 6002,
    "mig@@": 6003,
    "Kosovo": 6004,
    "introducing": 6005,
    "2010,": 6006,
    "power,": 6007,
    "welfare": 6008,
    "Croati@@": 6009,
    "hab@@": 6010,
    "data,": 6011,
    "fan@@": 6012,
    "crow@@": 6013,
    "3D": 6014,
    "negotiating": 6015,
    "hop@@": 6016,
    "budget,": 6017,
    "Ban@@": 6018,
    "settlement": 6019,
    "Asian": 6020,
    "expansion": 6021,
    "MA@@": 6022,
    "ually": 6023,
    "excell@@": 6024,
    "abol@@": 6025,
    "destin@@": 6026,
    "Democrats": 6027,
    "stations": 6028,
    "Wil@@": 6029,
    "selling": 6030,
    "Should": 6031,
    "29@@": 6032,
    "websites": 6033,
    "proposing": 6034,
    "heat": 6035,
    "enjoyed": 6036,
    "stic": 6037,
    "ques@@": 6038,
    "name=\\\"@@": 6039,
    "hoo@@": 6040,
    "fourth": 6041,
    "swit@@": 6042,
    "profile": 6043,
    "ference": 6044,
    "characteristics": 6045,
    "component": 6046,
    "Or": 6047,
    "contacts": 6048,
    "fres@@": 6049,
    "feed": 6050,
    "drugs": 6051,
    "stret@@": 6052,
    "raising": 6053,
    "look@@": 6054,
    "apart": 6055,
    "enem@@": 6056,
    "connections": 6057,
    "shares": 6058,
    "occa@@": 6059,
    "brid@@": 6060,
    "add@@": 6061,
    "pil@@": 6062,
    "First,": 6063,
    "Far@@": 6064,
    "mobility": 6065,
    "character@@": 6066,
    "Den@@": 6067,
    "acks": 6068,
    "ं@@": 6069,
    "have,": 6070,
    "direction.": 6071,
    "Na@@": 6072,
    "banking": 6073,
    "chann@@": 6074,
    "suffer": 6075,
    "rock": 6076,
    "identified": 6077,
    "remained": 6078,
    "contributed": 6079,
    "beg@@": 6080,
    "’.": 6081,
    "curr@@": 6082,
    "ING": 6083,
    "resolution.": 6084,
    "input": 6085,
    "avo@@": 6086,
    "eyes": 6087,
    "ere": 6088,
    "cultur@@": 6089,
    "ams": 6090,
    "him@@": 6091,
    "electricity": 6092,
    "IV@@": 6093,
    "centur@@": 6094,
    "2006,": 6095,
    "ti": 6096,
    "Fran@@": 6097,
    "welcomes": 6098,
    "topic": 6099,
    "theme": 6100,
    "fav@@": 6101,
    "alls": 6102,
    "feat@@": 6103,
    "dele@@": 6104,
    "bound@@": 6105,
    "vac@@": 6106,
    "spar@@": 6107,
    "Socialist": 6108,
    "Hu@@": 6109,
    "h,": 6110,
    "Vol@@": 6111,
    "groups.": 6112,
    "servers": 6113,
    "ranging": 6114,
    "fulfil": 6115,
    "er-@@": 6116,
    "driver": 6117,
    "centr@@": 6118,
    "armed": 6119,
    "tian": 6120,
    "home.": 6121,
    "Commission’s": 6122,
    "d)": 6123,
    "Uni@@": 6124,
    "Agre@@": 6125,
    "luxurious": 6126,
    "non-smo@@": 6127,
    "Bet@@": 6128,
    "fort@@": 6129,
    "ders,": 6130,
    "costs.": 6131,
    "els.": 6132,
    "combine": 6133,
    "vulnerable": 6134,
    "Using": 6135,
    "ura@@": 6136,
    "perfec@@": 6137,
    "hair": 6138,
    "discipl@@": 6139,
    "stylish": 6140,
    "Fac@@": 6141,
    "м@@": 6142,
    "Does": 6143,
    "Royal": 6144,
    "«@@": 6145,
    "originally": 6146,
    "impro@@": 6147,
    "ant,": 6148,
    "indicate": 6149,
    "centres": 6150,
    "OF": 6151,
    "whereas": 6152,
    "king.": 6153,
    "drink": 6154,
    "prime": 6155,
    "deliber@@": 6156,
    "LO@@": 6157,
    "moment,": 6158,
    "isted": 6159,
    "detec@@": 6160,
    "summar@@": 6161,
    "Transport": 6162,
    "Stability": 6163,
    "prices.": 6164,
    "musical": 6165,
    "ining": 6166,
    "pick@@": 6167,
    "els,": 6168,
    "dru@@": 6169,
    "S,": 6170,
    "alists": 6171,
    "Chin@@": 6172,
    "desired": 6173,
    "yp@@": 6174,
    "surely": 6175,
    "peoples": 6176,
    "ative,": 6177,
    "Pat@@": 6178,
    "turning": 6179,
    "firmly": 6180,
    "ently.": 6181,
    "dies,": 6182,
    "rapidly": 6183,
    "enabled": 6184,
    "dynam@@": 6185,
    "check@@": 6186,
    "Set": 6187,
    "station.": 6188,
    "reflects": 6189,
    "proc@@": 6190,
    "employed": 6191,
    "ken": 6192,
    "secu@@": 6193,
    "reflected": 6194,
    "him.": 6195,
    "flat": 6196,
    "dé@@": 6197,
    "ants,": 6198,
    "indeed,": 6199,
    "action,": 6200,
    "Nice": 6201,
    "Cop@@": 6202,
    "crip@@": 6203,
    "hy@@": 6204,
    "Media": 6205,
    "secret": 6206,
    "conventional": 6207,
    "poll@@": 6208,
    "gn@@": 6209,
    "ences.": 6210,
    "ant.": 6211,
    "resources,": 6212,
    "proceed": 6213,
    "side,": 6214,
    "sanc@@": 6215,
    "encies": 6216,
    "diplom@@": 6217,
    "reach@@": 6218,
    "lian": 6219,
    "farm": 6220,
    "that@@": 6221,
    "d;": 6222,
    "contrary,": 6223,
    "album": 6224,
    "regardless": 6225,
    "enthusias@@": 6226,
    "suffered": 6227,
    "career": 6228,
    "research,": 6229,
    "distor@@": 6230,
    "safeguard": 6231,
    "pressu@@": 6232,
    "mand@@": 6233,
    "Italy,": 6234,
    "eries": 6235,
    "\")": 6236,
    "procedure.": 6237,
    "modern@@": 6238,
    "passengers": 6239,
    "las": 6240,
    "history,": 6241,
    "ba": 6242,
    "ym@@": 6243,
    "c.": 6244,
    "appearance": 6245,
    "to-@@": 6246,
    "ader": 6247,
    "Restaurant": 6248,
    "aci@@": 6249,
    "SM@@": 6250,
    "stream": 6251,
    "bein@@": 6252,
    "ield": 6253,
    "'ll": 6254,
    "य@@": 6255,
    "ज@@": 6256,
    "federal": 6257,
    "division": 6258,
    "company,": 6259,
    "commission@@": 6260,
    "transportation": 6261,
    "े@@": 6262,
    "organic": 6263,
    "frame": 6264,
    "rental": 6265,
    "driven": 6266,
    "design,": 6267,
    "Chamber": 6268,
    "overview": 6269,
    "of,": 6270,
    "chain": 6271,
    "collabor@@": 6272,
    "subsequent": 6273,
    "patent": 6274,
    "Sar@@": 6275,
    "sent@@": 6276,
    "Alp@@": 6277,
    "women.": 6278,
    "slow@@": 6279,
    "cial": 6280,
    "camer@@": 6281,
    "States'": 6282,
    "fraud": 6283,
    "realise": 6284,
    "pes": 6285,
    "corpor@@": 6286,
    "showed": 6287,
    "where,": 6288,
    "gage": 6289,
    "copyright": 6290,
    "stop@@": 6291,
    "cooperation,": 6292,
    "conflicts": 6293,
    "leaves": 6294,
    "Protection": 6295,
    "द@@": 6296,
    "ances.": 6297,
    "programming": 6298,
    "managing": 6299,
    "falls": 6300,
    "dishes": 6301,
    "asser@@": 6302,
    "it’s": 6303,
    "castle": 6304,
    "adap@@": 6305,
    "Foundation": 6306,
    "truth": 6307,
    "succ@@": 6308,
    "Cle@@": 6309,
    "All@@": 6310,
    "undoubtedly": 6311,
    "Netherlands": 6312,
    "policies,": 6313,
    "control@@": 6314,
    "employ@@": 6315,
    "dinner": 6316,
    "2006.": 6317,
    "wider": 6318,
    "eth": 6319,
    "•": 6320,
    "allocated": 6321,
    "stay.": 6322,
    "guarante@@": 6323,
    "ette": 6324,
    "{{@@": 6325,
    "channel": 6326,
    "transport,": 6327,
    "ification": 6328,
    "inclusion": 6329,
    "determin@@": 6330,
    "Gran@@": 6331,
    "8.": 6332,
    "recognized": 6333,
    "present,": 6334,
    "quarter": 6335,
    "lined": 6336,
    "organizations": 6337,
    "tz@@": 6338,
    "furniture": 6339,
    "compu@@": 6340,
    "hostels": 6341,
    "Pack@@": 6342,
    "Nu@@": 6343,
    "teach@@": 6344,
    "ten,": 6345,
    "strategy.": 6346,
    "months,": 6347,
    "buff@@": 6348,
    "its,": 6349,
    "energy,": 6350,
    "cket": 6351,
    "group.": 6352,
    "ses@@": 6353,
    "dom@@": 6354,
    "…": 6355,
    "ures,": 6356,
    "SO@@": 6357,
    "strength@@": 6358,
    "specialist": 6359,
    "som@@": 6360,
    "review@@": 6361,
    "distribut@@": 6362,
    "disaster": 6363,
    "ander@@": 6364,
    "instruc@@": 6365,
    "position@@": 6366,
    "minut@@": 6367,
    "handle": 6368,
    "parents": 6369,
    "mak@@": 6370,
    "legally": 6371,
    "crimin@@": 6372,
    "Cy@@": 6373,
    "bureaucra@@": 6374,
    "ी": 6375,
    "suggested": 6376,
    "adapted": 6377,
    "glo@@": 6378,
    "rou@@": 6379,
    "here@@": 6380,
    "atmosphere.": 6381,
    "youth": 6382,
    "forthcoming": 6383,
    "Romania": 6384,
    "gs,": 6385,
    "diver@@": 6386,
    "Michael": 6387,
    "restore": 6388,
    "comparison": 6389,
    "Ren@@": 6390,
    "<bookmark_value>@@": 6391,
    "</bookmark_value>": 6392,
    "Vienn@@": 6393,
    "Regional": 6394,
    "reduc@@": 6395,
    "per,": 6396,
    "wit@@": 6397,
    "argument": 6398,
    "provider": 6399,
    "lived": 6400,
    "Among": 6401,
    "disast@@": 6402,
    "wireless": 6403,
    "lob@@": 6404,
    "approach@@": 6405,
    "resolved": 6406,
    "River": 6407,
    "management.": 6408,
    "wonder": 6409,
    "fon@@": 6410,
    "believe,": 6411,
    "Che@@": 6412,
    "tor.": 6413,
    "tickets": 6414,
    "rein@@": 6415,
    "fee": 6416,
    "decades": 6417,
    "Food": 6418,
    "fisher@@": 6419,
    "good.": 6420,
    "amb@@": 6421,
    "treaty": 6422,
    "Tu@@": 6423,
    "toler@@": 6424,
    "Ni@@": 6425,
    "aling": 6426,
    "antly": 6427,
    "absor@@": 6428,
    "Now,": 6429,
    "delicious": 6430,
    "Who": 6431,
    "Sho@@": 6432,
    "tor,": 6433,
    "recover@@": 6434,
    "quick@@": 6435,
    "Yugosla@@": 6436,
    "surpris@@": 6437,
    "rules.": 6438,
    "reasons,": 6439,
    "clas@@": 6440,
    "motor": 6441,
    "equi@@": 6442,
    "cash": 6443,
    "Design": 6444,
    "statistics": 6445,
    "dies": 6446,
    "Trans@@": 6447,
    "People's": 6448,
    "32": 6449,
    "mix@@": 6450,
    "tivity": 6451,
    "health,": 6452,
    "(Applause)": 6453,
    "severe": 6454,
    "satisfy": 6455,
    "ot": 6456,
    "Programme": 6457,
    "ices": 6458,
    "33@@": 6459,
    "approach.": 6460,
    "don’t": 6461,
    "bat@@": 6462,
    "adapt": 6463,
    "cooperate": 6464,
    "Ge@@": 6465,
    "needed.": 6466,
    "facilit@@": 6467,
    "6-@@": 6468,
    "drivers": 6469,
    "aria": 6470,
    "water.": 6471,
    "believes": 6472,
    "(see": 6473,
    "cep@@": 6474,
    "NATO": 6475,
    "zen": 6476,
    "class@@": 6477,
    "D.": 6478,
    "CO2": 6479,
    ");": 6480,
    "hydro@@": 6481,
    "determination": 6482,
    "ED@@": 6483,
    "vide@@": 6484,
    "stream@@": 6485,
    "child@@": 6486,
    "Lord": 6487,
    "Hung@@": 6488,
    "ues": 6489,
    "ading": 6490,
    "walls": 6491,
    "resolutions": 6492,
    "flights": 6493,
    "united": 6494,
    "enhanced": 6495,
    "cross@@": 6496,
    "ring@@": 6497,
    "for.": 6498,
    "bol@@": 6499,
    "Shi@@": 6500,
    "master@@": 6501,
    "battle": 6502,
    "rap@@": 6503,
    "history.": 6504,
    "death@@": 6505,
    "competition.": 6506,
    "Desk,": 6507,
    "enz@@": 6508,
    "jobs.": 6509,
    "C,": 6510,
    "require@@": 6511,
    "cuts": 6512,
    "credibility": 6513,
    "resistance": 6514,
    "muse@@": 6515,
    "inner": 6516,
    "cription": 6517,
    "Day": 6518,
    "Agriculture": 6519,
    "transport.": 6520,
    "forwar@@": 6521,
    "tern@@": 6522,
    "spot": 6523,
    "lar@@": 6524,
    "gal@@": 6525,
    "ency,": 6526,
    "amen@@": 6527,
    "tly,": 6528,
    "macro@@": 6529,
    "depart@@": 6530,
    "fire@@": 6531,
    "date,": 6532,
    "lessons": 6533,
    "()": 6534,
    "zo@@": 6535,
    "restaurants,": 6536,
    "pure": 6537,
    "personnel": 6538,
    "library": 6539,
    "Pas@@": 6540,
    "gent@@": 6541,
    "ping": 6542,
    "waters": 6543,
    "guided": 6544,
    "Custom@@": 6545,
    "aw@@": 6546,
    "manu@@": 6547,
    "contracts": 6548,
    "tak@@": 6549,
    "est,": 6550,
    "AS": 6551,
    "shipping": 6552,
    "si": 6553,
    "mb@@": 6554,
    "concentrate": 6555,
    "neighbouring": 6556,
    "joining": 6557,
    "assess": 6558,
    "(for": 6559,
    "{@@": 6560,
    "occasion": 6561,
    "farmer@@": 6562,
    "entering": 6563,
    "dia": 6564,
    "red,": 6565,
    "Ob@@": 6566,
    "principle,": 6567,
    "poly@@": 6568,
    "free@@": 6569,
    "ting@@": 6570,
    "sugar": 6571,
    "protection,": 6572,
    "endorse": 6573,
    "Flor@@": 6574,
    "culture,": 6575,
    "anticip@@": 6576,
    "balcon@@": 6577,
    "vacation": 6578,
    "thermal": 6579,
    "shi@@": 6580,
    "employment,": 6581,
    "arti@@": 6582,
    "yesterday": 6583,
    "elegan@@": 6584,
    "comfor@@": 6585,
    "Tran@@": 6586,
    "prof@@": 6587,
    "estimated": 6588,
    "aly@@": 6589,
    "AND": 6590,
    "č@@": 6591,
    "search@@": 6592,
    "liv@@": 6593,
    "doors": 6594,
    "cular": 6595,
    "miles": 6596,
    "frau@@": 6597,
    "Mr.": 6598,
    "vir@@": 6599,
    "Lan@@": 6600,
    "hostel": 6601,
    "doesn't": 6602,
    "addresses": 6603,
    "romantic": 6604,
    "ily": 6605,
    "dialog": 6606,
    "100%": 6607,
    "</link>": 6608,
    "trafficking": 6609,
    "sought": 6610,
    "flat@@": 6611,
    "claim@@": 6612,
    "Also,": 6613,
    "tobacco": 6614,
    "liked": 6615,
    "und,": 6616,
    "saved": 6617,
    "documentation": 6618,
    ")\"": 6619,
    "thetic": 6620,
    "il.": 6621,
    "fish@@": 6622,
    "’t": 6623,
    "zu@@": 6624,
    "staff.": 6625,
    "rus@@": 6626,
    "intensi@@": 6627,
    "ign": 6628,
    "ride": 6629,
    "produces": 6630,
    "hours.": 6631,
    "printed": 6632,
    "bike": 6633,
    "anda": 6634,
    "Spa": 6635,
    "Sc@@": 6636,
    "Cli@@": 6637,
    "upgra@@": 6638,
    "university": 6639,
    "ler@@": 6640,
    "leng@@": 6641,
    "Pen@@": 6642,
    "recre@@": 6643,
    "gin": 6644,
    "detail@@": 6645,
    "arrived": 6646,
    "unforgettable": 6647,
    "ech@@": 6648,
    "corner": 6649,
    "ating,": 6650,
    "PS@@": 6651,
    "a:": 6652,
    "tail@@": 6653,
    "laun@@": 6654,
    "consequ@@": 6655,
    "industries": 6656,
    "updates": 6657,
    "regions,": 6658,
    "execu@@": 6659,
    "ances,": 6660,
    "lists": 6661,
    "pression": 6662,
    "milit@@": 6663,
    "DE": 6664,
    "revision": 6665,
    "faster": 6666,
    "ella": 6667,
    "department": 6668,
    "l'@@": 6669,
    "distributed": 6670,
    "gold": 6671,
    "investors": 6672,
    "three-@@": 6673,
    "term,": 6674,
    "panoramic": 6675,
    "territorial": 6676,
    "subsidies": 6677,
    "nine": 6678,
    "mix": 6679,
    "example.": 6680,
    "owners": 6681,
    "isol@@": 6682,
    "description": 6683,
    "adding": 6684,
    "Spain,": 6685,
    "aring": 6686,
    "Ke@@": 6687,
    "reti@@": 6688,
    "deposit": 6689,
    "600": 6690,
    "н@@": 6691,
    "else@@": 6692,
    "Cu@@": 6693,
    "tempor@@": 6694,
    "firms": 6695,
    "Hotel@@": 6696,
    "interpretation": 6697,
    "employment.": 6698,
    "2005,": 6699,
    "week,": 6700,
    "award": 6701,
    "approve": 6702,
    "-T@@": 6703,
    "sa": 6704,
    "gs.": 6705,
    "tranqu@@": 6706,
    "filling": 6707,
    "Ven@@": 6708,
    "chain@@": 6709,
    "2000,": 6710,
    "towns": 6711,
    "none": 6712,
    "famili@@": 6713,
    "acqu@@": 6714,
    "forum": 6715,
    "sav@@": 6716,
    "ré@@": 6717,
    "explor@@": 6718,
    "ECU": 6719,
    "sites.": 6720,
    "relative": 6721,
    "Portugal": 6722,
    "worthy": 6723,
    "sea.": 6724,
    "ive": 6725,
    "convic@@": 6726,
    "shadow": 6727,
    "need@@": 6728,
    "owner": 6729,
    "manufacturer": 6730,
    "cy.": 6731,
    "till": 6732,
    "legislation,": 6733,
    "female": 6734,
    "ee@@": 6735,
    "deeply": 6736,
    "rare": 6737,
    "facilities,": 6738,
    "MS": 6739,
    "PP@@": 6740,
    "Indian": 6741,
    "slow": 6742,
    "name,": 6743,
    "later,": 6744,
    "table,": 6745,
    "Met@@": 6746,
    "tionary": 6747,
    "ile@@": 6748,
    "facts": 6749,
    "supplier": 6750,
    "ski@@": 6751,
    "compens@@": 6752,
    "certific@@": 6753,
    "retain@@": 6754,
    "ise.": 6755,
    "cut@@": 6756,
    "crimes": 6757,
    "tag@@": 6758,
    "flag@@": 6759,
    "also,": 6760,
    "woman": 6761,
    "practice.": 6762,
    "para": 6763,
    "ara": 6764,
    "accurate": 6765,
    "Ul@@": 6766,
    "transferred": 6767,
    "tique": 6768,
    "endeav@@": 6769,
    "ACP": 6770,
    "representation": 6771,
    "lap@@": 6772,
    "father": 6773,
    "clear,": 6774,
    "adds": 6775,
    "sers": 6776,
    "accura@@": 6777,
    "HO@@": 6778,
    "act,": 6779,
    "View": 6780,
    "permitted": 6781,
    "Sweden": 6782,
    "Slovak@@": 6783,
    "rul@@": 6784,
    "Wes@@": 6785,
    "Ear@@": 6786,
    "face.": 6787,
    "Natur@@": 6788,
    "Executive": 6789,
    "taxpay@@": 6790,
    "activities,": 6791,
    "nevertheless": 6792,
    "men,": 6793,
    "makers": 6794,
    "ha": 6795,
    "occur": 6796,
    "ests,": 6797,
    "Consumer": 6798,
    "past.": 6799,
    "lev@@": 6800,
    "we,": 6801,
    "picturesque": 6802,
    "milk": 6803,
    "fairly": 6804,
    "1998": 6805,
    "-0@@": 6806,
    "sit": 6807,
    "bled": 6808,
    "advoc@@": 6809,
    "forward.": 6810,
    "techniques": 6811,
    "presenting": 6812,
    "es!": 6813,
    "politically": 6814,
    "pretty": 6815,
    "equivalent": 6816,
    "cultiv@@": 6817,
    "yester@@": 6818,
    "wellness": 6819,
    "past,": 6820,
    "module": 6821,
    "listings": 6822,
    "dou@@": 6823,
    "tigh@@": 6824,
    "overlooking": 6825,
    "CS@@": 6826,
    "questions.": 6827,
    "b,": 6828,
    "IB@@": 6829,
    "experienc@@": 6830,
    "distric@@": 6831,
    "aver@@": 6832,
    "Online": 6833,
    "EADS": 6834,
    "Sha@@": 6835,
    "y!": 6836,
    "cott@@": 6837,
    "abilities": 6838,
    "tom@@": 6839,
    "pressing": 6840,
    "health.": 6841,
    "Enterprise": 6842,
    "emplo@@": 6843,
    "Would": 6844,
    "SS@@": 6845,
    "religi@@": 6846,
    "learned": 6847,
    "coordinated": 6848,
    "bun@@": 6849,
    "arguments": 6850,
    "through@@": 6851,
    "emo@@": 6852,
    "Copenhagen": 6853,
    "posed": 6854,
    "ी@@": 6855,
    "nigh@@": 6856,
    "hearing": 6857,
    "Ty@@": 6858,
    "Proced@@": 6859,
    "ordered": 6860,
    "Pay@@": 6861,
    "welcoming": 6862,
    "uph@@": 6863,
    "guests.": 6864,
    "required.": 6865,
    "Service,": 6866,
    "usual": 6867,
    "supplied": 6868,
    "FT@@": 6869,
    "arising": 6870,
    "Inn": 6871,
    "8-@@": 6872,
    "os,": 6873,
    "engaged": 6874,
    "causing": 6875,
    "relates": 6876,
    "hau@@": 6877,
    "king@@": 6878,
    "format@@": 6879,
    "consumer@@": 6880,
    "User": 6881,
    "sea,": 6882,
    "ton,": 6883,
    "satisfaction": 6884,
    "ions": 6885,
    "combines": 6886,
    "Frankfurt": 6887,
    "terms,": 6888,
    "decre@@": 6889,
    "shoul@@": 6890,
    "7-@@": 6891,
    "tourists": 6892,
    "together,": 6893,
    "poli@@": 6894,
    "p-@@": 6895,
    "lift": 6896,
    "ered": 6897,
    "Mari@@": 6898,
    "restricted": 6899,
    "part-@@": 6900,
    "ecological": 6901,
    "Technology": 6902,
    "Christi@@": 6903,
    "site,": 6904,
    "minutes.": 6905,
    "engage": 6906,
    "directory": 6907,
    "36@@": 6908,
    "stal@@": 6909,
    "affec@@": 6910,
    "contribu@@": 6911,
    "Belgian": 6912,
    "house@@": 6913,
    "ground.": 6914,
    "appointment": 6915,
    "у@@": 6916,
    "travelling": 6917,
    "rapporteurs": 6918,
    "normally": 6919,
    "sl@@": 6920,
    "compo@@": 6921,
    "roads": 6922,
    "Munich": 6923,
    "warran@@": 6924,
    "least,": 6925,
    "fiel@@": 6926,
    "complicated": 6927,
    "reven@@": 6928,
    "clima@@": 6929,
    "bia": 6930,
    "Report": 6931,
    "explained": 6932,
    "drin@@": 6933,
    "intends": 6934,
    "800": 6935,
    "urs": 6936,
    "facility": 6937,
    "acknowledge": 6938,
    "New@@": 6939,
    "Hon@@": 6940,
    "protec@@": 6941,
    "Code": 6942,
    "resulted": 6943,
    "compon@@": 6944,
    "cel@@": 6945,
    "(PT)": 6946,
    "with.": 6947,
    "nature,": 6948,
    "meets": 6949,
    "Gr@@": 6950,
    "whole.": 6951,
    "techn@@": 6952,
    "(E@@": 6953,
    "replac@@": 6954,
    "matter,": 6955,
    "location.": 6956,
    "inflation": 6957,
    "collected": 6958,
    "ail": 6959,
    "decad@@": 6960,
    "Power@@": 6961,
    "visual": 6962,
    "virtually": 6963,
    "ancing": 6964,
    "Show": 6965,
    "Hotel,": 6966,
    "management,": 6967,
    "acceptance": 6968,
    "Fu@@": 6969,
    "essenti@@": 6970,
    "diplomatic": 6971,
    "accord@@": 6972,
    "notes": 6973,
    "staff,": 6974,
    "gel@@": 6975,
    "ed:": 6976,
    "bran@@": 6977,
    "nature.": 6978,
    "where.": 6979,
    "scar@@": 6980,
    "project,": 6981,
    "form,": 6982,
    "course.": 6983,
    "…@@": 6984,
    "sufficiently": 6985,
    "has,": 6986,
    "energy.": 6987,
    "charge.": 6988,
    "cham@@": 6989,
    "symbol": 6990,
    "new,": 6991,
    "2020": 6992,
    "ta,": 6993,
    "ry,": 6994,
    "events.": 6995,
    "Atlantic": 6996,
    "ys@@": 6997,
    "packaging": 6998,
    "period,": 6999,
    "geographical": 7000,
    "subjec@@": 7001,
    "Ku@@": 7002,
    "wear": 7003,
    "must,": 7004,
    "(\"@@": 7005,
    "major@@": 7006,
    "domain": 7007,
    "ade@@": 7008,
    "CA@@": 7009,
    "Congress": 7010,
    "targeted": 7011,
    "government,": 7012,
    "ise,": 7013,
    "draw@@": 7014,
    "Lastly,": 7015,
    "ency.": 7016,
    "confirmation": 7017,
    "Deutsche": 7018,
    "Boo@@": 7019,
    "retur@@": 7020,
    "accid@@": 7021,
    "stag@@": 7022,
    "emphas@@": 7023,
    "shift": 7024,
    "beach,": 7025,
    "tic.": 7026,
    "oldest": 7027,
    "affair@@": 7028,
    "bab@@": 7029,
    "label": 7030,
    "cover@@": 7031,
    "considers": 7032,
    "Oper@@": 7033,
    "week.": 7034,
    "affects": 7035,
    "self,": 7036,
    "Pra@@": 7037,
    "Gal@@": 7038,
    "urch@@": 7039,
    "night@@": 7040,
    "atis@@": 7041,
    "Palace": 7042,
    "inspired": 7043,
    "Gam@@": 7044,
    "Constitutional": 7045,
    "scra@@": 7046,
    "business,": 7047,
    "push": 7048,
    "like@@": 7049,
    "justified": 7050,
    "authorities.": 7051,
    "tre": 7052,
    "hall": 7053,
    "mother": 7054,
    "happen@@": 7055,
    "VAT": 7056,
    "Have": 7057,
    "Be": 7058,
    "country’s": 7059,
    "Luxembourg": 7060,
    "strictly": 7061,
    "reflec@@": 7062,
    "town.": 7063,
    "amend@@": 7064,
    "aten": 7065,
    "trend": 7066,
    "Cham@@": 7067,
    "figh@@": 7068,
    "proportion@@": 7069,
    "enjoy@@": 7070,
    "clicking": 7071,
    "a.@@": 7072,
    "meas@@": 7073,
    "force.": 7074,
    "â@@": 7075,
    "squar@@": 7076,
    "sight": 7077,
    "opens": 7078,
    "gap": 7079,
    "fam@@": 7080,
    "delay@@": 7081,
    "interests.": 7082,
    "fly": 7083,
    "elled": 7084,
    "cleaning": 7085,
    "bus@@": 7086,
    "amoun@@": 7087,
    "profit@@": 7088,
    "deser@@": 7089,
    "Die": 7090,
    "Chr@@": 7091,
    "50%": 7092,
    "2010@@": 7093,
    "snow@@": 7094,
    "plenary": 7095,
    "ensu@@": 7096,
    "blog": 7097,
    "ado": 7098,
    "High@@": 7099,
    "CF@@": 7100,
    "mati@@": 7101,
    "19th": 7102,
    "condem@@": 7103,
    "lie@@": 7104,
    "ink": 7105,
    "finish": 7106,
    "essentially": 7107,
    "Multi@@": 7108,
    "proportion": 7109,
    "ned.": 7110,
    "mo": 7111,
    "dies.": 7112,
    "aqu@@": 7113,
    "(F@@": 7114,
    "weak": 7115,
    "sively": 7116,
    "disabled": 7117,
    "total@@": 7118,
    "freedom,": 7119,
    "USB": 7120,
    "Besides": 7121,
    "edy": 7122,
    "scrip@@": 7123,
    "belong": 7124,
    "Peter": 7125,
    "record@@": 7126,
    "recognize": 7127,
    "q": 7128,
    "pt@@": 7129,
    "Fa@@": 7130,
    "referring": 7131,
    "miss": 7132,
    "alongside": 7133,
    "liable": 7134,
    "diseases": 7135,
    "cohes@@": 7136,
    "spite": 7137,
    "specul@@": 7138,
    "Over@@": 7139,
    "negotiations.": 7140,
    "even@@": 7141,
    "ality.": 7142,
    "sleep@@": 7143,
    "savings": 7144,
    "Real": 7145,
    "mod@@": 7146,
    "iry": 7147,
    "Station": 7148,
    "islands": 7149,
    "trig@@": 7150,
    "integrate": 7151,
    "Press": 7152,
    "Bulgaria": 7153,
    "Based": 7154,
    "contextual": 7155,
    "concepts": 7156,
    "Tip:": 7157,
    "tured": 7158,
    "roo@@": 7159,
    "attached": 7160,
    "heating": 7161,
    "King": 7162,
    "scheme": 7163,
    "rapporteur.": 7164,
    "ness.": 7165,
    "Check": 7166,
    "provision@@": 7167,
    "beach.": 7168,
    "switch": 7169,
    "filter": 7170,
    "user@@": 7171,
    "suppor@@": 7172,
    "said.": 7173,
    "neighbour@@": 7174,
    "killed": 7175,
    "theat@@": 7176,
    "ú@@": 7177,
    "Paul": 7178,
    "tations": 7179,
    "Church": 7180,
    "simil@@": 7181,
    "restaurant,": 7182,
    "request.": 7183,
    "adults": 7184,
    "Fra@@": 7185,
    "ver.": 7186,
    "text.": 7187,
    "country's": 7188,
    "grown": 7189,
    "sky": 7190,
    "purely": 7191,
    "ind@@": 7192,
    "assets": 7193,
    "recomm@@": 7194,
    "missing": 7195,
    "ines.": 7196,
    "interest.": 7197,
    "director@@": 7198,
    "collect": 7199,
    "am.": 7200,
    "AT": 7201,
    "ital": 7202,
    "(N@@": 7203,
    "worst": 7204,
    "doub@@": 7205,
    "prac@@": 7206,
    "partners.": 7207,
    "shel@@": 7208,
    "seg@@": 7209,
    "professionals": 7210,
    "itors": 7211,
    "acquired": 7212,
    "structur@@": 7213,
    "specialized": 7214,
    "seeks": 7215,
    "tribute": 7216,
    "sights": 7217,
    "publication": 7218,
    "forec@@": 7219,
    "deficit": 7220,
    "Saint": 7221,
    "п@@": 7222,
    "CE": 7223,
    "stro@@": 7224,
    "reaction": 7225,
    "behaviour": 7226,
    "Fil@@": 7227,
    "75": 7228,
    "trees": 7229,
    "Hy@@": 7230,
    "sponsor@@": 7231,
    "solar": 7232,
    "Z": 7233,
    "state.": 7234,
    "»@@": 7235,
    "valley": 7236,
    "transmission": 7237,
    "olive": 7238,
    "imagine": 7239,
    "Next": 7240,
    "willingness": 7241,
    "promp@@": 7242,
    "electron@@": 7243,
    "difficulty": 7244,
    "Golf": 7245,
    "dispos@@": 7246,
    "programmes.": 7247,
    "PHP": 7248,
    "Common": 7249,
    "zer@@": 7250,
    "1:@@": 7251,
    "wave": 7252,
    "nomin@@": 7253,
    "cells": 7254,
    "bir@@": 7255,
    "20%": 7256,
    "lo": 7257,
    "destruction": 7258,
    "boost": 7259,
    "sters": 7260,
    "simul@@": 7261,
    "kit@@": 7262,
    "incorpor@@": 7263,
    "cock@@": 7264,
    "comprehen@@": 7265,
    "sections": 7266,
    "ped.": 7267,
    "hous@@": 7268,
    "x-@@": 7269,
    "dering": 7270,
    "utmost": 7271,
    "compact": 7272,
    "routes": 7273,
    "nutri@@": 7274,
    "characters": 7275,
    "Tit@@": 7276,
    "relaxation": 7277,
    "ough@@": 7278,
    "lounge": 7279,
    "housing": 7280,
    "undermin@@": 7281,
    "canc@@": 7282,
    "]@@": 7283,
    "190@@": 7284,
    "deal@@": 7285,
    "self.": 7286,
    "round@@": 7287,
    "world-@@": 7288,
    "wooden": 7289,
    "Poli@@": 7290,
    "Pla@@": 7291,
    "ality,": 7292,
    "dictator@@": 7293,
    "Presidency,": 7294,
    "root": 7295,
    "School": 7296,
    "station,": 7297,
    "deli@@": 7298,
    "Consequently,": 7299,
    "enough.": 7300,
    "ne,": 7301,
    "Pl@@": 7302,
    "windows": 7303,
    "tful": 7304,
    "reason@@": 7305,
    "artist": 7306,
    "minor@@": 7307,
    "exact": 7308,
    "atives.": 7309,
    "ways,": 7310,
    "resource": 7311,
    "passing": 7312,
    "entertain@@": 7313,
    "committees": 7314,
    "shot": 7315,
    "logical": 7316,
    "down.": 7317,
    "4-star": 7318,
    "ding.": 7319,
    "'re": 7320,
    "psych@@": 7321,
    "mes": 7322,
    "ets.": 7323,
    "�": 7324,
    "plas@@": 7325,
    "can,": 7326,
    "supplies": 7327,
    "set@@": 7328,
    "ges.": 7329,
    "conven@@": 7330,
    "categories": 7331,
    "sophisticated": 7332,
    "mind,": 7333,
    "gers": 7334,
    "Front": 7335,
    "clarify": 7336,
    "citizens'": 7337,
    "Civil": 7338,
    "Agenda": 7339,
    "self": 7340,
    "2004,": 7341,
    "simpl@@": 7342,
    "incorporated": 7343,
    "guil@@": 7344,
    "favourable": 7345,
    "que@@": 7346,
    "harmonisation": 7347,
    "marine": 7348,
    "Constitu@@": 7349,
    "undertaken": 7350,
    "ort": 7351,
    "nights": 7352,
    "led,": 7353,
    "governing": 7354,
    "depos@@": 7355,
    "processed": 7356,
    "preserve": 7357,
    "peti@@": 7358,
    "hidden": 7359,
    "software.": 7360,
    "achie@@": 7361,
    "vation": 7362,
    "ines,": 7363,
    "town@@": 7364,
    "suggestions": 7365,
    "reservations": 7366,
    "heading": 7367,
    "error@@": 7368,
    "Rome": 7369,
    "Note:": 7370,
    "visitor@@": 7371,
    "parliaments": 7372,
    "events,": 7373,
    "counter": 7374,
    "Environment,": 7375,
    "sites,": 7376,
    "transactions": 7377,
    "ished.": 7378,
    "honour": 7379,
    "Fundamental": 7380,
    "pollution": 7381,
    "subst@@": 7382,
    "executive": 7383,
    "agenda.": 7384,
    "again@@": 7385,
    "л@@": 7386,
    "projects,": 7387,
    "negoti@@": 7388,
    "desi@@": 7389,
    "competen@@": 7390,
    "capital@@": 7391,
    "te:": 7392,
    "suit": 7393,
    "meaningfully": 7394,
    "lands.": 7395,
    "for,": 7396,
    "black@@": 7397,
    "accompl@@": 7398,
    "topics": 7399,
    "stunning": 7400,
    "principl@@": 7401,
    "people's": 7402,
    "participating": 7403,
    "feder@@": 7404,
    "arity": 7405,
    "Mad@@": 7406,
    "Leban@@": 7407,
    "t)": 7408,
    "obstacles": 7409,
    "conserv@@": 7410,
    "Ass@@": 7411,
    "trial": 7412,
    "ror": 7413,
    "percentage": 7414,
    "native": 7415,
    "graphy": 7416,
    "effect.": 7417,
    "dream": 7418,
    "allo@@": 7419,
    "Fir@@": 7420,
    "habit@@": 7421,
    "I'm": 7422,
    "ze.": 7423,
    "one's": 7424,
    "disk": 7425,
    "cing": 7426,
    "affairs": 7427,
    "ration@@": 7428,
    "loss@@": 7429,
    "bearing": 7430,
    "Danish": 7431,
    "mal": 7432,
    "considerably": 7433,
    "destro@@": 7434,
    "Cro@@": 7435,
    "promise": 7436,
    "dow@@": 7437,
    "dered": 7438,
    "urgently": 7439,
    "consoli@@": 7440,
    "Description:": 7441,
    "10%": 7442,
    "extending": 7443,
    "TO": 7444,
    "ultimate": 7445,
    "teams": 7446,
    "organ@@": 7447,
    "envis@@": 7448,
    "den,": 7449,
    "à@@": 7450,
    "ch-@@": 7451,
    "ago@@": 7452,
    "tention": 7453,
    "sensible": 7454,
    "sim@@": 7455,
    "night.": 7456,
    "conclusion,": 7457,
    "inhabitants": 7458,
    "gon@@": 7459,
    "consent": 7460,
    "business@@": 7461,
    "Fol@@": 7462,
    "succeeded": 7463,
    "ania": 7464,
    "significance": 7465,
    "ration,": 7466,
    "layer": 7467,
    "cia": 7468,
    "block@@": 7469,
    "id,": 7470,
    "compli@@": 7471,
    "Members,": 7472,
    "window@@": 7473,
    "mere": 7474,
    "films": 7475,
    "assigned": 7476,
    "army": 7477,
    "edited": 7478,
    "director": 7479,
    "alle": 7480,
    "mouse": 7481,
    "gradually": 7482,
    "aid.": 7483,
    "1)": 7484,
    "fied,": 7485,
    "community.": 7486,
    "resor@@": 7487,
    "promised": 7488,
    "exports": 7489,
    "Africa,": 7490,
    "wines": 7491,
    "tw@@": 7492,
    "heal@@": 7493,
    "exception": 7494,
    "Tar@@": 7495,
    "\"Find": 7496,
    "mented": 7497,
    "2004.": 7498,
    "y\"": 7499,
    "list.": 7500,
    "good,": 7501,
    "available,": 7502,
    "amendments,": 7503,
    "2005.": 7504,
    "1980@@": 7505,
    "Serbi@@": 7506,
    "varied": 7507,
    "tournam@@": 7508,
    "responsibility.": 7509,
    "parliam@@": 7510,
    "http://www.@@": 7511,
    "file.": 7512,
    "retain": 7513,
    "occur@@": 7514,
    "immigrants": 7515,
    "comb@@": 7516,
    "bling": 7517,
    "Rem@@": 7518,
    "Music": 7519,
    "migran@@": 7520,
    "highlights": 7521,
    "dition@@": 7522,
    "(IT)": 7523,
    "imports": 7524,
    "wall@@": 7525,
    "value.": 7526,
    "taxation": 7527,
    "poor@@": 7528,
    "ky": 7529,
    "superior": 7530,
    "instructions": 7531,
    "grammatically": 7532,
    "Pakist@@": 7533,
    "town,": 7534,
    "hur@@": 7535,
    "Page\"": 7536,
    "China.": 7537,
    "subjects": 7538,
    "festival": 7539,
    "Belar@@": 7540,
    "Program@@": 7541,
    "dol@@": 7542,
    "sle@@": 7543,
    "manufacture": 7544,
    "pick": 7545,
    "amazing": 7546,
    "suites": 7547,
    "follows": 7548,
    "a.m.": 7549,
    "hill@@": 7550,
    "football": 7551,
    "arg@@": 7552,
    "On@@": 7553,
    "throw": 7554,
    "insist": 7555,
    "indoor": 7556,
    "11.@@": 7557,
    "strategy,": 7558,
    "medieval": 7559,
    "constitutes": 7560,
    "Octo@@": 7561,
    "Lor@@": 7562,
    "tick@@": 7563,
    "text,": 7564,
    "keyword/phrase": 7565,
    "Tour": 7566,
    "sized": 7567,
    "organise": 7568,
    "contextually,": 7569,
    "manner.": 7570,
    "another.": 7571,
    "sounds": 7572,
    "hoste@@": 7573,
    "Sit@@": 7574,
    "sustain@@": 7575,
    "ो@@": 7576,
    "tries": 7577,
    "progress.": 7578,
    "own.": 7579,
    "worldwide.": 7580,
    "sever@@": 7581,
    "km@@": 7582,
    "h.": 7583,
    "first-@@": 7584,
    "near@@": 7585,
    "Georgi@@": 7586,
    "oppon@@": 7587,
    "courage": 7588,
    "avail@@": 7589,
    "schem@@": 7590,
    "path@@": 7591,
    "ens,": 7592,
    "S.@@": 7593,
    "skiing": 7594,
    "lunch": 7595,
    "avi@@": 7596,
    "mou@@": 7597,
    "motiv@@": 7598,
    "Express": 7599,
    "uniform": 7600,
    "signific@@": 7601,
    "Server": 7602,
    "Indones@@": 7603,
    "returns": 7604,
    "ians": 7605,
    "dry": 7606,
    "plastic": 7607,
    "plant@@": 7608,
    "labelling": 7609,
    "farming": 7610,
    "adi@@": 7611,
    "Fon@@": 7612,
    "widespread": 7613,
    "teen": 7614,
    "persu@@": 7615,
    "kon@@": 7616,
    "fal@@": 7617,
    "consulting": 7618,
    "san@@": 7619,
    "heritage": 7620,
    "basis,": 7621,
    "safety.": 7622,
    "dit@@": 7623,
    "addressing": 7624,
    "red@@": 7625,
    "contrast": 7626,
    "abuse": 7627,
    "Contro@@": 7628,
    "vision@@": 7629,
    "pers@@": 7630,
    "dom": 7631,
    "dark": 7632,
    "violations": 7633,
    "valle@@": 7634,
    "field,": 7635,
    "Strategy": 7636,
    "Find": 7637,
    "ij@@": 7638,
    "eliminate": 7639,
    "e/@@": 7640,
    "Via": 7641,
    "के": 7642,
    "term.": 7643,
    "song": 7644,
    "pric@@": 7645,
    "portra@@": 7646,
    "parallel": 7647,
    "factor@@": 7648,
    "radical": 7649,
    "Ital@@": 7650,
    "multilateral": 7651,
    "ight@@": 7652,
    "describe": 7653,
    "concent@@": 7654,
    "bes": 7655,
    "Regul@@": 7656,
    "és": 7657,
    "bar.": 7658,
    "authorities,": 7659,
    "1997": 7660,
    "proposals.": 7661,
    "city@@": 7662,
    "anniversary": 7663,
    "ish.": 7664,
    "Americans": 7665,
    "theory": 7666,
    "men.": 7667,
    "Britain": 7668,
    "corruption": 7669,
    "rapporteur@@": 7670,
    "movie": 7671,
    "get@@": 7672,
    "zon@@": 7673,
    "pel@@": 7674,
    "ministers": 7675,
    "delete": 7676,
    "ato@@": 7677,
    "victim@@": 7678,
    "evi@@": 7679,
    "enjoys": 7680,
    "CON@@": 7681,
    "cky": 7682,
    "hypo@@": 7683,
    "third-@@": 7684,
    "classical": 7685,
    "Internal": 7686,
    "recording": 7687,
    "ills": 7688,
    "by.": 7689,
    "approach,": 7690,
    "dan@@": 7691,
    "umin@@": 7692,
    "guar@@": 7693,
    "evol@@": 7694,
    "Croatia": 7695,
    "u,": 7696,
    "trained": 7697,
    "trade,": 7698,
    "iner@@": 7699,
    "correctly": 7700,
    "artic@@": 7701,
    "adverti@@": 7702,
    "Make": 7703,
    "scheduled": 7704,
    "introduc@@": 7705,
    "danger@@": 7706,
    "ada@@": 7707,
    "Instead,": 7708,
    "peace@@": 7709,
    "fashion": 7710,
    "pira@@": 7711,
    "co.": 7712,
    "invo@@": 7713,
    "politici@@": 7714,
    "ease": 7715,
    "ber.": 7716,
    "patient": 7717,
    "feel@@": 7718,
    "dest@@": 7719,
    "Festival": 7720,
    "10.@@": 7721,
    "skill@@": 7722,
    "Camp@@": 7723,
    "yers": 7724,
    "rules,": 7725,
    "providers": 7726,
    "ely,": 7727,
    "Russia.": 7728,
    "Ka@@": 7729,
    "--@@": 7730,
    "six@@": 7731,
    "no-@@": 7732,
    "barriers": 7733,
    "Bay": 7734,
    "bedrooms": 7735,
    "atives,": 7736,
    "agenci@@": 7737,
    "substance": 7738,
    "owner@@": 7739,
    "immig@@": 7740,
    "ater@@": 7741,
    "government@@": 7742,
    "exploitation": 7743,
    "sive,": 7744,
    "family.": 7745,
    "III": 7746,
    "box@@": 7747,
    "PRO@@": 7748,
    "sul@@": 7749,
    "involved.": 7750,
    "20th": 7751,
    "val.": 7752,
    "underlying": 7753,
    "sity": 7754,
    "Christmas": 7755,
    "38@@": 7756,
    "teaching": 7757,
    "sen": 7758,
    "vie@@": 7759,
    "team@@": 7760,
    "shop@@": 7761,
    "Bush": 7762,
    "mit,": 7763,
    "asse@@": 7764,
    "48": 7765,
    "Intergovernmental": 7766,
    "Jewish": 7767,
    "pillar@@": 7768,
    "periods": 7769,
    "parameters": 7770,
    "fear@@": 7771,
    "struggle": 7772,
    "philosophy": 7773,
    "actions.": 7774,
    "Family": 7775,
    "seemed": 7776,
    "investigation": 7777,
    "highlighted": 7778,
    "eat": 7779,
    "lock": 7780,
    "advent@@": 7781,
    "prior@@": 7782,
    "encryp@@": 7783,
    "ague": 7784,
    "fewer": 7785,
    "complic@@": 7786,
    "wild": 7787,
    "underground": 7788,
    "es).": 7789,
    "pris@@": 7790,
    "welcom@@": 7791,
    "tox@@": 7792,
    "supervision": 7793,
    "gor@@": 7794,
    "farm@@": 7795,
    "expand": 7796,
    "representing": 7797,
    "objectives.": 7798,
    "min": 7799,
    "freely": 7800,
    "vacc@@": 7801,
    "stars": 7802,
    "pollu@@": 7803,
    "Year": 7804,
    "ब@@": 7805,
    "stage.": 7806,
    "million.": 7807,
    "gres@@": 7808,
    "GD@@": 7809,
    "Bat@@": 7810,
    "restructuring": 7811,
    "contradic@@": 7812,
    "America’s": 7813,
    "server@@": 7814,
    "possi@@": 7815,
    "harmful": 7816,
    "constructed": 7817,
    "a?": 7818,
    "Dor@@": 7819,
    "yer,": 7820,
    "worse": 7821,
    "remain@@": 7822,
    "control,": 7823,
    "short,": 7824,
    "narrow": 7825,
    "manager": 7826,
    "citizen@@": 7827,
    "Terra@@": 7828,
    "Several": 7829,
    "speaker": 7830,
    "kilometres": 7831,
    "duties": 7832,
    "PDF": 7833,
    "theor@@": 7834,
    "initially": 7835,
    "id.": 7836,
    "Stre@@": 7837,
    "restor@@": 7838,
    "sex@@": 7839,
    "ira@@": 7840,
    "ground,": 7841,
    "believed": 7842,
    "IA": 7843,
    "External": 7844,
    "thumbnail": 7845,
    "order,": 7846,
    "A-@@": 7847,
    "files.": 7848,
    "Nor": 7849,
    "losing": 7850,
    "experience,": 7851,
    "build@@": 7852,
    "ł@@": 7853,
    "full-@@": 7854,
    "fla@@": 7855,
    "declar@@": 7856,
    "board@@": 7857,
    "parties,": 7858,
    "insur@@": 7859,
    "dence": 7860,
    "clear.": 7861,
    "ger,": 7862,
    "event,": 7863,
    "monitor@@": 7864,
    "hun@@": 7865,
    "Hong": 7866,
    "EX@@": 7867,
    "departure": 7868,
    "channels": 7869,
    "BR@@": 7870,
    "tables": 7871,
    "lines.": 7872,
    "es\"": 7873,
    "Cyprus": 7874,
    "roots": 7875,
    "Lib@@": 7876,
    "2/@@": 7877,
    "artist@@": 7878,
    "Law": 7879,
    "link@@": 7880,
    "diversit@@": 7881,
    "whereby": 7882,
    "resol@@": 7883,
    "regim@@": 7884,
    "made,": 7885,
    "studio": 7886,
    "reality.": 7887,
    "ien@@": 7888,
    "can't": 7889,
    "used,": 7890,
    "surprised": 7891,
    "phon@@": 7892,
    "general,": 7893,
    "Terms": 7894,
    "weekend": 7895,
    "tend@@": 7896,
    "reconstruction": 7897,
    "genuinely": 7898,
    "Street": 7899,
    "Ci@@": 7900,
    "simpli@@": 7901,
    "enjoying": 7902,
    "unfortunately,": 7903,
    "que,": 7904,
    "internationally": 7905,
    "Mul@@": 7906,
    "45@@": 7907,
    "son,": 7908,
    "semin@@": 7909,
    "ling@@": 7910,
    "ingly,": 7911,
    "boasts": 7912,
    "Turkey@@": 7913,
    "Rec@@": 7914,
    "nic@@": 7915,
    "succeed": 7916,
    "destroyed": 7917,
    "operated": 7918,
    "moment.": 7919,
    "aside": 7920,
    "warm@@": 7921,
    "lower@@": 7922,
    "auf": 7923,
    "Quality": 7924,
    "tran@@": 7925,
    "tiz@@": 7926,
    "funded": 7927,
    "D,": 7928,
    "Bar": 7929,
    "te-@@": 7930,
    "sector@@": 7931,
    "Van": 7932,
    "per.": 7933,
    "concert": 7934,
    "communicate": 7935,
    "coherent": 7936,
    "arise": 7937,
    "´@@": 7938,
    "ury": 7939,
    "t;": 7940,
    "aim@@": 7941,
    "operates": 7942,
    "e’s": 7943,
    "coastal": 7944,
    "thri@@": 7945,
    "massage": 7946,
    "David": 7947,
    "Dan@@": 7948,
    "Cub@@": 7949,
    "A3@@": 7950,
    "(L@@": 7951,
    "villa": 7952,
    "poorest": 7953,
    "Sel@@": 7954,
    "Lim@@": 7955,
    "attend": 7956,
    "aid,": 7957,
    "state,": 7958,
    "shops,": 7959,
    "offer.": 7960,
    "Agen@@": 7961,
    "modules": 7962,
    "Ram@@": 7963,
    "Kore@@": 7964,
    "ket": 7965,
    "ation?": 7966,
    "with,": 7967,
    "uring": 7968,
    "language.": 7969,
    "descrip@@": 7970,
    "EU’s": 7971,
    "alb@@": 7972,
    "licens@@": 7973,
    "network.": 7974,
    "dn@@": 7975,
    "And,": 7976,
    "virtu@@": 7977,
    "minor": 7978,
    "West@@": 7979,
    "mechanis@@": 7980,
    "lia": 7981,
    "gest": 7982,
    "checks": 7983,
    "judi@@": 7984,
    "garden@@": 7985,
    "Ur@@": 7986,
    "Second": 7987,
    "table.": 7988,
    "government.": 7989,
    "ements": 7990,
    "circul@@": 7991,
    "mentioned,": 7992,
    "icon@@": 7993,
    "ham": 7994,
    "Further": 7995,
    "report@@": 7996,
    "bought": 7997,
    "Bus@@": 7998,
    "secondary": 7999,
    "expect@@": 8000,
    "Three": 8001,
    "ê@@": 8002,
    "Emp@@": 8003,
    "trade.": 8004,
    "orig@@": 8005,
    "trend@@": 8006,
    "regulation.": 8007,
    "ged.": 8008,
    "electrical": 8009,
    "edition": 8010,
    "Mark@@": 8011,
    "reputation": 8012,
    "lig@@": 8013,
    "fundament@@": 8014,
    "boot": 8015,
    "studied": 8016,
    "ple": 8017,
    "modernis@@": 8018,
    "aul@@": 8019,
    "arily": 8020,
    "twice": 8021,
    "oun@@": 8022,
    "done,": 8023,
    "defe@@": 8024,
    "2003,": 8025,
    "(M@@": 8026,
    "stages": 8027,
    "cha@@": 8028,
    "broadcast@@": 8029,
    "about.": 8030,
    "Federation": 8031,
    "EF@@": 8032,
    "Commission'": 8033,
    "Apart": 8034,
    "welcomed": 8035,
    "ration.": 8036,
    "manual": 8037,
    "ones.": 8038,
    "expor@@": 8039,
    "competitiven@@": 8040,
    "ole": 8041,
    "icon": 8042,
    "distur@@": 8043,
    "confid@@": 8044,
    "belief": 8045,
    "begins": 8046,
    "suppliers": 8047,
    "minister": 8048,
    "lines,": 8049,
    "villages": 8050,
    "flows": 8051,
    "Robert": 8052,
    "titude": 8053,
    "tennis": 8054,
    "Rights,": 8055,
    "him,": 8056,
    "OR": 8057,
    "custom": 8058,
    "Shar@@": 8059,
    "250": 8060,
    "cially": 8061,
    "Muslim": 8062,
    "Enter": 8063,
    "vocational": 8064,
    "neighbor@@": 8065,
    "ing?": 8066,
    "fic": 8067,
    "colum@@": 8068,
    "birth": 8069,
    "atur@@": 8070,
    "Systems": 8071,
    "Micro@@": 8072,
    "Four@@": 8073,
    "Tus@@": 8074,
    "zy": 8075,
    "student": 8076,
    "residential": 8077,
    "remember@@": 8078,
    "hopes": 8079,
    "Assembly": 8080,
    "AN": 8081,
    "guaranteeing": 8082,
    "maybe": 8083,
    "Space": 8084,
    "yle": 8085,
    "go.": 8086,
    "Tom@@": 8087,
    "standards,": 8088,
    "preferred": 8089,
    "today@@": 8090,
    "US,": 8091,
    "Internet.": 8092,
    "struc@@": 8093,
    "minis@@": 8094,
    "compe@@": 8095,
    "es-@@": 8096,
    "restored": 8097,
    "intern@@": 8098,
    "Rotary": 8099,
    "hope@@": 8100,
    "anywhere": 8101,
    "ways.": 8102,
    "ght": 8103,
    "behavi@@": 8104,
    "9)": 8105,
    "suited": 8106,
    "scienti@@": 8107,
    "practice,": 8108,
    "citizen": 8109,
    "Str@@": 8110,
    "manipul@@": 8111,
    "circ@@": 8112,
    "zation": 8113,
    "settle@@": 8114,
    "impres@@": 8115,
    "conveni@@": 8116,
    "stipul@@": 8117,
    "signing": 8118,
    "over-@@": 8119,
    "ility": 8120,
    "compulsory": 8121,
    "briefly": 8122,
    "ón": 8123,
    "ola": 8124,
    "acknowled@@": 8125,
    "rar@@": 8126,
    "liz@@": 8127,
    "cker": 8128,
    "band@@": 8129,
    "Wi-Fi": 8130,
    "ora": 8131,
    "mill@@": 8132,
    "deligh@@": 8133,
    "actors": 8134,
    "SMEs": 8135,
    "Gl@@": 8136,
    "Environment": 8137,
    "violation": 8138,
    "decline": 8139,
    "Network": 8140,
    "procedure,": 8141,
    "remarkable": 8142,
    "splendid": 8143,
    "satisfactory": 8144,
    "equipment,": 8145,
    "come,": 8146,
    "\\@@": 8147,
    "PH@@": 8148,
    "Java": 8149,
    "ome": 8150,
    "margin@@": 8151,
    "productivity": 8152,
    "featuring": 8153,
    "Dom@@": 8154,
    "warning": 8155,
    "today’s": 8156,
    "referendum": 8157,
    "alter@@": 8158,
    "</bookmark_value><bookmark_value>@@": 8159,
    "Doc@@": 8160,
    "observe": 8161,
    "ately,": 8162,
    "values.": 8163,
    "prosper@@": 8164,
    "contrary": 8165,
    "awa@@": 8166,
    "EG@@": 8167,
    "oppos@@": 8168,
    "everybody": 8169,
    "tree": 8170,
    "rela@@": 8171,
    "optimal": 8172,
    "devoted": 8173,
    "reasons.": 8174,
    "users.": 8175,
    "non": 8176,
    "inger": 8177,
    "execution": 8178,
    "Catal@@": 8179,
    "trips": 8180,
    "decision.": 8181,
    "Video": 8182,
    "Mit@@": 8183,
    "wil@@": 8184,
    "mar": 8185,
    "fligh@@": 8186,
    "Jac@@": 8187,
    "’,": 8188,
    "fans": 8189,
    "da,": 8190,
    "Africa.": 8191,
    "recru@@": 8192,
    "provin@@": 8193,
    "Union@@": 8194,
    "rent@@": 8195,
    "amendments.": 8196,
    "Project": 8197,
    "Prague": 8198,
    "states,": 8199,
    "ols": 8200,
    "Angel@@": 8201,
    "Afri@@": 8202,
    "withdraw": 8203,
    "scho@@": 8204,
    "movements": 8205,
    "functionality": 8206,
    "design.": 8207,
    "a\"": 8208,
    "State.": 8209,
    "tual": 8210,
    "treas@@": 8211,
    "ics.": 8212,
    "go,": 8213,
    "Funds": 8214,
    "producer": 8215,
    "musici@@": 8216,
    "mul@@": 8217,
    "commit": 8218,
    "catch": 8219,
    "affili@@": 8220,
    "sy@@": 8221,
    "clubs": 8222,
    "gallery": 8223,
    "wer": 8224,
    "occurred": 8225,
    "hiking": 8226,
    "grade": 8227,
    "protection@@": 8228,
    "ot@@": 8229,
    "moder@@": 8230,
    "ane": 8231,
    "2,@@": 8232,
    "stuff@@": 8233,
    "anz@@": 8234,
    "ran": 8235,
    "array": 8236,
    "Notes:": 8237,
    "GN@@": 8238,
    "reporting": 8239,
    "Audi@@": 8240,
    "repeatedly": 8241,
    "protocol": 8242,
    "Ther@@": 8243,
    "1996": 8244,
    "wage": 8245,
    "Num@@": 8246,
    "Commissioner.": 8247,
    "Cri@@": 8248,
    "levels.": 8249,
    "economic,": 8250,
    "access.": 8251,
    "11,": 8252,
    "(with": 8253,
    "г@@": 8254,
    "rever@@": 8255,
    "firstly": 8256,
    "Bes@@": 8257,
    "reserved": 8258,
    "ific@@": 8259,
    "destruc@@": 8260,
    "ap": 8261,
    "short@@": 8262,
    "sel": 8263,
    "Equ@@": 8264,
    "name.": 8265,
    "Post@@": 8266,
    "supervis@@": 8267,
    "Customer": 8268,
    "Add": 8269,
    "upgrade": 8270,
    "instance": 8271,
    "informal": 8272,
    "distinc@@": 8273,
    "bonus": 8274,
    "encouraged": 8275,
    "affecting": 8276,
    "guidel@@": 8277,
    "destroy": 8278,
    "prospects": 8279,
    "e).": 8280,
    "Afghanistan": 8281,
    "virus": 8282,
    "job@@": 8283,
    "dish@@": 8284,
    "individually": 8285,
    "config@@": 8286,
    "exposed": 8287,
    "cost-@@": 8288,
    "Bar,": 8289,
    "remarks": 8290,
    "fascinating": 8291,
    "aviation": 8292,
    "Well,": 8293,
    "PD@@": 8294,
    "ENT@@": 8295,
    "tent": 8296,
    "dramatic": 8297,
    "committe@@": 8298,
    "tea": 8299,
    "money,": 8300,
    "civil@@": 8301,
    "citiz@@": 8302,
    "({{@@": 8303,
    "tons": 8304,
    "downlo@@": 8305,
    "America,": 8306,
    "z.": 8307,
    "vessels": 8308,
    "electoral": 8309,
    "songs": 8310,
    "children@@": 8311,
    "burg,": 8312,
    "blan@@": 8313,
    "balcony": 8314,
    "ame@@": 8315,
    "first,": 8316,
    "Read": 8317,
    "ör@@": 8318,
    "regulated": 8319,
    "Pact": 8320,
    "consum@@": 8321,
    "coll@@": 8322,
    "ators,": 8323,
    "Employment": 8324,
    "B.": 8325,
    "(which": 8326,
    "mes@@": 8327,
    "rub@@": 8328,
    "ells": 8329,
    "Plat@@": 8330,
    "Commun@@": 8331,
    "Cat@@": 8332,
    "population.": 8333,
    "pilot": 8334,
    "much,": 8335,
    "funds.": 8336,
    "dialo@@": 8337,
    "characteristic": 8338,
    "thorough": 8339,
    "tar": 8340,
    "principal": 8341,
    "est.": 8342,
    "itz@@": 8343,
    "Support": 8344,
    "Heads": 8345,
    "lor@@": 8346,
    "faith": 8347,
    "tings": 8348,
    "specify": 8349,
    "ser": 8350,
    "potenti@@": 8351,
    "mixed": 8352,
    "intelligent": 8353,
    "innov@@": 8354,
    "states.": 8355,
    "partial": 8356,
    "func@@": 8357,
    "fts@@": 8358,
    "body.": 8359,
    "regulation,": 8360,
    "level@@": 8361,
    "gin@@": 8362,
    "chen": 8363,
    "Single": 8364,
    "Kal@@": 8365,
    "ault": 8366,
    "Section": 8367,
    "NO@@": 8368,
    "Mak@@": 8369,
    "iness": 8370,
    "composed": 8371,
    "Casino": 8372,
    "word@@": 8373,
    "fel@@": 8374,
    "factory": 8375,
    "consumers.": 8376,
    "Town": 8377,
    "Fron@@": 8378,
    "workers,": 8379,
    "roll": 8380,
    "only.": 8381,
    "ki": 8382,
    "defini@@": 8383,
    "pool.": 8384,
    "dies@@": 8385,
    "Card": 8386,
    "heads": 8387,
    "Turkey,": 8388,
    "}})": 8389,
    "tt": 8390,
    "demand@@": 8391,
    "certified": 8392,
    "Jul@@": 8393,
    "food,": 8394,
    "Ministry": 8395,
    "uting": 8396,
    "of.": 8397,
    "drinks": 8398,
    "Friday": 8399,
    "didn't": 8400,
    "Minister@@": 8401,
    "war,": 8402,
    "textile": 8403,
    "portfolio": 8404,
    "kar@@": 8405,
    "errors": 8406,
    "ume": 8407,
    "smooth": 8408,
    "ior": 8409,
    "bicy@@": 8410,
    "ology,": 8411,
    "threat@@": 8412,
    "strug@@": 8413,
    "shif@@": 8414,
    "sample": 8415,
    "и": 8416,
    "ness@@": 8417,
    "is:": 8418,
    "manif@@": 8419,
    "la,": 8420,
    "natur@@": 8421,
    "enterprise": 8422,
    "ator,": 8423,
    "Site": 8424,
    "BO@@": 8425,
    "space.": 8426,
    "debating": 8427,
    "t!": 8428,
    "should,": 8429,
    "repair": 8430,
    "ia@@": 8431,
    "bed.": 8432,
    "1%": 8433,
    "mechanical": 8434,
    "expressly": 8435,
    "den.": 8436,
    "ambigu@@": 8437,
    "dimen@@": 8438,
    "favour@@": 8439,
    "Confer@@": 8440,
    "shuttle": 8441,
    "rup@@": 8442,
    "index": 8443,
    "force,": 8444,
    "financed": 8445,
    "bed,": 8446,
    "Jun@@": 8447,
    "2000.": 8448,
    "sculp@@": 8449,
    "broader": 8450,
    "gement": 8451,
    "expen@@": 8452,
    "ente": 8453,
    "allow@@": 8454,
    "condemn": 8455,
    "wise,": 8456,
    "terrorism.": 8457,
    "newspa@@": 8458,
    "fifth": 8459,
    "George": 8460,
    "Cooperation": 8461,
    "wes@@": 8462,
    "transitional": 8463,
    "staying": 8464,
    "music,": 8465,
    "empty": 8466,
    "vulner@@": 8467,
    "unfair": 8468,
    "manag@@": 8469,
    "landscap@@": 8470,
    "kan@@": 8471,
    "Holiday": 8472,
    "weal@@": 8473,
    "usage": 8474,
    "repeated": 8475,
    "comparable": 8476,
    "auto@@": 8477,
    "assembly": 8478,
    "seek@@": 8479,
    "focusing": 8480,
    "script": 8481,
    "regre@@": 8482,
    "records": 8483,
    "pit@@": 8484,
    "(H@@": 8485,
    "р@@": 8486,
    "loading": 8487,
    "finds": 8488,
    "sustainability": 8489,
    "mut@@": 8490,
    "Techn@@": 8491,
    "Objec@@": 8492,
    "Korea": 8493,
    "Subject:": 8494,
    ".)": 8495,
    "translated": 8496,
    "tions:": 8497,
    "damages": 8498,
    "references": 8499,
    "rated": 8500,
    "convergence": 8501,
    "bloo@@": 8502,
    "Mach@@": 8503,
    "Ed@@": 8504,
    "alling": 8505,
    "tics,": 8506,
    "permit": 8507,
    "instantly": 8508,
    "free.": 8509,
    "Union’s": 8510,
    "ethical": 8511,
    "scene": 8512,
    "renov@@": 8513,
    "ened": 8514,
    "moun@@": 8515,
    "losses": 8516,
    "fulfil@@": 8517,
    "concentration": 8518,
    "(NL)": 8519,
    "focuses": 8520,
    "compan@@": 8521,
    "province": 8522,
    "Product": 8523,
    "string": 8524,
    "rais@@": 8525,
    "pie@@": 8526,
    "kil@@": 8527,
    "compete": 8528,
    "Mel@@": 8529,
    "Manager": 8530,
    "strategi@@": 8531,
    "specially": 8532,
    "presidential": 8533,
    "ok": 8534,
    "eled": 8535,
    "chapter": 8536,
    "oursel@@": 8537,
    "constitution": 8538,
    "declare": 8539,
    "ão": 8540,
    "present.": 8541,
    "explanation": 8542,
    "environment@@": 8543,
    "Download": 8544,
    "500@@": 8545,
    "arranged": 8546,
    "arrange": 8547,
    "Island": 8548,
    "edit": 8549,
    "surroundings": 8550,
    "divi@@": 8551,
    "content.": 8552,
    "application.": 8553,
    "amending": 8554,
    "ador": 8555,
    "Q": 8556,
    "manufactured": 8557,
    "fications": 8558,
    "colours": 8559,
    "viewed": 8560,
    "Tunis@@": 8561,
    "Autom@@": 8562,
    "viney@@": 8563,
    "safety,": 8564,
    "proceedings": 8565,
    "kan": 8566,
    "enforcement": 8567,
    "alising": 8568,
    "Sunday": 8569,
    "traditions": 8570,
    "guest@@": 8571,
    "afternoon": 8572,
    "Plaza": 8573,
    "winter@@": 8574,
    "vote,": 8575,
    "tles": 8576,
    "metro": 8577,
    "subs@@": 8578,
    "style.": 8579,
    "pursu@@": 8580,
    "product.": 8581,
    "percep@@": 8582,
    "inher@@": 8583,
    "hope,": 8584,
    "Sor@@": 8585,
    "telephone,": 8586,
    "frequency": 8587,
    "competition,": 8588,
    "building,": 8589,
    "bers": 8590,
    "assum@@": 8591,
    "ager": 8592,
    "Vel@@": 8593,
    "Director": 8594,
    "environmentally": 8595,
    "ats@@": 8596,
    "minister@@": 8597,
    "esting": 8598,
    "Fle@@": 8599,
    "(G@@": 8600,
    "ugh@@": 8601,
    "typically": 8602,
    "subject.": 8603,
    "Belgi@@": 8604,
    "ideally": 8605,
    "File": 8606,
    "Euro-@@": 8607,
    "sphere": 8608,
    "ned,": 8609,
    "Digital": 8610,
    "Britain@@": 8611,
    "website,": 8612,
    "pag@@": 8613,
    "n’t": 8614,
    "jobs,": 8615,
    "sees": 8616,
    "internation@@": 8617,
    "deserves": 8618,
    "temper@@": 8619,
    "subsequently": 8620,
    "defen@@": 8621,
    "stage,": 8622,
    "ishes": 8623,
    "eine": 8624,
    "deterior@@": 8625,
    "ata": 8626,
    "pool@@": 8627,
    "granting": 8628,
    "rest@@": 8629,
    "argu@@": 8630,
    "Quar@@": 8631,
    "Bav@@": 8632,
    "purposes.": 8633,
    "counts": 8634,
    "costs,": 8635,
    "ank@@": 8636,
    "oppose": 8637,
    "port,": 8638,
    "ates,": 8639,
    "Swe@@": 8640,
    "37@@": 8641,
    "short-term": 8642,
    "Beach": 8643,
    "ía": 8644,
    "stress@@": 8645,
    "lively": 8646,
    "heav@@": 8647,
    "concer@@": 8648,
    "Retur@@": 8649,
    "Lis@@": 8650,
    "Kyoto": 8651,
    "ु@@": 8652,
    "President.": 8653,
    "Minister,": 8654,
    "forests": 8655,
    "Growth": 8656,
    "(including": 8657,
    "family,": 8658,
    "alism,": 8659,
    "Up@@": 8660,
    "Pu@@": 8661,
    "whenever": 8662,
    "superb": 8663,
    "stein": 8664,
    "labor": 8665,
    "Up": 8666,
    "S-@@": 8667,
    "Med@@": 8668,
    "herit@@": 8669,
    "Reg@@": 8670,
    "Rap@@": 8671,
    "Canada": 8672,
    "y-to-@@": 8673,
    "festiv@@": 8674,
    "color@@": 8675,
    "act@@": 8676,
    "Vice-President": 8677,
    "P-@@": 8678,
    "ratification": 8679,
    "matters.": 8680,
    "Martin": 8681,
    "subsi@@": 8682,
    "ger.": 8683,
    "diff@@": 8684,
    "Until": 8685,
    "ard,": 8686,
    "appropriations": 8687,
    "Thus": 8688,
    "Freed@@": 8689,
    "CP@@": 8690,
    "interest@@": 8691,
    "Act": 8692,
    "small,": 8693,
    "equipment.": 8694,
    "alt@@": 8695,
    "Dal@@": 8696,
    "tering": 8697,
    "respect.": 8698,
    "placing": 8699,
    "vice": 8700,
    "tragic": 8701,
    "refuse": 8702,
    "ques": 8703,
    "peace,": 8704,
    "ison": 8705,
    "ante": 8706,
    "SC@@": 8707,
    "things.": 8708,
    "organize": 8709,
    "alities": 8710,
    "blocks": 8711,
    "advise": 8712,
    "..@@": 8713,
    "threats": 8714,
    "sunny": 8715,
    "sub-@@": 8716,
    "own,": 8717,
    "call@@": 8718,
    "PO@@": 8719,
    "noti@@": 8720,
    "lug@@": 8721,
    "itarian": 8722,
    "accessi@@": 8723,
    "shower@@": 8724,
    "publish": 8725,
    "ona": 8726,
    "abil@@": 8727,
    "TV@@": 8728,
    "Player": 8729,
    "postal": 8730,
    "ग@@": 8731,
    "­@@": 8732,
    "trends": 8733,
    "programmes,": 8734,
    "panel": 8735,
    "oura@@": 8736,
    "afford": 8737,
    "Maria": 8738,
    "Finnish": 8739,
    "purchased": 8740,
    "bright": 8741,
    "Search": 8742,
    "Cir@@": 8743,
    "riding": 8744,
    "integra@@": 8745,
    "consequence": 8746,
    "chair": 8747,
    "wind@@": 8748,
    "tto": 8749,
    "repa@@": 8750,
    "not@@": 8751,
    "videos": 8752,
    "magaz@@": 8753,
    "beds.": 8754,
    "accounting": 8755,
    "further@@": 8756,
    "completion": 8757,
    "classes": 8758,
    "Mas@@": 8759,
    "Instead": 8760,
    "10-@@": 8761,
    "prosperity": 8762,
    "operator": 8763,
    "hill": 8764,
    "back.": 8765,
    "However": 8766,
    "App@@": 8767,
    "violent": 8768,
    "dan": 8769,
    "yon@@": 8770,
    "witness@@": 8771,
    "ni": 8772,
    "minorities": 8773,
    "inven@@": 8774,
    "exce@@": 8775,
    "Go": 8776,
    "Conserv@@": 8777,
    "°@@": 8778,
    "overwhel@@": 8779,
    "turns": 8780,
    "specialists": 8781,
    "expendi@@": 8782,
    "Comple@@": 8783,
    "research.": 8784,
    "continent": 8785,
    "Las": 8786,
    "Cast@@": 8787,
    "variable": 8788,
    "ured": 8789,
    "tropical": 8790,
    "privileged": 8791,
    "online.": 8792,
    "maintain@@": 8793,
    "clause": 8794,
    "asset": 8795,
    "700": 8796,
    "stocks": 8797,
    "need.": 8798,
    "cancer": 8799,
    "Parliament’s": 8800,
    "Braz@@": 8801,
    "tomorrow.": 8802,
    "A)": 8803,
    "unded": 8804,
    "tro": 8805,
    "mit.": 8806,
    "ition": 8807,
    "hour@@": 8808,
    "colleague,": 8809,
    "layout": 8810,
    "fees": 8811,
    "achievement": 8812,
    "Los": 8813,
    "questions,": 8814,
    "America.": 8815,
    "tious": 8816,
    "convin@@": 8817,
    "Zim@@": 8818,
    "training,": 8819,
    "legislat@@": 8820,
    "Sin@@": 8821,
    "Ken@@": 8822,
    "wat@@": 8823,
    "stan@@": 8824,
    "officially": 8825,
    "lik@@": 8826,
    "Econom@@": 8827,
    "sur": 8828,
    "program.": 8829,
    "play.": 8830,
    "Sci@@": 8831,
    "I-@@": 8832,
    "2000@@": 8833,
    "our.": 8834,
    "e-mail@@": 8835,
    "bigger": 8836,
    "Super@@": 8837,
    "xi@@": 8838,
    "recommend@@": 8839,
    "Mess@@": 8840,
    "transpar@@": 8841,
    "tracks": 8842,
    "scientists": 8843,
    "propri@@": 8844,
    "problem@@": 8845,
    "</emph>@@": 8846,
    "chairman": 8847,
    "authorized": 8848,
    "ama": 8849,
    "Resort": 8850,
    "Naz@@": 8851,
    "Berlin@@": 8852,
    "ita": 8853,
    "ing/@@": 8854,
    "cool": 8855,
    "snow": 8856,
    "pal": 8857,
    "expanded": 8858,
    "er’s": 8859,
    "busy": 8860,
    "terrible": 8861,
    "event@@": 8862,
    "propo@@": 8863,
    "or-@@": 8864,
    "UM@@": 8865,
    "Islam@@": 8866,
    "Flash": 8867,
    "relev@@": 8868,
    "prestigious": 8869,
    "falling": 8870,
    "Non-Smoking": 8871,
    "M.": 8872,
    "ECB": 8873,
    "Ash@@": 8874,
    "plann@@": 8875,
    "Standard": 8876,
    "Def@@": 8877,
    "supple@@": 8878,
    "Hostelsclub.": 8879,
    "Here,": 8880,
    "stock@@": 8881,
    "part.": 8882,
    "lad@@": 8883,
    "hole": 8884,
    "dad": 8885,
    "nel": 8886,
    "far,": 8887,
    "before.": 8888,
    "ard.": 8889,
    "alize": 8890,
    "Square": 8891,
    "thanking": 8892,
    "agri@@": 8893,
    "kernel": 8894,
    "agreements.": 8895,
    "modify": 8896,
    "ite,": 8897,
    "height": 8898,
    "checked": 8899,
    "Committe@@": 8900,
    "promises": 8901,
    "doll@@": 8902,
    "ner.": 8903,
    "Tru@@": 8904,
    "Hil@@": 8905,
    "precious": 8906,
    "nobody": 8907,
    "gardens": 8908,
    "evident": 8909,
    "dance": 8910,
    "Guests": 8911,
    "troops": 8912,
    "arrange@@": 8913,
    "knew": 8914,
    "aus": 8915,
    "vary": 8916,
    "loaded": 8917,
    "hence": 8918,
    "candidates": 8919,
    "EP@@": 8920,
    "game.": 8921,
    "fix": 8922,
    "adequ@@": 8923,
    "wron@@": 8924,
    "implications": 8925,
    "!!": 8926,
    "strengthened": 8927,
    "revenue": 8928,
    "remark@@": 8929,
    "put@@": 8930,
    "fell": 8931,
    "civilian": 8932,
    "Joint": 8933,
    "ig": 8934,
    "ext@@": 8935,
    "excluded": 8936,
    "enting": 8937,
    "Check-@@": 8938,
    "space,": 8939,
    "pm": 8940,
    "navigation": 8941,
    "eless": 8942,
    "board.": 8943,
    "MySQL": 8944,
    "Monday": 8945,
    "Mediterrane@@": 8946,
    "Education": 8947,
    "Charles": 8948,
    "hand.": 8949,
    "sex": 8950,
    "expense": 8951,
    "defining": 8952,
    "buying": 8953,
    "proposals,": 8954,
    "ese,": 8955,
    "tedly": 8956,
    "suffici@@": 8957,
    "respected": 8958,
    "jointly": 8959,
    "composition": 8960,
    "aking": 8961,
    "USD": 8962,
    "Southern": 8963,
    "Righ@@": 8964,
    "Investment": 8965,
    "ored": 8966,
    "homes": 8967,
    "handl@@": 8968,
    "ums,": 8969,
    "reliability": 8970,
    "better.": 8971,
    "Hall": 8972,
    "cope": 8973,
    "ative.": 8974,
    "forth": 8975,
    "fat@@": 8976,
    "broken": 8977,
    "Together": 8978,
    "Olympic": 8979,
    "9-@@": 8980,
    "(a": 8981,
    "sandy": 8982,
    "marri@@": 8983,
    "het": 8984,
    "guid@@": 8985,
    "defaul@@": 8986,
    "bid@@": 8987,
    "basically": 8988,
    "Kre@@": 8989,
    "COM@@": 8990,
    "therap@@": 8991,
    "iler": 8992,
    "120": 8993,
    "sand": 8994,
    "relation@@": 8995,
    "preced@@": 8996,
    "href=\\\"text/@@": 8997,
    "ange@@": 8998,
    "victory": 8999,
    "undertake": 9000,
    "exac@@": 9001,
    "birth@@": 9002,
    "attitu@@": 9003,
    "UC@@": 9004,
    "Cra@@": 9005,
    "terms.": 9006,
    "join@@": 9007,
    "escape": 9008,
    "column": 9009,
    "belongs": 9010,
    "Auto@@": 9011,
    "magazine": 9012,
    "like,": 9013,
    "explicitly": 9014,
    "Pro": 9015,
    "Could": 9016,
    "injur@@": 9017,
    "dispute": 9018,
    "crew": 9019,
    "committee,": 9020,
    "adop@@": 9021,
    "England": 9022,
    "software,": 9023,
    "port.": 9024,
    "lim@@": 9025,
    "NI": 9026,
    "्र@@": 9027,
    "listening": 9028,
    "earth": 9029,
    "d’@@": 9030,
    "continuously": 9031,
    "adult": 9032,
    "That@@": 9033,
    "greenhouse": 9034,
    "Canc@@": 9035,
    "sovereign": 9036,
    "our,": 9037,
    "by-@@": 9038,
    "differenti@@": 9039,
    "comprises": 9040,
    "Policy,": 9041,
    "Chairman": 9042,
    "consump@@": 9043,
    "brie@@": 9044,
    "alumin@@": 9045,
    "war.": 9046,
    "sible": 9047,
    "proce@@": 9048,
    "chron@@": 9049,
    "Inser@@": 9050,
    "अ@@": 9051,
    "sauna": 9052,
    "incentives": 9053,
    "SD@@": 9054,
    "Mexico": 9055,
    "regard,": 9056,
    "alcohol": 9057,
    "Full": 9058,
    "sense,": 9059,
    "partners,": 9060,
    "occupied": 9061,
    "equip@@": 9062,
    "com.": 9063,
    "Rural": 9064,
    "Obama": 9065,
    "terrorism,": 9066,
    "sw@@": 9067,
    "reve@@": 9068,
    "borders.": 9069,
    "refused": 9070,
    "dollar": 9071,
    "municipal@@": 9072,
    "corrup@@": 9073,
    "е": 9074,
    "Staff": 9075,
    "tier@@": 9076,
    "sely": 9077,
    "hospitality": 9078,
    "account@@": 9079,
    "remo@@": 9080,
    "measurement": 9081,
    "haus@@": 9082,
    "gram@@": 9083,
    "profits": 9084,
    "nesses": 9085,
    "m²": 9086,
    "folder": 9087,
    "exclusion": 9088,
    "Mur@@": 9089,
    "James": 9090,
    "Austria,": 9091,
    "}@@": 9092,
    "suggests": 9093,
    "ild": 9094,
    "Institu@@": 9095,
    "width": 9096,
    "io": 9097,
    "duplic@@": 9098,
    "attended": 9099,
    "are.": 9100,
    "Ol@@": 9101,
    "surprise": 9102,
    "sement": 9103,
    "prospect": 9104,
    "ira": 9105,
    "aj@@": 9106,
    "UT@@": 9107,
    "300@@": 9108,
    "treati@@": 9109,
    "courts": 9110,
    "check-@@": 9111,
    "bug": 9112,
    "к@@": 9113,
    "tima@@": 9114,
    "tech": 9115,
    "Geneva": 9116,
    "CR@@": 9117,
    "mitted": 9118,
    "attribu@@": 9119,
    "Rooms": 9120,
    "letters": 9121,
    "enlargement.": 9122,
    "access,": 9123,
    "globalisation": 9124,
    "geous": 9125,
    "changes.": 9126,
    "än@@": 9127,
    "mitting": 9128,
    "highligh@@": 9129,
    "circumstances,": 9130,
    "attention.": 9131,
    "State,": 9132,
    "Note": 9133,
    "justify": 9134,
    "health@@": 9135,
    "gross": 9136,
    "booked": 9137,
    "64": 9138,
    "think,": 9139,
    "philosoph@@": 9140,
    "Back@@": 9141,
    "AU@@": 9142,
    "evaluate": 9143,
    "dly,": 9144,
    "deplo@@": 9145,
    "cancellation": 9146,
    "Tex@@": 9147,
    "environ@@": 9148,
    "diversi@@": 9149,
    "3%": 9150,
    "domain@@": 9151,
    "discount": 9152,
    "combin@@": 9153,
    "accident": 9154,
    "Pass@@": 9155,
    "risk.": 9156,
    "realize": 9157,
    "standar@@": 9158,
    "funds,": 9159,
    "Kir@@": 9160,
    "Auditors": 9161,
    "pel": 9162,
    "freedoms": 9163,
    "desk": 9164,
    "sovereignty": 9165,
    "house,": 9166,
    "architectural": 9167,
    "Han@@": 9168,
    "fitted": 9169,
    "dict@@": 9170,
    "supplementary": 9171,
    "dial": 9172,
    "contributing": 9173,
    "apparent": 9174,
    "was,": 9175,
    "enci@@": 9176,
    "embra@@": 9177,
    "Hal@@": 9178,
    "refresh@@": 9179,
    "Lab@@": 9180,
    "languages.": 9181,
    "afraid": 9182,
    "Colom@@": 9183,
    "closing": 9184,
    "bre": 9185,
    "rupt": 9186,
    "precau@@": 9187,
    "nat@@": 9188,
    "foc@@": 9189,
    "elle": 9190,
    "contractual": 9191,
    "earn": 9192,
    "chose": 9193,
    "unnecessary": 9194,
    "rand@@": 9195,
    "economically": 9196,
    "Democratic": 9197,
    "lands": 9198,
    "subsidiarity": 9199,
    "nom@@": 9200,
    "dish": 9201,
    "breakfast,": 9202,
    "Small": 9203,
    "Organ@@": 9204,
    "Belarus": 9205,
    "universities": 9206,
    "negotiations,": 9207,
    "ed?": 9208,
    "dos": 9209,
    "Studio": 9210,
    "Personal": 9211,
    "Lau@@": 9212,
    "ses.": 9213,
    "would,": 9214,
    "tile": 9215,
    "peripher@@": 9216,
    "ignore": 9217,
    "firstly,": 9218,
    "calm": 9219,
    "Start": 9220,
    "fishermen": 9221,
    "favourite": 9222,
    "tell@@": 9223,
    "impe@@": 9224,
    "hold,": 9225,
    "cks,": 9226,
    "announce": 9227,
    "designs": 9228,
    "sharehol@@": 9229,
    "permission": 9230,
    "oh@@": 9231,
    "converted": 9232,
    "academic": 9233,
    "4)": 9234,
    "vision,": 9235,
    "planet": 9236,
    "os.": 9237,
    "Team": 9238,
    "t\"": 9239,
    "importance.": 9240,
    "frequent": 9241,
    "computers": 9242,
    "St": 9243,
    "postpon@@": 9244,
    "bath@@": 9245,
    "wherever": 9246,
    "toile@@": 9247,
    "stayed": 9248,
    "ri": 9249,
    "potentially": 9250,
    "foundations": 9251,
    "esses": 9252,
    "alco@@": 9253,
    "stick": 9254,
    "coordinate": 9255,
    "ando": 9256,
    "34": 9257,
    "hesitate": 9258,
    "bel": 9259,
    "ales": 9260,
    "Stor@@": 9261,
    "E.": 9262,
    "indicates": 9263,
    "argue": 9264,
    "keys": 9265,
    "women's": 9266,
    "utt@@": 9267,
    "translat@@": 9268,
    "senior": 9269,
    "eigh@@": 9270,
    "angle": 9271,
    "F,": 9272,
    "convert": 9273,
    "closure": 9274,
    "casino": 9275,
    "adjust@@": 9276,
    "Obvi@@": 9277,
    "retail": 9278,
    "Award": 9279,
    "renewed": 9280,
    "helpful.": 9281,
    "giv@@": 9282,
    "depar@@": 9283,
    "education.": 9284,
    "tast@@": 9285,
    "recall": 9286,
    "imposing": 9287,
    "val,": 9288,
    "prize": 9289,
    "interactive": 9290,
    "graphics": 9291,
    "Tues@@": 9292,
    "performing": 9293,
    "guide@@": 9294,
    "sizes": 9295,
    "enced": 9296,
    "(D@@": 9297,
    "shore": 9298,
    "operation.": 9299,
    "alog": 9300,
    "Vie@@": 9301,
    "HTML": 9302,
    "Department": 9303,
    "ause": 9304,
    "imported": 9305,
    "elev@@": 9306,
    "half-@@": 9307,
    "cles": 9308,
    "measuring": 9309,
    "implic@@": 9310,
    "Mus@@": 9311,
    "Iranian": 9312,
    "EE@@": 9313,
    "univer@@": 9314,
    "itor@@": 9315,
    "dual": 9316,
    "YO@@": 9317,
    "Thomas": 9318,
    "1999,": 9319,
    "templ@@": 9320,
    "publishing": 9321,
    "lobby": 9322,
    "ing;": 9323,
    "X-@@": 9324,
    "Paris,": 9325,
    "NAT@@": 9326,
    "IV": 9327,
    "spare": 9328,
    "road,": 9329,
    "know-how": 9330,
    "ol": 9331,
    "heavily": 9332,
    "automotive": 9333,
    "12,": 9334,
    "ity-@@": 9335,
    "body,": 9336,
    "stabil@@": 9337,
    "simp@@": 9338,
    "processes.": 9339,
    "intermedi@@": 9340,
    "immigran@@": 9341,
    "Ireland,": 9342,
    "t’s": 9343,
    "sive.": 9344,
    "Kr@@": 9345,
    "workers.": 9346,
    "outs@@": 9347,
    "journe@@": 9348,
    "conversion": 9349,
    "Car": 9350,
    "year's": 9351,
    "bet": 9352,
    "ssi@@": 9353,
    "prices,": 9354,
    "ped,": 9355,
    "dress@@": 9356,
    "Turkey.": 9357,
    "penalty": 9358,
    "ownership": 9359,
    "event.": 9360,
    "Stra@@": 9361,
    "Goth@@": 9362,
    "k-@@": 9363,
    "branch": 9364,
    "Which": 9365,
    "Vari@@": 9366,
    "Mobile": 9367,
    "2002,": 9368,
    "stories": 9369,
    "qualities": 9370,
    "occasion@@": 9371,
    "news@@": 9372,
    "examined": 9373,
    "ст@@": 9374,
    "result.": 9375,
    "recipi@@": 9376,
    "meal": 9377,
    "lining": 9378,
    "goo@@": 9379,
    "dir@@": 9380,
    "pour": 9381,
    "keeps": 9382,
    "imper@@": 9383,
    "20,": 9384,
    "phenomenon": 9385,
    "notified": 9386,
    "notably": 9387,
    "moreover,": 9388,
    "gling": 9389,
    "frequ@@": 9390,
    "dura@@": 9391,
    "taxi": 9392,
    "moment@@": 9393,
    "her.": 9394,
    "Earth": 9395,
    "onal": 9396,
    "amended": 9397,
    "Provi@@": 9398,
    "role.": 9399,
    "foreig@@": 9400,
    "dian": 9401,
    "36": 9402,
    "2001,": 9403,
    "ches,": 9404,
    "by,": 9405,
    "revised": 9406,
    "redund@@": 9407,
    "infrastruc@@": 9408,
    "demonstrates": 9409,
    "measure@@": 9410,
    "ist.": 9411,
    "ever.": 9412,
    "bathroom,": 9413,
    "Power": 9414,
    "server.": 9415,
    "see,": 9416,
    "parad@@": 9417,
    "afterno@@": 9418,
    "Tem@@": 9419,
    "undermine": 9420,
    "energ@@": 9421,
    "Under@@": 9422,
    "help@@": 9423,
    "freight": 9424,
    "Strateg@@": 9425,
    "Games": 9426,
    "unanim@@": 9427,
    "scrutin@@": 9428,
    "rank@@": 9429,
    "abili@@": 9430,
    "Sy@@": 9431,
    "It’s": 9432,
    "о": 9433,
    "safe,": 9434,
    "removal": 9435,
    "medicin@@": 9436,
    "enh@@": 9437,
    "earli@@": 9438,
    "champ@@": 9439,
    "Work@@": 9440,
    "33": 9441,
    "register@@": 9442,
    "observed": 9443,
    "mono@@": 9444,
    "DO@@": 9445,
    "sco@@": 9446,
    "integral": 9447,
    "ich": 9448,
    "examination": 9449,
    "breaking": 9450,
    "13,": 9451,
    "spr@@": 9452,
    "ousness": 9453,
    "ester@@": 9454,
    "document.": 9455,
    "desig@@": 9456,
    "Ag@@": 9457,
    "sake": 9458,
    "s...": 9459,
    "gs@@": 9460,
    "maxim@@": 9461,
    "kid@@": 9462,
    "Brazil": 9463,
    "rates.": 9464,
    "quet": 9465,
    "ft.": 9466,
    "entrepreneur@@": 9467,
    "1000": 9468,
    "kitchen,": 9469,
    "feasi@@": 9470,
    "parliament": 9471,
    "connection,": 9472,
    "authorised": 9473,
    "Pacific": 9474,
    "substitu@@": 9475,
    "ones,": 9476,
    "moves": 9477,
    "committee.": 9478,
    "ators.": 9479,
    "integration.": 9480,
    "ed-@@": 9481,
    "displays": 9482,
    "accommodate": 9483,
    "ably,": 9484,
    "Academy": 9485,
    "this:": 9486,
    "pursuant": 9487,
    "begun": 9488,
    "negotiation": 9489,
    "Culture": 9490,
    "Bio@@": 9491,
    "\"S@@": 9492,
    "ism@@": 9493,
    "Window@@": 9494,
    "Janu@@": 9495,
    "purchasing": 9496,
    "distinction": 9497,
    "Japan@@": 9498,
    "Greece,": 9499,
    "ided": 9500,
    "eo@@": 9501,
    "Kor@@": 9502,
    "Intel@@": 9503,
    "Compan@@": 9504,
    "volcan@@": 9505,
    "aes@@": 9506,
    "dead": 9507,
    "beneficial": 9508,
    "convince": 9509,
    "ani": 9510,
    "The@@": 9511,
    "day's": 9512,
    "configura@@": 9513,
    "compos@@": 9514,
    "Hom@@": 9515,
    "strike": 9516,
    "illeg@@": 9517,
    "camp": 9518,
    "I.": 9519,
    "religion": 9520,
    "obstac@@": 9521,
    "eradic@@": 9522,
    "details.": 9523,
    "des,": 9524,
    "cancel": 9525,
    "Bir@@": 9526,
    "family-@@": 9527,
    "Protocol": 9528,
    "iring": 9529,
    "convention": 9530,
    "codecision": 9531,
    "beau@@": 9532,
    "Life": 9533,
    "themselves,": 9534,
    "ryp@@": 9535,
    "performance.": 9536,
    "agreements,": 9537,
    "State@@": 9538,
    "Inst@@": 9539,
    "B,": 9540,
    "now@@": 9541,
    "fer": 9542,
    "dignity": 9543,
    "detri@@": 9544,
    "breach": 9545,
    "spectrum": 9546,
    "roof": 9547,
    "climb@@": 9548,
    "b.": 9549,
    "acces@@": 9550,
    "favorite": 9551,
    "relationships": 9552,
    "formation": 9553,
    "Plan": 9554,
    "Contact": 9555,
    "revealed": 9556,
    "injec@@": 9557,
    "Saturday": 9558,
    "views.": 9559,
    "ema": 9560,
    "AP": 9561,
    "pace": 9562,
    "identification": 9563,
    "further.": 9564,
    "asts": 9565,
    "LE": 9566,
    "heim@@": 9567,
    "heated": 9568,
    "gence": 9569,
    "building.": 9570,
    "Everything": 9571,
    "Communist": 9572,
    "Castle": 9573,
    "(1)": 9574,
    "seats": 9575,
    "doubts": 9576,
    "ally-@@": 9577,
    "Peti@@": 9578,
    "locate": 9579,
    "developers": 9580,
    "before,": 9581,
    "Hi@@": 9582,
    "F.": 9583,
    "'t": 9584,
    "sympath@@": 9585,
    "itable": 9586,
    "consistently": 9587,
    "atively": 9588,
    "Pon@@": 9589,
    "Author@@": 9590,
    "48@@": 9591,
    "Centre,": 9592,
    "societies": 9593,
    "ray": 9594,
    "lifest@@": 9595,
    "choosing": 9596,
    "persecu@@": 9597,
    "Bou@@": 9598,
    "sig@@": 9599,
    "ma,": 9600,
    "bow@@": 9601,
    "benefici@@": 9602,
    "E,": 9603,
    "å@@": 9604,
    "unusual": 9605,
    "horse": 9606,
    "agrees": 9607,
    "adjust": 9608,
    "ों": 9609,
    "lem@@": 9610,
    "dependence": 9611,
    "therapy": 9612,
    "set.": 9613,
    "language,": 9614,
    "inspection": 9615,
    "Associ@@": 9616,
    "55": 9617,
    "systematic": 9618,
    "package.": 9619,
    "abor@@": 9620,
    "Dem@@": 9621,
    "Colle@@": 9622,
    "transform@@": 9623,
    "istic@@": 9624,
    "alli@@": 9625,
    "Mac": 9626,
    "Deposit": 9627,
    "navig@@": 9628,
    "ishment": 9629,
    "ify": 9630,
    "home,": 9631,
    "approaches": 9632,
    "affordable": 9633,
    "steam": 9634,
    "protocol@@": 9635,
    "describes": 9636,
    "bann@@": 9637,
    "Person@@": 9638,
    "Alger@@": 9639,
    "í": 9640,
    "promoted": 9641,
    "far-@@": 9642,
    "claimed": 9643,
    "East@@": 9644,
    "Access": 9645,
    "cycl@@": 9646,
    "assemb@@": 9647,
    "Part@@": 9648,
    "18th": 9649,
    "admit": 9650,
    "activity.": 9651,
    "prob@@": 9652,
    "com": 9653,
    "asing": 9654,
    "art@@": 9655,
    "Sony": 9656,
    "Cup": 9657,
    "Apartments": 9658,
    "revi@@": 9659,
    "Ir@@": 9660,
    "izes": 9661,
    "biological": 9662,
    "appoin@@": 9663,
    "ys,": 9664,
    "uch@@": 9665,
    "soil": 9666,
    "satis@@": 9667,
    "nur@@": 9668,
    "lowest": 9669,
    "countryside": 9670,
    "Tele@@": 9671,
    "Presidency.": 9672,
    "explain@@": 9673,
    "NGOs": 9674,
    "whole,": 9675,
    "deserve": 9676,
    "CAP": 9677,
    "«": 9678,
    "pled": 9679,
    "mouth": 9680,
    "members.": 9681,
    "achieved.": 9682,
    "ses,": 9683,
    "minu@@": 9684,
    "iron": 9685,
    "euros": 9686,
    "choice.": 9687,
    "1995": 9688,
    "lion": 9689,
    "She@@": 9690,
    "Place": 9691,
    "Organisation": 9692,
    "Bern@@": 9693,
    "imperi@@": 9694,
    "ario": 9695,
    "vo": 9696,
    "viable": 9697,
    "stressed": 9698,
    "premium": 9699,
    "candi@@": 9700,
    "rier@@": 9701,
    "posted": 9702,
    "lives.": 9703,
    "langu@@": 9704,
    "fax": 9705,
    "duration": 9706,
    "cloth@@": 9707,
    "split": 9708,
    "negotiate": 9709,
    "ent-@@": 9710,
    "cav@@": 9711,
    "appoint@@": 9712,
    "alism.": 9713,
    "pix@@": 9714,
    "furnish@@": 9715,
    "AK@@": 9716,
    "quest": 9717,
    "preven@@": 9718,
    "Mountain@@": 9719,
    "user(s)": 9720,
    "replacement": 9721,
    "music.": 9722,
    "judge": 9723,
    "bac@@": 9724,
    "Ele@@": 9725,
    "Son@@": 9726,
    "Muse@@": 9727,
    "occasions": 9728,
    "Storage,": 9729,
    "ve-@@": 9730,
    "speech@@": 9731,
    "practically": 9732,
    "los@@": 9733,
    "ator.": 9734,
    "arbitrary": 9735,
    "apparently": 9736,
    "grand@@": 9737,
    "girls": 9738,
    "ember.": 9739,
    "caught": 9740,
    "IC": 9741,
    "receives": 9742,
    "Cel@@": 9743,
    "65": 9744,
    "orient@@": 9745,
    "athedral": 9746,
    "Tourism": 9747,
    "Design@@": 9748,
    "gli@@": 9749,
    "expanding": 9750,
    "dn't": 9751,
    "Pakistan": 9752,
    "state-of-the-art": 9753,
    "pot": 9754,
    "tut@@": 9755,
    "ruling": 9756,
    "generous": 9757,
    "len@@": 9758,
    "fashion@@": 9759,
    "decisions.": 9760,
    "T.": 9761,
    "DN@@": 9762,
    "3)": 9763,
    "11.": 9764,
    "10,": 9765,
    "(as": 9766,
    "points,": 9767,
    "Forum": 9768,
    "scener@@": 9769,
    "oom": 9770,
    "man.": 9771,
    "gy": 9772,
    "chief": 9773,
    "Gor@@": 9774,
    "(Christian": 9775,
    "survey": 9776,
    "Madrid": 9777,
    "statistical": 9778,
    "rid@@": 9779,
    "mind.": 9780,
    "achiev@@": 9781,
    "usted": 9782,
    "transaction": 9783,
    "su": 9784,
    "rol@@": 9785,
    "adver@@": 9786,
    "teachers": 9787,
    "sectors.": 9788,
    "directiv@@": 9789,
    "Poland,": 9790,
    "GB": 9791,
    "Dublin": 9792,
    "flying": 9793,
    "Visit": 9794,
    "Parliamentary": 9795,
    "reality,": 9796,
    "push@@": 9797,
    "logic": 9798,
    "ald": 9799,
    "Similarly,": 9800,
    "Run@@": 9801,
    "Airbus": 9802,
    "fan": 9803,
    "allocation": 9804,
    "Pin@@": 9805,
    "Pet@@": 9806,
    "By@@": 9807,
    "remov@@": 9808,
    "proximity": 9809,
    "prisoners": 9810,
    "choices": 9811,
    "Thursday": 9812,
    "negotiated": 9813,
    "meaning@@": 9814,
    "decision@@": 9815,
    "the-@@": 9816,
    "peace.": 9817,
    "insert": 9818,
    "handed": 9819,
    "a;": 9820,
    "Spain.": 9821,
    "GU@@": 9822,
    "Eri@@": 9823,
    "ron": 9824,
    "poker": 9825,
    "par": 9826,
    "mm@@": 9827,
    "instr@@": 9828,
    "BS@@": 9829,
    "warmly": 9830,
    "boats": 9831,
    "applicant": 9832,
    "L.": 9833,
    "France.": 9834,
    "fing": 9835,
    "Let@@": 9836,
    "Blue": 9837,
    "2003.": 9838,
    "cosme@@": 9839,
    "Vir@@": 9840,
    "talked": 9841,
    "kes@@": 9842,
    "announc@@": 9843,
    "suspended": 9844,
    "regulations.": 9845,
    "pet": 9846,
    "debated": 9847,
    "Skype": 9848,
    "Salz@@": 9849,
    "siz@@": 9850,
    "quote": 9851,
    "develo@@": 9852,
    "Golden": 9853,
    "Conven@@": 9854,
    "2nd": 9855,
    "preliminary": 9856,
    "automati@@": 9857,
    "Sett@@": 9858,
    "24-Hour": 9859,
    "stakehol@@": 9860,
    "ebo@@": 9861,
    "transl@@": 9862,
    "quantity": 9863,
    "interinstitutional": 9864,
    "colors": 9865,
    "utiliz@@": 9866,
    "gir@@": 9867,
    "favor@@": 9868,
    "chap@@": 9869,
    "appar@@": 9870,
    "Nordic": 9871,
    "NE@@": 9872,
    "ING@@": 9873,
    "С@@": 9874,
    "poverty,": 9875,
    "missions": 9876,
    "assurance": 9877,
    "abund@@": 9878,
    "Remo@@": 9879,
    "infl@@": 9880,
    "SA@@": 9881,
    "Puerto": 9882,
    "IMF": 9883,
    "Arc@@": 9884,
    "30%": 9885,
    "ticles": 9886,
    "preparations": 9887,
    "hyper@@": 9888,
    "gap@@": 9889,
    "food.": 9890,
    "beer": 9891,
    "artificial": 9892,
    "Inclu@@": 9893,
    "down,": 9894,
    "bilities.": 9895,
    "Vene@@": 9896,
    "Travel": 9897,
    "Red_marquis": 9898,
    "Citiz@@": 9899,
    "CL@@": 9900,
    "centuries": 9901,
    "prevented": 9902,
    "nois@@": 9903,
    "Syn@@": 9904,
    "Adobe": 9905,
    "pho@@": 9906,
    "moments": 9907,
    "materials,": 9908,
    "aders": 9909,
    "Restaurant,": 9910,
    "India,": 9911,
    "collapse": 9912,
    "shortly": 9913,
    "importantly,": 9914,
    "controll@@": 9915,
    "Right": 9916,
    "Israel@@": 9917,
    "Her": 9918,
    "Experience": 9919,
    "actions,": 9920,
    "accidents": 9921,
    "Cul@@": 9922,
    "12.@@": 9923,
    "one’s": 9924,
    "expressing": 9925,
    "(2)": 9926,
    "%1@@": 9927,
    "computer.": 9928,
    "Italy.": 9929,
    "you!": 9930,
    "eli@@": 9931,
    "adjustment": 9932,
    "Hamburg": 9933,
    "portal": 9934,
    "decision,": 9935,
    "Room@@": 9936,
    "Luggage": 9937,
    "Iraqi": 9938,
    "39@@": 9939,
    "elections.": 9940,
    "dal": 9941,
    "adju@@": 9942,
    "smart": 9943,
    "Kra@@": 9944,
    "restaurant.": 9945,
    "lean": 9946,
    "genetic": 9947,
    "batter@@": 9948,
    "Community@@": 9949,
    "5)": 9950,
    "Frankfur@@": 9951,
    "volunte@@": 9952,
    "open-@@": 9953,
    "deemed": 9954,
    "advanta@@": 9955,
    "ION@@": 9956,
    "Champ@@": 9957,
    "stric@@": 9958,
    "Moldo@@": 9959,
    "Fisheries": 9960,
    "tens": 9961,
    "tailored": 9962,
    "materials.": 9963,
    "ki@@": 9964,
    "por": 9965,
    "hes@@": 9966,
    "disasters": 9967,
    "characterized": 9968,
    "catalogue": 9969,
    "studi@@": 9970,
    "quotas": 9971,
    "ko": 9972,
    "convers@@": 9973,
    "threatened": 9974,
    "solved": 9975,
    "public,": 9976,
    "pillar": 9977,
    "grav@@": 9978,
    "ating.": 9979,
    "Part": 9980,
    "Histor@@": 9981,
    "Bulgari@@": 9982,
    "top-@@": 9983,
    "sq@@": 9984,
    "downloaded": 9985,
    "Belgium": 9986,
    "initiated": 9987,
    "gift": 9988,
    "Main": 9989,
    "tells": 9990,
    "set,": 9991,
    "kn@@": 9992,
    "emerged": 9993,
    "ean": 9994,
    "connecting": 9995,
    "graphical": 9996,
    "foun@@": 9997,
    "floor.": 9998,
    "financ@@": 9999,
    "Arch@@": 10000,
    "yang": 10001,
    "certification": 10002,
    "Red@@": 10003,
    "raises": 10004,
    "house.": 10005,
    "d!": 10006,
    "subject,": 10007,
    "Valley": 10008,
    "English,": 10009,
    "decent": 10010,
    "है@@": 10011,
    "up-to-date": 10012,
    "unlike": 10013,
    "restrict": 10014,
    "pregn@@": 10015,
    "demographic": 10016,
    "airport.": 10017,
    "reading.": 10018,
    "face,": 10019,
    "ello": 10020,
    "eco@@": 10021,
    "forcing": 10022,
    "USS": 10023,
    "Serbia": 10024,
    "orial": 10025,
    "drafting": 10026,
    "Austri@@": 10027,
    "Ath@@": 10028,
    "values,": 10029,
    "priority.": 10030,
    "prere@@": 10031,
    "dominant": 10032,
    "cks.": 10033,
    "children's": 10034,
    "Tal@@": 10035,
    "sat@@": 10036,
    "fi": 10037,
    "cher@@": 10038,
    "borne": 10039,
    "subscribe": 10040,
    "rev@@": 10041,
    "mistake": 10042,
    "fuels": 10043,
    "engines": 10044,
    "alone.": 10045,
    "Poker": 10046,
    "2%": 10047,
    "“The": 10048,
    "complaints": 10049,
    "teenth": 10050,
    "shaped": 10051,
[...]
