{
    "<pad>": 0,
    "<unk>": 1,
    "<s>": 2,
    "</s>": 3,
    "die": 4,
    "der": 5,
    "und": 6,
    "in": 7,
    "zu": 8,
    "den": 9,
    "von": 10,
    "für": 11,
    "mit": 12,
    "das": 13,
    "ist": 14,
    "des": 15,
    "auf": 16,
    "eine": 17,
    "Sie": 18,
    "im": 19,
    "es": 20,
    "nicht": 21,
    "dass": 22,
    "dem": 23,
    "ein": 24,
    "Die": 25,
    "sich": 26,
    "wir": 27,
    "auch": 28,
    "-": 29,
    "als": 30,
    "an": 31,
    "um": 32,
    "oder": 33,
    "ich": 34,
    "en,": 35,
    "über": 36,
    "einer": 37,
    "werden": 38,
    ",": 39,
    ".": 40,
    "sind": 41,
    "er": 42,
    "sie": 43,
    "wie": 44,
    "einen": 45,
    "en.": 46,
    "zur": 47,
    "-@@": 48,
    "Das": 49,
    "bei": 50,
    "wird": 51,
    "ten": 52,
    "Ich": 53,
    "ver@@": 54,
    "t,": 55,
    "t.": 56,
    "aus": 57,
    "en": 58,
    "(@@": 59,
    "einem": 60,
    "nach": 61,
    "zum": 62,
    "te": 63,
    "diese": 64,
    "Wir": 65,
    "er@@": 66,
    "nur": 67,
    "t": 68,
    "hat": 69,
    "durch": 70,
    "Der": 71,
    "haben": 72,
    "an@@": 73,
    "uns": 74,
    "dieser": 75,
    "Es": 76,
    "daß": 77,
    "ung": 78,
    "so": 79,
    "werden.": 80,
    "noch": 81,
    "aber": 82,
    "wenn": 83,
    "Herr": 84,
    "\"@@": 85,
    "en@@": 86,
    "am": 87,
    "Kommission": 88,
    "a": 89,
    "sehr": 90,
    "ein@@": 91,
    "vor": 92,
    "be@@": 93,
    "können": 94,
    "In": 95,
    "ge@@": 96,
    "diesem": 97,
    "man": 98,
    "was": 99,
    "kann": 100,
    "ungen": 101,
    "alle": 102,
    "ist,": 103,
    "Europäischen": 104,
    "t@@": 105,
    "de": 106,
    "bis": 107,
    "un@@": 108,
    ":": 109,
    "aus@@": 110,
    "An@@": 111,
    "–": 112,
    "mehr": 113,
    "s": 114,
    "k@@": 115,
    "e": 116,
    "eines": 117,
    "S@@": 118,
    "Union": 119,
    "K@@": 120,
    ")": 121,
    "ab@@": 122,
    "vom": 123,
    "auf@@": 124,
    "Ver@@": 125,
    "ihre": 126,
    "wurde": 127,
    "möchte": 128,
    "müssen": 129,
    "werden,": 130,
    "unter": 131,
    "sowie": 132,
    "dieses": 133,
    "s@@": 134,
    "B@@": 135,
    "ungs@@": 136,
    "T@@": 137,
    "zwischen": 138,
    "ist.": 139,
    "sch@@": 140,
    "Hotel": 141,
    "ung,": 142,
    "hier": 143,
    "keine": 144,
    "unsere": 145,
    "vor@@": 146,
    "ter": 147,
    "P@@": 148,
    "e,": 149,
    "war": 150,
    "G@@": 151,
    "„@@": 152,
    "te,": 153,
    "D@@": 154,
    "Bericht": 155,
    "Wenn": 156,
    "anderen": 157,
    "n@@": 158,
    "Ab@@": 159,
    "F@@": 160,
    "Ihnen": 161,
    "wird.": 162,
    "Parlament": 163,
    "zu@@": 164,
    "M@@": 165,
    "m@@": 166,
    "the": 167,
    "immer": 168,
    "über@@": 169,
    "Ein@@": 170,
    "ent@@": 171,
    "\"": 172,
    "gibt": 173,
    "ten,": 174,
    "e@@": 175,
    "o": 176,
    "Im": 177,
    "dann": 178,
    "b@@": 179,
    "diesen": 180,
    "Aus@@": 181,
    "A@@": 182,
    "g@@": 183,
    "dies": 184,
    "gegen": 185,
    "and": 186,
    "L@@": 187,
    "d@@": 188,
    "al@@": 189,
    "Diese": 190,
    "H@@": 191,
    "damit": 192,
    "N@@": 193,
    "z@@": 194,
    "E@@": 195,
    "i": 196,
    "in@@": 197,
    "Frau": 198,
    "da": 199,
    "muss": 200,
    "Mitgliedstaaten": 201,
    "Ihre": 202,
    "unserer": 203,
    "f@@": 204,
    "haben,": 205,
    "ischen": 206,
    "um@@": 207,
    "R@@": 208,
    "Sch@@": 209,
    "C@@": 210,
    "seine": 211,
    "ch@@": 212,
    "sondern": 213,
    "sein": 214,
    "s,": 215,
    "enden": 216,
    "Europäische": 217,
    "gen": 218,
    "W@@": 219,
    "Europa": 220,
    "tes": 221,
    "neue": 222,
    "!": 223,
    "wird,": 224,
    "sind,": 225,
    "jedoch": 226,
    "es@@": 227,
    "Er@@": 228,
    "Vor@@": 229,
    "sind.": 230,
    "bereits": 231,
    "heute": 232,
    "ische": 233,
    "...": 234,
    "ern": 235,
    "/@@": 236,
    "ung.": 237,
    "können.": 238,
    "ihrer": 239,
    "ohne": 240,
    "st@@": 241,
    "o@@": 242,
    "europäischen": 243,
    "neuen": 244,
    "Jahr": 245,
    "Be@@": 246,
    "er,": 247,
    "Zeit": 248,
    "unter@@": 249,
    "i@@": 250,
    "is@@": 251,
    "zwei": 252,
    "Z@@": 253,
    "a@@": 254,
    "denen": 255,
    "u@@": 256,
    "ganz": 257,
    "V@@": 258,
    "Präsident,": 259,
    "ar@@": 260,
    "andere": 261,
    "te@@": 262,
    "e.": 263,
    "ende": 264,
    "el@@": 265,
    "O@@": 266,
    "2": 267,
    "Mit": 268,
    "habe": 269,
    "lich": 270,
    "Jahren": 271,
    "of": 272,
    "ten.": 273,
    "allen": 274,
    "mich": 275,
    "Ein": 276,
    "Menschen": 277,
    "haben.": 278,
    "EU": 279,
    "Rat": 280,
    "liche": 281,
    "viele": 282,
    "to": 283,
    "re@@": 284,
    "te.": 285,
    "es,": 286,
    ").": 287,
    "n": 288,
    "de@@": 289,
    "weil": 290,
    "le@@": 291,
    "Entwicklung": 292,
    "m": 293,
    "lichen": 294,
    "hat,": 295,
    "p@@": 296,
    "bietet": 297,
    "seiner": 298,
    "ungen,": 299,
    "s.": 300,
    "sten": 301,
    ".@@": 302,
    "h@@": 303,
    "denn": 304,
    "jetzt": 305,
    "einige": 306,
    "wieder": 307,
    "liegt": 308,
    "?": 309,
    "1": 310,
    "schon": 311,
    "on": 312,
    "ihren": 313,
    "Herrn": 314,
    "ihr": 315,
    "Eine": 316,
    "y@@": 317,
    "n,": 318,
    "dazu": 319,
    "Dies": 320,
    ";": 321,
    "Bereich": 322,
    "hat.": 323,
    "viel": 324,
    "Frage": 325,
    "ts": 326,
    "ob": 327,
    "v@@": 328,
    "is": 329,
    "ge": 330,
    "r@@": 331,
    "unseren": 332,
    "“": 333,
    "3": 334,
    "Auf@@": 335,
    "Für": 336,
    "Informationen": 337,
    "or@@": 338,
    "l@@": 339,
    "J@@": 340,
    "allem": 341,
    "ter@@": 342,
    "sollte": 343,
    "während": 344,
    "sollten": 345,
    "),": 346,
    "Unternehmen": 347,
    "wurden": 348,
    "di@@": 349,
    "wo": 350,
    "Maßnahmen": 351,
    "selbst": 352,
    "Jahre": 353,
    "ti@@": 354,
    "meine": 355,
    "Und": 356,
    "Re@@": 357,
    "sein,": 358,
    "darauf": 359,
    "Wie": 360,
    "I@@": 361,
    "seit": 362,
    "In@@": 363,
    "doch": 364,
    "as": 365,
    "nun": 366,
    "ung@@": 367,
    "Un@@": 368,
    "mir": 369,
    "Welt": 370,
    "j@@": 371,
    "finden": 372,
    "insbesondere": 373,
    "etwas": 374,
    "ale": 375,
    "Arbeit": 376,
    "Lage": 377,
    "bin": 378,
    "w@@": 379,
    "beim": 380,
    "ra@@": 381,
    "ten@@": 382,
    "ersten": 383,
    "der@@": 384,
    "it@@": 385,
    "Rahmen": 386,
    "se@@": 387,
    "g": 388,
    "kann.": 389,
    "ä@@": 390,
    "politischen": 391,
    "5": 392,
    "at@@": 393,
    "chen": 394,
    "ger@@": 395,
    "Teil": 396,
    "ie": 397,
    "ck@@": 398,
    "enen": 399,
    "end": 400,
    "Bei": 401,
    "au@@": 402,
    "4": 403,
    "dafür": 404,
    "seinen": 405,
    "deren": 406,
    "also": 407,
    "geht": 408,
    "letzten": 409,
    "Namen": 410,
    "Unterstützung": 411,
    "können,": 412,
    "drei": 413,
    "on@@": 414,
    "et@@": 415,
    "c@@": 416,
    "ber@@": 417,
    "ens": 418,
    "%": 419,
    "Zusammenarbeit": 420,
    "n.": 421,
    "Land": 422,
    "sein.": 423,
    "ischer": 424,
    "ts@@": 425,
    "en:": 426,
    "k": 427,
    "ig@@": 428,
    "gel@@": 429,
    "Länder": 430,
    "Auf": 431,
    "am@@": 432,
    "gut": 433,
    "einmal": 434,
    "le": 435,
    "große": 436,
    "a,": 437,
    "großen": 438,
    "welche": 439,
    "Er": 440,
    "Ihr": 441,
    "d": 442,
    "Vorschlag": 443,
    "ier@@": 444,
    "ene": 445,
    "EU-@@": 446,
    "Was": 447,
    "Nach": 448,
    "li@@": 449,
    "ien": 450,
    "Auch": 451,
    "her@@": 452,
    "Aber": 453,
    "Als": 454,
    "einfach": 455,
    "st": 456,
    "y": 457,
    "ro@@": 458,
    "en?": 459,
    "Parlaments": 460,
    "ste": 461,
    "il@@": 462,
    "Fall": 463,
    "U@@": 464,
    "du": 465,
    "ag@@": 466,
    "sp@@": 467,
    "aller": 468,
    "kein": 469,
    "ur@@": 470,
    "dabei": 471,
    "Ländern": 472,
    "Al@@": 473,
    "Bürger": 474,
    "Art": 475,
    "'@@": 476,
    "z": 477,
    "ieren": 478,
    "ak@@": 479,
    "gen@@": 480,
    "as@@": 481,
    "eigenen": 482,
    "nach@@": 483,
    "Über@@": 484,
    "sowohl": 485,
    "se": 486,
    "Ge@@": 487,
    "ungen.": 488,
    "Unter@@": 489,
    "weitere": 490,
    "Ihrer": 491,
    "isch": 492,
    "iert": 493,
    "Seite": 494,
    "Daten": 495,
    "ö@@": 496,
    "stellen": 497,
    "Fragen": 498,
    "th@@": 499,
    "ange@@": 500,
    "3@@": 501,
    "Zimmer": 502,
    "meiner": 503,
    "ere": 504,
    "ri@@": 505,
    "Um@@": 506,
    "at": 507,
    "2@@": 508,
    "innerhalb": 509,
    "St@@": 510,
    "besonders": 511,
    "unser": 512,
    "Ziel": 513,
    "sk@@": 514,
    "verschiedenen": 515,
    "Finanz@@": 516,
    "Kon@@": 517,
    "daher": 518,
    "ü@@": 519,
    "sehen": 520,
    "politik": 521,
    "Ende": 522,
    "durch@@": 523,
    "vielen": 524,
    "Zu@@": 525,
    "Sicherheit": 526,
    "er.": 527,
    "Problem": 528,
    "wirklich": 529,
    "-,": 530,
    "Regierung": 531,
    "be": 532,
    "Präsident!": 533,
    "geben": 534,
    "ne@@": 535,
    "al": 536,
    "weiter": 537,
    "internationalen": 538,
    "Stadt": 539,
    "end@@": 540,
    "Sp@@": 541,
    "würde": 542,
    "ken": 543,
    "u": 544,
    "Ihren": 545,
    "ihnen": 546,
    "l": 547,
    "Recht": 548,
    "ation": 549,
    "besteht": 550,
    "ste@@": 551,
    "zwar": 552,
    "natürlich": 553,
    "Um": 554,
    "politische": 555,
    "we@@": 556,
    "la": 557,
    "A": 558,
    "x@@": 559,
    "direkt": 560,
    "an,": 561,
    "Thema": 562,
    "alen": 563,
    "gegenüber": 564,
    "europäische": 565,
    "Hier": 566,
    "Alle": 567,
    "waren": 568,
    "an.": 569,
    "steht": 570,
    "ins": 571,
    "alles": 572,
    "möglich": 573,
    "gen,": 574,
    "Richtlinie": 575,
    "ser@@": 576,
    "erste": 577,
    "Zukunft": 578,
    "wurde,": 579,
    "Beispiel": 580,
    "Weise": 581,
    "ausge@@": 582,
    "6": 583,
    "em": 584,
    "davon": 585,
    "licher": 586,
    "Staaten": 587,
    "Probleme": 588,
    "stehen": 589,
    "wurde.": 590,
    "befindet": 591,
    "bar": 592,
    "Seiten": 593,
    "tigen": 594,
    "Politik": 595,
    "all": 596,
    "wer@@": 597,
    "4@@": 598,
    "kommen": 599,
    "Kunden": 600,
    "sagen,": 601,
    "it": 602,
    "us@@": 603,
    "dort": 604,
    "bieten": 605,
    "beiden": 606,
    "tet": 607,
    "10": 608,
    "eren": 609,
    "unserem": 610,
    "wäre": 611,
    "et": 612,
    "-S@@": 613,
    "Dieses": 614,
    "ben": 615,
    "The": 616,
    "igen": 617,
    "ige": 618,
    "System": 619,
    "or": 620,
    "im@@": 621,
    "hin@@": 622,
    "Fraktion": 623,
    "Bedeutung": 624,
    "ch": 625,
    "Se@@": 626,
    "nen": 627,
    "ing@@": 628,
    "Zusammenhang": 629,
    "teil@@": 630,
    "gehen": 631,
    "Rolle": 632,
    "lo@@": 633,
    "Mar@@": 634,
    "darüber": 635,
    "f": 636,
    "bzw.": 637,
    "ge,": 638,
    "weniger": 639,
    "t:": 640,
    "si@@": 641,
    "stellt": 642,
    "ja": 643,
    "es.": 644,
    "muß": 645,
    "tischen": 646,
    "Nach@@": 647,
    "é@@": 648,
    "a.": 649,
    "che": 650,
    "Rück@@": 651,
    "ers": 652,
    "Pro@@": 653,
    "Artikel": 654,
    "5@@": 655,
    "mit@@": 656,
    "tet.": 657,
    "ul@@": 658,
    "Weg": 659,
    "indem": 660,
    "So": 661,
    "Le@@": 662,
    "jeder": 663,
    "ender": 664,
    "tige": 665,
    "ie@@": 666,
    "Deshalb": 667,
    "kon@@": 668,
    "men": 669,
    "etwa": 670,
    "Mon@@": 671,
    "[[@@": 672,
    "geb@@": 673,
    "op@@": 674,
    "sogar": 675,
    "he@@": 676,
    "b": 677,
    "tung": 678,
    "Frauen": 679,
    "Ar@@": 680,
    "to@@": 681,
    "e-@@": 682,
    "E": 683,
    "ol@@": 684,
    "lich,": 685,
    "and@@": 686,
    "8": 687,
    "Millionen": 688,
    "Dieser": 689,
    "Tag": 690,
    "Programm": 691,
    "t-@@": 692,
    "I": 693,
    "lassen": 694,
    "Hilfe": 695,
    "nicht,": 696,
    "ert": 697,
    "Unsere": 698,
    "pro": 699,
    "öffentlichen": 700,
    "ad@@": 701,
    "Arbeits@@": 702,
    "ab": 703,
    "kann,": 704,
    "el": 705,
    "seinem": 706,
    "em@@": 707,
    "dessen": 708,
    "Schutz": 709,
    "X@@": 710,
    "ach@@": 711,
    "bitte": 712,
    "USA": 713,
    "Grund@@": 714,
    "x": 715,
    "machen": 716,
    "Mo@@": 717,
    "all@@": 718,
    "än@@": 719,
    "7": 720,
    "ebenfalls": 721,
    "fen": 722,
    "Lösung": 723,
    "da@@": 724,
    "fer@@": 725,
    "ko@@": 726,
    "den@@": 727,
    "gt": 728,
    "me": 729,
    "ges@@": 730,
    "me@@": 731,
    "Haupt@@": 732,
    "nämlich": 733,
    "elle": 734,
    ",@@": 735,
    "20": 736,
    "Uhr": 737,
    "Situation": 738,
    "gute": 739,
    "Ro@@": 740,
    "erhalten": 741,
    "einzu@@": 742,
    "tern": 743,
    "ihn": 744,
    "ne": 745,
    "om@@": 746,
    "enten": 747,
    "tra@@": 748,
    "geben.": 749,
    "Mittel": 750,
    "Haushalts@@": 751,
    "Möglichkeit": 752,
    "gerade": 753,
    "zi@@": 754,
    "ma@@": 755,
    "nationalen": 756,
    "meisten": 757,
    "hal@@": 758,
    "ationen": 759,
    "Zeit@@": 760,
    "ta@@": 761,
    "ihrem": 762,
    "ihm": 763,
    "ir@@": 764,
    "bes@@": 765,
    "keinen": 766,
    "Euro": 767,
    "weit": 768,
    "einigen": 769,
    "Mit@@": 770,
    "Spiel@@": 771,
    "ellen": 772,
    "Da": 773,
    "ed@@": 774,
    "ens@@": 775,
    "S": 776,
    "ieren.": 777,
    "ar": 778,
    "8@@": 779,
    "Leben": 780,
    "zeit": 781,
    "&": 782,
    "hinaus": 783,
    "ik@@": 784,
    "jeden": 785,
    "so@@": 786,
    "müssen.": 787,
    "7@@": 788,
    "Haus": 789,
    "ger": 790,
    "lich@@": 791,
    "isch@@": 792,
    "men@@": 793,
    "alten": 794,
    "Y@@": 795,
    "are": 796,
    "zurück@@": 797,
    "ern,": 798,
    "qu@@": 799,
    "recht": 800,
    "ing": 801,
    "den,": 802,
    "Bezug": 803,
    "Produkte": 804,
    "weiterhin": 805,
    "_@@": 806,
    "/": 807,
    "cht": 808,
    "tier@@": 809,
    "ke": 810,
    "wichtige": 811,
    "for": 812,
    "id@@": 813,
    "aus.": 814,
    "2009": 815,
    "geben,": 816,
    "30": 817,
    "6@@": 818,
    "aufgrund": 819,
    "0@@": 820,
    "Kollegen": 821,
    "tische": 822,
    "Rates": 823,
    "us": 824,
    "anzu@@": 825,
    "Aussprache": 826,
    "genau": 827,
    "gesch@@": 828,
    "könnte": 829,
    "liches": 830,
    "nächsten": 831,
    "Form": 832,
    "Von": 833,
    "gi@@": 834,
    "ist@@": 835,
    "Rechte": 836,
    "ern@@": 837,
    "erst": 838,
    "Inter@@": 839,
    "os": 840,
    "Zugang": 841,
    "besten": 842,
    "a-@@": 843,
    "gleich@@": 844,
    "bereich": 845,
    "solche": 846,
    "Grund": 847,
    "de,": 848,
    "Ex@@": 849,
    "Region": 850,
    "gilt": 851,
    "Bau@@": 852,
    "Aus": 853,
    "sin@@": 854,
    "zusammen@@": 855,
    "zeit@@": 856,
    "Meinung": 857,
    "bar@@": 858,
    "nichts": 859,
    "tig@@": 860,
    "worden": 861,
    "tet,": 862,
    "9": 863,
    "ek@@": 864,
    "En@@": 865,
    "Rechts@@": 866,
    "stre@@": 867,
    "erung": 868,
    "müssen,": 869,
    "är@@": 870,
    "führen": 871,
    "enk@@": 872,
    "tiger": 873,
    "Kinder": 874,
    "dar@@": 875,
    "ei@@": 876,
    "beispielsweise": 877,
    "Hotels": 878,
    "ac@@": 879,
    "Durch": 880,
    "Ihrem": 881,
    "tionen": 882,
    "lichkeit": 883,
    "Europas": 884,
    "50": 885,
    "Umsetzung": 886,
    "Lo@@": 887,
    "ran@@": 888,
    "Bo@@": 889,
    "schnell": 890,
    "soll": 891,
    "wissen,": 892,
    "gemeinsamen": 893,
    "Qualität": 894,
    "Gemeinschaft": 895,
    "ß@@": 896,
    "no@@": 897,
    "bil@@": 898,
    "Neu@@": 899,
    "gen.": 900,
    "p": 901,
    "Abstimmung": 902,
    "ss@@": 903,
    "1@@": 904,
    "wollen": 905,
    "lan@@": 906,
    "allerdings": 907,
    "Ebene": 908,
    "Am": 909,
    "Daher": 910,
    "nis": 911,
    "sen": 912,
    "mer@@": 913,
    "De@@": 914,
    "Geschäfts@@": 915,
    "vielleicht": 916,
    "auszu@@": 917,
    "deshalb": 918,
    "lange": 919,
    "�@@": 920,
    "Verfügung": 921,
    "tion": 922,
    "weiter@@": 923,
    "Wasser@@": 924,
    "Doch": 925,
    "hatte": 926,
    "kommt": 927,
    ":@@": 928,
    "Reihe": 929,
    "ter,": 930,
    "Sozial@@": 931,
    "bel@@": 932,
    "la@@": 933,
    "per": 934,
    "kl@@": 935,
    "Präsident": 936,
    "Fahr@@": 937,
    "Grundlage": 938,
    "Umwelt@@": 939,
    "machen.": 940,
    "kleinen": 941,
    "sozialen": 942,
    "ent": 943,
    "nehmen": 944,
    "Punkt": 945,
    "sen@@": 946,
    "findet": 947,
    "Vertrag": 948,
    "und@@": 949,
    "ber": 950,
    "10@@": 951,
    "vor,": 952,
    "rä@@": 953,
    "Website": 954,
    "ieren,": 955,
    "le,": 956,
    "arbeiten": 957,
    "Ent@@": 958,
    "verschiedene": 959,
    "voll": 960,
    "ein.": 961,
    "ap@@": 962,
    "Wirtschaft": 963,
    "ben@@": 964,
    "aus,": 965,
    "besser": 966,
    "Nähe": 967,
    "enz@@": 968,
    "wegen": 969,
    "wirtschaftlichen": 970,
    "vier": 971,
    "Kosten": 972,
    "daran": 973,
    "Damen": 974,
    "9@@": 975,
    "sh@@": 976,
    "halten": 977,
    "darf": 978,
    "oft": 979,
    "ob@@": 980,
    "Hinblick": 981,
    "20@@": 982,
    "Anwendung": 983,
    "-B@@": 984,
    "gemeinsame": 985,
    "möchten": 986,
    "]]": 987,
    "kan@@": 988,
    "Richtung": 989,
    "Liste": 990,
    "19@@": 991,
    "Zu": 992,
    "Ma@@": 993,
    "h": 994,
    "d.": 995,
    "pf@@": 996,
    "Ziele": 997,
    "000": 998,
    "15": 999,
    "ente": 1000,
    "tr@@": 1001,
    "fast": 1002,
    "Man": 1003,
    "Welt@@": 1004,
    "wenig": 1005,
    "gesamten": 1006,
    "Co@@": 1007,
    "Bedingungen": 1008,
    "Version": 1009,
    "en!": 1010,
    "est@@": 1011,
    "bau@@": 1012,
    "Bar@@": 1013,
    "Or@@": 1014,
    "auf,": 1015,
    "po@@": 1016,
    "einzelnen": 1017,
    "voll@@": 1018,
    "war@@": 1019,
    "wurden.": 1020,
    "en-@@": 1021,
    "aufge@@": 1022,
    "“@@": 1023,
    "Interesse": 1024,
    "Di@@": 1025,
    "tion@@": 1026,
    "Gebiet": 1027,
    "cken": 1028,
    "ich@@": 1029,
    "men,": 1030,
    "ebenso": 1031,
    "hen": 1032,
    "Sicherheits@@": 1033,
    "Verantwortung": 1034,
    "ell@@": 1035,
    "tig": 1036,
    "ner": 1037,
    "ierung": 1038,
    "brauchen": 1039,
    "Auswirkungen": 1040,
    "Verfahren": 1041,
    "Land@@": 1042,
    "O": 1043,
    "ation@@": 1044,
    "Gesellschaft": 1045,
    "Vorschläge": 1046,
    "schen": 1047,
    "Wirtschafts@@": 1048,
    "war,": 1049,
    "deutlich": 1050,
    "fest@@": 1051,
    "internationale": 1052,
    "Außerdem": 1053,
    "weiteren": 1054,
    "Kolleginnen": 1055,
    "tor@@": 1056,
    "Ort": 1057,
    "dern": 1058,
    "Po@@": 1059,
    "ich,": 1060,
    "los": 1061,
    "Vereinigten": 1062,
    "schaft": 1063,
    "Debatte": 1064,
    "weise": 1065,
    "ru@@": 1066,
    "macht": 1067,
    "Software": 1068,
    "r": 1069,
    "hr@@": 1070,
    "2010": 1071,
    "T": 1072,
    "ff@@": 1073,
    "tre@@": 1074,
    "man@@": 1075,
    "wichtig": 1076,
    "jedem": 1077,
    "st,": 1078,
    "Markt": 1079,
    "ern.": 1080,
    "Par@@": 1081,
    "form@@": 1082,
    "m,": 1083,
    "wichtig,": 1084,
    "je": 1085,
    "\",": 1086,
    "ierte": 1087,
    "iert.": 1088,
    "'": 1089,
    "isches": 1090,
    "ut@@": 1091,
    "tions@@": 1092,
    "Menschenrechte": 1093,
    "Verhandlungen": 1094,
    "pe@@": 1095,
    "Deutschland": 1096,
    "einge@@": 1097,
    "bare": 1098,
    "rich@@": 1099,
    "ho@@": 1100,
    "For@@": 1101,
    "ur": 1102,
    "zen": 1103,
    "c": 1104,
    "stell@@": 1105,
    "Strategie": 1106,
    "lin@@": 1107,
    "werde": 1108,
    "jede": 1109,
    "anz@@": 1110,
    "Mitglieder": 1111,
    "Abkommen": 1112,
    "18@@": 1113,
    "Kommissar": 1114,
    "tun": 1115,
    "der,": 1116,
    "wichtigen": 1117,
    "gleichzeitig": 1118,
    "machen,": 1119,
    "Seit": 1120,
    "reich@@": 1121,
    "wollen,": 1122,
    "Zum": 1123,
    "g,": 1124,
    "Kar@@": 1125,
    "vi@@": 1126,
    "den.": 1127,
    "kommen,": 1128,
    "gleichen": 1129,
    "mo@@": 1130,
    "sei": 1131,
    "dürfen": 1132,
    "land": 1133,
    "o,": 1134,
    "Internet": 1135,
    "g.": 1136,
    "tete": 1137,
    "i,": 1138,
    "Unser": 1139,
    "besch@@": 1140,
    "wurden,": 1141,
    "setzen": 1142,
    "weltweit": 1143,
    "iger": 1144,
    "ft": 1145,
    "fort@@": 1146,
    "Geschichte": 1147,
    "bi@@": 1148,
    "det": 1149,
    "Blick": 1150,
    "gemeinsam": 1151,
    "Präsidentin,": 1152,
    "baren": 1153,
    "lassen.": 1154,
    "Ko@@": 1155,
    "aten": 1156,
    "ierten": 1157,
    "ations@@": 1158,
    "Personen": 1159,
    "China": 1160,
    "unseres": 1161,
    "2008": 1162,
    "ein,": 1163,
    "Änderungsantrag": 1164,
    "z.": 1165,
    "handelt": 1166,
    "per@@": 1167,
    "Förderung": 1168,
    "versch@@": 1169,
    "unterstützt": 1170,
    "Ergebnis": 1171,
    "Hand@@": 1172,
    "kre@@": 1173,
    "ang@@": 1174,
    "Beziehungen": 1175,
    "gt,": 1176,
    "en;": 1177,
    "Me@@": 1178,
    "verfügt": 1179,
    "gt.": 1180,
    "Institutionen": 1181,
    "Sie,": 1182,
    "ge.": 1183,
    "eb@@": 1184,
    "führen.": 1185,
    "kommen.": 1186,
    "jedes": 1187,
    "nisse": 1188,
    "al,": 1189,
    "ster": 1190,
    "Zentrum": 1191,
    "Schritt": 1192,
    "d,": 1193,
    "ums": 1194,
    "Service": 1195,
    "Damit": 1196,
    "mehrere": 1197,
    "abzu@@": 1198,
    "Minuten": 1199,
    "kleine": 1200,
    "tiert": 1201,
    "gestellt": 1202,
    "ci@@": 1203,
    "-T@@": 1204,
    "Verbindung": 1205,
    "sti@@": 1206,
    "Wer@@": 1207,
    "Gruppe": 1208,
    "Dank": 1209,
    "ck": 1210,
    "Demokratie": 1211,
    "Entwicklungs@@": 1212,
    "Steuer@@": 1213,
    "Bitte": 1214,
    "bringen.": 1215,
    "gern": 1216,
    "E-@@": 1217,
    "Lebens@@": 1218,
    "ität": 1219,
    "P": 1220,
    "hoch@@": 1221,
    "will": 1222,
    "gibt,": 1223,
    "pro@@": 1224,
    "ati@@": 1225,
    "tu@@": 1226,
    "de.": 1227,
    "gemacht": 1228,
    "hinsichtlich": 1229,
    "wohl": 1230,
    "wichtigsten": 1231,
    "ll@@": 1232,
    "ganze": 1233,
    "ph@@": 1234,
    "zusammen": 1235,
    "gesagt": 1236,
    "do@@": 1237,
    "wobei": 1238,
    "rund": 1239,
    "Verordnung": 1240,
    "Tra@@": 1241,
    "ou@@": 1242,
    "Ausdruck": 1243,
    "Änderungsanträge": 1244,
    "ier": 1245,
    "neben": 1246,
    "Regionen": 1247,
    "ganzen": 1248,
    "Dienstleistungen": 1249,
    "dig@@": 1250,
    "Bereichen": 1251,
    "km": 1252,
    "Markt@@": 1253,
    "sicher": 1254,
    "ner@@": 1255,
    "führ@@": 1256,
    "Möglichkeiten": 1257,
    "Wahl@@": 1258,
    "ien@@": 1259,
    "Nutzung": 1260,
    "mal": 1261,
    "gehört": 1262,
    "á@@": 1263,
    "derzeit": 1264,
    "Vor": 1265,
    "Ber@@": 1266,
    "\".": 1267,
    "wi@@": 1268,
    "fahr@@": 1269,
    "Ausschusses": 1270,
    "heit": 1271,
    "Gu@@": 1272,
    "We@@": 1273,
    "glaube,": 1274,
    "gleich": 1275,
    "Ausschuss": 1276,
    "tem": 1277,
    "inter@@": 1278,
    "Ansicht": 1279,
    "land@@": 1280,
    "Kontrolle": 1281,
    "Her@@": 1282,
    "Gra@@": 1283,
    "Verbesserung": 1284,
    "eller": 1285,
    "C": 1286,
    "sehen,": 1287,
    "el,": 1288,
    "Bevölkerung": 1289,
    "gerne": 1290,
    "tik@@": 1291,
    "ha@@": 1292,
    "Fach@@": 1293,
    "gew@@": 1294,
    "Ho@@": 1295,
    "Entscheidung": 1296,
    "nis@@": 1297,
    "Schaffung": 1298,
    "Krise": 1299,
    "Preis@@": 1300,
    "neu": 1301,
    "klar": 1302,
    "se,": 1303,
    "entfernt.": 1304,
    "hin": 1305,
    "Beitrag": 1306,
    "Ch@@": 1307,
    "Gen@@": 1308,
    "völlig": 1309,
    "Einzel@@": 1310,
    "Ru@@": 1311,
    "War@@": 1312,
    "1.": 1313,
    "pp@@": 1314,
    "bereit@@": 1315,
    "Ziel@@": 1316,
    "Darüber": 1317,
    "geh@@": 1318,
    "bringen": 1319,
    "ate": 1320,
    "aufzu@@": 1321,
    "führt": 1322,
    "gehen.": 1323,
    "tieren": 1324,
    "eigene": 1325,
    "gu@@": 1326,
    "un": 1327,
    "enn@@": 1328,
    "zwe@@": 1329,
    "großer": 1330,
    "Verwendung": 1331,
    "ib@@": 1332,
    "Jahres": 1333,
    "ster@@": 1334,
    "Einsatz": 1335,
    "with": 1336,
    "Anzahl": 1337,
    "spiel@@": 1338,
    "Erweiterung": 1339,
    "12@@": 1340,
    "tel@@": 1341,
    "m.": 1342,
    "guten": 1343,
    "hoffe,": 1344,
    "stellen.": 1345,
    "fra@@": 1346,
    "Wohn@@": 1347,
    "ER@@": 1348,
    "ün@@": 1349,
    "Geld": 1350,
    "stra@@": 1351,
    "Mal": 1352,
    "Hoch@@": 1353,
    "Projekt": 1354,
    "meinen": 1355,
    "st.": 1356,
    "bo@@": 1357,
    "leben": 1358,
    "fünf": 1359,
    "volle": 1360,
    "chen@@": 1361,
    "No@@": 1362,
    "100": 1363,
    "Entschließung": 1364,
    "ander@@": 1365,
    "genommen": 1366,
    "Car@@": 1367,
    "meinem": 1368,
    "soziale": 1369,
    "Hotel@@": 1370,
    "komm@@": 1371,
    "Antwort": 1372,
    "1.@@": 1373,
    "verwendet": 1374,
    "lau@@": 1375,
    "liegen": 1376,
    "teten": 1377,
    "Türkei": 1378,
    "Text": 1379,
    "wirtschaftliche": 1380,
    "[@@": 1381,
    "15@@": 1382,
    "Während": 1383,
    "Lin@@": 1384,
    "fin@@": 1385,
    "erreicht": 1386,
    "14@@": 1387,
    "arbeit@@": 1388,
    "mon@@": 1389,
    "Behörden": 1390,
    "gab": 1391,
    "fe@@": 1392,
    "mu@@": 1393,
    "Erfolg": 1394,
    "Kinder@@": 1395,
    "Platz": 1396,
    "Flug@@": 1397,
    "EN@@": 1398,
    "ft@@": 1399,
    "Dabei": 1400,
    "co@@": 1401,
    "zunächst": 1402,
    "tz@@": 1403,
    "tatsächlich": 1404,
    "Wert": 1405,
    "he": 1406,
    "ine": 1407,
    "ig": 1408,
    "2007": 1409,
    "Abgeordneten": 1410,
    "Bet@@": 1411,
    "To@@": 1412,
    "Kre@@": 1413,
    "Kommission,": 1414,
    "one": 1415,
    "gar": 1416,
    "halten.": 1417,
    "mi@@": 1418,
    "wissen": 1419,
    "Ergebnisse": 1420,
    "Man@@": 1421,
    "Gegen@@": 1422,
    "ß": 1423,
    "lich.": 1424,
    "zeigt": 1425,
    "gesamte": 1426,
    "stand": 1427,
    ")@@": 1428,
    "äußerst": 1429,
    "hohen": 1430,
    "chte": 1431,
    "Berichterstatter": 1432,
    "So@@": 1433,
    "del": 1434,
    "He@@": 1435,
    "que": 1436,
    "war.": 1437,
    "ell": 1438,
    "Einführung": 1439,
    "mer": 1440,
    "Preis": 1441,
    "Au@@": 1442,
    "ah@@": 1443,
    "Besch@@": 1444,
    "par@@": 1445,
    "12": 1446,
    "tiges": 1447,
    "sich@@": 1448,
    "unver@@": 1449,
    "Auswahl": 1450,
    "Verfügung.": 1451,
    "M": 1452,
    "Forschung": 1453,
    "lediglich": 1454,
    "wahr@@": 1455,
    "um,": 1456,
    "iz@@": 1457,
    "bestimmte": 1458,
    "tlichen": 1459,
    "IS@@": 1460,
    "Handels@@": 1461,
    "teile": 1462,
    "somit": 1463,
    "nehmen.": 1464,
    "anderer": 1465,
    "Änderungen": 1466,
    "Mitglied": 1467,
    "ess@@": 1468,
    "gemäß": 1469,
    "ia": 1470,
    "äl@@": 1471,
    "hotel": 1472,
    "lie@@": 1473,
    "Lösungen": 1474,
    "sicher@@": 1475,
    "Interessen": 1476,
    "ord@@": 1477,
    "obwohl": 1478,
    "stu@@": 1479,
    "Zahl": 1480,
    "mittel": 1481,
    "Anfang": 1482,
    "t?": 1483,
    "(": 1484,
    "D": 1485,
    "Restaurant": 1486,
    "Daten@@": 1487,
    "pl@@": 1488,
    "Ste@@": 1489,
    "erreichen": 1490,
    "tigkeit": 1491,
    "fall": 1492,
    "au": 1493,
    "bestimmten": 1494,
    "Ne@@": 1495,
    "ed": 1496,
    "befinden": 1497,
    "Gesundheits@@": 1498,
    "stellung": 1499,
    "Schul@@": 1500,
    "län@@": 1501,
    "Bekämpfung": 1502,
    "wir@@": 1503,
    "später": 1504,
    "Kampf": 1505,
    "äu@@": 1506,
    "di": 1507,
    "tungen": 1508,
    "mar@@": 1509,
    "ari@@": 1510,
    "sa@@": 1511,
    "bisher": 1512,
    "ca.": 1513,
    "R": 1514,
    "weisen": 1515,
    "Verkehrs@@": 1516,
    "zahlreiche": 1517,
    "gra@@": 1518,
    "zweite": 1519,
    "meines": 1520,
    "tion,": 1521,
    "25": 1522,
    "gabe": 1523,
    "programm": 1524,
    "ren@@": 1525,
    "einschließlich": 1526,
    "gehen,": 1527,
    "Aufgabe": 1528,
    "Woche": 1529,
    "nie": 1530,
    "Funktion": 1531,
    "teilen": 1532,
    "Herzen": 1533,
    "ßen": 1534,
    "mein": 1535,
    "erster": 1536,
    "verbunden": 1537,
    "B": 1538,
    "eben": 1539,
    "hohe": 1540,
    "Verbraucher": 1541,
    "Erachtens": 1542,
    "tigt": 1543,
    "US-@@": 1544,
    "Mittel@@": 1545,
    "aktuellen": 1546,
    "hätte": 1547,
    "finden,": 1548,
    "unterstützen": 1549,
    "Juni": 1550,
    "größten": 1551,
    "eln": 1552,
    "verb@@": 1553,
    "heiten": 1554,
    "Sk@@": 1555,
    "Web@@": 1556,
    "enz": 1557,
    "ze": 1558,
    "IN@@": 1559,
    "Dialog": 1560,
    "Angebot": 1561,
    "gl@@": 1562,
    "P-@@": 1563,
    "2000": 1564,
    "bekannt": 1565,
    "Regierungen": 1566,
    "Nur": 1567,
    "äre": 1568,
    "\\\">@@": 1569,
    "halte": 1570,
    "geht,": 1571,
    "freien": 1572,
    "ermöglicht": 1573,
    "vergangenen": 1574,
    "tan@@": 1575,
    "weder": 1576,
    "ment@@": 1577,
    "17@@": 1578,
    "Kom@@": 1579,
    "ungsp@@": 1580,
    "bu@@": 1581,
    "mor@@": 1582,
    "finden.": 1583,
    "ex@@": 1584,
    "z,": 1585,
    "&@@": 1586,
    "halten,": 1587,
    "go@@": 1588,
    "min@@": 1589,
    "by": 1590,
    "Russland": 1591,
    "Mai": 1592,
    "darin": 1593,
    "mark@@": 1594,
    "dis@@": 1595,
    "pre@@": 1596,
    "men.": 1597,
    "solchen": 1598,
    "Fre@@": 1599,
    "fol@@": 1600,
    "Mor@@": 1601,
    "zweiten": 1602,
    "tun,": 1603,
    "neu@@": 1604,
    "Gemeinschafts@@": 1605,
    "wieder@@": 1606,
    "16@@": 1607,
    "stark": 1608,
    "ör@@": 1609,
    "führen,": 1610,
    "Ad@@": 1611,
    "AR@@": 1612,
    "k,": 1613,
    "mel@@": 1614,
    "Möglichkeit,": 1615,
    "lang": 1616,
    "weis@@": 1617,
    "tungs@@": 1618,
    "Luft@@": 1619,
    "eher": 1620,
    "det,": 1621,
    "treten": 1622,
    "tigung": 1623,
    "le.": 1624,
    "ler": 1625,
    "ma": 1626,
    "ze@@": 1627,
    "rech@@": 1628,
    "ide@@": 1629,
    "fe": 1630,
    "wor@@": 1631,
    "Qu@@": 1632,
    "kt": 1633,
    "ation,": 1634,
    "tlich": 1635,
    "ant": 1636,
    "mach@@": 1637,
    "40": 1638,
    "in,": 1639,
    "Kultur@@": 1640,
    "Lu@@": 1641,
    "sagen": 1642,
    "bezüglich": 1643,
    "res@@": 1644,
    "abge@@": 1645,
    "sprechen": 1646,
    "det.": 1647,
    "Wort": 1648,
    "Kommissar,": 1649,
    "z.B.": 1650,
    "à": 1651,
    "re": 1652,
    "muss.": 1653,
    "est": 1654,
    "außerdem": 1655,
    "ke@@": 1656,
    "ug@@": 1657,
    "leider": 1658,
    "auch,": 1659,
    "ab.": 1660,
    "gegeben": 1661,
    "Fortschritte": 1662,
    "Dezember": 1663,
    "entfernt": 1664,
    "bedeutet": 1665,
    "iert,": 1666,
    "Partner": 1667,
    "end,": 1668,
    "Groß@@": 1669,
    "lä@@": 1670,
    "bringen,": 1671,
    "insgesamt": 1672,
    "einzige": 1673,
    "ann@@": 1674,
    "ssen": 1675,
    "Kur@@": 1676,
    "dung": 1677,
    "Tage": 1678,
    "genden": 1679,
    "Zusammen@@": 1680,
    "Initiative": 1681,
    "Im@@": 1682,
    "Erfahrung": 1683,
    "Zeitpunkt": 1684,
    "lässt": 1685,
    "ass@@": 1686,
    "tragen": 1687,
    "Bild@@": 1688,
    "ES@@": 1689,
    "gebracht": 1690,
    "Th@@": 1691,
    "Natur@@": 1692,
    "Sprach@@": 1693,
    "würden": 1694,
    "September": 1695,
    "ic@@": 1696,
    "onen": 1697,
    "bet@@": 1698,
    "setzt": 1699,
    "sche": 1700,
    "dadurch": 1701,
    "en)": 1702,
    "Ger@@": 1703,
    "lage": 1704,
    "unternehmen": 1705,
    "Rech@@": 1706,
    "größte": 1707,
    "tliche": 1708,
    "fel@@": 1709,
    "bleibt": 1710,
    "Mehrheit": 1711,
    "nicht.": 1712,
    "Meine": 1713,
    "erreichen.": 1714,
    "isten": 1715,
    "vo@@": 1716,
    "trä@@": 1717,
    "richtig": 1718,
    "age": 1719,
    "Te@@": 1720,
    "13@@": 1721,
    "Preise": 1722,
    "neuer": 1723,
    "aler": 1724,
    "2.@@": 1725,
    "bin@@": 1726,
    "L": 1727,
    "schließlich": 1728,
    "AS@@": 1729,
    "darin,": 1730,
    "Tatsache,": 1731,
    "lag@@": 1732,
    "bevor": 1733,
    "Informations@@": 1734,
    "Prozess": 1735,
    "geführt": 1736,
    "Wachstum": 1737,
    "bar.": 1738,
    "Erklärung": 1739,
    "dafür,": 1740,
    "wenige": 1741,
    "“,": 1742,
    "B.": 1743,
    "Landes": 1744,
    "gan@@": 1745,
    "steig@@": 1746,
    "Mitarbeiter": 1747,
    "Nor@@": 1748,
    "ihres": 1749,
    "angesichts": 1750,
    "eng@@": 1751,
    "Dis@@": 1752,
    "nen,": 1753,
    "eigentlich": 1754,
    "Zur": 1755,
    "Bestimmungen": 1756,
    "genannten": 1757,
    "schul@@": 1758,
    "Ä@@": 1759,
    "ven@@": 1760,
    "Pal@@": 1761,
    "zehn": 1762,
    "essen": 1763,
    "des@@": 1764,
    "gestellt.": 1765,
    "2006": 1766,
    "il": 1767,
    "Con@@": 1768,
    "Stre@@": 1769,
    "Produktion": 1770,
    "Bu@@": 1771,
    "Aktivitäten": 1772,
    "Familie": 1773,
    "gende": 1774,
    "Gesundheit": 1775,
    "erk@@": 1776,
    "setz@@": 1777,
    "cht@@": 1778,
    "tiert.": 1779,
    "ungs-": 1780,
    "hab@@": 1781,
    "nehmen,": 1782,
    "hinter": 1783,
    "europäischer": 1784,
    "wider@@": 1785,
    "März": 1786,
    "Mal@@": 1787,
    "Op@@": 1788,
    "statt.": 1789,
    "soll.": 1790,
    "öffentliche": 1791,
    "weit@@": 1792,
    "leicht": 1793,
    "y,": 1794,
    "fahren": 1795,
    "stellen,": 1796,
    "lassen,": 1797,
    "Nord@@": 1798,
    "Integration": 1799,
    "Position": 1800,
    "AN@@": 1801,
    "í@@": 1802,
    "nah@@": 1803,
    "ien,": 1804,
    "gang": 1805,
    "Themen": 1806,
    "Zeit,": 1807,
    "dete": 1808,
    "schutz@@": 1809,
    "chen,": 1810,
    "AL@@": 1811,
    "Anforderungen": 1812,
    "star@@": 1813,
    "La": 1814,
    "legen": 1815,
    "gibt.": 1816,
    "Mark@@": 1817,
    "Tri@@": 1818,
    "Stelle": 1819,
    "tt@@": 1820,
    "trag@@": 1821,
    "+@@": 1822,
    "enthält": 1823,
    "entsprechenden": 1824,
    "An": 1825,
    "tiv@@": 1826,
    "Produk@@": 1827,
    "sor@@": 1828,
    "fehl@@": 1829,
    "erhalten.": 1830,
    "AT@@": 1831,
    "Januar": 1832,
    "auf.": 1833,
    "konnte": 1834,
    "grün@@": 1835,
    "Investitionen": 1836,
    "Programme": 1837,
    "wir,": 1838,
    "Stadt@@": 1839,
    "uss@@": 1840,
    "ok@@": 1841,
    "endlich": 1842,
    "her": 1843,
    "F": 1844,
    "Reis@@": 1845,
    "Entscheidungen": 1846,
    "s-@@": 1847,
    "Du": 1848,
    "schi@@": 1849,
    "Selbst@@": 1850,
    "Vorschriften": 1851,
    "Sprache": 1852,
    "führung": 1853,
    "Höhe": 1854,
    "paar": 1855,
    "El@@": 1856,
    "Teil@@": 1857,
    "zer@@": 1858,
    "heit@@": 1859,
    "gehören": 1860,
    "Wahl": 1861,
    "Folgen": 1862,
    "Datei": 1863,
    "allein": 1864,
    "erneut": 1865,
    "Wein@@": 1866,
    "tur@@": 1867,
    "Euro@@": 1868,
    "Arbeit@@": 1869,
    "cke": 1870,
    "demokratischen": 1871,
    "me,": 1872,
    "Standpunkt": 1873,
    "sofort": 1874,
    "Linie": 1875,
    "ad": 1876,
    "é": 1877,
    "Heute": 1878,
    "Por@@": 1879,
    "200@@": 1880,
    "wichtiger": 1881,
    "ka": 1882,
    "er-@@": 1883,
    "hervor@@": 1884,
    "Außen@@": 1885,
    "Str@@": 1886,
    "wollen.": 1887,
    "Kan@@": 1888,
    "tä@@": 1889,
    "tisch": 1890,
    "heit,": 1891,
    "v": 1892,
    "Durch@@": 1893,
    "Handel": 1894,
    "unterstützen.": 1895,
    "Oktober": 1896,
    "Ges@@": 1897,
    "trotz": 1898,
    "IT@@": 1899,
    "vollen": 1900,
    "G": 1901,
    "Gar@@": 1902,
    "lagen": 1903,
    "Tro@@": 1904,
    "betrifft,": 1905,
    "ta": 1906,
    "stoff@@": 1907,
    "eig@@": 1908,
    "produk@@": 1909,
    "ales": 1910,
    "”": 1911,
    "Nr.": 1912,
    "platz": 1913,
    "Sie@@": 1914,
    "notwendig": 1915,
    "kun@@": 1916,
    "ung:": 1917,
    "Kern@@": 1918,
    "leg@@": 1919,
    "Raum": 1920,
    "Bürgerinnen": 1921,
    "Natürlich": 1922,
    "ne,": 1923,
    "Stra@@": 1924,
    "lier@@": 1925,
    "kannst": 1926,
    "endes": 1927,
    "very": 1928,
    "Insel": 1929,
    "Aufmerksamkeit": 1930,
    "denke,": 1931,
    "Diskussion": 1932,
    "vor.": 1933,
    "ik": 1934,
    "on,": 1935,
    "möglich,": 1936,
    "geht.": 1937,
    "besondere": 1938,
    "Li@@": 1939,
    "gung": 1940,
    "do": 1941,
    "Stunden": 1942,
    "Anfrage": 1943,
    "kurz": 1944,
    "entwickelt": 1945,
    "ismus": 1946,
    "ank@@": 1947,
    "richtige": 1948,
    "Sport@@": 1949,
    "Änderung": 1950,
    "Notwendigkeit": 1951,
    "deck@@": 1952,
    "technischen": 1953,
    "fragen": 1954,
    "Dinge": 1955,
    "Den": 1956,
    "tag@@": 1957,
    "Unter": 1958,
    "maßnahmen": 1959,
    "Gewalt": 1960,
    "sollte.": 1961,
    "wen@@": 1962,
    "IC@@": 1963,
    "Grenzen": 1964,
    "alis@@": 1965,
    "das,": 1966,
    "Firma": 1967,
    "Bürger@@": 1968,
    "folgt": 1969,
    "Ak@@": 1970,
    "oben": 1971,
    "sel@@": 1972,
    "mal@@": 1973,
    "Lassen": 1974,
    "af@@": 1975,
    "zu,": 1976,
    "al.": 1977,
    "con@@": 1978,
    "entsprechend": 1979,
    "gs": 1980,
    "Gäste": 1981,
    "X": 1982,
    "Umwelt": 1983,
    "Regeln": 1984,
    "könnten": 1985,
    "Staats@@": 1986,
    "viel@@": 1987,
    "Bild": 1988,
    "ih@@": 1989,
    "Produkt@@": 1990,
    "Beginn": 1991,
    "ant@@": 1992,
    "system": 1993,
    "gel": 1994,
    "gef@@": 1995,
    "begrüße": 1996,
    "Gelegenheit": 1997,
    "frage": 1998,
    "ungsan@@": 1999,
    "Sinne": 2000,
    "Macht": 2001,
    ".com": 2002,
    "deutschen": 2003,
    "and,": 2004,
    "Wettbewerb": 2005,
    "schriftlich.": 2006,
    "Präsidenten": 2007,
    "Umgebung": 2008,
    "jeweiligen": 2009,
    "Kultur": 2010,
    "vier@@": 2011,
    "w": 2012,
    "S-@@": 2013,
    "Projek@@": 2014,
    "welches": 2015,
    "ter.": 2016,
    "sieht": 2017,
    "muss,": 2018,
    "Viele": 2019,
    "iss@@": 2020,
    "Wieder@@": 2021,
    "Fehler": 2022,
    "hatten": 2023,
    "bleiben": 2024,
    "Cor@@": 2025,
    "fer": 2026,
    "Fol@@": 2027,
    "Team": 2028,
    "zahl@@": 2029,
    "bar,": 2030,
    "Bereiche": 2031,
    "N": 2032,
    "zahlreichen": 2033,
    "historischen": 2034,
    "Druck@@": 2035,
    "nimmt": 2036,
    "Gleich@@": 2037,
    "y-@@": 2038,
    "mittel@@": 2039,
    "eh@@": 2040,
    "folgenden": 2041,
    "All@@": 2042,
    "wes@@": 2043,
    "Punkte": 2044,
    "neues": 2045,
    "Min@@": 2046,
    "Spiel": 2047,
    "Ri@@": 2048,
    "rück@@": 2049,
    "anderem": 2050,
    "nahe": 2051,
    "Juli": 2052,
    "warum": 2053,
    "fes@@": 2054,
    "beste": 2055,
    "®": 2056,
    "ären": 2057,
    "Tagesordnung": 2058,
    "modernen": 2059,
    "Dateien": 2060,
    "häufig": 2061,
    "arbeiten,": 2062,
    "Menschen,": 2063,
    "morgen": 2064,
    "ckt": 2065,
    "Wel@@": 2066,
    "ra": 2067,
    "bel": 2068,
    "außerhalb": 2069,
    "Einige": 2070,
    "fre@@": 2071,
    "Voll@@": 2072,
    "ab,": 2073,
    "sollen": 2074,
    "Projekte": 2075,
    "Monaten": 2076,
    "seines": 2077,
    "stets": 2078,
    "sam@@": 2079,
    "chen.": 2080,
    "if@@": 2081,
    "is,": 2082,
    "Wasser": 2083,
    "Berichts": 2084,
    "zumindest": 2085,
    "]": 2086,
    "Präsidentschaft": 2087,
    "0": 2088,
    "Öffentlichkeit": 2089,
    "suchen": 2090,
    "se.": 2091,
    "Server": 2092,
    "scheint": 2093,
    "for@@": 2094,
    "Dazu": 2095,
    "Sonder@@": 2096,
    "Grenz@@": 2097,
    "00@@": 2098,
    "Frankreich": 2099,
    "deten": 2100,
    "ch,": 2101,
    ">": 2102,
    "spielen": 2103,
    "Tier@@": 2104,
    "frei": 2105,
    "heutigen": 2106,
    "gesagt,": 2107,
    "Kunst@@": 2108,
    "Tat": 2109,
    "Behandlung": 2110,
    "barkeit": 2111,
    "amerikanischen": 2112,
    "November": 2113,
    "cher": 2114,
    "60": 2115,
    "haf@@": 2116,
    "Ihres": 2117,
    "Union,": 2118,
    "az@@": 2119,
    "t!": 2120,
    "ast@@": 2121,
    "privaten": 2122,
    "o-@@": 2123,
    "prä@@": 2124,
    "Obwohl": 2125,
    "arbeiten.": 2126,
    "automatisch": 2127,
    "Bes@@": 2128,
    "2005": 2129,
    "nutzen": 2130,
    "darum": 2131,
    "persönlichen": 2132,
    "uns,": 2133,
    "Su@@": 2134,
    "Neben": 2135,
    "Jahrhundert": 2136,
    "Liefer@@": 2137,
    "tive": 2138,
    "ing-@@": 2139,
    "Bundes@@": 2140,
    "tieren.": 2141,
    "mü@@": 2142,
    "ür@@": 2143,
    "New": 2144,
    "Handel@@": 2145,
    "habe,": 2146,
    "vorzu@@": 2147,
    "bessere": 2148,
    "<emph>@@": 2149,
    "Allerdings": 2150,
    "letzte": 2151,
    "Ost@@": 2152,
    "vollständig": 2153,
    "sechs": 2154,
    "acht": 2155,
    "Bemühungen": 2156,
    "leit@@": 2157,
    "Fällen": 2158,
    "Energie@@": 2159,
    "Druck": 2160,
    "14": 2161,
    "Sicht": 2162,
    "Ju@@": 2163,
    "iti@@": 2164,
    "ation.": 2165,
    "würde.": 2166,
    "Bürgern": 2167,
    "Finanzierung": 2168,
    "Inhalt": 2169,
    "falls": 2170,
    "bereit": 2171,
    "ausschließlich": 2172,
    "Bus@@": 2173,
    "um.": 2174,
    "gesetzt": 2175,
    "Konferenz": 2176,
    "ie,": 2177,
    "bau": 2178,
    "ans": 2179,
    "April": 2180,
    "hl@@": 2181,
    "angenommen": 2182,
    "av@@": 2183,
    "heißt": 2184,
    "möglichkeiten": 2185,
    "Bel@@": 2186,
    "Basis": 2187,
    "sehen.": 2188,
    "Fisch@@": 2189,
    "sprach@@": 2190,
    "Flughafen": 2191,
    "Rat@@": 2192,
    "lu@@": 2193,
    "Plat@@": 2194,
    "verfügen": 2195,
    "Recht@@": 2196,
    "Nationen": 2197,
    "je@@": 2198,
    "Ober@@": 2199,
    "Gründen": 2200,
    "reichen": 2201,
    "kehr@@": 2202,
    "fall@@": 2203,
    "Beschäftigung": 2204,
    "überhaupt": 2205,
    "Landwirtschaft": 2206,
    "Gesamt@@": 2207,
    "Sta@@": 2208,
    "sch": 2209,
    "Strand": 2210,
    "Wer": 2211,
    "Dann": 2212,
    "2004": 2213,
    "unk@@": 2214,
    "Jahres@@": 2215,
    "länder": 2216,
    "Reform": 2217,
    "zu.": 2218,
    "uch@@": 2219,
    "Per@@": 2220,
    "aktuelle": 2221,
    "Hin@@": 2222,
    "tor": 2223,
    "Energie": 2224,
    "app@@": 2225,
    "Privat@@": 2226,
    "Dar@@": 2227,
    "danke": 2228,
    "Falls": 2229,
    "wal@@": 2230,
    "beide": 2231,
    "Tagen": 2232,
    "tim@@": 2233,
    "Zimmer,": 2234,
    "Wor@@": 2235,
    "werk": 2236,
    "ges": 2237,
    "Natur": 2238,
    "Transparenz": 2239,
    "Person": 2240,
    "Denn": 2241,
    "worden.": 2242,
    "d-@@": 2243,
    "deine": 2244,
    "from": 2245,
    "Sal@@": 2246,
    "Milliarden": 2247,
    "erfolgreich": 2248,
    ">@@": 2249,
    "Schutz@@": 2250,
    "US@@": 2251,
    "Urlaub": 2252,
    "Schritte": 2253,
    "rechte": 2254,
    "Forschungs@@": 2255,
    "tigen,": 2256,
    "K": 2257,
    "dar.": 2258,
    "24": 2259,
    "Am@@": 2260,
    "o.": 2261,
    "tel": 2262,
    "allgemeinen": 2263,
    "ständig": 2264,
    "Energi@@": 2265,
    "klar@@": 2266,
    "Grün@@": 2267,
    "oll@@": 2268,
    "Kraft": 2269,
    "nissen": 2270,
    "Wochen": 2271,
    "net@@": 2272,
    "agen": 2273,
    "zug": 2274,
    "ó@@": 2275,
    "ungsver@@": 2276,
    "du@@": 2277,
    "Bilder": 2278,
    "größere": 2279,
    "legen.": 2280,
    "Hand": 2281,
    "Du@@": 2282,
    "Ansatz": 2283,
    "ack@@": 2284,
    "nen.": 2285,
    "igkeit": 2286,
    "freie": 2287,
    "Mess@@": 2288,
    "danken.": 2289,
    "Geld@@": 2290,
    "zusätzliche": 2291,
    "Klicken": 2292,
    "zudem": 2293,
    "Vertrauen": 2294,
    "Meer": 2295,
    "Rechtsvorschriften": 2296,
    "kaum": 2297,
    "Bank@@": 2298,
    "Bi@@": 2299,
    "end.": 2300,
    "best@@": 2301,
    "Pre@@": 2302,
    "istischen": 2303,
    "ing,": 2304,
    "Klein@@": 2305,
    "Benutzer": 2306,
    "digen": 2307,
    "dier@@": 2308,
    "mindestens": 2309,
    "Sa@@": 2310,
    "fizier@@": 2311,
    "Erfahrungen": 2312,
    "raum": 2313,
    "alisierung": 2314,
    "ts,": 2315,
    "bei@@": 2316,
    "ator@@": 2317,
    "sozi@@": 2318,
    "ce": 2319,
    "lige": 2320,
    "innen": 2321,
    "tieren,": 2322,
    "Gesch@@": 2323,
    "Vertreter": 2324,
    "è@@": 2325,
    "Online-@@": 2326,
    "sein@@": 2327,
    "bli@@": 2328,
    "Zimmer@@": 2329,
    "Ist": 2330,
    "globalen": 2331,
    "soll,": 2332,
    "Organisation": 2333,
    "Sti@@": 2334,
    "ters": 2335,
    "Industrie": 2336,
    "dor@@": 2337,
    "A-@@": 2338,
    "Doppel@@": 2339,
    "ität,": 2340,
    "tigen.": 2341,
    "Mehr@@": 2342,
    "stelle": 2343,
    "nationale": 2344,
    "langen": 2345,
    "hol@@": 2346,
    "ent,": 2347,
    "Q@@": 2348,
    "lig@@": 2349,
    "Aufenthalt": 2350,
    "lieb@@": 2351,
    "Frühstück": 2352,
    "aussch@@": 2353,
    "Nutz@@": 2354,
    "iten": 2355,
    "ös@@": 2356,
    "Werte": 2357,
    "Falle": 2358,
    "wert": 2359,
    "abkommen": 2360,
    "Frage,": 2361,
    "moderne": 2362,
    "fi@@": 2363,
    "heraus@@": 2364,
    "San": 2365,
    "La@@": 2366,
    "unbedingt": 2367,
    "gar@@": 2368,
    "dre@@": 2369,
    "tal@@": 2370,
    "“.": 2371,
    "uren": 2372,
    "Republik": 2373,
    "les": 2374,
    "Bildung": 2375,
    "Hinsicht": 2376,
    "wechsel@@": 2377,
    "Gel@@": 2378,
    "unterschiedlichen": 2379,
    "Foto@@": 2380,
    "Internet@@": 2381,
    "Kal@@": 2382,
    "GmbH": 2383,
    "as,": 2384,
    "alte": 2385,
    "stärker": 2386,
    "mehreren": 2387,
    "zentr@@": 2388,
    "ris@@": 2389,
    "Wann": 2390,
    "offen@@": 2391,
    "Lissabon": 2392,
    "tes@@": 2393,
    "entsprechende": 2394,
    "18": 2395,
    "bald": 2396,
    "nicht@@": 2397,
    "ep@@": 2398,
    "Einrichtung": 2399,
    "Herren!": 2400,
    "liefer@@": 2401,
    "erzeug@@": 2402,
    "Berg@@": 2403,
    "danken,": 2404,
    "wahrscheinlich": 2405,
    "ang": 2406,
    "Vergangenheit": 2407,
    "setzen.": 2408,
    "Buch@@": 2409,
    "stehen.": 2410,
    "gesetz@@": 2411,
    "Information": 2412,
    "Eing@@": 2413,
    "son@@": 2414,
    "sollte,": 2415,
    "verfahren": 2416,
    "kal@@": 2417,
    "Partner@@": 2418,
    "Medi@@": 2419,
    "gefähr@@": 2420,
    "Aspekte": 2421,
    "Sache": 2422,
    "V": 2423,
    "zü@@": 2424,
    "tro@@": 2425,
    "els": 2426,
    "UN@@": 2427,
    "AC@@": 2428,
    "funktion@@": 2429,
    "teil": 2430,
    "erforderlich": 2431,
    "stes": 2432,
    "Ressourcen": 2433,
    "istische": 2434,
    "200": 2435,
    "üb@@": 2436,
    "ziehen": 2437,
    "dem@@": 2438,
    "woh@@": 2439,
    "betrifft": 2440,
    "isch,": 2441,
    "Lauf@@": 2442,
    "up@@": 2443,
    "Nicht": 2444,
    "anischen": 2445,
    "500": 2446,
    "sse": 2447,
    "gleiche": 2448,
    "Mitgliedstaaten,": 2449,
    "23@@": 2450,
    "197@@": 2451,
    "ft,": 2452,
    "Über": 2453,
    "sprechen,": 2454,
    "groß@@": 2455,
    "tigt,": 2456,
    "sprech@@": 2457,
    "16": 2458,
    "Ü@@": 2459,
    "Zudem": 2460,
    "wunder@@": 2461,
    "lose": 2462,
    "ts.": 2463,
    "sta@@": 2464,
    "Ser@@": 2465,
    "Windows": 2466,
    "kommenden": 2467,
    "Wander@@": 2468,
    "tionen,": 2469,
    "weg": 2470,
    "wer": 2471,
    "Musik": 2472,
    "setzen,": 2473,
    "zeigen": 2474,
    "ener": 2475,
    "Opfer": 2476,
    "Qualitäts@@": 2477,
    "Annahme": 2478,
    "Präsidentin!": 2479,
    "möglicherweise": 2480,
    "Kollegen!": 2481,
    "Pol@@": 2482,
    "kar@@": 2483,
    "EUR": 2484,
    "tri@@": 2485,
    "80": 2486,
    "ort": 2487,
    "kosten": 2488,
    "ben,": 2489,
    "Fischerei@@": 2490,
    "schaffen,": 2491,
    "bedingungen": 2492,
    ":00": 2493,
    "2.": 2494,
    "statt": 2495,
    "finanz@@": 2496,
    "glaube": 2497,
    "Mag@@": 2498,
    "sier@@": 2499,
    "rechts": 2500,
    "Zunächst": 2501,
    "gestimmt,": 2502,
    "Durchführung": 2503,
    ".000": 2504,
    "sich,": 2505,
    "Pi@@": 2506,
    "Sitzung": 2507,
    "tiert,": 2508,
    "ingen": 2509,
    "Pa@@": 2510,
    "Spieler": 2511,
    "ligen": 2512,
    "bestehenden": 2513,
    "ben.": 2514,
    "t;": 2515,
    "Fuß@@": 2516,
    "Produktions@@": 2517,
    "i-@@": 2518,
    "dring@@": 2519,
    "mehr@@": 2520,
    "gelegt": 2521,
    "veränder@@": 2522,
    "sag@@": 2523,
    "sollten.": 2524,
    "technische": 2525,
    "tion.": 2526,
    "Systems": 2527,
    "Ausschuß": 2528,
    "mus@@": 2529,
    "Praxis": 2530,
    "stand@@": 2531,
    "bedeutet,": 2532,
    "besonderen": 2533,
    "tragen.": 2534,
    "Ö@@": 2535,
    "ativen": 2536,
    "Kor@@": 2537,
    "lik@@": 2538,
    "bewer@@": 2539,
    "arbeitet": 2540,
    "ver": 2541,
    "atur": 2542,
    "ve": 2543,
    "(S@@": 2544,
    "Werk@@": 2545,
    "he,": 2546,
    "Date@@": 2547,
    "fal@@": 2548,
    "Gefahr": 2549,
    "seh@@": 2550,
    "you": 2551,
    "inn@@": 2552,
    "Suche": 2553,
    "organis@@": 2554,
    "heit.": 2555,
    "Freiheit": 2556,
    "kur@@": 2557,
    "nahme": 2558,
    "möglichen": 2559,
    "schaffen.": 2560,
    "Unterkategorien": 2561,
    "su@@": 2562,
    "cken,": 2563,
    "Plan@@": 2564,
    "kul@@": 2565,
    "ker": 2566,
    "verkehr": 2567,
    "Lage,": 2568,
    "Fest@@": 2569,
    "weiß,": 2570,
    "Kin@@": 2571,
    "nachdem": 2572,
    "Gipfel": 2573,
    "'s": 2574,
    "kürz@@": 2575,
    "notwendigen": 2576,
    "schaffen": 2577,
    "Mi@@": 2578,
    "en\"": 2579,
    "Com@@": 2580,
    "darauf,": 2581,
    "plat@@": 2582,
    "no": 2583,
    "por@@": 2584,
    "AG": 2585,
    "Vis@@": 2586,
    "gefunden": 2587,
    "erfolgt": 2588,
    "dringend": 2589,
    "lit@@": 2590,
    "hoch": 2591,
    "finanziellen": 2592,
    "tragen,": 2593,
    "lass@@": 2594,
    "ober@@": 2595,
    "Parteien": 2596,
    "West@@": 2597,
    "Anerkennung": 2598,
    "RE@@": 2599,
    "gest@@": 2600,
    "sion": 2601,
    "unterstützen,": 2602,
    "tun.": 2603,
    "Schließlich": 2604,
    "11": 2605,
    "glich@@": 2606,
    "netz@@": 2607,
    "belieb@@": 2608,
    "alismus": 2609,
    "klicken": 2610,
    "Volks@@": 2611,
    "Do@@": 2612,
    "Wahlen": 2613,
    "Arbeitsplätze": 2614,
    "Krieg": 2615,
    "Kunden@@": 2616,
    "rü@@": 2617,
    "gän@@": 2618,
    "Angelegenheit": 2619,
    "Har@@": 2620,
    "Fl@@": 2621,
    "hinzu@@": 2622,
    "erhalten,": 2623,
    "Staat": 2624,
    "Folge": 2625,
    "2003": 2626,
    "Verpflichtungen": 2627,
    "inform@@": 2628,
    "setzung": 2629,
    "EN": 2630,
    "Kl@@": 2631,
    "Zustimmung": 2632,
    "Gebäude": 2633,
    "leb@@": 2634,
    "schätz@@": 2635,
    "Cas@@": 2636,
    "toren": 2637,
    "Aufgaben": 2638,
    "gten": 2639,
    "Prozent": 2640,
    "re,": 2641,
    "ms": 2642,
    "Kriterien": 2643,
    "zuletzt": 2644,
    "ven": 2645,
    "Mitteilung": 2646,
    "pu@@": 2647,
    "stehenden": 2648,
    "jeweils": 2649,
    "gener@@": 2650,
    "träge": 2651,
    "eindeutig": 2652,
    "schwer": 2653,
    "Protokoll": 2654,
    "enthalten": 2655,
    "Arbeitnehmer": 2656,
    "welcher": 2657,
    "außer": 2658,
    "entweder": 2659,
    "zw@@": 2660,
    "bl@@": 2661,
    "Ur@@": 2662,
    "Anstrengungen": 2663,
    "Besuch": 2664,
    "werte": 2665,
    "ure": 2666,
    "ile": 2667,
    "Agrar@@": 2668,
    "Gas@@": 2669,
    "ase": 2670,
    "fahrt": 2671,
    "Standard@@": 2672,
    "fa@@": 2673,
    "Zeichen": 2674,
    "gro@@": 2675,
    "Design": 2676,
    "Vereinbarung": 2677,
    "kam@@": 2678,
    "os@@": 2679,
    "Homepage": 2680,
    "wirk@@": 2681,
    "Verwaltung": 2682,
    "beschäf@@": 2683,
    "ände": 2684,
    "­@@": 2685,
    "alt": 2686,
    "sektor": 2687,
    "Karte": 2688,
    "selbstverständlich": 2689,
    "Küche": 2690,
    "ina": 2691,
    "waren,": 2692,
    "jederzeit": 2693,
    "darunter": 2694,
    "Vereinten": 2695,
    "verwal@@": 2696,
    "Wettbewerbs@@": 2697,
    "legen,": 2698,
    "darum,": 2699,
    "Wunsch": 2700,
    "punkt": 2701,
    "win@@": 2702,
    "Hal@@": 2703,
    "Gruppen": 2704,
    "Fra@@": 2705,
    "lauf@@": 2706,
    "str@@": 2707,
    "Technologie": 2708,
    "wählen": 2709,
    "alität": 2710,
    "stimme": 2711,
    "behandelt": 2712,
    "tung,": 2713,
    "Herausforderungen": 2714,
    "Verfassung": 2715,
    "politischer": 2716,
    "ay@@": 2717,
    "Haushalt": 2718,
    "sicherlich": 2719,
    "asch@@": 2720,
    "äh@@": 2721,
    "durchgeführt": 2722,
    "wesentlich": 2723,
    "gebiet": 2724,
    "Solidarität": 2725,
    "tur": 2726,
    "daten": 2727,
    "uner@@": 2728,
    "gegen@@": 2729,
    "fonds": 2730,
    "Menschenrechts@@": 2731,
    "ton": 2732,
    "nung": 2733,
    "zeigen,": 2734,
    "würde,": 2735,
    "?@@": 2736,
    "ator": 2737,
    "30@@": 2738,
    "tischer": 2739,
    "woll@@": 2740,
    "tig.": 2741,
    "Fil@@": 2742,
    "voller": 2743,
    "Inhalte": 2744,
    "Fü@@": 2745,
    "land,": 2746,
    "Forsch@@": 2747,
    "Dokument": 2748,
    "tierung": 2749,
    "isierung": 2750,
    "zeiten": 2751,
    "Schwierigkeiten": 2752,
    "wasser@@": 2753,
    "weiß": 2754,
    "Musik@@": 2755,
    "Funktionen": 2756,
    "LE@@": 2757,
    "Verwaltungs@@": 2758,
    "3.@@": 2759,
    "seite": 2760,
    "Reformen": 2761,
    "ve@@": 2762,
    "Sol@@": 2763,
    "licherweise": 2764,
    "Kraft@@": 2765,
    "Einfluss": 2766,
    "Kontakt": 2767,
    "tern,": 2768,
    "Dienst@@": 2769,
    "...@@": 2770,
    "antwor@@": 2771,
    "Frieden": 2772,
    "Familien@@": 2773,
    "kenn@@": 2774,
    "äch@@": 2775,
    "schaft,": 2776,
    "ili@@": 2777,
    "klein@@": 2778,
    "teilweise": 2779,
    "Menschen@@": 2780,
    "elles": 2781,
    "ener@@": 2782,
    "bringt": 2783,
    "Binnenmarkt": 2784,
    "me.": 2785,
    "ba@@": 2786,
    "Pat@@": 2787,
    "möchten,": 2788,
    "ill@@": 2789,
    "Fo@@": 2790,
    "rit@@": 2791,
    "€": 2792,
    "Partei": 2793,
    "Leider": 2794,
    "spar@@": 2795,
    "net": 2796,
    "Systeme": 2797,
    "fach@@": 2798,
    "Zivil@@": 2799,
    "sicher,": 2800,
    "pa@@": 2801,
    "Tor@@": 2802,
    "Menge": 2803,
    "d'@@": 2804,
    "Nutzen": 2805,
    "speziell": 2806,
    "1,@@": 2807,
    "itz@@": 2808,
    "Gr@@": 2809,
    "änder@@": 2810,
    "optim@@": 2811,
    "bedeut@@": 2812,
    "wünsch@@": 2813,
    "Europa,": 2814,
    "not": 2815,
    "nam@@": 2816,
    "schau@@": 2817,
    "möglichst": 2818,
    "chten": 2819,
    "Haus@@": 2820,
    "Haltung": 2821,
    "getan": 2822,
    "eingesetzt": 2823,
    "arbeit": 2824,
    "Hause": 2825,
    "tiv": 2826,
    "sicherheit": 2827,
    "werk@@": 2828,
    "..": 2829,
    "stoffe": 2830,
    "ins@@": 2831,
    "fälle": 2832,
    "gestimmt.": 2833,
    "San@@": 2834,
    "cks": 2835,
    "Stabilität": 2836,
    "realis@@": 2837,
    "amp@@": 2838,
    "be,": 2839,
    "Vielen": 2840,
    "H": 2841,
    "las@@": 2842,
    "25@@": 2843,
    "heim@@": 2844,
    "log@@": 2845,
    "keit@@": 2846,
    "13": 2847,
    "klare": 2848,
    "keit,": 2849,
    "Abschluss": 2850,
    "Tex@@": 2851,
    "versuchen,": 2852,
    "Armut": 2853,
    "mäch@@": 2854,
    "geschlossen.": 2855,
    "ordnung": 2856,
    "Bro@@": 2857,
    "ca": 2858,
    "enst@@": 2859,
    "helfen": 2860,
    "Augen": 2861,
    "vertre@@": 2862,
    "Hau@@": 2863,
    "Mu@@": 2864,
    "Mau@@": 2865,
    "at,": 2866,
    "richtigen": 2867,
    "lang@@": 2868,
    "enti@@": 2869,
    "dank": 2870,
    "leid@@": 2871,
    "mö@@": 2872,
    "kommt,": 2873,
    "tiven": 2874,
    "lokalen": 2875,
    "National@@": 2876,
    "h.": 2877,
    "durchaus": 2878,
    "bt": 2879,
    "Sek@@": 2880,
    "gerecht": 2881,
    "Angelegenheiten": 2882,
    "möglich.": 2883,
    "che,": 2884,
    "k.": 2885,
    "Bas@@": 2886,
    "Far@@": 2887,
    "genießen": 2888,
    "Vergleich": 2889,
    "zul@@": 2890,
    "mögliche": 2891,
    "iges": 2892,
    "anten": 2893,
    "и@@": 2894,
    "weg@@": 2895,
    "Tre@@": 2896,
    "art": 2897,
    "Ka@@": 2898,
    "steht.": 2899,
    "nern": 2900,
    "gr@@": 2901,
    "pres@@": 2902,
    "<ahelp": 2903,
    "nächste": 2904,
    "ön@@": 2905,
    "mann": 2906,
    "bit@@": 2907,
    "Vorteile": 2908,
    "glichen": 2909,
    "keit.": 2910,
    "Atmosphäre": 2911,
    "ologie": 2912,
    "vers@@": 2913,
    "Sü@@": 2914,
    "Berlin": 2915,
    "Abschließend": 2916,
    "zurückzu@@": 2917,
    "hau@@": 2918,
    "%@@": 2919,
    "Sommer": 2920,
    "Bil@@": 2921,
    "konkrete": 2922,
    "ub@@": 2923,
    "erklär@@": 2924,
    "iel@@": 2925,
    "OR@@": 2926,
    "Sor@@": 2927,
    "tsp@@": 2928,
    "zentrale": 2929,
    "bek@@": 2930,
    "finanzielle": 2931,
    "euch": 2932,
    "gelten": 2933,
    "ons": 2934,
    "Kontroll@@": 2935,
    "00": 2936,
    "cken.": 2937,
    "wenigen": 2938,
    "et.": 2939,
    "anders": 2940,
    "sum@@": 2941,
    "Anspruch": 2942,
    "kosten@@": 2943,
    "mich,": 2944,
    "einfach@@": 2945,
    "kam": 2946,
    "Stu@@": 2947,
    "Organisationen": 2948,
    "förder@@": 2949,
    "Regel@@": 2950,
    "Produkt": 2951,
    "Frei@@": 2952,
    "Vertrags": 2953,
    "Rom@@": 2954,
    "anderes": 2955,
    "losen": 2956,
    "aktiv": 2957,
    "Wettbewerbsfähigkeit": 2958,
    "erreichen,": 2959,
    "Instrument": 2960,
    "Hel@@": 2961,
    "EC@@": 2962,
    "ischem": 2963,
    "dig": 2964,
    "Technologi@@": 2965,
    "schafts@@": 2966,
    "dem,": 2967,
    "Geh@@": 2968,
    "ße": 2969,
    "aller@@": 2970,
    "denk@@": 2971,
    "Februar": 2972,
    "wie@@": 2973,
    "Computer": 2974,
    "ken,": 2975,
    "genutzt": 2976,
    "zieh@@": 2977,
    "zahlen": 2978,
    "braucht": 2979,
    "für@@": 2980,
    "hinter@@": 2981,
    "laden": 2982,
    "Nun": 2983,
    "Nachfolgend": 2984,
    "tlicher": 2985,
    "tisch@@": 2986,
    "hatte,": 2987,
    "Jetzt": 2988,
    "markt": 2989,
    "Volk": 2990,
    "Spanien": 2991,
    "sollen.": 2992,
    "genug": 2993,
    "Unternehmen,": 2994,
    "we": 2995,
    "einander": 2996,
    "tritt": 2997,
    "frei@@": 2998,
    "e:": 2999,
    "glich": 3000,
    "CO@@": 3001,
    "gestellten": 3002,
    "sol@@": 3003,
    "Monate": 3004,
    "ck,": 3005,
    "Beitritts@@": 3006,
    "Zwe@@": 3007,
    "Ku@@": 3008,
    "Anti@@": 3009,
    "unterschiedliche": 3010,
    "mitteln": 3011,
    "Leit@@": 3012,
    "gigen": 3013,
    "eri@@": 3014,
    "Rau@@": 3015,
    "kulturellen": 3016,
    "freue": 3017,
    "führenden": 3018,
    "Italien": 3019,
    "dungen": 3020,
    "Leute": 3021,
    "1999": 3022,
    "Terrorismus": 3023,
    "regel@@": 3024,
    "usw.": 3025,
    "ität.": 3026,
    "Tätigkeit": 3027,
    "erwar@@": 3028,
    "that": 3029,
    "daran,": 3030,
    "Meter": 3031,
    "ise": 3032,
    "Mat@@": 3033,
    "Ha@@": 3034,
    "einiger": 3035,
    "steht,": 3036,
    "Wi@@": 3037,
    "preis@@": 3038,
    "gend": 3039,
    "<@@": 3040,
    "sicht": 3041,
    "Industri@@": 3042,
    "Beitritt": 3043,
    "Star@@": 3044,
    "Bal@@": 3045,
    "Fer@@": 3046,
    "www.@@": 3047,
    "fu@@": 3048,
    "Einhaltung": 3049,
    "Bre@@": 3050,
    "Fin@@": 3051,
    "lü@@": 3052,
    "gestellt,": 3053,
    "Zentral@@": 3054,
    "icht": 3055,
    "lichkeiten": 3056,
    "Teile": 3057,
    "erwarten": 3058,
    "übernachten?": 3059,
    "room": 3060,
    "abl@@": 3061,
    "Sektor": 3062,
    "beding@@": 3063,
    "of@@": 3064,
    "RO@@": 3065,
    "Lan@@": 3066,
    "bestimm@@": 3067,
    "sicht@@": 3068,
    "our": 3069,
    "tsch@@": 3070,
    "positive": 3071,
    "gewal@@": 3072,
    "Dennoch": 3073,
    "Tag@@": 3074,
    "bestell@@": 3075,
    "ste,": 3076,
    "о@@": 3077,
    "berücksichtigt": 3078,
    "anz": 3079,
    "spor@@": 3080,
    "ni@@": 3081,
    "ging": 3082,
    "könnte.": 3083,
    "täglich": 3084,
    "Meinung,": 3085,
    "ard": 3086,
    "absolut": 3087,
    "Warum": 3088,
    "Innen@@": 3089,
    "denke": 3090,
    "bestehen": 3091,
    "berg": 3092,
    "dan@@": 3093,
    "ME@@": 3094,
    "wirtschaft": 3095,
    "starke": 3096,
    "folgende": 3097,
    "Park@@": 3098,
    "Osten": 3099,
    "erwartet": 3100,
    "the@@": 3101,
    "Politik@@": 3102,
    "Ir@@": 3103,
    "kom@@": 3104,
    "Tab@@": 3105,
    "Tur@@": 3106,
    "Angesichts": 3107,
    "hätten": 3108,
    "benötigen": 3109,
    "Mio.": 3110,
    "Technologien": 3111,
    "etz@@": 3112,
    "Arbeiten": 3113,
    "Vielfalt": 3114,
    "Gleichzeitig": 3115,
    "icht@@": 3116,
    "far@@": 3117,
    "Vielzahl": 3118,
    "druck@@": 3119,
    "Kollegen,": 3120,
    "dische": 3121,
    "Post@@": 3122,
    "ausdrücklich": 3123,
    "Friedens@@": 3124,
    "lat@@": 3125,
    "tigt.": 3126,
    "Rahmen@@": 3127,
    "fest,": 3128,
    "Zeitraum": 3129,
    "Weiter@@": 3130,
    "End@@": 3131,
    "Gemeinsamen": 3132,
    "*": 3133,
    "bekommen": 3134,
    "age@@": 3135,
    "Rei@@": 3136,
    "der.": 3137,
    "Ob@@": 3138,
    "nis,": 3139,
    "dennoch": 3140,
    "zen@@": 3141,
    "Aufnahme": 3142,
    "Sehr": 3143,
    "Klima@@": 3144,
    "Zentr@@": 3145,
    "politik,": 3146,
    "Webseite": 3147,
    "Mel@@": 3148,
    "е@@": 3149,
    "sm@@": 3150,
    "Süd@@": 3151,
    "50@@": 3152,
    "IM@@": 3153,
    "del@@": 3154,
    "Zweitens": 3155,
    "24@@": 3156,
    "ath@@": 3157,
    "Lie@@": 3158,
    "AD@@": 3159,
    "Met@@": 3160,
    "stri@@": 3161,
    "Israel": 3162,
    "ien.": 3163,
    "Angebo@@": 3164,
    "go": 3165,
    "tl@@": 3166,
    "Fel@@": 3167,
    "Nieder@@": 3168,
    "Gästebewertungen": 3169,
    "sollten,": 3170,
    "Such@@": 3171,
    "100@@": 3172,
    "tierten": 3173,
    "August": 3174,
    "Berichterstatterin": 3175,
    "gs@@": 3176,
    "aufgenommen": 3177,
    "regionalen": 3178,
    "id": 3179,
    "unabhängig": 3180,
    "greif@@": 3181,
    "schönen": 3182,
    "с@@": 3183,
    "Proz@@": 3184,
    "nahmen": 3185,
    "5.@@": 3186,
    "Regelung": 3187,
    "Stärkung": 3188,
    "spezi@@": 3189,
    "anische": 3190,
    "darüber,": 3191,
    "Aussch@@": 3192,
    "ere@@": 3193,
    "Straßen@@": 3194,
    "Konzept": 3195,
    "Herstellung": 3196,
    "Stimme": 3197,
    "Stand": 3198,
    "Ausbildung": 3199,
    "Ausgaben": 3200,
    "kommt.": 3201,
    "konnten": 3202,
    "Person@@": 3203,
    "Beschäftigungs@@": 3204,
    "2002": 3205,
    "enzen": 3206,
    "off@@": 3207,
    "Produkten": 3208,
    "Wohl@@": 3209,
    "fallen": 3210,
    "plan@@": 3211,
    "verwenden": 3212,
    "oo@@": 3213,
    "Fehl@@": 3214,
    "Ben@@": 3215,
    "Angaben": 3216,
    "jährigen": 3217,
    "fordern": 3218,
    "Personal": 3219,
    "mp@@": 3220,
    "el.": 3221,
    "benutzt": 3222,
    "une": 3223,
    "liebe": 3224,
    "freuen": 3225,
    "Kommission.": 3226,
    "umgesetzt": 3227,
    "U": 3228,
    "Kam@@": 3229,
    "Engagement": 3230,
    "Einigung": 3231,
    "itäts@@": 3232,
    "Park": 3233,
    "voraus@@": 3234,
    "in.": 3235,
    "ate@@": 3236,
    "ke,": 3237,
    "akzep@@": 3238,
    "tierte": 3239,
    "tere": 3240,
    "ST@@": 3241,
    "Stellungnahme": 3242,
    "u.": 3243,
    "mäßig": 3244,
    "kop@@": 3245,
    "Veränderungen": 3246,
    "anti@@": 3247,
    "stellungen": 3248,
    "weiterer": 3249,
    "Medien": 3250,
    "Land,": 3251,
    "Union.": 3252,
    "DE@@": 3253,
    "Reform@@": 3254,
    "helfen,": 3255,
    "ano": 3256,
    "jahr@@": 3257,
    "Mitgliedstaat": 3258,
    "liert": 3259,
    "notwendig,": 3260,
    "waren.": 3261,
    "Schlüssel@@": 3262,
    "Erd@@": 3263,
    "OS@@": 3264,
    "zähl@@": 3265,
    "res": 3266,
    ".</ahelp>": 3267,
    "hinweisen,": 3268,
    "Fe@@": 3269,
    "stehen,": 3270,
    "Jahrhunder@@": 3271,
    "ungen@@": 3272,
    "breite": 3273,
    "Name": 3274,
    "schaf@@": 3275,
    "Farb@@": 3276,
    "gh@@": 3277,
    "feld": 3278,
    "Kop@@": 3279,
    "Antrag": 3280,
    "satz@@": 3281,
    "Mitte": 3282,
    "zeichen": 3283,
    "ment": 3284,
    "Wählen": 3285,
    "heits@@": 3286,
    "ec@@": 3287,
    "zentrum": 3288,
    "Schl@@": 3289,
    "wär@@": 3290,
    "tik": 3291,
    "sit@@": 3292,
    "Ap@@": 3293,
    "verantwortlich": 3294,
    "f,": 3295,
    "70": 3296,
    "Modell": 3297,
    "Res@@": 3298,
    "ite": 3299,
    "Welt.": 3300,
    "Win@@": 3301,
    "3.": 3302,
    "übrigen": 3303,
    "rau@@": 3304,
    "französischen": 3305,
    "teilt": 3306,
    "gesehen": 3307,
    "(EN)": 3308,
    "verstehen": 3309,
    "Schwe@@": 3310,
    "Leistungen": 3311,
    "brauch@@": 3312,
    "Verb@@": 3313,
    "Zahl@@": 3314,
    "were": 3315,
    "erforderlichen": 3316,
    "denken,": 3317,
    "te:": 3318,
    "Parlament,": 3319,
    "gesellschaft": 3320,
    "Wege": 3321,
    "1,": 3322,
    "4.@@": 3323,
    "196@@": 3324,
    "steuer@@": 3325,
    "Bio@@": 3326,
    "E-Mail": 3327,
    "demokratische": 3328,
    "sämtliche": 3329,
    "schließen": 3330,
    "unterstütz@@": 3331,
    "Vol@@": 3332,
    "Initiativen": 3333,
    "keinerlei": 3334,
    "ens,": 3335,
    "barer": 3336,
    "werke": 3337,
    "pri@@": 3338,
    "System@@": 3339,
    "ie.": 3340,
    "Span@@": 3341,
    "Sam@@": 3342,
    "300": 3343,
    "sion@@": 3344,
    "teilung": 3345,
    "gn@@": 3346,
    "verein@@": 3347,
    "gutes": 3348,
    "Meiner": 3349,
    "Berichte": 3350,
    "hand@@": 3351,
    "san@@": 3352,
    "fen,": 3353,
    "Sh@@": 3354,
    "sel": 3355,
    "vorliegenden": 3356,
    "Status": 3357,
    "Fonds": 3358,
    "Straße": 3359,
    "besteht,": 3360,
    "Forderung": 3361,
    "Restaurants": 3362,
    "et,": 3363,
    "enheit": 3364,
    "miteinander": 3365,
    "ner,": 3366,
    "Dienste": 3367,
    "Lebensmittel@@": 3368,
    "gegenwärtig": 3369,
    "ana": 3370,
    "Besucher": 3371,
    "ON@@": 3372,
    "Management": 3373,
    "größeren": 3374,
    "gegenwärtigen": 3375,
    "ette": 3376,
    "Anwendungen": 3377,
    "Regel": 3378,
    "satz": 3379,
    "ländern": 3380,
    "gruppe": 3381,
    "hält": 3382,
    "systeme": 3383,
    "steh@@": 3384,
    "iste": 3385,
    "hö@@": 3386,
    "einig@@": 3387,
    "bri@@": 3388,
    "Idee": 3389,
    "ow@@": 3390,
    "buch@@": 3391,
    "geschaffen": 3392,
    "AM@@": 3393,
    "Ide@@": 3394,
    "halt": 3395,
    "flü@@": 3396,
    "Länder,": 3397,
    "offen": 3398,
    "niedri@@": 3399,
    "Ihnen,": 3400,
    "hier@@": 3401,
    "enden,": 3402,
    "Les@@": 3403,
    "bü@@": 3404,
    "Sprachen": 3405,
    "ard@@": 3406,
    "sek@@": 3407,
    "spezielle": 3408,
    "Programms": 3409,
    "Geb@@": 3410,
    "ziehen.": 3411,
    "son": 3412,
    "Seine": 3413,
    "Lei@@": 3414,
    "EL@@": 3415,
    "Lesung": 3416,
    "sorgen,": 3417,
    "Kindern": 3418,
    "führer": 3419,
    "Forderungen": 3420,
    "Sonnen@@": 3421,
    "Analyse": 3422,
    "our@@": 3423,
    "Wal@@": 3424,
    "vertrau@@": 3425,
    "Son@@": 3426,
    "großes": 3427,
    "dienst@@": 3428,
    "assen": 3429,
    "2001": 3430,
    "verbundenen": 3431,
    "umfassende": 3432,
    "Standards": 3433,
    "vorge@@": 3434,
    "prozess": 3435,
    "olo@@": 3436,
    "met@@": 3437,
    "mati@@": 3438,
    "ks": 3439,
    "komplett": 3440,
    "ehr@@": 3441,
    "Kat@@": 3442,
    "Demokrati@@": 3443,
    "Bad": 3444,
    "va": 3445,
    "denken": 3446,
    "ker@@": 3447,
    "Anteil": 3448,
    "mittels": 3449,
    "internationaler": 3450,
    "Beim": 3451,
    "Öl@@": 3452,
    "Absatz": 3453,
    "gte": 3454,
    "dlich": 3455,
    "legt": 3456,
    "Währung": 3457,
    "Fu@@": 3458,
    "betrieb@@": 3459,
    "My@@": 3460,
    "leben@@": 3461,
    "ative": 3462,
    "Prä@@": 3463,
    "worden,": 3464,
    "nutzen,": 3465,
    "bedarf": 3466,
    "ungsverfahren": 3467,
    "Weitere": 3468,
    "diejenigen,": 3469,
    "ron@@": 3470,
    "Nam@@": 3471,
    "Instrumente": 3472,
    "Struktur@@": 3473,
    "Mün@@": 3474,
    "Lehr@@": 3475,
    "verur@@": 3476,
    "heißt,": 3477,
    "SI@@": 3478,
    "Bur@@": 3479,
    "verständ@@": 3480,
    "gebo@@": 3481,
    "Bade@@": 3482,
    "llen": 3483,
    "EU@@": 3484,
    "D-@@": 3485,
    "berech@@": 3486,
    "zier@@": 3487,
    "Industrie@@": 3488,
    "Ansicht,": 3489,
    "Einrichtungen": 3490,
    "ings": 3491,
    "gering@@": 3492,
    "folgen": 3493,
    "Arten": 3494,
    "pol@@": 3495,
    "persönlich": 3496,
    "Boo@@": 3497,
    "gemein@@": 3498,
    "verbreit@@": 3499,
    "Villa": 3500,
    "online": 3501,
    "Sub@@": 3502,
    "Installation": 3503,
    "treffen": 3504,
    "Ph@@": 3505,
    "ahn@@": 3506,
    "Zweck": 3507,
    "Bar": 3508,
    "zurück": 3509,
    "har@@": 3510,
    "wäre,": 3511,
    "tief@@": 3512,
    "Lö@@": 3513,
    "wenden": 3514,
    "Ski@@": 3515,
    "schutz": 3516,
    "Tatsache": 3517,
    "kennen": 3518,
    "Objek@@": 3519,
    "Adresse": 3520,
    "wesentlichen": 3521,
    "Entwurf": 3522,
    "beizu@@": 3523,
    "ade": 3524,
    "Achtung": 3525,
    "co": 3526,
    "Jo@@": 3527,
    "Spezial@@": 3528,
    "Kir@@": 3529,
    "Bl@@": 3530,
    "zy@@": 3531,
    "ändern": 3532,
    "ef@@": 3533,
    "Kenntnis": 3534,
    "fü@@": 3535,
    "2,": 3536,
    "Bewertung": 3537,
    "leistungs@@": 3538,
    "such@@": 3539,
    "bekannten": 3540,
    "5.": 3541,
    "Rad@@": 3542,
    "forder@@": 3543,
    "Mass@@": 3544,
    "nationaler": 3545,
    "Mindest@@": 3546,
    "Stellen": 3547,
    "sicherzustellen,": 3548,
    "gelöst": 3549,
    "Abend": 3550,
    "jen@@": 3551,
    "Dem@@": 3552,
    "ER": 3553,
    "40@@": 3554,
    "Gegensatz": 3555,
    "starken": 3556,
    "ausschuss": 3557,
    "Tour@@": 3558,
    "wo@@": 3559,
    "keiten,": 3560,
    "i.": 3561,
    "britischen": 3562,
    "Mail@@": 3563,
    "erinnern,": 3564,
    "Unternehmens@@": 3565,
    "Irak": 3566,
    "Paket": 3567,
    "eu@@": 3568,
    "haften": 3569,
    "einfache": 3570,
    "wissenschaf@@": 3571,
    "entlich": 3572,
    "Hintergrund": 3573,
    "ments": 3574,
    "Red@@": 3575,
    "schaften": 3576,
    "hoffe": 3577,
    "relativ": 3578,
    "dlichen": 3579,
    "Nachdem": 3580,
    "Gast@@": 3581,
    "Meeres@@": 3582,
    "Entwicklungen": 3583,
    "jene": 3584,
    "Wes@@": 3585,
    "öpf@@": 3586,
    "ar,": 3587,
    "</emph>": 3588,
    "Überwachung": 3589,
    "sto@@": 3590,
    "fil@@": 3591,
    "staaten": 3592,
    "gruppen": 3593,
    "asi@@": 3594,
    "umwelt@@": 3595,
    "ys": 3596,
    "y.": 3597,
    "t)": 3598,
    "zusätzlich": 3599,
    "tigte": 3600,
    "überall": 3601,
    "а@@": 3602,
    "freiheit": 3603,
    "Verbraucher@@": 3604,
    "Motor@@": 3605,
    "tig,": 3606,
    "stat@@": 3607,
    "Bra@@": 3608,
    "Familien": 3609,
    "öl@@": 3610,
    "Formen": 3611,
    "klär@@": 3612,
    "ds": 3613,
    "solcher": 3614,
    "Termin@@": 3615,
    "Titel": 3616,
    "Beteiligung": 3617,
    "unten": 3618,
    "Dr.": 3619,
    "ents": 3620,
    "erlaubt": 3621,
    "Bis": 3622,
    "ausreich@@": 3623,
    "Winter@@": 3624,
    "Universität": 3625,
    "schw@@": 3626,
    "19.": 3627,
    "speziellen": 3628,
    "gerich@@": 3629,
    "rechten": 3630,
    "sonst": 3631,
    "Insel@@": 3632,
    "us,": 3633,
    "Dok@@": 3634,
    ".,": 3635,
    "Betrieb@@": 3636,
    "sagte,": 3637,
    "Wissen": 3638,
    "Prioritäten": 3639,
    "ic": 3640,
    "):": 3641,
    "ats": 3642,
    "lesen": 3643,
    "Vari@@": 3644,
    "isen": 3645,
    "hr": 3646,
    "Bü@@": 3647,
    "Bei@@": 3648,
    "17": 3649,
    "herr@@": 3650,
    "ent.": 3651,
    "reg@@": 3652,
    "länger": 3653,
    "fragen,": 3654,
    "schöne": 3655,
    "breit@@": 3656,
    "trägt": 3657,
    "irgend@@": 3658,
    "gre@@": 3659,
    "Rechnung": 3660,
    "möchte,": 3661,
    "Chi@@": 3662,
    "Bedürfnisse": 3663,
    "Bru@@": 3664,
    "bereit,": 3665,
    "fo@@": 3666,
    "Konferenz@@": 3667,
    "Auffassung": 3668,
    "mat@@": 3669,
    "jüngsten": 3670,
    "Auto@@": 3671,
    "wel@@": 3672,
    "grenz@@": 3673,
    "treten.": 3674,
    "Größe": 3675,
    "unge@@": 3676,
    "ga@@": 3677,
    "rechtlichen": 3678,
    "e)": 3679,
    "Super@@": 3680,
    "voran@@": 3681,
    "na@@": 3682,
    "mod@@": 3683,
    "hän@@": 3684,
    "Sen@@": 3685,
    "Hersteller": 3686,
    "trag": 3687,
    "Jeder": 3688,
    "Dre@@": 3689,
    "fl@@": 3690,
    "Sil@@": 3691,
    "I-@@": 3692,
    "Kirche": 3693,
    "wa@@": 3694,
    "guter": 3695,
    "Gebieten": 3696,
    "bemerk@@": 3697,
    "ierungs@@": 3698,
    "hauptsächlich": 3699,
    "zufolge": 3700,
    "van": 3701,
    "Staat@@": 3702,
    "dar,": 3703,
    "20.": 3704,
    "Prin@@": 3705,
    "sten,": 3706,
    "sobald": 3707,
    "ante": 3708,
    "its": 3709,
    "alisier@@": 3710,
    "Gre@@": 3711,
    "allgemeine": 3712,
    "Texte": 3713,
    "Gesetz": 3714,
    "ev@@": 3715,
    "Bon@@": 3716,
    "entgegen@@": 3717,
    "bra@@": 3718,
    "Booking.com:": 3719,
    "uer@@": 3720,
    "CH@@": 3721,
    "schwe@@": 3722,
    "entwickeln": 3723,
    "Zeiten": 3724,
    "SP@@": 3725,
    "meist": 3726,
    "zustellen.": 3727,
    "staatlichen": 3728,
    "bleiben.": 3729,
    "W": 3730,
    "verkauf@@": 3731,
    "deutsche": 3732,
    "\\\"": 3733,
    "itäten": 3734,
    "ideale": 3735,
    "berühmten": 3736,
    "Zeich@@": 3737,
    "gut,": 3738,
    "Wider@@": 3739,
    "dagegen": 3740,
    "kel": 3741,
    "Herren,": 3742,
    "geführt,": 3743,
    "Partnerschaft": 3744,
    "bürger@@": 3745,
    "benutz@@": 3746,
    "schl@@": 3747,
    "but": 3748,
    "Treffen": 3749,
    "Des@@": 3750,
    "zeugen": 3751,
    "na": 3752,
    "programme": 3753,
    "manchmal": 3754,
    "fäl@@": 3755,
    "fähigkeit": 3756,
    "Rede": 3757,
    "Go@@": 3758,
    "Atom@@": 3759,
    "wur@@": 3760,
    "Worte": 3761,
    "Vom": 3762,
    "stein": 3763,
    "weisen.": 3764,
    "atur@@": 3765,
    "Video@@": 3766,
    "This": 3767,
    "beschränk@@": 3768,
    "sorgen": 3769,
    "and.": 3770,
    "Jahr@@": 3771,
    "«@@": 3772,
    "Hö@@": 3773,
    "90": 3774,
    "keits@@": 3775,
    "statt@@": 3776,
    "Mitglieds@@": 3777,
    "let@@": 3778,
    "erschein@@": 3779,
    "Ta@@": 3780,
    "industrie": 3781,
    "defin@@": 3782,
    "Netz@@": 3783,
    "kra@@": 3784,
    "isch-@@": 3785,
    "globale": 3786,
    "Versch@@": 3787,
    "22@@": 3788,
    "klar,": 3789,
    "inen": 3790,
    "Elemente": 3791,
    "Air@@": 3792,
    "tell@@": 3793,
    "pen@@": 3794,
    "ationen,": 3795,
    "St.": 3796,
    "Pan@@": 3797,
    "basier@@": 3798,
    "this": 3799,
    "Verhältnis": 3800,
    "Ren@@": 3801,
    "Test@@": 3802,
    "Nachbar@@": 3803,
    "hafte": 3804,
    "Aufbau": 3805,
    "1-@@": 3806,
    "präsen@@": 3807,
    "sionen": 3808,
    "vorgeschlagenen": 3809,
    "mes": 3810,
    "Prinzip": 3811,
    "Kra@@": 3812,
    "reis@@": 3813,
    "ser": 3814,
    "Schw@@": 3815,
    "Ebenso": 3816,
    "betonen,": 3817,
    "Welche": 3818,
    "Kunst": 3819,
    "O-@@": 3820,
    "Pres@@": 3821,
    "beach@@": 3822,
    "Iran": 3823,
    "vergleich@@": 3824,
    "verbessern.": 3825,
    "laufen": 3826,
    "ativ@@": 3827,
    "nachhaltige": 3828,
    "ku@@": 3829,
    "tern@@": 3830,
    "Umfang": 3831,
    "Fraktion.": 3832,
    "Bewer@@": 3833,
    "wodurch": 3834,
    "Richtlinien": 3835,
    "hin,": 3836,
    "keiten": 3837,
    "schwer@@": 3838,
    "ing.": 3839,
    "International": 3840,
    "haft": 3841,
    "mm": 3842,
    "itä@@": 3843,
    "wichtigste": 3844,
    "rie@@": 3845,
    "punk@@": 3846,
    "könn@@": 3847,
    "Internationalen": 3848,
    "sage": 3849,
    "teilen.": 3850,
    "Körper@@": 3851,
    "see": 3852,
    "gewähr@@": 3853,
    "Moment": 3854,
    "spricht": 3855,
    "und,": 3856,
    "Vo@@": 3857,
    "Währungs@@": 3858,
    "tenen": 3859,
    "aufmerksam": 3860,
    "Programm@@": 3861,
    "persönliche": 3862,
    "...\"": 3863,
    "welchen": 3864,
    "rechts@@": 3865,
    "is.": 3866,
    "halb": 3867,
    "dliche": 3868,
    "ju@@": 3869,
    "betroffenen": 3870,
    "Zwischen@@": 3871,
    "Pri@@": 3872,
    "drück@@": 3873,
    "instal@@": 3874,
    "ler@@": 3875,
    "gehend": 3876,
    "Agentur": 3877,
    "cu@@": 3878,
    "Hy@@": 3879,
    "Holz@@": 3880,
    "wach@@": 3881,
    "Hauses": 3882,
    "miss@@": 3883,
    "entfern@@": 3884,
    "ausgestattet": 3885,
    "wiederhol@@": 3886,
    "preis": 3887,
    "alter": 3888,
    "Stand@@": 3889,
    "Bestandteil": 3890,
    "dient": 3891,
    "Grunde": 3892,
    "stimm@@": 3893,
    "jungen": 3894,
    "Regelungen": 3895,
    "danach": 3896,
    "Führ@@": 3897,
    "erzielt": 3898,
    "AP@@": 3899,
    "spe@@": 3900,
    "4.": 3901,
    "wä@@": 3902,
    "ermöglichen": 3903,
    "äum@@": 3904,
    "cken@@": 3905,
    "bestimmt": 3906,
    "daraus": 3907,
    "ther@@": 3908,
    "Paris": 3909,
    "Erstens": 3910,
    "/0@@": 3911,
    "tour@@": 3912,
    "rat": 3913,
    "vereinbar@@": 3914,
    "Maße": 3915,
    "ffen": 3916,
    "pi@@": 3917,
    "Gesetz@@": 3918,
    "on.": 3919,
    "unterstütze": 3920,
    "unden": 3921,
    "sätze": 3922,
    "tens": 3923,
    "getroffen": 3924,
    "Golf@@": 3925,
    "sub@@": 3926,
    "Aspekt": 3927,
    "wiesen": 3928,
    "Sitz@@": 3929,
    "einzigen": 3930,
    "MP@@": 3931,
    "Gro@@": 3932,
    "Hälfte": 3933,
    "mess@@": 3934,
    "kor@@": 3935,
    "sprechen.": 3936,
    "Betrieb": 3937,
    "pas@@": 3938,
    "rier@@": 3939,
    "Wo@@": 3940,
    "д@@": 3941,
    "Schu@@": 3942,
    "mis@@": 3943,
    "bieten,": 3944,
    "Alp@@": 3945,
    "able": 3946,
    "die,": 3947,
    "selbst@@": 3948,
    "digung": 3949,
    "ID@@": 3950,
    "Erhöhung": 3951,
    "Erklärungen": 3952,
    "fand": 3953,
    "verkehr@@": 3954,
    "Aufgrund": 3955,
    "tung.": 3956,
    "Sach@@": 3957,
    "brech@@": 3958,
    "alle@@": 3959,
    "spä@@": 3960,
    "Dan@@": 3961,
    "ten:": 3962,
    "Laufe": 3963,
    "empf@@": 3964,
    "regelmäßig": 3965,
    "en-": 3966,
    "oper@@": 3967,
    "medi@@": 3968,
    "traditionellen": 3969,
    "besseren": 3970,
    "Kritik": 3971,
    "ähn@@": 3972,
    "ro": 3973,
    "Entschließungsantrag": 3974,
    "All": 3975,
    "Hü@@": 3976,
    "kin@@": 3977,
    "Tran@@": 3978,
    "so,": 3979,
    "haus": 3980,
    "damals": 3981,
    "bild@@": 3982,
    "zimmer": 3983,
    "Trotz": 3984,
    "sions@@": 3985,
    "Syste@@": 3986,
    "Leist@@": 3987,
    "erte": 3988,
    "Mitteln": 3989,
    "ig,": 3990,
    "stadt": 3991,
    "dra@@": 3992,
    "gene": 3993,
    "Brü@@": 3994,
    "sitz@@": 3995,
    "ir": 3996,
    "deut@@": 3997,
    "politisch": 3998,
    "enh@@": 3999,
    "cker": 4000,
    "beobach@@": 4001,
    "Herausforderung": 4002,
    "schließen.": 4003,
    "erklärt": 4004,
    "einzelne": 4005,
    "Reise@@": 4006,
    "Mitgliedern": 4007,
    "Priorität": 4008,
    "Multi@@": 4009,
    "gebaut": 4010,
    "Projekt@@": 4011,
    "Problemen": 4012,
    "Fuß": 4013,
    "weiteres": 4014,
    "2-@@": 4015,
    "»": 4016,
    "Welt,": 4017,
    "Raum@@": 4018,
    "zeigt,": 4019,
    "verfol@@": 4020,
    "umfasst": 4021,
    "kürzlich": 4022,
    "gem": 4023,
    "geschlossen": 4024,
    "Organis@@": 4025,
    "licht": 4026,
    "liefert": 4027,
    "Begriff": 4028,
    "echte": 4029,
    "Einkaufs@@": 4030,
    "Militär@@": 4031,
    "lö@@": 4032,
    "have": 4033,
    "hoffen,": 4034,
    "Schiff@@": 4035,
    "AG@@": 4036,
    "nütz@@": 4037,
    "Teilen": 4038,
    "Kommunikation": 4039,
    "seitens": 4040,
    "Großbritannien": 4041,
    "entspann@@": 4042,
    "schie@@": 4043,
    "vorher@@": 4044,
    "sollen,": 4045,
    "Prüf@@": 4046,
    "ert.": 4047,
    "wünsche": 4048,
    "hatte.": 4049,
    "alt@@": 4050,
    "ou": 4051,
    "vertreten": 4052,
    "kontrol@@": 4053,
    "ft.": 4054,
    "utz@@": 4055,
    "Wirk@@": 4056,
    "Mod@@": 4057,
    "C-@@": 4058,
    "habe.": 4059,
    "Design@@": 4060,
    "ständigen": 4061,
    "Jahrhunderts": 4062,
    "jährlich": 4063,
    "Überprüfung": 4064,
    "dazu,": 4065,
    "Spe@@": 4066,
    "Bedarf": 4067,
    "lle": 4068,
    "Mach@@": 4069,
    "gestal@@": 4070,
    "Option": 4071,
    "199@@": 4072,
    "stan@@": 4073,
    "les@@": 4074,
    "ger,": 4075,
    "zugleich": 4076,
    "herzlich": 4077,
    "füll@@": 4078,
    "Gi@@": 4079,
    "Fern@@": 4080,
    "bilden": 4081,
    "aden": 4082,
    "wann": 4083,
    "iere": 4084,
    "Hil@@": 4085,
    "ländlichen": 4086,
    "suchen,": 4087,
    "kli@@": 4088,
    "Märkte": 4089,
    "Kapital@@": 4090,
    "Regierungs@@": 4091,
    "zurück.": 4092,
    "will,": 4093,
    "nahme@@": 4094,
    "freund@@": 4095,
    "halten@@": 4096,
    "Sorge": 4097,
    "schein@@": 4098,
    "Zus@@": 4099,
    "Prüfung": 4100,
    "Schad@@": 4101,
    "atoren": 4102,
    "Sehenswürdigkeiten": 4103,
    "Reise": 4104,
    "Chance": 4105,
    "Kauf@@": 4106,
    "junge": 4107,
    "Schrift@@": 4108,
    "Arbeitslosigkeit": 4109,
    "fördern.": 4110,
    "Fortschritt": 4111,
    "würden.": 4112,
    "bewusst": 4113,
    "Leistung": 4114,
    "11@@": 4115,
    "staat@@": 4116,
    "Ukraine": 4117,
    "glaub@@": 4118,
    "lieren,": 4119,
    "amen": 4120,
    "Schlusselwortern": 4121,
    "vorgelegt": 4122,
    "bestä@@": 4123,
    "positiven": 4124,
    "anc@@": 4125,
    "vollkommen": 4126,
    "Film": 4127,
    "27": 4128,
    "Afri@@": 4129,
    "verz@@": 4130,
    "Schlusselwortern,": 4131,
    "Monat": 4132,
    "th": 4133,
    "Vertrag@@": 4134,
    "Empfehlungen": 4135,
    "freundliche": 4136,
    "nutz@@": 4137,
    "erscheint": 4138,
    "dien@@": 4139,
    "s:": 4140,
    "Grundsatz": 4141,
    "pel": 4142,
    "Punk@@": 4143,
    "tisches": 4144,
    "dat@@": 4145,
    "Japan": 4146,
    "Best@@": 4147,
    "''@@": 4148,
    "Dollar": 4149,
    "fle@@": 4150,
    "einfachen": 4151,
    "ates": 4152,
    "dies@@": 4153,
    "Mil@@": 4154,
    "ali@@": 4155,
    "Computer@@": 4156,
    "zus@@": 4157,
    "Stil": 4158,
    "nden": 4159,
    "Pf@@": 4160,
    "т@@": 4161,
    "yn@@": 4162,
    "Kli@@": 4163,
    "Bor@@": 4164,
    "21.": 4165,
    "»@@": 4166,
    "(B@@": 4167,
    "BI@@": 4168,
    "erfüllt": 4169,
    "praktisch": 4170,
    "höchste": 4171,
    "DI@@": 4172,
    "dritten": 4173,
    "TO@@": 4174,
    "oh@@": 4175,
    "l'@@": 4176,
    "Anpassung": 4177,
    "fizierung": 4178,
    "Famili@@": 4179,
    "richten": 4180,
    "koordin@@": 4181,
    "bahn": 4182,
    "Unterkunft": 4183,
    "Auto": 4184,
    "Aktionen": 4185,
    "</@@": 4186,
    "Kommissarin,": 4187,
    "ften": 4188,
    "tene": 4189,
    "ehemaligen": 4190,
    "’@@": 4191,
    "Museum": 4192,
    "as.": 4193,
    "Führung": 4194,
    "regionale": 4195,
    "fr@@": 4196,
    "tter@@": 4197,
    "Zoll@@": 4198,
    "geste@@": 4199,
    "Hilfs@@": 4200,
    "Da@@": 4201,
    "verpflich@@": 4202,
    "fahren.": 4203,
    "Präsident@@": 4204,
    "verbessert": 4205,
    "erle@@": 4206,
    "Ter@@": 4207,
    "gewisse": 4208,
    "wesen": 4209,
    "geführt.": 4210,
    "Vertrags@@": 4211,
    "wil@@": 4212,
    "berich@@": 4213,
    "Agenda": 4214,
    "leisten": 4215,
    ",00": 4216,
    "asse": 4217,
    "+": 4218,
    "car@@": 4219,
    "ach": 4220,
    "Griechenland": 4221,
    "ater@@": 4222,
    "Nation@@": 4223,
    "в@@": 4224,
    "güns@@": 4225,
    "Engl@@": 4226,
    "Brüssel": 4227,
    "Pra@@": 4228,
    "be.": 4229,
    "Zweifel": 4230,
    "Le": 4231,
    "Letz@@": 4232,
    "Globalisierung": 4233,
    "Voraussetzungen": 4234,
    "Text@@": 4235,
    "35": 4236,
    "derzeitigen": 4237,
    "mein@@": 4238,
    "Format": 4239,
    "beeindruck@@": 4240,
    "Bank": 4241,
    "wiss@@": 4242,
    "dienen": 4243,
    "trau@@": 4244,
    "überzeugt,": 4245,
    "ly": 4246,
    "hel@@": 4247,
    "gelö@@": 4248,
    "Lös@@": 4249,
    "Ereignisse": 4250,
    "ré@@": 4251,
    "Verständnis": 4252,
    "Kombination": 4253,
    "ne.": 4254,
    "ET@@": 4255,
    "gliche": 4256,
    "private": 4257,
    "bal@@": 4258,
    "Verkehr": 4259,
    "\\\"@@": 4260,
    "gerech@@": 4261,
    "g-@@": 4262,
    "linie": 4263,
    "schließen,": 4264,
    "esten": 4265,
    "Char@@": 4266,
    "al-@@": 4267,
    "yp@@": 4268,
    "Risiken": 4269,
    "ichten": 4270,
    "fak@@": 4271,
    "bei.": 4272,
    "ton@@": 4273,
    "out": 4274,
    "gig": 4275,
    "weisen,": 4276,
    "verfüg@@": 4277,
    "Liberalisierung": 4278,
    "testen": 4279,
    "gige": 4280,
    "Mehr": 4281,
    "Kommissarin": 4282,
    "bewahr@@": 4283,
    "Komfort": 4284,
    "Mikro@@": 4285,
    "Einklang": 4286,
    "zo@@": 4287,
    "Mein": 4288,
    "Indi@@": 4289,
    "erten": 4290,
    "Leistungs@@": 4291,
    "weltweiten": 4292,
    "abhängig": 4293,
    "q@@": 4294,
    "Aussicht": 4295,
    "Benutzer@@": 4296,
    "freu@@": 4297,
    "Mobil@@": 4298,
    "zeich@@": 4299,
    "e\"": 4300,
    "Teilnahme": 4301,
    "ziehen,": 4302,
    "Vier@@": 4303,
    "Wirkung": 4304,
    "wiederum": 4305,
    "Tages@@": 4306,
    "Ländern,": 4307,
    "Nutzer": 4308,
    "dige": 4309,
    "schaff@@": 4310,
    "beg@@": 4311,
    "exis@@": 4312,
    "Beihilfen": 4313,
    "ick@@": 4314,
    "gendes": 4315,
    "–@@": 4316,
    "Patienten": 4317,
    "Ob": 4318,
    "ung)": 4319,
    "Ideen": 4320,
    "verbin@@": 4321,
    "lam@@": 4322,
    "Entwickl@@": 4323,
    "früher": 4324,
    "World": 4325,
    "Standard": 4326,
    "Banken": 4327,
    "lierten": 4328,
    "ideal": 4329,
    "6.@@": 4330,
    "zunehmend": 4331,
    "Vielleicht": 4332,
    "pass@@": 4333,
    "festgelegt": 4334,
    "Flu@@": 4335,
    "unden.": 4336,
    "engag@@": 4337,
    "Je@@": 4338,
    "sieben": 4339,
    "lichem": 4340,
    "Nicht@@": 4341,
    "Abgeordnete": 4342,
    "scher": 4343,
    "eben@@": 4344,
    "ausschusses": 4345,
    "anwend@@": 4346,
    "Stein@@": 4347,
    "genen": 4348,
    "dischen": 4349,
    "Kenn@@": 4350,
    "ken@@": 4351,
    "Dadurch": 4352,
    "schneller": 4353,
    "legung": 4354,
    "dro@@": 4355,
    "amerikanische": 4356,
    "fassung": 4357,
    "erforderlich,": 4358,
    "keiner": 4359,
    "international": 4360,
    "stimmen": 4361,
    "führt.": 4362,
    "on-@@": 4363,
    "Europäer": 4364,
    "spielt": 4365,
    "erweise": 4366,
    "hör@@": 4367,
    "3-@@": 4368,
    "Bildungs@@": 4369,
    "=": 4370,
    "Film@@": 4371,
    "hoher": 4372,
    "Afrika": 4373,
    "zwing@@": 4374,
    "erkennen,": 4375,
    "Don@@": 4376,
    "produzier@@": 4377,
    "grund@@": 4378,
    "Leben@@": 4379,
    "liegenden": 4380,
    "Em@@": 4381,
    "deiner": 4382,
    "1998": 4383,
    "bitten,": 4384,
    "aktive": 4385,
    "dau@@": 4386,
    "zeug@@": 4387,
    "Zahlen": 4388,
    "Aktiv@@": 4389,
    "Phase": 4390,
    "Meinungs@@": 4391,
    "11.": 4392,
    "liz@@": 4393,
    "welt": 4394,
    "Europa.": 4395,
    "stieg": 4396,
    "Koordinierung": 4397,
    "Fried@@": 4398,
    "ziel@@": 4399,
    "teilen,": 4400,
    "techn@@": 4401,
    "ppe": 4402,
    "lag": 4403,
    "wichtiges": 4404,
    "eröff@@": 4405,
    "verursach@@": 4406,
    "zeichnen": 4407,
    "Wegen": 4408,
    "j": 4409,
    "höhere": 4410,
    "zuvor": 4411,
    "nutzen.": 4412,
    "hängt": 4413,
    "famili@@": 4414,
    "Sin@@": 4415,
    "Berücksichtigung": 4416,
    "wünschen": 4417,
    "gewesen": 4418,
    "Kompromiss": 4419,
    "Gal@@": 4420,
    "ausreichend": 4421,
    "Verbrauch@@": 4422,
    "leitung": 4423,
    "Reaktion": 4424,
    "Irland": 4425,
    ";@@": 4426,
    "spezifischen": 4427,
    "Politiker": 4428,
    "konkreten": 4429,
    "fahren,": 4430,
    "versucht,": 4431,
    "L-@@": 4432,
    "6.": 4433,
    "könnten.": 4434,
    "umfassenden": 4435,
    "historische": 4436,
    "Maßnahmen,": 4437,
    "ziemlich": 4438,
    "Fein@@": 4439,
    "mb@@": 4440,
    "Abgeordne@@": 4441,
    "interessier@@": 4442,
    "Zugriff": 4443,
    "che@@": 4444,
    "Konzer@@": 4445,
    "Hor@@": 4446,
    "enden.": 4447,
    "Rich@@": 4448,
    "arten": 4449,
    "Verkehr@@": 4450,
    "gestat@@": 4451,
    "80@@": 4452,
    "Gästen": 4453,
    "(C@@": 4454,
    "erkenn@@": 4455,
    "endung": 4456,
    "tag": 4457,
    "zählen": 4458,
    "tt": 4459,
    "graph@@": 4460,
    "Unabhängigkeit": 4461,
    "ja,": 4462,
    "Herstell@@": 4463,
    "Artik@@": 4464,
    "wür@@": 4465,
    "Ungleich@@": 4466,
    "herunter@@": 4467,
    "Mü@@": 4468,
    "Hauptstadt": 4469,
    "schlag@@": 4470,
    "wohl@@": 4471,
    "vel@@": 4472,
    "service": 4473,
    "Fotos": 4474,
    "geräum@@": 4475,
    "sal@@": 4476,
    "lig": 4477,
    "Haup@@": 4478,
    "Telefon@@": 4479,
    "oren": 4480,
    "hn@@": 4481,
    "einf@@": 4482,
    "menschlichen": 4483,
    "gebracht,": 4484,
    "21": 4485,
    "Vi@@": 4486,
    "Ba@@": 4487,
    "wan@@": 4488,
    "tru@@": 4489,
    "ak": 4490,
    "schnell@@": 4491,
    "positiv": 4492,
    "UR@@": 4493,
    "Dokument@@": 4494,
    "Off@@": 4495,
    "Links": 4496,
    "Ele@@": 4497,
    "Botschaft": 4498,
    "len": 4499,
    "genauso": 4500,
    "Tatsächlich": 4501,
    "Ham@@": 4502,
    "handel@@": 4503,
    "198@@": 4504,
    "erkennen": 4505,
    "195@@": 4506,
    "60@@": 4507,
    "recht@@": 4508,
    "doppel@@": 4509,
    "dienst": 4510,
    "Buch": 4511,
    "bring@@": 4512,
    "Ziel,": 4513,
    "Niveau": 4514,
    "Verpflichtung": 4515,
    "sofern": 4516,
    "erforder@@": 4517,
    "mitten": 4518,
    "akt": 4519,
    "kann@@": 4520,
    "beziehen,": 4521,
    "Schi@@": 4522,
    "terung": 4523,
    "nochmals": 4524,
    "wagen": 4525,
    "beginnt": 4526,
    "Deutsch@@": 4527,
    "7.": 4528,
    "Indien": 4529,
    "Gästebewertungen.": 4530,
    "Erfahr@@": 4531,
    "Dienst": 4532,
    "geber": 4533,
    "Methode": 4534,
    "Bericht,": 4535,
    "liegt.": 4536,
    "seit@@": 4537,
    "Ohne": 4538,
    "Mer@@": 4539,
    "sinn@@": 4540,
    "künftig": 4541,
    "schließ@@": 4542,
    "liegen.": 4543,
    "Komm@@": 4544,
    "laut": 4545,
    "spann@@": 4546,
    "anerkann@@": 4547,
    "Fraktionen": 4548,
    "Städte": 4549,
    "Herz@@": 4550,
    ".00": 4551,
    "begrüßen": 4552,
    "Cre@@": 4553,
    "nahm": 4554,
    "Umständen": 4555,
    "sagte": 4556,
    "vern@@": 4557,
    "rin@@": 4558,
    "vielmehr": 4559,
    "zählt": 4560,
    "Roll@@": 4561,
    "fen.": 4562,
    "gas@@": 4563,
    "Sitz": 4564,
    "Program@@": 4565,
    "besei@@": 4566,
    "zusätzlichen": 4567,
    "mangel@@": 4568,
    "könnte,": 4569,
    "bekommen.": 4570,
    "are@@": 4571,
    "š@@": 4572,
    "tätig": 4573,
    "Tradition": 4574,
    "0,@@": 4575,
    "führende": 4576,
    "con": 4577,
    "weist": 4578,
    "erhöh@@": 4579,
    "Gebiete": 4580,
    "Flexibilität": 4581,
    "schrift": 4582,
    "beteili@@": 4583,
    "italienischen": 4584,
    "institutionellen": 4585,
    "besitz@@": 4586,
    "esen": 4587,
    "Innovation": 4588,
    "Formular": 4589,
    "ierungen": 4590,
    "andererseits": 4591,
    "vorbereit@@": 4592,
    "kämpf@@": 4593,
    "bildung": 4594,
    "form": 4595,
    "trotzdem": 4596,
    "nen@@": 4597,
    "gekommen": 4598,
    "fs": 4599,
    "Nacht": 4600,
    "wesentliche": 4601,
    "iens": 4602,
    "Netzwerk": 4603,
    "öst@@": 4604,
    "treib@@": 4605,
    "gestern": 4606,
    "bieten.": 4607,
    "objek@@": 4608,
    "sach@@": 4609,
    "una": 4610,
    "sorgt": 4611,
    "wissenschaftlichen": 4612,
    "fläche": 4613,
    "genommen,": 4614,
    "inves@@": 4615,
    "igung": 4616,
    "Vorbereitung": 4617,
    "ban@@": 4618,
    "entspricht": 4619,
    "gesetzt.": 4620,
    "Grenze": 4621,
    "spezifische": 4622,
    "staatliche": 4623,
    "kraft": 4624,
    "Ferner": 4625,
    "Sit@@": 4626,
    "PC": 4627,
    "glück@@": 4628,
    "Microsoft": 4629,
    "spür@@": 4630,
    "gewährleisten,": 4631,
    "Vorsch@@": 4632,
    "rein@@": 4633,
    "Recht,": 4634,
    "inzwischen": 4635,
    "grundlegenden": 4636,
    "wollte": 4637,
    "net,": 4638,
    "Presse@@": 4639,
    "versucht": 4640,
    "beruh@@": 4641,
    "Anwend@@": 4642,
    "ñ@@": 4643,
    "Pap@@": 4644,
    "Förder@@": 4645,
    "versuchen": 4646,
    "ino": 4647,
    "transpar@@": 4648,
    "See": 4649,
    "Datenbank": 4650,
    "Technik": 4651,
    "eg@@": 4652,
    "Kno@@": 4653,
    "bequem": 4654,
    "integrier@@": 4655,
    "gem@@": 4656,
    "London": 4657,
    "tar@@": 4658,
    "bie@@": 4659,
    "verbessern": 4660,
    "sprache": 4661,
    "produktion": 4662,
    "zweit@@": 4663,
    "lebens@@": 4664,
    "Schweiz": 4665,
    "Kommissions@@": 4666,
    "flug@@": 4667,
    "Y": 4668,
    "offensichtlich": 4669,
    "welt@@": 4670,
    "möglich@@": 4671,
    "mern": 4672,
    "struktur@@": 4673,
    "reicht": 4674,
    "Gesetzgebung": 4675,
    "bekann@@": 4676,
    "ischen,": 4677,
    "gebracht.": 4678,
    "Ess@@": 4679,
    "unterstützt.": 4680,
    "mas@@": 4681,
    "Einstellungen": 4682,
    "vol@@": 4683,
    "läuft": 4684,
    "Halb@@": 4685,
    "person@@": 4686,
    "Polen": 4687,
    "richt@@": 4688,
    "Russ@@": 4689,
    "Unterschiede": 4690,
    "19": 4691,
    "geleistet": 4692,
    "ausgestattet.": 4693,
    "Hol@@": 4694,
    "weite": 4695,
    "jahr": 4696,
    "zentralen": 4697,
    "Geschäftsordnung": 4698,
    "bauen": 4699,
    "zei@@": 4700,
    "Net@@": 4701,
    "gewährleistet": 4702,
    "Club": 4703,
    "Work@@": 4704,
    "Berich@@": 4705,
    "bung": 4706,
    "Posi@@": 4707,
    "Anlagen": 4708,
    "äm@@": 4709,
    "schönsten": 4710,
    "Ster@@": 4711,
    "eigenes": 4712,
    "Ergeb@@": 4713,
    "glauben,": 4714,
    "kulturelle": 4715,
    "Gener@@": 4716,
    "Regional@@": 4717,
    "Kunde": 4718,
    "verkehrs@@": 4719,
    "fest": 4720,
    "Kredit@@": 4721,
    "zufrieden": 4722,
    "rate": 4723,
    "lernen": 4724,
    "pon@@": 4725,
    "links": 4726,
    "VI@@": 4727,
    "Serie": 4728,
    "Diskussionen": 4729,
    "od@@": 4730,
    "kurzem": 4731,
    "II@@": 4732,
    "Gebäu@@": 4733,
    "blo@@": 4734,
    "hervorragende": 4735,
    "greifen": 4736,
    "erwähnt": 4737,
    "ermöglichen,": 4738,
    "Sign@@": 4739,
    "om": 4740,
    "/9@@": 4741,
    "soweit": 4742,
    "richtlinie": 4743,
    "Nahen": 4744,
    "ät@@": 4745,
    "schwierigen": 4746,
    "herrsch@@": 4747,
    "darstellt.": 4748,
    "(A@@": 4749,
    "neuesten": 4750,
    "Lag@@": 4751,
    "zweifellos": 4752,
    "gewährleisten.": 4753,
    "Apartments": 4754,
    "natürlichen": 4755,
    "genommen.": 4756,
    "alle,": 4757,
    "bezug": 4758,
    "Verfügbarkeit": 4759,
    "Real@@": 4760,
    "gemacht.": 4761,
    "niemand": 4762,
    "Konzep@@": 4763,
    "Studie": 4764,
    "kleiner": 4765,
    "Fernseh@@": 4766,
    "fühl@@": 4767,
    "unterbreit@@": 4768,
    "Site": 4769,
    "Sozi@@": 4770,
    "Untersuchung": 4771,
    "Trau@@": 4772,
    "niemals": 4773,
    "fördern": 4774,
    "teste": 4775,
    "will@@": 4776,
    "etc.": 4777,
    "verletz@@": 4778,
    "lös@@": 4779,
    "danken": 4780,
    "Aut@@": 4781,
    "und/oder": 4782,
    "Struktur": 4783,
    "sierung": 4784,
    "Video": 4785,
    "Musi@@": 4786,
    "bericht": 4787,
    "sei@@": 4788,
    "pflich@@": 4789,
    "ausgezeichnete": 4790,
    "Risiko": 4791,
    "Auffassung,": 4792,
    "formen": 4793,
    "issen": 4794,
    "garantiert": 4795,
    "fähig": 4796,
    "Haf@@": 4797,
    "Diskriminierung": 4798,
    "westlichen": 4799,
    "Business": 4800,
    "weshalb": 4801,
    "pool": 4802,
    "gebil@@": 4803,
    "Funktion@@": 4804,
    "Ca@@": 4805,
    "Ac@@": 4806,
    "Wirtschafts-": 4807,
    "3,": 4808,
    "vari@@": 4809,
    "wirken": 4810,
    "entschieden": 4811,
    "Dat@@": 4812,
    "0.@@": 4813,
    "entdeck@@": 4814,
    "eng": 4815,
    "Realität": 4816,
    ".)": 4817,
    "veranstal@@": 4818,
    "br@@": 4819,
    "Asyl@@": 4820,
    "ilen": 4821,
    "proz@@": 4822,
    "Dort": 4823,
    "Institu@@": 4824,
    "möchten.": 4825,
    "sagt": 4826,
    "ets": 4827,
    "Vertrau@@": 4828,
    "Pl@@": 4829,
    "Zug@@": 4830,
    "Herren": 4831,
    "Terror@@": 4832,
    "ech@@": 4833,
    "ole": 4834,
    "Sommer@@": 4835,
    "Teilnehmer": 4836,
    "bre@@": 4837,
    "zuerst": 4838,
    "zeig@@": 4839,
    "Angriff": 4840,
    "Allgemeinen": 4841,
    "Miss@@": 4842,
    "last": 4843,
    "rasch": 4844,
    "Eigen@@": 4845,
    "höchsten": 4846,
    "grundlegende": 4847,
    "ine@@": 4848,
    "get@@": 4849,
    "90@@": 4850,
    "merk@@": 4851,
    "ausgezeichneten": 4852,
    "Österreich": 4853,
    "lierte": 4854,
    "entwickelten": 4855,
    "Del@@": 4856,
    "Eigenschaften": 4857,
    "zerstör@@": 4858,
    "ologische": 4859,
    "betrachtet": 4860,
    "Hei@@": 4861,
    "Dokumente": 4862,
    "zeichnet": 4863,
    "wert@@": 4864,
    "Flü@@": 4865,
    "organisation": 4866,
    "geworden": 4867,
    "fällt": 4868,
    "Übereinkommen": 4869,
    "ut": 4870,
    "unmittelbar": 4871,
    "orien@@": 4872,
    "imm@@": 4873,
    "Kosten@@": 4874,
    "Tr@@": 4875,
    "werden?": 4876,
    "Speicher@@": 4877,
    "wand@@": 4878,
    "ruhigen": 4879,
    "hat@@": 4880,
    "Hotel,": 4881,
    "fern": 4882,
    "ursprünglichen": 4883,
    "ump@@": 4884,
    "eigen@@": 4885,
    "Kann": 4886,
    "Jedes": 4887,
    "zogen": 4888,
    "Methoden": 4889,
    "Gol@@": 4890,
    "Bestell@@": 4891,
    "fik@@": 4892,
    "Fir@@": 4893,
    "Bau": 4894,
    "tigungs@@": 4895,
    "burg": 4896,
    "lieren": 4897,
    "betreffenden": 4898,
    "Kü@@": 4899,
    "heiten,": 4900,
    "OS": 4901,
    "wid@@": 4902,
    "umfass@@": 4903,
    "/200@@": 4904,
    "spanischen": 4905,
    "Rund@@": 4906,
    "kräf@@": 4907,
    "ht": 4908,
    "chinesischen": 4909,
    "Fort@@": 4910,
    "punkte": 4911,
    "komp@@": 4912,
    "Verhalten": 4913,
    "El": 4914,
    "treten,": 4915,
    "Willen": 4916,
    "Charakter": 4917,
    "ert,": 4918,
    "Them@@": 4919,
    "$@@": 4920,
    "gangen": 4921,
    "Angebote": 4922,
    "4-@@": 4923,
    "(P@@": 4924,
    "Wellness@@": 4925,
    "Pe@@": 4926,
    "Dem": 4927,
    "Ab": 4928,
    "alistischen": 4929,
    "Mitarbeit@@": 4930,
    "Definition": 4931,
    "mehr.": 4932,
    "digt": 4933,
    "SE@@": 4934,
    "Risik@@": 4935,
    "Einstellung": 4936,
    "kostenlos": 4937,
    "Tu@@": 4938,
    "gesprochen": 4939,
    "anstatt": 4940,
    "Garten": 4941,
    "Gesetze": 4942,
    "räger": 4943,
    "feststellen,": 4944,
    "Sanktionen": 4945,
    "stechn@@": 4946,
    "Glück@@": 4947,
    "kurze": 4948,
    "nis.": 4949,
    "Denk@@": 4950,
    "Geheim@@": 4951,
    "stehende": 4952,
    "ars": 4953,
    "Dritt@@": 4954,
    "siert": 4955,
    "bruch": 4956,
    "top@@": 4957,
    "Anwendungs@@": 4958,
    "tlich@@": 4959,
    "räume": 4960,
    "bahn@@": 4961,
    "spek@@": 4962,
    "gener": 4963,
    "Pu@@": 4964,
    "keiten.": 4965,
    "Delegation": 4966,
    "offenen": 4967,
    "Val@@": 4968,
    "Generation": 4969,
    "linien": 4970,
    "Kosovo": 4971,
    "Minister@@": 4972,
    "hlen": 4973,
    "beschreib@@": 4974,
    "22": 4975,
    "liegen,": 4976,
    "fte": 4977,
    "Firmen": 4978,
    "enthalten.": 4979,
    "derartige": 4980,
    "Liebe": 4981,
    "hören": 4982,
    "sch,": 4983,
    "dritte": 4984,
    "Wird": 4985,
    "Standor@@": 4986,
    "Westen": 4987,
    "betre@@": 4988,
    "Abstimm@@": 4989,
    "Waren": 4990,
    "Uhr@@": 4991,
    "riesigen": 4992,
    "ches": 4993,
    "Strategien": 4994,
    "Krie@@": 4995,
    "8.": 4996,
    "eit@@": 4997,
    "bereich@@": 4998,
    "Tagung": 4999,
    "ierenden": 5000,
    "Leitlinien": 5001,
    "Kommun@@": 5002,
    "Behinder@@": 5003,
    "gehalten": 5004,
    "auch@@": 5005,
    "dr@@": 5006,
    "Personen,": 5007,
    "verhält@@": 5008,
    "up": 5009,
    "Alt@@": 5010,
    "kanischen": 5011,
    "Parlaments,": 5012,
    "ber,": 5013,
    "Ruhe": 5014,
    "Ra@@": 5015,
    "Führungs@@": 5016,
    "Antworten": 5017,
    "Schön@@": 5018,
    "nachzu@@": 5019,
    "en“": 5020,
    "Datenschutz@@": 5021,
    "Altstadt": 5022,
    "Techn@@": 5023,
    "Mann": 5024,
    "Königreich": 5025,
    "freiwil@@": 5026,
    "Oper@@": 5027,
    "verschiedener": 5028,
    "funk@@": 5029,
    "vergessen,": 5030,
    "Besuch@@": 5031,
    "Grundsätze": 5032,
    "Berufs@@": 5033,
    "vieler": 5034,
    "rän@@": 5035,
    "künftigen": 5036,
    "nisse,": 5037,
    "beinhaltet": 5038,
    "Can@@": 5039,
    "bewe@@": 5040,
    "Kategorie": 5041,
    "Nachfrage": 5042,
    "davon,": 5043,
    "ßen,": 5044,
    "entlang": 5045,
    "Krank@@": 5046,
    "18.": 5047,
    "vollständige": 5048,
    "weisung": 5049,
    "bauen.": 5050,
    "fordert": 5051,
    "strategie": 5052,
    "ada": 5053,
    "Fälle": 5054,
    "gaben": 5055,
    "beteiligt": 5056,
    "arch@@": 5057,
    "ital@@": 5058,
    "Services": 5059,
    "diejenigen": 5060,
    "Seit@@": 5061,
    "gegeben.": 5062,
    "ungsin@@": 5063,
    "allgemein": 5064,
    "Abschnitt": 5065,
    "aten,": 5066,
    "Menü": 5067,
    "übermittel@@": 5068,
    "vorbe@@": 5069,
    "Licht": 5070,
    "Eis@@": 5071,
    "preise": 5072,
    "Süden": 5073,
    "Tal@@": 5074,
    "Plan": 5075,
    "schnelle": 5076,
    "bereiche": 5077,
    "Syn@@": 5078,
    "tak@@": 5079,
    "sauber@@": 5080,
    "Aktu@@": 5081,
    "erhält": 5082,
    "Lab@@": 5083,
    "fas@@": 5084,
    "1997": 5085,
    "mus": 5086,
    "groß": 5087,
    "RA@@": 5088,
    "fügen": 5089,
    "heben": 5090,
    "beabsich@@": 5091,
    "Informationen,": 5092,
    "spielen.": 5093,
    "selben": 5094,
    "Interess@@": 5095,
    "Geist": 5096,
    "schreck@@": 5097,
    "nieder@@": 5098,
    "AB@@": 5099,
    "weiß@@": 5100,
    "Jugend@@": 5101,
    "Empfehlung": 5102,
    "wirtschaf@@": 5103,
    "Kollege": 5104,
    "Erde": 5105,
    "markt@@": 5106,
    "Entscheidungs@@": 5107,
    "Kurz@@": 5108,
    "teilt.": 5109,
    "histor@@": 5110,
    "Grundrechte": 5111,
    "Sinn": 5112,
    "bs@@": 5113,
    "ändern.": 5114,
    "ständig@@": 5115,
    "früh@@": 5116,
    "lieren.": 5117,
    "Cal@@": 5118,
    "ns": 5119,
    "ori@@": 5120,
    "Tiere": 5121,
    "einerseits": 5122,
    "behörden": 5123,
    "Gemein@@": 5124,
    "che.": 5125,
    "gut@@": 5126,
    "5-@@": 5127,
    "verstehen,": 5128,
    "Farben": 5129,
    "erör@@": 5130,
    "dam@@": 5131,
    "PC@@": 5132,
    "Pen@@": 5133,
    "Fon@@": 5134,
    "Bedeutung.": 5135,
    "Auftrag": 5136,
    "näher": 5137,
    "emp@@": 5138,
    "cor@@": 5139,
    "Fitness@@": 5140,
    "UN-@@": 5141,
    "Antwor@@": 5142,
    "soll@@": 5143,
    "liegt,": 5144,
    "buch": 5145,
    "hil@@": 5146,
    "x,": 5147,
    "sodass": 5148,
    "extrem": 5149,
    "м@@": 5150,
    "Fenster": 5151,
    "Betriebs@@": 5152,
    "schreiben": 5153,
    "Effizienz": 5154,
    "Fak@@": 5155,
    "Lit@@": 5156,
    "wander@@": 5157,
    "los@@": 5158,
    "geändert": 5159,
    "entwickelt.": 5160,
    "herz@@": 5161,
    "ermu@@": 5162,
    "haltung": 5163,
    "öff@@": 5164,
    "sur@@": 5165,
    "out@@": 5166,
    "karte": 5167,
    "fein@@": 5168,
    "Infrastruktur": 5169,
    "ständige": 5170,
    "omm@@": 5171,
    "Erwartungen": 5172,
    "9.": 5173,
    "wären": 5174,
    "hatten,": 5175,
    "Immobilien@@": 5176,
    "Gesam@@": 5177,
    "wettbewerbs@@": 5178,
    "45": 5179,
    "dé@@": 5180,
    "begann": 5181,
    "stütz@@": 5182,
    "gender": 5183,
    "Sicherheit@@": 5184,
    "fern@@": 5185,
    "194@@": 5186,
    "interess@@": 5187,
    "Ton@@": 5188,
    "Stunde": 5189,
    "Staaten,": 5190,
    "Lam@@": 5191,
    "schu@@": 5192,
    "gemacht,": 5193,
    "zugunsten": 5194,
    "vorlie@@": 5195,
    "nachhaltigen": 5196,
    "mag@@": 5197,
    "Zustand": 5198,
    "Stellung": 5199,
    "ierende": 5200,
    "Anfragen": 5201,
    "val@@": 5202,
    "Bedenken": 5203,
    "bezieh@@": 5204,
    "Grupp@@": 5205,
    "früheren": 5206,
    "Voraussetzung": 5207,
    "Trans@@": 5208,
    "Umgang": 5209,
    "ren": 5210,
    "en).": 5211,
    "Zahlungs@@": 5212,
    "Cli@@": 5213,
    "aktiven": 5214,
    "Dimension": 5215,
    "(FR)": 5216,
    "bekannt,": 5217,
    "Herr@@": 5218,
    "seiten": 5219,
    "Dom@@": 5220,
    "Google": 5221,
    "verbesser@@": 5222,
    "verfolgt": 5223,
    "Auftrag@@": 5224,
    "Amsterdam": 5225,
    "ssystem": 5226,
    "jedoch,": 5227,
    "erseits": 5228,
    "Fi@@": 5229,
    "Binnenmark@@": 5230,
    "Barcelona": 5231,
    "Bahn@@": 5232,
    "zuständigen": 5233,
    "gesetzt,": 5234,
    "Anlage": 5235,
    "ett@@": 5236,
    "Inseln": 5237,
    "Körper": 5238,
    "Ja,": 5239,
    "2,@@": 5240,
    "rechn@@": 5241,
    "behinder@@": 5242,
    "analy@@": 5243,
    "Transport@@": 5244,
    "Investitions@@": 5245,
    "fordere": 5246,
    "Gründe": 5247,
    "Bedeutung,": 5248,
    "ersch@@": 5249,
    "Festlegung": 5250,
    "sieren": 5251,
    "rahmen": 5252,
    "Verringerung": 5253,
    "Infrastruktur@@": 5254,
    "Ehr@@": 5255,
    "ast": 5256,
    "Kapit@@": 5257,
    "Center": 5258,
    "drän@@": 5259,
    "Norden": 5260,
    "Firmen@@": 5261,
    "Drogen@@": 5262,
    "Übereinstimmung": 5263,
    "notwendige": 5264,
    "verpflichtet": 5265,
    "stoffen": 5266,
    "Wirklichkeit": 5267,
    "Verhandlungs@@": 5268,
    "wirksam@@": 5269,
    "stellt,": 5270,
    "jemand": 5271,
    "EM@@": 5272,
    "getroff@@": 5273,
    "Poli@@": 5274,
    "eth@@": 5275,
    "erleb@@": 5276,
    "Prozess@@": 5277,
    "II": 5278,
    "Bewegung": 5279,
    "anspruchs@@": 5280,
    "mil@@": 5281,
    "Tod": 5282,
    "reise": 5283,
    "übernehmen": 5284,
    "kurzen": 5285,
    "Mittelpunkt": 5286,
    "Bahnhof": 5287,
    "Ausland": 5288,
    "erstellt": 5289,
    "besitzt": 5290,
    "vorgeschlagen": 5291,
    "entfernt,": 5292,
    "begrenz@@": 5293,
    "genau@@": 5294,
    "ion": 5295,
    "bevorzu@@": 5296,
    "Zusatz@@": 5297,
    "Bri@@": 5298,
    "ritten": 5299,
    "angemessene": 5300,
    "Persön@@": 5301,
    "verpflichtet,": 5302,
    "Verträge": 5303,
    "TV": 5304,
    "ik,": 5305,
    "wirtschaftlicher": 5306,
    "unternehmen,": 5307,
    "erläu@@": 5308,
    "Schaden": 5309,
    "Des": 5310,
    "mut@@": 5311,
    "komplizier@@": 5312,
    "handelt,": 5313,
    "bezahl@@": 5314,
    "führte": 5315,
    "empfehl@@": 5316,
    "bean@@": 5317,
    "hne": 5318,
    "Tä@@": 5319,
    "OL@@": 5320,
    "Männer": 5321,
    "Foto": 5322,
    "russischen": 5323,
    "gehende": 5324,
    "Chin@@": 5325,
    "bern": 5326,
    "15.": 5327,
    "Fehler@@": 5328,
    "Veranstaltungen": 5329,
    "fass@@": 5330,
    "effek@@": 5331,
    "Landschaft": 5332,
    "finde": 5333,
    "wirkt": 5334,
    "u.a.": 5335,
    "Schlaf@@": 5336,
    "profi@@": 5337,
    "EG@@": 5338,
    "überwach@@": 5339,
    "your": 5340,
    "leich@@": 5341,
    "Fran@@": 5342,
    "Muse@@": 5343,
    "sten.": 5344,
    "interessante": 5345,
    "welchem": 5346,
    "Besonders": 5347,
    "S.": 5348,
    "Sicher@@": 5349,
    "Freizeit@@": 5350,
    "ue": 5351,
    "genannt": 5352,
    "echten": 5353,
    "Beispiel@@": 5354,
    "zweifel@@": 5355,
    "bele@@": 5356,
    "Star": 5357,
    "schre@@": 5358,
    "informiert": 5359,
    "ssyste@@": 5360,
    "Code": 5361,
    "Br@@": 5362,
    "Kun@@": 5363,
    "ck.": 5364,
    "nor@@": 5365,
    "heiß@@": 5366,
    "erhol@@": 5367,
    "enten,": 5368,
    "änden": 5369,
    "Mitgliedschaft": 5370,
    "tigungen": 5371,
    "mir,": 5372,
    "Sim@@": 5373,
    "stellte": 5374,
    "Jede": 5375,
    "höheren": 5376,
    "Frau@@": 5377,
    "Direk@@": 5378,
    "beträgt": 5379,
    "Ratsvorsitz": 5380,
    "Problem,": 5381,
    "Gott": 5382,
    "siehe": 5383,
    "t\"": 5384,
    "benötigt": 5385,
    "suchen.": 5386,
    "Klimawandel": 5387,
    "flä@@": 5388,
    "Unternehmens": 5389,
    "sper@@": 5390,
    "technik": 5391,
    "ch.": 5392,
    "Erweiter@@": 5393,
    "organisationen": 5394,
    "führt,": 5395,
    "deutsch@@": 5396,
    "Amerika": 5397,
    "fällen": 5398,
    "direkten": 5399,
    "fei@@": 5400,
    "(z.B.": 5401,
    "schlag": 5402,
    "zes": 5403,
    "pra@@": 5404,
    "lösen": 5405,
    "Völker": 5406,
    "Landwirte": 5407,
    "befürwor@@": 5408,
    "Stadtzentrum": 5409,
    "forsch@@": 5410,
    "ergänz@@": 5411,
    "@@@": 5412,
    "gezeigt,": 5413,
    "Verkauf": 5414,
    "Gemeinschaft@@": 5415,
    "Kind": 5416,
    "Inhal@@": 5417,
    "Freund@@": 5418,
    "geo@@": 5419,
    "posi@@": 5420,
    "flu@@": 5421,
    "erfordert": 5422,
    "Kommunikations@@": 5423,
    "ks@@": 5424,
    "Verbesserungen": 5425,
    "ütz@@": 5426,
    "Harmonisierung": 5427,
    "richtung": 5428,
    "tigten": 5429,
    "präsentiert": 5430,
    "enz,": 5431,
    "aktiv@@": 5432,
    "Schwerpunkt": 5433,
    "Noch": 5434,
    "muß.": 5435,
    "IT": 5436,
    "lichkeit,": 5437,
    "l,": 5438,
    "Freunde": 5439,
    "Bucht": 5440,
    "nungen": 5441,
    "Austausch": 5442,
    "schwierig": 5443,
    "verantwor@@": 5444,
    "erheblich": 5445,
    "ell,": 5446,
    "chn@@": 5447,
    "Geschäft@@": 5448,
    "Vorbe@@": 5449,
    "Details": 5450,
    "tungen,": 5451,
    "fon@@": 5452,
    "Benutz@@": 5453,
    "Ban@@": 5454,
    "politik.": 5455,
    "Flughaf@@": 5456,
    "Ziffer": 5457,
    "1996": 5458,
    "Dank,": 5459,
    "Sport": 5460,
    "Arbeitnehmer@@": 5461,
    "einzigartige": 5462,
    "Neue": 5463,
    "würden,": 5464,
    "Na@@": 5465,
    "Mann@@": 5466,
    "Hinter@@": 5467,
    "schön@@": 5468,
    "gewi@@": 5469,
    "Experten": 5470,
    "De": 5471,
    "Größ@@": 5472,
    "Material": 5473,
    "dienste": 5474,
    "Cap@@": 5475,
    "vorhanden": 5476,
    "ermöglichen.": 5477,
    "dir": 5478,
    "Werk": 5479,
    "verabschie@@": 5480,
    "station": 5481,
    "geschrieben": 5482,
    "gehört,": 5483,
    "Ausführung": 5484,
    "geeignet": 5485,
    "Karten": 5486,
    "Gedanken": 5487,
    "Dor@@": 5488,
    "Dra@@": 5489,
    "ester": 5490,
    "nahezu": 5491,
    "bur@@": 5492,
    "spiel": 5493,
    "Spiele": 5494,
    "eingeführt": 5495,
    "Feri@@": 5496,
    "gezogen": 5497,
    "position": 5498,
    "Regime": 5499,
    "land.": 5500,
    "stoff": 5501,
    "Normen": 5502,
    "angegebenen": 5503,
    "Schule": 5504,
    "Out@@": 5505,
    "verehrte": 5506,
    "anzen": 5507,
    "erheb@@": 5508,
    "Parti@@": 5509,
    "Internet-@@": 5510,
    "Gran@@": 5511,
    "isten,": 5512,
    "angesprochen": 5513,
    "Kas@@": 5514,
    "Fischerei": 5515,
    "Einbeziehung": 5516,
    "23": 5517,
    "ungefähr": 5518,
    "Verbrechen": 5519,
    "entwicklung": 5520,
    "Dienstleistungs@@": 5521,
    "Buchung": 5522,
    "Anbieter": 5523,
    "en.@@": 5524,
    "Ti@@": 5525,
    "qualität": 5526,
    "DA@@": 5527,
    "griffen": 5528,
    "beitragen": 5529,
    "4,": 5530,
    "Terra@@": 5531,
    "abgeschlossen": 5532,
    "rechtliche": 5533,
    "can": 5534,
    "Beispiele": 5535,
    "tex@@": 5536,
    "aktu@@": 5537,
    "Gründung": 5538,
    "LA@@": 5539,
    "Mac@@": 5540,
    "ure@@": 5541,
    "unbe@@": 5542,
    "solange": 5543,
    "kombin@@": 5544,
    "Kooperation": 5545,
    "ion@@": 5546,
    "Meer@@": 5547,
    "Abkommens": 5548,
    "ass": 5549,
    "ste.": 5550,
    "Verpack@@": 5551,
    "Gestaltung": 5552,
    "Bou@@": 5553,
    "geltenden": 5554,
    "ignor@@": 5555,
    "Roh@@": 5556,
    "angespro@@": 5557,
    "frem@@": 5558,
    "esch@@": 5559,
    "ativ": 5560,
    "IF@@": 5561,
    "verhindern,": 5562,
    "Vorteil": 5563,
    "alo@@": 5564,
    "Cam@@": 5565,
    "At@@": 5566,
    "-F@@": 5567,
    "ele@@": 5568,
    "bestehende": 5569,
    "heutige": 5570,
    "tau@@": 5571,
    "macht.": 5572,
    "letztlich": 5573,
    "Information@@": 5574,
    "Gebrauch": 5575,
    "wäre.": 5576,
    "speich@@": 5577,
    "in-@@": 5578,
    "Inst@@": 5579,
    "rei@@": 5580,
    "setzt.": 5581,
    "Spezi@@": 5582,
    "x-@@": 5583,
    "vorgesehen": 5584,
    "TR@@": 5585,
    "Costa": 5586,
    "sc@@": 5587,
    "у@@": 5588,
    "TE@@": 5589,
    "satzes": 5590,
    "lic@@": 5591,
    "zur@@": 5592,
    "roman@@": 5593,
    "tele@@": 5594,
    "Feld": 5595,
    "–,": 5596,
    "wichtig.": 5597,
    "graf@@": 5598,
    "Wil@@": 5599,
    "Dies@@": 5600,
    "verleih@@": 5601,
    "com@@": 5602,
    "Emissionen": 5603,
    "Terrasse": 5604,
    "eten": 5605,
    "betreib@@": 5606,
    "Sollten": 5607,
    "geleis@@": 5608,
    "York": 5609,
    "Unterschied": 5610,
    "Deswegen": 5611,
    "mag": 5612,
    "hergestellt": 5613,
    "Vertre@@": 5614,
    "Mc@@": 5615,
    "Maß": 5616,
    "systems": 5617,
    "Wir@@": 5618,
    "warten": 5619,
    "schluss": 5620,
    "Veranstal@@": 5621,
    "Link": 5622,
    "Ausgabe": 5623,
    "äuß@@": 5624,
    "verfügbar": 5625,
    "würdig@@": 5626,
    "ativer": 5627,
    "Hier@@": 5628,
    "besuchen": 5629,
    "Verbindungen": 5630,
    "verstärkt": 5631,
    "stag@@": 5632,
    "Sollte": 5633,
    "Mand@@": 5634,
    "derung": 5635,
    "400": 5636,
    "igkeiten": 5637,
    "kraft@@": 5638,
    "7.@@": 5639,
    "zustellen,": 5640,
    "straße": 5641,
    "kri@@": 5642,
    "jegliche": 5643,
    "genehmig@@": 5644,
    "Kamer@@": 5645,
    "leben,": 5646,
    "M-@@": 5647,
    "Einrich@@": 5648,
    "Unternehmen@@": 5649,
    "a)": 5650,
    "tionen.": 5651,
    "lei@@": 5652,
    "kostet": 5653,
    "behandel@@": 5654,
    "Konflikt": 5655,
    "sorgfältig": 5656,
    "Gelegenheit,": 5657,
    "CD": 5658,
    "entwickeln.": 5659,
    "klaren": 5660,
    "sprachen": 5661,
    "Ausführungen": 5662,
    "stil@@": 5663,
    "Küste": 5664,
    "Entwicklungsländern": 5665,
    "tage": 5666,
    "Mak@@": 5667,
    "fir@@": 5668,
    "unterschied@@": 5669,
    "poten@@": 5670,
    "d.h.": 5671,
    "Ach@@": 5672,
    "Insbesondere": 5673,
    "Anliegen": 5674,
    "reiche": 5675,
    "iß@@": 5676,
    "angeht,": 5677,
    "gens": 5678,
    "bietet.": 5679,
    "!@@": 5680,
    "funktioniert": 5681,
    "eingerichtet": 5682,
    "trags": 5683,
    "ON": 5684,
    "Aufenthal@@": 5685,
    "Lang@@": 5686,
    "versorgung": 5687,
    "Tür@@": 5688,
    "uss": 5689,
    "Pin@@": 5690,
    "s)": 5691,
    "Rechts": 5692,
    "Wei@@": 5693,
    "Wahrheit": 5694,
    "Kilometer": 5695,
    "Straf@@": 5696,
    "geln": 5697,
    "Autor@@": 5698,
    "britische": 5699,
    "Ni@@": 5700,
    "vorhandenen": 5701,
    "Men@@": 5702,
    "arbeitet.": 5703,
    "Beweis": 5704,
    "Bestellung": 5705,
    "(N@@": 5706,
    "Schne@@": 5707,
    "hl": 5708,
    "Stimm@@": 5709,
    "Medien@@": 5710,
    "rö@@": 5711,
    "ernst": 5712,
    "beachten": 5713,
    "prob@@": 5714,
    "bank": 5715,
    "Massen@@": 5716,
    "70@@": 5717,
    "Viel@@": 5718,
    "wäl@@": 5719,
    "vorher": 5720,
    "Sonn@@": 5721,
    "veröffentlicht": 5722,
    "ps": 5723,
    "Wettbewer@@": 5724,
    "Deutschland,": 5725,
    "erleben": 5726,
    "entsprech@@": 5727,
    "verwenden.": 5728,
    "aktualis@@": 5729,
    "zeu@@": 5730,
    "fun@@": 5731,
    "Schau@@": 5732,
    "Element": 5733,
    "via": 5734,
    "Beziehung": 5735,
    "Ausstellung": 5736,
    "ym@@": 5737,
    "breiten": 5738,
    "ail@@": 5739,
    "Lizenz@@": 5740,
    "nu@@": 5741,
    "lands": 5742,
    "R-@@": 5743,
    "Tauch@@": 5744,
    "Gleichgewicht": 5745,
    "profitieren": 5746,
    "erneu@@": 5747,
    "Will@@": 5748,
    "ble@@": 5749,
    "Reich@@": 5750,
    "ismus,": 5751,
    "zimmer,": 5752,
    "yl@@": 5753,
    "bedau@@": 5754,
    "wirksam": 5755,
    "us.": 5756,
    "staff": 5757,
    "dürfen.": 5758,
    "läu@@": 5759,
    "és": 5760,
    "Ara@@": 5761,
    "teren": 5762,
    "entschei@@": 5763,
    "150": 5764,
    "respek@@": 5765,
    "Automobil@@": 5766,
    "ski": 5767,
    "Deutschen": 5768,
    "ear@@": 5769,
    "Open@@": 5770,
    "tten": 5771,
    "erfol@@": 5772,
    "Je": 5773,
    "Maßnahme": 5774,
    "schlagen": 5775,
    "ssi@@": 5776,
    "Fle@@": 5777,
    "gle@@": 5778,
    "entscheidende": 5779,
    "Freude": 5780,
    "Veröffentlichung": 5781,
    "tö@@": 5782,
    "erhebliche": 5783,
    "vis@@": 5784,
    "Forum": 5785,
    "28@@": 5786,
    "pack@@": 5787,
    "ses": 5788,
    "automati@@": 5789,
    "F-@@": 5790,
    "tab@@": 5791,
    "erin": 5792,
    "pul@@": 5793,
    "dok@@": 5794,
    "betroffen": 5795,
    "Verbot": 5796,
    "Eisenbahn@@": 5797,
    "trifft": 5798,
    "olle@@": 5799,
    "don@@": 5800,
    "erfüllen": 5801,
    "ira@@": 5802,
    "Plenum": 5803,
    "sur": 5804,
    "Spar@@": 5805,
    "verwenden,": 5806,
    "iso@@": 5807,
    "bin,": 5808,
    "Wechsel@@": 5809,
    "Servic@@": 5810,
    "nehm@@": 5811,
    "genannte": 5812,
    "geladen": 5813,
    "gehenden": 5814,
    "erfolgreiche": 5815,
    "bild": 5816,
    "193@@": 5817,
    "zer": 5818,
    "industri@@": 5819,
    "gegeben,": 5820,
    "bildet": 5821,
    "IP@@": 5822,
    "lokale": 5823,
    "Stück": 5824,
    "verste@@": 5825,
    "strategischen": 5826,
    "regeln": 5827,
    "nur,": 5828,
    "Wort@@": 5829,
    "Entwicklung,": 5830,
    "leis@@": 5831,
    "fri@@": 5832,
    "rufen": 5833,
    "Hohen": 5834,
    "CD@@": 5835,
    "Selbstverständlich": 5836,
    "behörde": 5837,
    "Zimmern": 5838,
    "Mom@@": 5839,
    "ll": 5840,
    "hinaus@@": 5841,
    "direkte": 5842,
    "Analy@@": 5843,
    "empfehlen": 5844,
    "bestehen,": 5845,
    "anlagen": 5846,
    "Farbe": 5847,
    "Dien@@": 5848,
    "individuellen": 5849,
    "Grand": 5850,
    "von@@": 5851,
    "uropäischen": 5852,
    "pe,": 5853,
    "page": 5854,
    "flexib@@": 5855,
    "Comm@@": 5856,
    "liber@@": 5857,
    "Wachstums@@": 5858,
    "Erfol@@": 5859,
    "Besonder@@": 5860,
    "werden@@": 5861,
    "ete": 5862,
    "ehrgeiz@@": 5863,
    "Semin@@": 5864,
    "Rou@@": 5865,
    "Agrarpolitik": 5866,
    "Back@@": 5867,
    "kü@@": 5868,
    "großzü@@": 5869,
    "cal@@": 5870,
    "berat@@": 5871,
    "einheitlichen": 5872,
    "Up@@": 5873,
    "]]@@": 5874,
    "Kontakt@@": 5875,
    "Wald@@": 5876,
    "Hom@@": 5877,
    "Dorf": 5878,
    "lierung": 5879,
    "kost@@": 5880,
    "ov@@": 5881,
    "Stadt.": 5882,
    "17.": 5883,
    "bekannte": 5884,
    "standards": 5885,
    "nehmer": 5886,
    "IL@@": 5887,
    "produkte": 5888,
    "Wirtschaft@@": 5889,
    "Log@@": 5890,
    "Fragen,": 5891,
    "5,": 5892,
    "trit@@": 5893,
    "gehörigen": 5894,
    "entwickl@@": 5895,
    "ahl@@": 5896,
    "Charta": 5897,
    "zeichn@@": 5898,
    "them@@": 5899,
    "rein": 5900,
    "pr@@": 5901,
    "gebrau@@": 5902,
    "Rede@@": 5903,
    "ty@@": 5904,
    "rif@@": 5905,
    "ül@@": 5906,
    "fallen.": 5907,
    "üh@@": 5908,
    "ppen": 5909,
    "ous": 5910,
    "bewähr@@": 5911,
    "Gespräche": 5912,
    "übrigens": 5913,
    "wohn@@": 5914,
    "Transpor@@": 5915,
    "vergessen": 5916,
    "priv@@": 5917,
    "sichere": 5918,
    "individuelle": 5919,
    "Botschaf@@": 5920,
    "Worten": 5921,
    "Punkten": 5922,
    "Beruf@@": 5923,
    "dern,": 5924,
    "mensch@@": 5925,
    "bekräf@@": 5926,
    "tert": 5927,
    "besuch@@": 5928,
    "ame": 5929,
    "erfahren": 5930,
    "bezeichnet": 5931,
    "erei": 5932,
    "п@@": 5933,
    "nunmehr": 5934,
    "engl@@": 5935,
    "dern.": 5936,
    "Hostels": 5937,
    "=@@": 5938,
    "park": 5939,
    "gol@@": 5940,
    "Strukturen": 5941,
    "Netz": 5942,
    "iler": 5943,
    "Ordnung": 5944,
    "f.": 5945,
    "muß,": 5946,
    "erst@@": 5947,
    "mitge@@": 5948,
    "good": 5949,
    "grundsätzlich": 5950,
    "Glas@@": 5951,
    "Dam@@": 5952,
    "Winter": 5953,
    "benutzen": 5954,
    "uf@@": 5955,
    "Alter": 5956,
    "tter": 5957,
    "passier@@": 5958,
    "char@@": 5959,
    "legi@@": 5960,
    "Enterprise": 5961,
    "gele@@": 5962,
    "Z": 5963,
    "ting": 5964,
    "einz@@": 5965,
    "Typ@@": 5966,
    "Ausgangspunkt": 5967,
    "Download": 5968,
    "geschützt": 5969,
    "Arbeit,": 5970,
    "tein@@": 5971,
    "Vorschlägen": 5972,
    "offiziellen": 5973,
    "Änderungsanträgen": 5974,
    "ash@@": 5975,
    "schä@@": 5976,
    "Beratung": 5977,
    "9.@@": 5978,
    "stor@@": 5979,
    "Mö@@": 5980,
    "schwar@@": 5981,
    "füg@@": 5982,
    "begrün@@": 5983,
    "Materialien": 5984,
    "Hoffnung": 5985,
    "Dach@@": 5986,
    "schlägt": 5987,
    "ry": 5988,
    "König@@": 5989,
    "Alternative": 5990,
    "verloren": 5991,
    "á": 5992,
    "stän@@": 5993,
    "Zusätzlich": 5994,
    "EU,": 5995,
    "16.": 5996,
    "Verteidigung": 5997,
    "entwickeln,": 5998,
    "kräfte": 5999,
    "krie@@": 6000,
    "US": 6001,
    "Reg@@": 6002,
    "ple@@": 6003,
    "gefordert": 6004,
    "Sein": 6005,
    "verantwortungs@@": 6006,
    "erer": 6007,
    "era": 6008,
    "Gerä@@": 6009,
    "č@@": 6010,
    "hü@@": 6011,
    "entscheiden,": 6012,
    "zusammen.": 6013,
    "stände": 6014,
    "Nich@@": 6015,
    "senden": 6016,
    "management": 6017,
    "lichsten": 6018,
    "Web": 6019,
    "Reinig@@": 6020,
    "Ratspräsidentschaft": 6021,
    "ausführ@@": 6022,
    "gä@@": 6023,
    "darf.": 6024,
    "ahl": 6025,
    "Rechn@@": 6026,
    "Rat,": 6027,
    "DER": 6028,
    "ore": 6029,
    "bestimmter": 6030,
    "Lok@@": 6031,
    "wichtig@@": 6032,
    "erfolgreichen": 6033,
    "nummer": 6034,
    "Fähigkeiten": 6035,
    "uss,": 6036,
    "tiver": 6037,
    "tem@@": 6038,
    "%.": 6039,
    "tic@@": 6040,
    "enge": 6041,
    "Bereitstellung": 6042,
    "1/@@": 6043,
    "enes": 6044,
    "Optionen": 6045,
    "Europä@@": 6046,
    "Werbe@@": 6047,
    "ausschuß": 6048,
    "sie,": 6049,
    "sichtlich": 6050,
    "alles,": 6051,
    "Partnern": 6052,
    "angebo@@": 6053,
    "Verbreitung": 6054,
    "Pass@@": 6055,
    "Grund,": 6056,
    "verschie@@": 6057,
    "ausdrück@@": 6058,
    "Erstellung": 6059,
    "auff@@": 6060,
    "Bar,": 6061,
    "gehör@@": 6062,
    "stand,": 6063,
    "had": 6064,
    "gewissen": 6065,
    "erfolgreich@@": 6066,
    "wissenschaftliche": 6067,
    "lagen,": 6068,
    "Cha@@": 6069,
    "bei,": 6070,
    "Wiss@@": 6071,
    "zulässi@@": 6072,
    "entscheidender": 6073,
    "High@@": 6074,
    "trieb@@": 6075,
    "Wünsche": 6076,
    "ç@@": 6077,
    "flo@@": 6078,
    "Mis@@": 6079,
    "anges@@": 6080,
    "IR@@": 6081,
    "seien": 6082,
    "gab@@": 6083,
    "Col@@": 6084,
    "transpor@@": 6085,
    "begrüß@@": 6086,
    "Beiträge": 6087,
    "uß@@": 6088,
    "ini": 6089,
    "städ@@": 6090,
    "n-@@": 6091,
    "ische,": 6092,
    "erhöht": 6093,
    "Mus@@": 6094,
    "Hu@@": 6095,
    "Architektur": 6096,
    "12.": 6097,
    "beitragen,": 6098,
    "Haftung": 6099,
    "Arbeitsk@@": 6100,
    "großem": 6101,
    "enter": 6102,
    "maschin@@": 6103,
    "Online": 6104,
    "Fähigkeit": 6105,
    "macht,": 6106,
    "intensi@@": 6107,
    "Ausnahme": 6108,
    "fris@@": 6109,
    "bekommen,": 6110,
    "Vereinbarungen": 6111,
    "innovative": 6112,
    "fen@@": 6113,
    "vous": 6114,
    "plan": 6115,
    "ließ@@": 6116,
    "entwurf": 6117,
    "abziel@@": 6118,
    "(200@@": 6119,
    "französische": 6120,
    "We": 6121,
    "Schäden": 6122,
    "sü@@": 6123,
    "Haar@@": 6124,
    "Übersetzung": 6125,
    "sicheren": 6126,
    "sche@@": 6127,
    "Sar@@": 6128,
    "dich": 6129,
    "unde": 6130,
    "steu@@": 6131,
    "Geräte": 6132,
    "Landes@@": 6133,
    "Offen@@": 6134,
    "hören,": 6135,
    "bus": 6136,
    "Boden": 6137,
    "traditionelle": 6138,
    "loss@@": 6139,
    "gegenüber@@": 6140,
    "Weit@@": 6141,
    "höher": 6142,
    "Linux": 6143,
    "Justiz": 6144,
    "Neben@@": 6145,
    "Stabil@@": 6146,
    "elektronischen": 6147,
    "erreich@@": 6148,
    "City": 6149,
    "Portugal": 6150,
    "atz@@": 6151,
    "Waffen": 6152,
    "ums@@": 6153,
    "lim@@": 6154,
    "ender@@": 6155,
    "T-@@": 6156,
    "Sto@@": 6157,
    "reich": 6158,
    "behalten": 6159,
    "Strukturfonds": 6160,
    "Menü@@": 6161,
    "gänge": 6162,
    "Elektro@@": 6163,
    "bislang": 6164,
    "stück@@": 6165,
    "sat@@": 6166,
    "chi@@": 6167,
    "Wind@@": 6168,
    "Start": 6169,
    "wertung": 6170,
    "ätze": 6171,
    "verwendet.": 6172,
    "betrach@@": 6173,
    "Regierungskonferenz": 6174,
    "tigkeiten": 6175,
    "Umwel@@": 6176,
    "Gri@@": 6177,
    "renz@@": 6178,
    "OM@@": 6179,
    "(die": 6180,
    "organ@@": 6181,
    "schön": 6182,
    "partner": 6183,
    "Selbst": 6184,
    "Entwicklungsländer": 6185,
    "schützen.": 6186,
    "Vir@@": 6187,
    "Män@@": 6188,
    "konnte.": 6189,
    "Kriegs@@": 6190,
    "10.": 6191,
    "Mas@@": 6192,
    "schnit@@": 6193,
    "zz@@": 6194,
    "installiert": 6195,
    "Bekann@@": 6196,
    "stimmen.": 6197,
    "icher@@": 6198,
    "Währ@@": 6199,
    "Prinzipien": 6200,
    "zieht": 6201,
    "gefördert": 6202,
    "Schrit@@": 6203,
    "Chinas": 6204,
    "Boden@@": 6205,
    "bestand": 6206,
    "kontrolle": 6207,
    "proble@@": 6208,
    "Schweiz@@": 6209,
    "handel": 6210,
    "fähig@@": 6211,
    "errich@@": 6212,
    "ens.": 6213,
    "Morgen": 6214,
    "н@@": 6215,
    "besser@@": 6216,
    "erfreu@@": 6217,
    "Rel@@": 6218,
    "13.": 6219,
    "Quell@@": 6220,
    "Intel@@": 6221,
    "Klima": 6222,
    "26": 6223,
    "sammel@@": 6224,
    "zahlung": 6225,
    "menschliche": 6226,
    "gesag@@": 6227,
    "einzigar@@": 6228,
    "Maschinen": 6229,
    "beschlossen": 6230,
    "Völker@@": 6231,
    "ller": 6232,
    "schü@@": 6233,
    "Aktion": 6234,
    "basiert": 6235,
    "atz": 6236,
    "Woh@@": 6237,
    "minister": 6238,
    "ign@@": 6239,
    "hilft": 6240,
    "enc@@": 6241,
    "Personal@@": 6242,
    "Ag@@": 6243,
    "Steuern": 6244,
    "Liber@@": 6245,
    "Kapitel": 6246,
    "Hafen": 6247,
    "te-@@": 6248,
    "karten": 6249,
    "Zwei": 6250,
    "samen": 6251,
    "Probleme,": 6252,
    "service,": 6253,
    "her,": 6254,
    "Europa@@": 6255,
    "genutz@@": 6256,
    "Gerichtshof": 6257,
    "Verwal@@": 6258,
    "Veranstaltung": 6259,
    "Bürger,": 6260,
    "Kamera": 6261,
    "sam": 6262,
    "verfügbaren": 6263,
    "solches": 6264,
    "Sicherung": 6265,
    "aren": 6266,
    "beruf@@": 6267,
    "fördern,": 6268,
    "Funk@@": 6269,
    "entwickelt,": 6270,
    "bleiben,": 6271,
    "nötig": 6272,
    "Projekten": 6273,
    "Gemü@@": 6274,
    "B-@@": 6275,
    "weig@@": 6276,
    "my": 6277,
    "Versionen": 6278,
    "Kontak@@": 6279,
    "eignet": 6280,
    "unverzüglich": 6281,
    "ka@@": 6282,
    "harmon@@": 6283,
    "mes@@": 6284,
    "Lebens": 6285,
    "laufenden": 6286,
    "ino@@": 6287,
    "schule": 6288,
    "ferner": 6289,
    "Gefühl": 6290,
    "schafft": 6291,
    "inmitten": 6292,
    "ennen": 6293,
    "Schwer@@": 6294,
    "Server@@": 6295,
    "spartner": 6296,
    "28": 6297,
    "tation": 6298,
    "angemessen": 6299,
    "verlassen": 6300,
    "Oder": 6301,
    "mittleren": 6302,
    "gebor@@": 6303,
    "Strom@@": 6304,
    "geschehen": 6305,
    "3,@@": 6306,
    "2)": 6307,
    "übergreif@@": 6308,
    "steigen": 6309,
    "lichen,": 6310,
    "ust": 6311,
    "ähnliche": 6312,
    "lage,": 6313,
    "anda": 6314,
    "Pak@@": 6315,
    "vermittel@@": 6316,
    "genügend": 6317,
    "Waffen@@": 6318,
    "Fron@@": 6319,
    "ay": 6320,
    "sten@@": 6321,
    "körper@@": 6322,
    "Vorgehen": 6323,
    "sagen:": 6324,
    "beginnen": 6325,
    "Eltern": 6326,
    "typ@@": 6327,
    "USA,": 6328,
    "Beschreibung": 6329,
    "voranzu@@": 6330,
    "Untersuchungen": 6331,
    "forschung": 6332,
    "tin@@": 6333,
    "stück": 6334,
    "Rest": 6335,
    "%1": 6336,
    "außerordentlich": 6337,
    "Gest@@": 6338,
    "DS@@": 6339,
    "bedeutende": 6340,
    "Koordin@@": 6341,
    "tende": 6342,
    "Sur@@": 6343,
    "jährige": 6344,
    "deckt": 6345,
    "Quali@@": 6346,
    "geschäf@@": 6347,
    "fan@@": 6348,
    "Zer@@": 6349,
    "zip@@": 6350,
    "Programmen": 6351,
    "Pfer@@": 6352,
    "Erholung": 6353,
    "Angel@@": 6354,
    "zuzu@@": 6355,
    "handeln": 6356,
    "Kampf@@": 6357,
    "Dreh@@": 6358,
    "nete": 6359,
    "ken.": 6360,
    "begleit@@": 6361,
    "Gewä@@": 6362,
    "umen@@": 6363,
    "währ@@": 6364,
    "fuer": 6365,
    "cc@@": 6366,
    "brauchen,": 6367,
    "Mangel": 6368,
    "Bereich@@": 6369,
    "jenigen,": 6370,
    "8.@@": 6371,
    "ware": 6372,
    "gehol@@": 6373,
    "dungs@@": 6374,
    "Teilnehmer@@": 6375,
    "Ganz": 6376,
    "Eig@@": 6377,
    "weitgehend": 6378,
    "kel@@": 6379,
    "gewählt": 6380,
    "Reduzierung": 6381,
    "ationen.": 6382,
    "р@@": 6383,
    "Eindruck": 6384,
    "Bemerkungen": 6385,
    "überwin@@": 6386,
    "sser": 6387,
    "sa": 6388,
    "sagen.": 6389,
    "bekannt.": 6390,
    "Alles": 6391,
    "verlie@@": 6392,
    "kaufen": 6393,
    "leisten.": 6394,
    "gewünschten": 6395,
    "Pla@@": 6396,
    "Krankheiten": 6397,
    "zahl": 6398,
    "tor,": 6399,
    "entwickelte": 6400,
    "Nachrichten": 6401,
    "begeister@@": 6402,
    "rati@@": 6403,
    "kle@@": 6404,
    "erstellen": 6405,
    "slo@@": 6406,
    "hnung": 6407,
    "Lern@@": 6408,
    "einzel@@": 6409,
    "treffen.": 6410,
    "Caf@@": 6411,
    "erstmals": 6412,
    "Nah@@": 6413,
    "Rumänien": 6414,
    "schlech@@": 6415,
    "geren": 6416,
    "struktur": 6417,
    "einzigartigen": 6418,
    "ursprünglich": 6419,
    "helfen.": 6420,
    "Ware": 6421,
    "wunderschönen": 6422,
    "komme": 6423,
    "hoff@@": 6424,
    "beur@@": 6425,
    "Richt@@": 6426,
    "Geben": 6427,
    "tern.": 6428,
    "heu@@": 6429,
    "verlor@@": 6430,
    "Stadt,": 6431,
    "ß,": 6432,
    "erfüllen.": 6433,
    "bezieht": 6434,
    "gent@@": 6435,
    "Handeln": 6436,
    "enthalt": 6437,
    "tei@@": 6438,
    "gü@@": 6439,
    "beeinträch@@": 6440,
    "schweren": 6441,
    "letz@@": 6442,
    "vieles": 6443,
    "tradition@@": 6444,
    "Kurs": 6445,
    "Drit@@": 6446,
    "sen,": 6447,
    "räum@@": 6448,
    "ors": 6449,
    "arbeitet,": 6450,
    "Ambi@@": 6451,
    "<link": 6452,
    "beige@@": 6453,
    "Anschluss": 6454,
    "zun@@": 6455,
    "leben.": 6456,
    "Tit@@": 6457,
    "sicherstellen,": 6458,
    "sorg@@": 6459,
    "renn@@": 6460,
    "läuf@@": 6461,
    "Straßen": 6462,
    "Gebie@@": 6463,
    "züge": 6464,
    "gesellschaf@@": 6465,
    "l.": 6466,
    "isiert": 6467,
    "fordern,": 6468,
    "Minister": 6469,
    "suche": 6470,
    "strahl@@": 6471,
    "gewöhn@@": 6472,
    "Golf": 6473,
    "Genehmigung": 6474,
    "Begleit@@": 6475,
    "worfen": 6476,
    "ktion@@": 6477,
    "Netzwerk@@": 6478,
    "Frauen,": 6479,
    "(und": 6480,
    "wehr@@": 6481,
    "sehr,": 6482,
    "hof": 6483,
    "Schweden": 6484,
    "Europ@@": 6485,
    "ück@@": 6486,
    "Vorschlags": 6487,
    "Mitgliedstaaten.": 6488,
    "spart@@": 6489,
    "einheit@@": 6490,
    "Wo": 6491,
    "optimale": 6492,
    "greifen,": 6493,
    "gemä@@": 6494,
    "IT-@@": 6495,
    "Mensch": 6496,
    "75": 6497,
    "Übersetz@@": 6498,
    "has": 6499,
    "berühm@@": 6500,
    "überrasch@@": 6501,
    "tin": 6502,
    "Darum": 6503,
    "ändern,": 6504,
    "Vorsitz": 6505,
    "turen": 6506,
    "Uni@@": 6507,
    "sion,": 6508,
    "internen": 6509,
    "fügt": 6510,
    "eres": 6511,
    "chs": 6512,
    "Öffent@@": 6513,
    "ain@@": 6514,
    "itz": 6515,
    "wirtschafts@@": 6516,
    "Plattform": 6517,
    "wählen.": 6518,
    "ologischen": 6519,
    "ierter": 6520,
    "unternommen": 6521,
    "treff@@": 6522,
    "liste": 6523,
    "übernimmt": 6524,
    "isch.": 6525,
    "za": 6526,
    "inklusive": 6527,
    "Deutsche": 6528,
    "versicher@@": 6529,
    "gesetzten": 6530,
    "Ze@@": 6531,
    "8-@@": 6532,
    "manche": 6533,
    "siv": 6534,
    "schaft.": 6535,
    "künftige": 6536,
    "ium": 6537,
    "entsp@@": 6538,
    "Konsens": 6539,
    "sozialer": 6540,
    "dienen.": 6541,
    "Gewal@@": 6542,
    "Bedrohung": 6543,
    "will.": 6544,
    "verw@@": 6545,
    "da,": 6546,
    "Schlussfolgerungen": 6547,
    "tho@@": 6548,
    "langfristige": 6549,
    "gal@@": 6550,
    "Todes@@": 6551,
    "1995": 6552,
    "maß@@": 6553,
    "Komponenten": 6554,
    "Klasse": 6555,
    "Arbeitsplätzen": 6556,
    "Also": 6557,
    "Tisch": 6558,
    "Zielen": 6559,
    "Nahrungsmittel@@": 6560,
    "zukünftigen": 6561,
    "Drittländern": 6562,
    "zone": 6563,
    "täglichen": 6564,
    "Trotzdem": 6565,
    "....": 6566,
    "verhindern.": 6567,
    "setzt,": 6568,
    "minim@@": 6569,
    "effektiv": 6570,
    "disku@@": 6571,
    "letztendlich": 6572,
    "Problems": 6573,
    "Last@@": 6574,
    "Gerade": 6575,
    "vorschriften": 6576,
    "bestätigt": 6577,
    "Minder@@": 6578,
    "Brenn@@": 6579,
    "west@@": 6580,
    "tum": 6581,
    "tliches": 6582,
    "nö@@": 6583,
    "л@@": 6584,
    "ätz@@": 6585,
    "moder@@": 6586,
    "allzu": 6587,
    "Kauf": 6588,
    "mehr,": 6589,
    "Zweif@@": 6590,
    "theit": 6591,
    "reiz@@": 6592,
    "gier@@": 6593,
    "attrak@@": 6594,
    "hor@@": 6595,
    "Städ@@": 6596,
    "betreffend": 6597,
    "Notwendigkeit,": 6598,
    "Beschluss": 6599,
    "â@@": 6600,
    "steller": 6601,
    "könnten,": 6602,
    "Publik@@": 6603,
    "Datenbank@@": 6604,
    "8,": 6605,
    "32": 6606,
    "views": 6607,
    "SS@@": 6608,
    "14.": 6609,
    "sehe": 6610,
    "militärischen": 6611,
    "at.": 6612,
    "zig": 6613,
    "Heil@@": 6614,
    "Flor@@": 6615,
    "Frühstück@@": 6616,
    "A,": 6617,
    "Innov@@": 6618,
    "Dafür": 6619,
    "«": 6620,
    "veran@@": 6621,
    "gepf@@": 6622,
    "ergriffen": 6623,
    "akzeptiert": 6624,
    "besteh@@": 6625,
    "hä@@": 6626,
    "enschaf@@": 6627,
    "Wol@@": 6628,
    "Ther@@": 6629,
    "Ausstattung": 6630,
    "ring@@": 6631,
    "mm@@": 6632,
    "Tourismus": 6633,
    "nation@@": 6634,
    "gere@@": 6635,
    "Krisen@@": 6636,
    "zusammenzu@@": 6637,
    "tre": 6638,
    "formu@@": 6639,
    "anpass@@": 6640,
    "Materi@@": 6641,
    "tenden": 6642,
    "Sel@@": 6643,
    "6,": 6644,
    "wähl@@": 6645,
    "griff@@": 6646,
    "Kontrollen": 6647,
    "Gegenstand": 6648,
    "Erfüllung": 6649,
    "Rent@@": 6650,
    "Klar@@": 6651,
    "möchte.": 6652,
    "Besorgnis": 6653,
    "zugänglich": 6654,
    "gerä@@": 6655,
    "dans": 6656,
    "dach@@": 6657,
    "t.@@": 6658,
    "diskutiert": 6659,
    "Werbung": 6660,
    "Künstler": 6661,
    "7,": 6662,
    "kleines": 6663,
    "impor@@": 6664,
    "größeres": 6665,
    "etab@@": 6666,
    "ähr@@": 6667,
    "zehn@@": 6668,
    "Kontin@@": 6669,
    "gelegen,": 6670,
    "Station": 6671,
    "reduzier@@": 6672,
    "erforderlich.": 6673,
    "USS": 6674,
    "Aufsichts@@": 6675,
    "weis": 6676,
    "ichte": 6677,
    "beit@@": 6678,
    "PR@@": 6679,
    "Außenpolitik": 6680,
    "verlang@@": 6681,
    "militärische": 6682,
    "eren,": 6683,
    "Wich@@": 6684,
    "Rö@@": 6685,
    "time": 6686,
    "zuge@@": 6687,
    "individuell": 6688,
    "beschäftigt": 6689,
    "Bus": 6690,
    "stie@@": 6691,
    "programms": 6692,
    "halt@@": 6693,
    "Zwecke": 6694,
    "Vorlage": 6695,
    "stands@@": 6696,
    "izi@@": 6697,
    "Gerichte": 6698,
    "Künst@@": 6699,
    "gek@@": 6700,
    "handelt.": 6701,
    "Verletzung": 6702,
    "Schlüssel": 6703,
    "Korrek@@": 6704,
    "kauf@@": 6705,
    "besteht.": 6706,
    "entstehen": 6707,
    "Garantie": 6708,
    "sozial@@": 6709,
    "angeboten": 6710,
    "Maßnah@@": 6711,
    "Che@@": 6712,
    "Blo@@": 6713,
    "verfügbar.": 6714,
    "cker@@": 6715,
    "Pati@@": 6716,
    "Anstieg": 6717,
    "veröffentlich@@": 6718,
    "tigkeit,": 6719,
    "mung": 6720,
    "anschließend": 6721,
    "Gegend": 6722,
    "*@@": 6723,
    "machte": 6724,
    "institutionelle": 6725,
    "Planung": 6726,
    "Gewährleistung": 6727,
    "zufried@@": 6728,
    "gelegen": 6729,
    "heiz@@": 6730,
    "Mittelmeer@@": 6731,
    "gemeinschaftlichen": 6732,
    "ans@@": 6733,
    "Marke": 6734,
    "Afghanistan": 6735,
    "Kol@@": 6736,
    "Berichterstatter,": 6737,
    "(E@@": 6738,
    "mie@@": 6739,
    "Sind": 6740,
    "Dikt@@": 6741,
    "AU@@": 6742,
    "unzureich@@": 6743,
    "prüfen": 6744,
    "konstruk@@": 6745,
    "Die@@": 6746,
    "blau@@": 6747,
    "Mrd.": 6748,
    "Is@@": 6749,
    "Dauer": 6750,
    "anhand": 6751,
    "Gesellschaften": 6752,
    "can@@": 6753,
    "Werke": 6754,
    "John": 6755,
    "ms,": 6756,
    "hren": 6757,
    "äs@@": 6758,
    "größ@@": 6759,
    "</bookmark_value><bookmark_value>@@": 6760,
    "Doll@@": 6761,
    "mo": 6762,
    "Urheber@@": 6763,
    "strategische": 6764,
    "wandel@@": 6765,
    "jener": 6766,
    "etten": 6767,
    "Fru@@": 6768,
    "vernünf@@": 6769,
    "Symbol": 6770,
    "spunk@@": 6771,
    "erei@@": 6772,
    "Konto": 6773,
    "hierbei": 6774,
    "abil@@": 6775,
    "Zentralbank": 6776,
    "Wirtschaf@@": 6777,
    "X-@@": 6778,
    "Stell@@": 6779,
    "verfolgen": 6780,
    "Seite.": 6781,
    "Mobilität": 6782,
    "Inner@@": 6783,
    "Grad": 6784,
    "en...": 6785,
    "Übergangs@@": 6786,
    "rach@@": 6787,
    "verteidig@@": 6788,
    "rank@@": 6789,
    "ica": 6790,
    "gestellte": 6791,
    "grös@@": 6792,
    "Streit@@": 6793,
    "Schwar@@": 6794,
    "Frü@@": 6795,
    "schwäch@@": 6796,
    "scheinen": 6797,
    "qual@@": 6798,
    "ister@@": 6799,
    "eindeu@@": 6800,
    "Zy@@": 6801,
    "bisherigen": 6802,
    "Genießen": 6803,
    "Radi@@": 6804,
    "11.@@": 6805,
    "prüfen,": 6806,
    "igen,": 6807,
    "vorgesehenen": 6808,
    "erklären,": 6809,
    "Websites": 6810,
    "block@@": 6811,
    "Vorschlag,": 6812,
    "ermöglicht,": 6813,
    "Prof@@": 6814,
    "Nummer": 6815,
    "As@@": 6816,
    "expor@@": 6817,
    "gestimmt": 6818,
    "Web-@@": 6819,
    "ations": 6820,
    "Weise,": 6821,
    "Möglichkeiten,": 6822,
    "Mutter@@": 6823,
    "Angst": 6824,
    "richtet": 6825,
    "bauen,": 6826,
    "Santa": 6827,
    "Ansichten": 6828,
    "ha": 6829,
    "gebühr@@": 6830,
    "Marktes": 6831,
    "Kommissar!": 6832,
    "leist@@": 6833,
    "Wissenschaft": 6834,
    "Identität": 6835,
    "IS": 6836,
    "zukünftige": 6837,
    "vielfäl@@": 6838,
    "Lieferung": 6839,
    "miet@@": 6840,
    "Studien": 6841,
    "name=\\\"@@": 6842,
    "gelegenen": 6843,
    "(PL)": 6844,
    "gelangen": 6845,
    "Gehminuten": 6846,
    "Schon": 6847,
    "Politiken": 6848,
    "Entdeck@@": 6849,
    "vorgeschlagene": 6850,
    "verl@@": 6851,
    "aufgenommen.": 6852,
    "Betrach@@": 6853,
    "BS@@": 6854,
    "trenn@@": 6855,
    "hunder@@": 6856,
    "Bir@@": 6857,
    "projek@@": 6858,
    "reisen": 6859,
    "Play@@": 6860,
    "Kontext": 6861,
    "illegalen": 6862,
    "Gam@@": 6863,
    "(H@@": 6864,
    "ssysteme": 6865,
    "laub@@": 6866,
    "edi@@": 6867,
    "bungen": 6868,
    "beziehungen": 6869,
    "Sorgen": 6870,
    "Glob@@": 6871,
    "reag@@": 6872,
    "größer": 6873,
    "SO@@": 6874,
    "Metho@@": 6875,
    "geführte": 6876,
    "ah": 6877,
    "Mitgliedsta@@": 6878,
    "Bedien@@": 6879,
    "wirtschaftlich": 6880,
    "entscheiden": 6881,
    "Weiteren": 6882,
    "übertragen": 6883,
    "sogenannten": 6884,
    "BIP": 6885,
    "schütz@@": 6886,
    "erfahr@@": 6887,
    "Bevölkerungs@@": 6888,
    "ty": 6889,
    "Dienstleist@@": 6890,
    "nde": 6891,
    "Navig@@": 6892,
    "Arbeitsmarkt": 6893,
    "schwierig@@": 6894,
    "dy@@": 6895,
    "behaup@@": 6896,
    "Entlastung": 6897,
    "pour": 6898,
    "Turn@@": 6899,
    "Restaurant,": 6900,
    "meister@@": 6901,
    "bank@@": 6902,
    "Verein@@": 6903,
    "gen:": 6904,
    "Auge": 6905,
    "ließen": 6906,
    "Grafi@@": 6907,
    "offene": 6908,
    "which": 6909,
    "schäd@@": 6910,
    "Kräfte": 6911,
    "Fahrzeug@@": 6912,
    "vorschlagen": 6913,
    "resul@@": 6914,
    "Urlaub@@": 6915,
    "Frühstücks@@": 6916,
    "profession@@": 6917,
    "Straß@@": 6918,
    "Pas@@": 6919,
    "stein@@": 6920,
    "Provinz": 6921,
    "Kommissionspräsid@@": 6922,
    "wirksame": 6923,
    "treffen,": 6924,
    "ley": 6925,
    "—": 6926,
    "erklärt,": 6927,
    "zurück,": 6928,
    "stag": 6929,
    "räu@@": 6930,
    "Staatsan@@": 6931,
    "enschaften": 6932,
    "druck": 6933,
    "aro@@": 6934,
    "Einwoh@@": 6935,
    "gres@@": 6936,
    "Schluss": 6937,
    "Wiederauf@@": 6938,
    "Christ@@": 6939,
    "sive": 6940,
    "äus@@": 6941,
    "enswer@@": 6942,
    "Lim@@": 6943,
    "abhäng@@": 6944,
    "Nacht@@": 6945,
    "arbeitungs@@": 6946,
    "Viertel": 6947,
    "verursacht": 6948,
    "unabhängigen": 6949,
    "schei@@": 6950,
    "kunft": 6951,
    "innov@@": 6952,
    "zurückge@@": 6953,
    "stärk@@": 6954,
    "hatten.": 6955,
    "ands": 6956,
    "Geschäfte": 6957,
    "Applik@@": 6958,
    "min": 6959,
    "ergreifen,": 6960,
    "ausch@@": 6961,
    "Photo@@": 6962,
    "Beschlüsse": 6963,
    "Ander@@": 6964,
    "umgeben": 6965,
    "praktische": 6966,
    "Erzeugnisse": 6967,
    "natürliche": 6968,
    "Studio": 6969,
    "Ev@@": 6970,
    "schn@@": 6971,
    "weiten": 6972,
    "bares": 6973,
    "ausgewo@@": 6974,
    "Bad@@": 6975,
    "Start@@": 6976,
    "Schn@@": 6977,
    "wirken.": 6978,
    "stimmen,": 6979,
    "sagt,": 6980,
    "gebiete": 6981,
    "Kopf@@": 6982,
    "jem@@": 6983,
    "Licht@@": 6984,
    "ya": 6985,
    "umfangreiche": 6986,
    "fer,": 6987,
    "enthaltenen": 6988,
    "trans@@": 6989,
    "bequem@@": 6990,
    "Männern": 6991,
    "sum": 6992,
    "prozesses": 6993,
    "Transport": 6994,
    "Seiten@@": 6995,
    "Salz@@": 6996,
    "Chancen": 6997,
    "kostenlo@@": 6998,
    "burger": 6999,
    "Innen": 7000,
    "ig.": 7001,
    "2020": 7002,
    "lagen.": 7003,
    "är": 7004,
    "ziele": 7005,
    "ten?": 7006,
    "seits": 7007,
    "fung": 7008,
    "Gerät": 7009,
    "ierung,": 7010,
    "endet": 7011,
    "las": 7012,
    "Zw@@": 7013,
    "wachsenden": 7014,
    "trägen": 7015,
    "klu@@": 7016,
    "jo@@": 7017,
    "registrier@@": 7018,
    "Polizei@@": 7019,
    "Kreuz@@": 7020,
    "26@@": 7021,
    "s\"": 7022,
    "ga": 7023,
    "schützen": 7024,
    "inner@@": 7025,
    "Vil@@": 7026,
    "Italien@@": 7027,
    "Debian": 7028,
    "Stück@@": 7029,
    "vorgeschlagen,": 7030,
    "Wien": 7031,
    "Parlaments@@": 7032,
    "Passag@@": 7033,
    "Meines": 7034,
    "Abschaffung": 7035,
    "ai@@": 7036,
    "wahl@@": 7037,
    "Verbind@@": 7038,
    "Nachricht": 7039,
    "vorliegende": 7040,
    "ten)": 7041,
    "same": 7042,
    "leistung": 7043,
    "hohem": 7044,
    "anzeigen": 7045,
    "WTO": 7046,
    "Umfeld": 7047,
    "Chr@@": 7048,
    "6-@@": 7049,
    "vorsch@@": 7050,
    "ergeb@@": 7051,
    "Schweizer": 7052,
    "Nu@@": 7053,
    "richtig,": 7054,
    "besonderer": 7055,
    "beleb@@": 7056,
    "hebung": 7057,
    "Weg,": 7058,
    "bul@@": 7059,
    "hervorragenden": 7060,
    "Webseiten": 7061,
    "Individu@@": 7062,
    "ologi@@": 7063,
    "normalerweise": 7064,
    "geworden.": 7065,
    "fallen,": 7066,
    "Andere": 7067,
    "elektr@@": 7068,
    "bitten": 7069,
    "Haushal@@": 7070,
    "erbau@@": 7071,
    "Fenst@@": 7072,
    "kümmer@@": 7073,
    "Signal": 7074,
    "Besitz@@": 7075,
    "erzielen.": 7076,
    "ende,": 7077,
    "Faktoren": 7078,
    "si": 7079,
    "grosse": 7080,
    "Betrag": 7081,
    "langfristig": 7082,
    "dauer": 7083,
    "atische": 7084,
    "test": 7085,
    "regi@@": 7086,
    "Strand@@": 7087,
    "wachen": 7088,
    "ando": 7089,
    "Wohnung": 7090,
    "Minderheiten": 7091,
    "wör@@": 7092,
    "modell": 7093,
    "anerkannt": 7094,
    "30.": 7095,
    "externen": 7096,
    "ment,": 7097,
    "liert.": 7098,
    "Glaubwürdigkeit": 7099,
    "9,": 7100,
    "wahlen": 7101,
    "or,": 7102,
    "gespielt": 7103,
    "(F@@": 7104,
    "ée": 7105,
    "weiter.": 7106,
    "zentral": 7107,
    "produziert": 7108,
    "ese": 7109,
    "Train@@": 7110,
    "anlage": 7111,
    "Wissenschaf@@": 7112,
    "PH@@": 7113,
    "ßen.": 7114,
    "Gebur@@": 7115,
    "teils": 7116,
    "Pil@@": 7117,
    "Gewicht": 7118,
    "studi@@": 7119,
    "press@@": 7120,
    "IN": 7121,
    "geschätz@@": 7122,
    "enger": 7123,
    "It": 7124,
    "beispiel@@": 7125,
    "ara": 7126,
    "AKP-@@": 7127,
    "Kul@@": 7128,
    "Luft": 7129,
    "beschrieb@@": 7130,
    "benö@@": 7131,
    "Strategi@@": 7132,
    "2011": 7133,
    "trock@@": 7134,
    "lehr@@": 7135,
    "weilen": 7136,
    "tives": 7137,
    "ade@@": 7138,
    "a\"": 7139,
    "fertigt": 7140,
    "enschaft": 7141,
    "Verlust": 7142,
    "Pakete": 7143,
    "jetzigen": 7144,
    "annt": 7145,
    "Eurozone": 7146,
    "effiziente": 7147,
    "aktivi@@": 7148,
    "Tour": 7149,
    "ähnlich": 7150,
    "exzell@@": 7151,
    "Wohlstand": 7152,
    "Sä@@": 7153,
    "Flas@@": 7154,
    "Erst": 7155,
    "lieber": 7156,
    "klärung": 7157,
    "de-@@": 7158,
    "Institution": 7159,
    "hochwertige": 7160,
    "überaus": 7161,
    "drit@@": 7162,
    "Bay@@": 7163,
    "ösen": 7164,
    "Übernachtung": 7165,
    "staat": 7166,
    "bere@@": 7167,
    "IG@@": 7168,
    "gemü@@": 7169,
    "Vie@@": 7170,
    "Shop@@": 7171,
    "Gesetzgeb@@": 7172,
    "Ech@@": 7173,
    "dynam@@": 7174,
    "Wein": 7175,
    "Beide": 7176,
    "fiziert": 7177,
    "Positionen": 7178,
    "Casino": 7179,
    "bestre@@": 7180,
    "ar.": 7181,
    "steuer": 7182,
    "Einkommen": 7183,
    "sen.": 7184,
    "niss@@": 7185,
    "ka,": 7186,
    "stam@@": 7187,
    "darstellt,": 7188,
    "atischen": 7189,
    "Städten": 7190,
    "Ablehnung": 7191,
    "Politik,": 7192,
    "lern@@": 7193,
    "ago@@": 7194,
    "sucht": 7195,
    "sieht,": 7196,
    "garan@@": 7197,
    "Bevölker@@": 7198,
    "gend@@": 7199,
    "eingehalten": 7200,
    "Stahl@@": 7201,
    "ist:": 7202,
    "erhielt": 7203,
    "Kab@@": 7204,
    "Inform@@": 7205,
    "b,": 7206,
    "ausgewählten": 7207,
    "Willkommen": 7208,
    "Michael": 7209,
    "Kontakte": 7210,
    "35@@": 7211,
    "Räum@@": 7212,
    "öffentlich": 7213,
    "greifen.": 7214,
    "überprüfen,": 7215,
    "politisches": 7216,
    "Großteil": 7217,
    "teilt,": 7218,
    "Überlegungen": 7219,
    "boo@@": 7220,
    "Bestimm@@": 7221,
    "schlecht": 7222,
    "Zuständigkeit": 7223,
    "1:@@": 7224,
    "griechischen": 7225,
    "sign@@": 7226,
    "Internationale": 7227,
    "übernommen": 7228,
    "wonach": 7229,
    "unabhängige": 7230,
    "wählen,": 7231,
    "maßen": 7232,
    "hen,": 7233,
    "Sonne": 7234,
    "Jahren,": 7235,
    "Einwanderung": 7236,
    "unterst@@": 7237,
    "tü@@": 7238,
    "Mes@@": 7239,
    "Gemeinsame": 7240,
    "verstärk@@": 7241,
    "benen": 7242,
    "Gerichts@@": 7243,
    "Studenten": 7244,
    "National": 7245,
    "ff": 7246,
    "Gem@@": 7247,
    "Anpass@@": 7248,
    "schriftlich": 7249,
    "prak@@": 7250,
    "perfekt": 7251,
    "letzter": 7252,
    "Rückkehr": 7253,
    "™": 7254,
    "way": 7255,
    "ktion": 7256,
    "effizient": 7257,
    "Beschäftig@@": 7258,
    "by@@": 7259,
    "Rechtsgrundlage": 7260,
    "mittlerweile": 7261,
    "Abhängigkeit": 7262,
    "itäten,": 7263,
    "age,": 7264,
    "komplette": 7265,
    "gelegte": 7266,
    "Stad@@": 7267,
    "ss": 7268,
    "länger@@": 7269,
    "fähigen": 7270,
    "600": 7271,
    "sensi@@": 7272,
    "abel@@": 7273,
    "verbessern,": 7274,
    "port@@": 7275,
    "olog@@": 7276,
    "Vorstellung": 7277,
    "FT@@": 7278,
    "Amt": 7279,
    "Absicht": 7280,
    "ret@@": 7281,
    "erstklassi@@": 7282,
    "Bild,": 7283,
    "scho@@": 7284,
    "lösen.": 7285,
    "Gericht": 7286,
    "humanitäre": 7287,
    "gerufen": 7288,
    "festgelegten": 7289,
    "achten": 7290,
    "Konsequenzen": 7291,
    "Hochschul@@": 7292,
    "Automati@@": 7293,
    "ê@@": 7294,
    "äußer@@": 7295,
    "num@@": 7296,
    "gangs": 7297,
    "betont": 7298,
    "Studi@@": 7299,
    "Fortschrit@@": 7300,
    "tes,": 7301,
    "Softwar@@": 7302,
    "s.@@": 7303,
    "lok@@": 7304,
    "Verhandl@@": 7305,
    "Dru@@": 7306,
    "Änderungsan@@": 7307,
    "jenen": 7308,
    "yste@@": 7309,
    "Küsten@@": 7310,
    "umzu@@": 7311,
    "reib@@": 7312,
    "musste": 7313,
    "Essen": 7314,
    "erwer@@": 7315,
    "einander@@": 7316,
    "alisierten": 7317,
    "Asi@@": 7318,
    "umente": 7319,
    "ganz@@": 7320,
    "Spitzen@@": 7321,
    "Krankheit": 7322,
    "organisiert": 7323,
    "hingegen": 7324,
    "detail@@": 7325,
    "nachhal@@": 7326,
    "version": 7327,
    "niveau": 7328,
    "perfekte": 7329,
    "Verteilung": 7330,
    "Tausende": 7331,
    "Wun@@": 7332,
    "wirklichen": 7333,
    "teil.": 7334,
    "nenn@@": 7335,
    "gegründet": 7336,
    "Autom@@": 7337,
    "vollständigen": 7338,
    "Restauran@@": 7339,
    "Messe": 7340,
    "и": 7341,
    "oni@@": 7342,
    "oll": 7343,
    "einheitliche": 7344,
    "alisten": 7345,
    "program@@": 7346,
    "Einheit": 7347,
    "pan@@": 7348,
    "dierung": 7349,
    "genü@@": 7350,
    "normalen": 7351,
    "bekämpfung": 7352,
    "assen.": 7353,
    "Saf@@": 7354,
    "Bereich,": 7355,
    "Schreib@@": 7356,
    "Sand@@": 7357,
    "г@@": 7358,
    "vorgenommen": 7359,
    "einfacher": 7360,
    "darf,": 7361,
    "dank@@": 7362,
    "aten.": 7363,
    "genießen.": 7364,
    "tom@@": 7365,
    "tal": 7366,
    "still@@": 7367,
    "mt": 7368,
    "col@@": 7369,
    "zel@@": 7370,
    "geöffnet": 7371,
    "Gleichstellung": 7372,
    "€@@": 7373,
    "schreib@@": 7374,
    "anden": 7375,
    "Verlauf": 7376,
    "material": 7377,
    "Gibt": 7378,
    "irischen": 7379,
    "ernsthaft": 7380,
    "Leitung": 7381,
    "Gefan@@": 7382,
    "müs@@": 7383,
    "location": 7384,
    "freundlichen": 7385,
    "Refer@@": 7386,
    "Freunden": 7387,
    "Datei@@": 7388,
    "(G@@": 7389,
    "''": 7390,
    "gut.": 7391,
    "ever@@": 7392,
    "A)": 7393,
    "unten.": 7394,
    "trieben": 7395,
    "lage@@": 7396,
    "Wür@@": 7397,
    "Ferien@@": 7398,
    "stolz": 7399,
    "gezeigt": 7400,
    "AV@@": 7401,
    "rel@@": 7402,
    "bewäl@@": 7403,
    "Vision": 7404,
    "popul@@": 7405,
    "entstanden": 7406,
    "Not@@": 7407,
    "glauben": 7408,
    "�n@@": 7409,
    "IV@@": 7410,
    "ce@@": 7411,
    "Miß@@": 7412,
    "Fall,": 7413,
    "plätze": 7414,
    "bro@@": 7415,
    "Modelle": 7416,
    "Österreich@@": 7417,
    "ted": 7418,
    "frühen": 7419,
    "denken.": 7420,
    "beginn@@": 7421,
    "Somit": 7422,
    "000@@": 7423,
    "tors": 7424,
    "pal@@": 7425,
    "Mitarbeitern": 7426,
    "…": 7427,
    "Qual@@": 7428,
    "frü@@": 7429,
    "Bran@@": 7430,
    "Kap@@": 7431,
    "Kommissar@@": 7432,
    "Euro-@@": 7433,
    "Diplom@@": 7434,
    "Ambiente": 7435,
    "ket@@": 7436,
    "Verarbeitung": 7437,
    "Compu@@": 7438,
    "Miet@@": 7439,
    "Beobach@@": 7440,
    "haus@@": 7441,
    "Fax@@": 7442,
    "versuch@@": 7443,
    "eter": 7444,
    "ausgeführt": 7445,
    "Tabelle": 7446,
    "Sektoren": 7447,
    "hoffentlich": 7448,
    "bor@@": 7449,
    "Vater": 7450,
    "Mehrwert@@": 7451,
    "geändert.": 7452,
    "geeignete": 7453,
    "(Beifall)": 7454,
    "schal@@": 7455,
    "Manager": 7456,
    "k-@@": 7457,
    "enorme": 7458,
    "Lad@@": 7459,
    "ves": 7460,
    "digitalen": 7461,
    "defiz@@": 7462,
    "aufen": 7463,
    "Hung@@": 7464,
    "Haben": 7465,
    "Erforder@@": 7466,
    "Anlass": 7467,
    "lässi@@": 7468,
    "informieren": 7469,
    "ilen@@": 7470,
    "ordn@@": 7471,
    "gelungen": 7472,
    "Gäste@@": 7473,
    "politisch@@": 7474,
    "partner@@": 7475,
    "linken": 7476,
    "e/@@": 7477,
    "Daten,": 7478,
    "klassischen": 7479,
    "Sachen": 7480,
    "kol@@": 7481,
    "MO@@": 7482,
    "unterstützt,": 7483,
    "schlim@@": 7484,
    "inger": 7485,
    "Aspek@@": 7486,
    "türkischen": 7487,
    "Spa": 7488,
    "stitu@@": 7489,
    "keinem": 7490,
    "Sound@@": 7491,
    "re.": 7492,
    "ausgesetzt": 7493,
    "Sammlung": 7494,
    "Feuer@@": 7495,
    "ument": 7496,
    "sicherung": 7497,
    "tos": 7498,
    "Tem@@": 7499,
    "spielen,": 7500,
    "leistungen": 7501,
    "Diskus@@": 7502,
    "nimmt.": 7503,
    "Systemen": 7504,
    "Hinweis": 7505,
    "Gold@@": 7506,
    "ary": 7507,
    "ökonomischen": 7508,
    "Team@@": 7509,
    "schnellen": 7510,
    "regu@@": 7511,
    "auen": 7512,
    "konkre@@": 7513,
    "hen.": 7514,
    "debat@@": 7515,
    "Waren@@": 7516,
    "Volksgesundheit": 7517,
    "Verpflich@@": 7518,
    "lands@@": 7519,
    "besonder@@": 7520,
    "wasser": 7521,
    "este": 7522,
    "enttäusch@@": 7523,
    "Hon@@": 7524,
    "reser@@": 7525,
    "enor@@": 7526,
    "Power@@": 7527,
    "Gefahr,": 7528,
    "’s": 7529,
    "27@@": 7530,
    "faszin@@": 7531,
    "anwesend": 7532,
    "Gefahren": 7533,
    "Funktions@@": 7534,
    "deutlich,": 7535,
    "aff@@": 7536,
    "rad": 7537,
    "plus": 7538,
    "Mir": 7539,
    "KMU": 7540,
    "ti": 7541,
    "prüf@@": 7542,
    "mobil@@": 7543,
    "iel": 7544,
    "Tim@@": 7545,
    "Best": 7546,
    "Verfügung,": 7547,
    "Atlan@@": 7548,
    "maschinen": 7549,
    "enth@@": 7550,
    "Entschließungsan@@": 7551,
    "gratu@@": 7552,
    "Distribution": 7553,
    "Berliner": 7554,
    "direk@@": 7555,
    "darstellen.": 7556,
    "Tradition@@": 7557,
    "Exper@@": 7558,
    "Brand@@": 7559,
    "offizielle": 7560,
    "Ausmaß": 7561,
    "Ankunft": 7562,
    "es-@@": 7563,
    "behör@@": 7564,
    "stör@@": 7565,
    "qualitativ": 7566,
    "brauch": 7567,
    "Gemeinde": 7568,
    "hinder@@": 7569,
    "CO2-@@": 7570,
    "ws": 7571,
    "verbo@@": 7572,
    "deswegen": 7573,
    "Tun@@": 7574,
    "Griechen@@": 7575,
    "grossen": 7576,
    "Regierungschefs": 7577,
    "PS@@": 7578,
    "()": 7579,
    "satz,": 7580,
    "heili@@": 7581,
    "diskrimin@@": 7582,
    "Wirtschaftswachstum": 7583,
    "ument,": 7584,
    "m²": 7585,
    "mitzu@@": 7586,
    "elektron@@": 7587,
    "hingewiesen,": 7588,
    "fühlen": 7589,
    "Patent@@": 7590,
    "zeigen.": 7591,
    "v.": 7592,
    "entscheidend": 7593,
    "ai": 7594,
    "Badezimmer": 7595,
    "avec": 7596,
    "Passwort": 7597,
    "Kle@@": 7598,
    "schließt": 7599,
    "he.": 7600,
    "Praktiken": 7601,
    "Haushaltsplan": 7602,
    "Assist@@": 7603,
    "Aqu@@": 7604,
    "übri@@": 7605,
    "schlä@@": 7606,
    "Detail@@": 7607,
    "stä@@": 7608,
    "gelegt.": 7609,
    "Punkt,": 7610,
    "Dass": 7611,
    "gewinnen": 7612,
    "erreicht.": 7613,
    "einbezogen": 7614,
    "befin@@": 7615,
    "hierfür": 7616,
    "Kürz@@": 7617,
    "Milch@@": 7618,
    "herrscht": 7619,
    "gestri@@": 7620,
    "gegenwärtige": 7621,
    "Renn@@": 7622,
    "Ged@@": 7623,
    "schläge": 7624,
    "gesetzlichen": 7625,
    "verlänger@@": 7626,
    "fügen.": 7627,
    "Parameter": 7628,
    "spre@@": 7629,
    "netz": 7630,
    "Spann@@": 7631,
    "dürfte": 7632,
    "Panoram@@": 7633,
    "Debian-@@": 7634,
    "Aktionsplan": 7635,
    "lei": 7636,
    "ats@@": 7637,
    "Widerspruch": 7638,
    "tief": 7639,
    "manu@@": 7640,
    "beschleunig@@": 7641,
    "aufs": 7642,
    "Schiff": 7643,
    "-/@@": 7644,
    "wohnen": 7645,
    "gesellschaften": 7646,
    "stattfin@@": 7647,
    "just": 7648,
    "führungs@@": 7649,
    "ance": 7650,
    "ms.": 7651,
    "gespeicher@@": 7652,
    "800": 7653,
    "gewährleisten": 7654,
    "ot@@": 7655,
    "Wa@@": 7656,
    "Erleb@@": 7657,
    "gewählten": 7658,
    "cher@@": 7659,
    "beschlossen,": 7660,
    "Fes@@": 7661,
    "selbst,": 7662,
    "Software@@": 7663,
    "Ira@@": 7664,
    "gerät": 7665,
    "fantas@@": 7666,
    "Umgeb@@": 7667,
    "teilungen": 7668,
    "gewich@@": 7669,
    "angezeigt": 7670,
    "</link>": 7671,
    "statisti@@": 7672,
    "enthalten,": 7673,
    "Instr@@": 7674,
    "verwende": 7675,
    "stellung,": 7676,
    "Pool": 7677,
    "Personen@@": 7678,
    "Kopf": 7679,
    "Gesetzes@@": 7680,
    "wand": 7681,
    "ungser@@": 7682,
    "dann,": 7683,
    "beziehen": 7684,
    "Kompon@@": 7685,
    "ст@@": 7686,
    "umente,": 7687,
    "festen": 7688,
    "beru@@": 7689,
    "Katastrophe": 7690,
    "Band": 7691,
    "verschär@@": 7692,
    "siv@@": 7693,
    "sah@@": 7694,
    "ange": 7695,
    "ablehn@@": 7696,
    "inst@@": 7697,
    "gespeichert": 7698,
    "gebie@@": 7699,
    "besetz@@": 7700,
    "unmittelbarer": 7701,
    "Kompromis@@": 7702,
    "Jung@@": 7703,
    "bewus@@": 7704,
    "kulture@@": 7705,
    "Camp@@": 7706,
    "prin@@": 7707,
    "einmal@@": 7708,
    "Auswahl@@": 7709,
    "zustimmen.": 7710,
    "lad@@": 7711,
    "Möglich@@": 7712,
    "Differ@@": 7713,
    "verändert": 7714,
    "ungsh@@": 7715,
    "stärkere": 7716,
    "dabei,": 7717,
    "Ressourc@@": 7718,
    "Polizei": 7719,
    "inhal@@": 7720,
    "code": 7721,
    "bekämpf@@": 7722,
    "1)": 7723,
    "ca@@": 7724,
    "ong": 7725,
    "brach@@": 7726,
    "Eigentum": 7727,
    "Arch@@": 7728,
    "alem": 7729,
    "verzeich@@": 7730,
    "Stim@@": 7731,
    "Pläne": 7732,
    "Beste@@": 7733,
    "Zahlungen": 7734,
    "Wör@@": 7735,
    "zeichnung": 7736,
    "modern": 7737,
    "ablen": 7738,
    "Wur@@": 7739,
    "verhindert": 7740,
    "para": 7741,
    "esti@@": 7742,
    "Wild@@": 7743,
    "pä@@": 7744,
    "geruf@@": 7745,
    "Nahrungs@@": 7746,
    "separ@@": 7747,
    "definiert": 7748,
    "Kund@@": 7749,
    "betra@@": 7750,
    "Runde": 7751,
    "Organe": 7752,
    "Mensch@@": 7753,
    "Englisch": 7754,
    "post@@": 7755,
    "maßnah@@": 7756,
    "dex": 7757,
    "bringt.": 7758,
    "beeinfluss@@": 7759,
    "Player": 7760,
    "klag@@": 7761,
    "Kollegin": 7762,
    ".0@@": 7763,
    "negativen": 7764,
    "Speis@@": 7765,
    "Quar@@": 7766,
    "gebung": 7767,
    "Prozesse": 7768,
    "Blut@@": 7769,
    "C.": 7770,
    "Band@@": 7771,
    "vorschlag": 7772,
    "unglaub@@": 7773,
    "aum": 7774,
    "Group": 7775,
    "konferenz": 7776,
    "erhöhen.": 7777,
    "î@@": 7778,
    "integrierten": 7779,
    "Spaß": 7780,
    "Keine": 7781,
    "mögen": 7782,
    "Netzwer@@": 7783,
    "Präz@@": 7784,
    "Ort,": 7785,
    "Freizügigkeit": 7786,
    "langsam": 7787,
    "On@@": 7788,
    "komfortable": 7789,
    "geplan@@": 7790,
    "gang@@": 7791,
    "Jahrzehnten": 7792,
    "Öffnung": 7793,
    "vorschlä@@": 7794,
    "began@@": 7795,
    "Kr@@": 7796,
    "heben.": 7797,
    "angemessenen": 7798,
    "ag": 7799,
    "Beseitigung": 7800,
    "ausgesprochen": 7801,
    "A.": 7802,
    "technisch": 7803,
    "enswert": 7804,
    "29@@": 7805,
    "(oder": 7806,
    "stel@@": 7807,
    "herrlichen": 7808,
    "deu@@": 7809,
    "Macht@@": 7810,
    "handeln.": 7811,
    "Versuch": 7812,
    "zahlt": 7813,
    "gehört.": 7814,
    "Andererseits": 7815,
    "kern": 7816,
    "geräte": 7817,
    "rieren": 7818,
    "freundlich": 7819,
    "Et@@": 7820,
    "29": 7821,
    "garantieren": 7822,
    "bedeutenden": 7823,
    "derzeitige": 7824,
    "anbelangt,": 7825,
    "Metro@@": 7826,
    "Darstellung": 7827,
    "Vorhaben": 7828,
    "Schle@@": 7829,
    "Kabel@@": 7830,
    "lösung": 7831,
    "Lay@@": 7832,
    "Est@@": 7833,
    "serv@@": 7834,
    "raten": 7835,
    "ländliche": 7836,
    "gestalten.": 7837,
    "Wesentlichen": 7838,
    "к@@": 7839,
    "frag@@": 7840,
    "festzu@@": 7841,
    "enthal@@": 7842,
    "Freiheiten": 7843,
    "Erzeug@@": 7844,
    "Bö@@": 7845,
    "übernehmen.": 7846,
    "identi@@": 7847,
    "mer,": 7848,
    "gebaut.": 7849,
    "Touristen": 7850,
    "Bereits": 7851,
    "Tätigkeiten": 7852,
    "Sobald": 7853,
    "Veränderung": 7854,
    "25.": 7855,
    "ur,": 7856,
    "lar@@": 7857,
    "Erhaltung": 7858,
    "hu@@": 7859,
    "erstaun@@": 7860,
    "geprüft": 7861,
    "Speich@@": 7862,
    "Perspektive": 7863,
    "Interes@@": 7864,
    "Hintergrund@@": 7865,
    "lück@@": 7866,
    "beziehen.": 7867,
    "kamen": 7868,
    "gestell@@": 7869,
    "Staates": 7870,
    "Fahrt": 7871,
    "umfassend": 7872,
    "berücksichtigen.": 7873,
    "völ@@": 7874,
    "olle": 7875,
    "immer@@": 7876,
    "selb@@": 7877,
    "geforder@@": 7878,
    "folge": 7879,
    "Dör@@": 7880,
    "z-@@": 7881,
    "arischen": 7882,
    "abilität": 7883,
    "Augen@@": 7884,
    "us-@@": 7885,
    "beträch@@": 7886,
    "Quelle": 7887,
    "Bestand@@": 7888,
    "zon@@": 7889,
    "kat@@": 7890,
    "eingesch@@": 7891,
    "bs": 7892,
    "Einen": 7893,
    "Schulen": 7894,
    "Ret@@": 7895,
    "multi@@": 7896,
    "ett": 7897,
    "Handlungs@@": 7898,
    "Gebiet@@": 7899,
    "Fa@@": 7900,
    "bewusst,": 7901,
    "iken": 7902,
    "fahrer": 7903,
    "verstanden": 7904,
    "langfristigen": 7905,
    "Gö@@": 7906,
    "Befugnisse": 7907,
    "maßgeb@@": 7908,
    "erwe@@": 7909,
    "entschloss@@": 7910,
    "entscheidenden": 7911,
    "MA@@": 7912,
    "Regierung,": 7913,
    "nachdrücklich": 7914,
    "le-@@": 7915,
    "betrifft.": 7916,
    "Open": 7917,
    "DVD": 7918,
    "fuhr": 7919,
    "ermittel@@": 7920,
    "Reservierung": 7921,
    "wiederholt": 7922,
    "ute": 7923,
    "ellen,": 7924,
    "Mari@@": 7925,
    "Flä@@": 7926,
    "andel@@": 7927,
    "stands": 7928,
    "gearbeitet": 7929,
    "billi@@": 7930,
    "nich@@": 7931,
    "erweitert": 7932,
    "bereichen": 7933,
    "akzeptieren": 7934,
    "IB@@": 7935,
    "kap@@": 7936,
    "gene@@": 7937,
    "genaue": 7938,
    "anzuzeigen.": 7939,
    "aner": 7940,
    "luß": 7941,
    "Höchst@@": 7942,
    "ado": 7943,
    "eigener": 7944,
    "an-@@": 7945,
    "ale,": 7946,
    "König": 7947,
    "überzeugt": 7948,
    "läß@@": 7949,
    "unentgeltlich": 7950,
    "park@@": 7951,
    "fähige": 7952,
    "2013": 7953,
    "zin@@": 7954,
    "denden": 7955,
    "Blu@@": 7956,
    "verank@@": 7957,
    "Sterne": 7958,
    "wickel@@": 7959,
    "abhän@@": 7960,
    "•": 7961,
    "t).": 7962,
    "ros": 7963,
    "bad": 7964,
    "Steuerung": 7965,
    "Frankreich@@": 7966,
    "probleme": 7967,
    "origin@@": 7968,
    "betrieben": 7969,
    "48": 7970,
    "’": 7971,
    "stoß": 7972,
    "rechtlich": 7973,
    "len@@": 7974,
    "gerichtet": 7975,
    "füllen": 7976,
    "dur@@": 7977,
    "Euch": 7978,
    "Benutzung": 7979,
    "psych@@": 7980,
    "Staats-": 7981,
    "Lizenz": 7982,
    "mechan@@": 7983,
    "interessiert": 7984,
    "effektive": 7985,
    "Thema,": 7986,
    "eken": 7987,
    "Art,": 7988,
    "Standort": 7989,
    "Senkung": 7990,
    "Respekt": 7991,
    "Asien": 7992,
    "ire": 7993,
    "gestaltet": 7994,
    "EW@@": 7995,
    "fuhr@@": 7996,
    "sätz@@": 7997,
    "d’@@": 7998,
    "Gewinn@@": 7999,
    "inge": 8000,
    "Energien": 8001,
    "EADS": 8002,
    "verweig@@": 8003,
    "Videos": 8004,
    "Preisen": 8005,
    "Kolle@@": 8006,
    "7-@@": 8007,
    "ßt": 8008,
    "stimmt": 8009,
    "raum,": 8010,
    "luss@@": 8011,
    "chs@@": 8012,
    "arbeitete": 8013,
    "Bearbeitung": 8014,
    "typischen": 8015,
    "Zivilgesellschaft": 8016,
    "Spre@@": 8017,
    "Energies@@": 8018,
    "Anim@@": 8019,
    "ung\"": 8020,
    "rieb@@": 8021,
    "realer": 8022,
    "entliche": 8023,
    "Kaffe@@": 8024,
    "Sicherheit,": 8025,
    "Dring@@": 8026,
    "Flüchtlinge": 8027,
    "technologie": 8028,
    "schir@@": 8029,
    "nungs@@": 8030,
    "dauer@@": 8031,
    "anzuneh@@": 8032,
    "Apartment": 8033,
    "nimmt,": 8034,
    "grü@@": 8035,
    "el-@@": 8036,
    "werten": 8037,
    "gesam@@": 8038,
    "gesehen,": 8039,
    "Tast@@": 8040,
    "Schiffe": 8041,
    "Gang": 8042,
    "ura@@": 8043,
    "Transpar@@": 8044,
    "richten.": 8045,
    "Zahlung": 8046,
    "Produktion@@": 8047,
    "waffen": 8048,
    "fertig": 8049,
    "austausch": 8050,
    "Verfassungs@@": 8051,
    "müß@@": 8052,
    "kling@@": 8053,
    "statt,": 8054,
    "ano@@": 8055,
    "Weiß@@": 8056,
    "Ul@@": 8057,
    "bestimmungen": 8058,
    "Berichten": 8059,
    "Überblick": 8060,
    "Dek@@": 8061,
    "reichhal@@": 8062,
    "erziel@@": 8063,
    "Veranstaltungs@@": 8064,
    "fikation": 8065,
    "Ferienwohnung": 8066,
    "ner.": 8067,
    "langer": 8068,
    "erfolgen": 8069,
    "Form@@": 8070,
    "Apart@@": 8071,
    "33@@": 8072,
    "liche,": 8073,
    "wendung": 8074,
    "verring@@": 8075,
    "fe,": 8076,
    "ISO": 8077,
    "angenehmen": 8078,
    "Ersatz@@": 8079,
    "ity": 8080,
    "Dritten": 8081,
    "rechtzeitig": 8082,
    "Format@@": 8083,
    "erlaub@@": 8084,
    "Stud@@": 8085,
    "Siedl@@": 8086,
    "gewinn@@": 8087,
    "enhaus": 8088,
    "Air": 8089,
    "projekte": 8090,
    "essen.": 8091,
    "bes": 8092,
    "Modul": 8093,
    "Korruption": 8094,
    "zusammen,": 8095,
    "Menschenrech@@": 8096,
    "geleit@@": 8097,
    "elem@@": 8098,
    "einzur@@": 8099,
    "befinden.": 8100,
    "Würde": 8101,
    "Lau@@": 8102,
    "Frankreich,": 8103,
    "neten": 8104,
    "my@@": 8105,
    "Oliven@@": 8106,
    "Fundam@@": 8107,
    "Bin@@": 8108,
    "wiesen,": 8109,
    "praktischen": 8110,
    "ox@@": 8111,
    "Schauspiel@@": 8112,
    "Rezep@@": 8113,
    "richten,": 8114,
    "nt": 8115,
    "finanziert": 8116,
    "e.@@": 8117,
    "Original@@": 8118,
    "Besuchen": 8119,
    "Software-@@": 8120,
    "ot": 8121,
    "akzeptieren,": 8122,
    "Fass@@": 8123,
    "vermeiden,": 8124,
    "stellt.": 8125,
    "ch-@@": 8126,
    "Drittens": 8127,
    "ison": 8128,
    "arische": 8129,
    "Mittag@@": 8130,
    "radik@@": 8131,
    "Bulgarien": 8132,
    "Bit@@": 8133,
    "wesentlicher": 8134,
    "klimati@@": 8135,
    "ick": 8136,
    "freut": 8137,
    "alistische": 8138,
    "Wirtschaft,": 8139,
    "Berichterstat@@": 8140,
    "usses": 8141,
    "grupp@@": 8142,
    "konzip@@": 8143,
    "ds,": 8144,
    "bedauer@@": 8145,
    "king": 8146,
    "eventuell": 8147,
    "CD-@@": 8148,
    "Bemerkung": 8149,
    "190@@": 8150,
    "verabschiedet": 8151,
    "berücksichtigen": 8152,
    "SM@@": 8153,
    "stärken": 8154,
    "München": 8155,
    "(PT)": 8156,
    "zuseh@@": 8157,
    "wenden.": 8158,
    "gewähl@@": 8159,
    "festgestellt": 8160,
    "daten@@": 8161,
    "erinnen": 8162,
    "See@@": 8163,
    "Repar@@": 8164,
    "Ke@@": 8165,
    "36@@": 8166,
    "rooms": 8167,
    "technologi@@": 8168,
    "reden": 8169,
    "bietet,": 8170,
    "Dank@@": 8171,
    "schiff@@": 8172,
    "jur@@": 8173,
    "isation": 8174,
    "Gegenteil": 8175,
    "Chem@@": 8176,
    "infolge": 8177,
    "f-@@": 8178,
    "bereit.": 8179,
    "Invest@@": 8180,
    "Abfall@@": 8181,
    "älteren": 8182,
    "wirtschaftlich@@": 8183,
    "begrüßt": 8184,
    "eins": 8185,
    "Kritik@@": 8186,
    "Hohe": 8187,
    "zugän@@": 8188,
    "selten": 8189,
    "ol,": 8190,
    "dy": 8191,
    "GE@@": 8192,
    "ee": 8193,
    "Comp@@": 8194,
    "territori@@": 8195,
    "Vergnü@@": 8196,
    "ide": 8197,
    "esischen": 8198,
    "Initiativ@@": 8199,
    "Drittel": 8200,
    "pek@@": 8201,
    "geschütz@@": 8202,
    "Sohn": 8203,
    "Prozesses": 8204,
    "ichen": 8205,
    "diesbezüglich": 8206,
    "glob@@": 8207,
    "Hoff@@": 8208,
    "Geschäf@@": 8209,
    "Finanzkrise": 8210,
    "willkommen": 8211,
    "fang@@": 8212,
    "Erst@@": 8213,
    "reform@@": 8214,
    "au,": 8215,
    "Szen@@": 8216,
    "Service@@": 8217,
    "Med@@": 8218,
    "tiere": 8219,
    "haber": 8220,
    "Frist": 8221,
    "\"...@@": 8222,
    "е": 8223,
    "ärer": 8224,
    "weltweite": 8225,
    "thin": 8226,
    "hoben": 8227,
    "Ökonom@@": 8228,
    "näch@@": 8229,
    "dienen,": 8230,
    "begon@@": 8231,
    "Vereinfachung": 8232,
    "Frankfurt": 8233,
    "hierzu": 8234,
    "herauszu@@": 8235,
    "Aktions@@": 8236,
    "weiterzu@@": 8237,
    "liefern": 8238,
    "leiten": 8239,
    "krimin@@": 8240,
    "geschaff@@": 8241,
    "abgestimmt": 8242,
    "tun@@": 8243,
    "pak@@": 8244,
    "chinesische": 8245,
    "abgelehnt": 8246,
    "Wochenende": 8247,
    "Lebensmittel": 8248,
    "verkehrs": 8249,
    "charakter@@": 8250,
    "lässt.": 8251,
    "ister": 8252,
    "bru@@": 8253,
    "Vertretern": 8254,
    "Peter": 8255,
    "Fig@@": 8256,
    "sofor@@": 8257,
    "Armee": 8258,
    "flug": 8259,
    "Rezeption": 8260,
    "Nov@@": 8261,
    "Ern@@": 8262,
    "Altern@@": 8263,
    "konnten.": 8264,
    "Vorausschau": 8265,
    "Heimat@@": 8266,
    "(\"@@": 8267,
    "\")": 8268,
    "te!": 8269,
    "mischen": 8270,
    "Einsatz@@": 8271,
    "Tschech@@": 8272,
    "Ratspräsident,": 8273,
    "fried@@": 8274,
    "Vertrages": 8275,
    "wege": 8276,
    "Stoffe": 8277,
    "Maß@@": 8278,
    "Institut": 8279,
    "oftmals": 8280,
    "mäßige": 8281,
    "Schreiben": 8282,
    "Roma": 8283,
    "Inn": 8284,
    "Business@@": 8285,
    "vermeiden.": 8286,
    "mitglieder": 8287,
    "Konflikte": 8288,
    "Mitglie@@": 8289,
    "Jahren.": 8290,
    "empfohl@@": 8291,
    "Verwirklichung": 8292,
    "Vers@@": 8293,
    "ichts": 8294,
    "Märkten": 8295,
    "Dritte": 8296,
    "tut": 8297,
    "kanische": 8298,
    "bran@@": 8299,
    "Poly@@": 8300,
    "web@@": 8301,
    "VER@@": 8302,
    "Ursachen": 8303,
    "gewährt": 8304,
    "able@@": 8305,
    "Allianz": 8306,
    "soeben": 8307,
    "Well@@": 8308,
    "Lesen": 8309,
    "Übertragung": 8310,
    "Zü@@": 8311,
    "Situationen": 8312,
    "App@@": 8313,
    "problem": 8314,
    "palästinensischen": 8315,
    "ke.": 8316,
    "Den@@": 8317,
    "Ansch@@": 8318,
    "verlangt": 8319,
    "position@@": 8320,
    "ack": 8321,
    "Wahr@@": 8322,
    "strategi@@": 8323,
    "ler,": 8324,
    "grafischen": 8325,
    "Eingang": 8326,
    "schuldig@@": 8327,
    "platz,": 8328,
    "versichern,": 8329,
    "anhalten@@": 8330,
    "kir@@": 8331,
    "Rom": 8332,
    "Oberflä@@": 8333,
    "NATO": 8334,
    "Länge": 8335,
    "Digital@@": 8336,
    "längst": 8337,
    "Papier@@": 8338,
    "Führer": 8339,
    "standen.": 8340,
    "Redner": 8341,
    "test@@": 8342,
    "grenze": 8343,
    "Aufgabe,": 8344,
    "intelligent@@": 8345,
    "europäisches": 8346,
    "Sicht@@": 8347,
    "Browser": 8348,
    "wort": 8349,
    "wit@@": 8350,
    "siven": 8351,
    "Symb@@": 8352,
    "Errichtung": 8353,
    "Verteidigungs@@": 8354,
    "о": 8355,
    "stärken.": 8356,
    "günstige": 8357,
    "bereitet": 8358,
    "falsch": 8359,
    "Fahrzeuge": 8360,
    "öffnen": 8361,
    "wirkliche": 8362,
    "verdi@@": 8363,
    "selber": 8364,
    "neun": 8365,
    "handeln,": 8366,
    "enkt": 8367,
    "Koh@@": 8368,
    "Büro": 8369,
    "tra": 8370,
    "Sat@@": 8371,
    "Geschlech@@": 8372,
    "gebene": 8373,
    "Registrierung": 8374,
    "Kein": 8375,
    "Rest@@": 8376,
    "künf@@": 8377,
    "telefon@@": 8378,
    "humanitären": 8379,
    "geheim@@": 8380,
    "erweiter@@": 8381,
    "ba": 8382,
    "Vermittl@@": 8383,
    "Nachbarn": 8384,
    "Marken@@": 8385,
    "äf@@": 8386,
    "schluss@@": 8387,
    "nehmen@@": 8388,
    "bedürf@@": 8389,
    "Freiheit,": 8390,
    "wa": 8391,
    "foto@@": 8392,
    "Erinnerung": 8393,
    "beunruhig@@": 8394,
    "momentan": 8395,
    "bedroh@@": 8396,
    "Reisen": 8397,
    "Gelder": 8398,
    "brechen": 8399,
    "Wen@@": 8400,
    "Maschinen@@": 8401,
    "buchen": 8402,
    "tte": 8403,
    "if": 8404,
    "MS": 8405,
    "24.": 8406,
    "10.@@": 8407,
    "weise,": 8408,
    "stren@@": 8409,
    "ente,": 8410,
    "taus@@": 8411,
    "entwickel@@": 8412,
    "bestehen.": 8413,
    "Tages": 8414,
    "zuverlässi@@": 8415,
    "bürger": 8416,
    "Plug@@": 8417,
    "Objekt": 8418,
    "Überein@@": 8419,
    "lo": 8420,
    "Zuge": 8421,
    "Mut": 8422,
    "Ram@@": 8423,
    "Organ@@": 8424,
    "Ital@@": 8425,
    "Empf@@": 8426,
    "Stimmen": 8427,
    "Si@@": 8428,
    "Kulturen": 8429,
    "Demokratie,": 8430,
    "strateg@@": 8431,
    "Verhält@@": 8432,
    "Bildschir@@": 8433,
    "stöß@@": 8434,
    "leisten,": 8435,
    "leiden": 8436,
    "kund@@": 8437,
    "Menschenrechte,": 8438,
    "terror@@": 8439,
    "Tend@@": 8440,
    "Datum": 8441,
    "Bord": 8442,
    "1994": 8443,
    "vereinfach@@": 8444,
    "schwierige": 8445,
    "grünen": 8446,
    "Rechten": 8447,
    "sei,": 8448,
    "line": 8449,
    "schwere": 8450,
    "einverstanden": 8451,
    "dessen,": 8452,
    "zent@@": 8453,
    "ish@@": 8454,
    "Waff@@": 8455,
    "geschlossenen": 8456,
    "ehemalige": 8457,
    "Weil": 8458,
    "Geträn@@": 8459,
    "Fischer": 8460,
    "verwaltung": 8461,
    "Einwohner": 8462,
    "Behandl@@": 8463,
    "auer": 8464,
    "Zwar": 8465,
    "Schwellen@@": 8466,
    "Industrie,": 8467,
    "Ärz@@": 8468,
    "Landwir@@": 8469,
    "fort": 8470,
    "unterschei@@": 8471,
    "keit": 8472,
    "dens": 8473,
    "aber,": 8474,
    "Konz@@": 8475,
    "Bedürfnissen": 8476,
    "#@@": 8477,
    "professionelle": 8478,
    "christ@@": 8479,
    "angezeigt.": 8480,
    "Zertifik@@": 8481,
    "Telefon": 8482,
    "riften,": 8483,
    "get": 8484,
    "Ebenen": 8485,
    "befür@@": 8486,
    "aktiviert": 8487,
    "Beteiligten": 8488,
    "demo@@": 8489,
    "Gast": 8490,
    "use": 8491,
    "man,": 8492,
    "ium@@": 8493,
    "Proble@@": 8494,
    "aku@@": 8495,
    "Pul@@": 8496,
    "stellungs@@": 8497,
    "Num@@": 8498,
    "Früh@@": 8499,
    "widerspiegel@@": 8500,
    "belast@@": 8501,
    "Elektron@@": 8502,
    "ón": 8503,
    "vertei@@": 8504,
    "knapp": 8505,
    "domin@@": 8506,
    "Kroatien": 8507,
    "berühmte": 8508,
    "Bestre@@": 8509,
    "Г@@": 8510,
    "stand.": 8511,
    "leichter": 8512,
    "Export@@": 8513,
    "tari@@": 8514,
    "manchen": 8515,
    "Tabak@@": 8516,
    "Plas@@": 8517,
    "km@@": 8518,
    "Konkur@@": 8519,
    "last@@": 8520,
    "gleichermaßen": 8521,
    "geschichte": 8522,
    "ax@@": 8523,
    "Handels": 8524,
    "Ausarbeitung": 8525,
    "Adres@@": 8526,
    "heim": 8527,
    "Genau@@": 8528,
    "Dialo@@": 8529,
    "legte": 8530,
    "hochwer@@": 8531,
    "en/@@": 8532,
    "EF@@": 8533,
    "Deck@@": 8534,
    "stattfinden": 8535,
    "modified": 8536,
    "…..": 8537,
    "Mission": 8538,
    "beginnen,": 8539,
    "Planeten": 8540,
    "lenk@@": 8541,
    "illegale": 8542,
    "Unterstütz@@": 8543,
    "Prote@@": 8544,
    "Bab@@": 8545,
    "31.": 8546,
    "iche": 8547,
    "Quellen": 8548,
    "(M@@": 8549,
    "V-@@": 8550,
    "Gruppen@@": 8551,
    "Fremden@@": 8552,
    "mä@@": 8553,
    "gend,": 8554,
    "Entschließ@@": 8555,
    "optimal": 8556,
    "lech@@": 8557,
    "Phas@@": 8558,
    "rolle": 8559,
    "drücken": 8560,
    "Stärke": 8561,
    "Maxim@@": 8562,
    "Herz": 8563,
    "Einer": 8564,
    "informationen": 8565,
    "b.": 8566,
    "Sy@@": 8567,
    "Glück": 8568,
    "Brow@@": 8569,
    "aly@@": 8570,
    "Result@@": 8571,
    "Fünf@@": 8572,
    "%,": 8573,
    "tigkeits@@": 8574,
    "thal@@": 8575,
    "heb@@": 8576,
    "esische": 8577,
    "eröffnet": 8578,
    "beschränkt": 8579,
    "Urteil": 8580,
    "Urlaubs@@": 8581,
    "Resort": 8582,
    "mäß@@": 8583,
    "italienische": 8584,
    "Treff@@": 8585,
    "Schloss": 8586,
    "Fal@@": 8587,
    "van@@": 8588,
    "fs@@": 8589,
    "beste@@": 8590,
    "abend": 8591,
    "Beschreibung:": 8592,
    "lern": 8593,
    "her.": 8594,
    "ders": 8595,
    "Typ": 8596,
    "Ganz@@": 8597,
    "angezeigt,": 8598,
    "ú@@": 8599,
    "Übrigen": 8600,
    "teili@@": 8601,
    "liert,": 8602,
    "immer,": 8603,
    "beton@@": 8604,
    "Jedoch": 8605,
    "kontextuellen": 8606,
    "Sei@@": 8607,
    "$": 8608,
    "gin@@": 8609,
    "dauert": 8610,
    "Königreich@@": 8611,
    "lan": 8612,
    "erleich@@": 8613,
    "bleibt.": 8614,
    "beglück@@": 8615,
    "Danach": 8616,
    "Bed@@": 8617,
    "verwendeten": 8618,
    "vertrag@@": 8619,
    "Plenar@@": 8620,
    "Anwender": 8621,
    "Scho@@": 8622,
    "Ausbildungs@@": 8623,
    "schätzen": 8624,
    "Akte@@": 8625,
    "waff@@": 8626,
    "lagen@@": 8627,
    "Wirksamkeit": 8628,
    "materi@@": 8629,
    "gestaltung": 8630,
    "erzeugt": 8631,
    "digitale": 8632,
    "Schlafzimmer": 8633,
    "werden:": 8634,
    "entes": 8635,
    "Messe@@": 8636,
    "Kampagne": 8637,
    "Aktion@@": 8638,
    "indi@@": 8639,
    "fang": 8640,
    "datei": 8641,
    "Zwischen": 8642,
    "ES": 8643,
    "xi@@": 8644,
    "ma,": 8645,
    "Werkzeug@@": 8646,
    "Tourismus@@": 8647,
    "Listings": 8648,
    "isse": 8649,
    "enter@@": 8650,
    "Finanzierungs@@": 8651,
    "spreche": 8652,
    "grundle@@": 8653,
    "gebieten": 8654,
    "ena": 8655,
    "vorschläge": 8656,
    "sorgen.": 8657,
    "gewesen,": 8658,
    "ckt.": 8659,
    "konzentrier@@": 8660,
    "gkeit": 8661,
    "gemeinschaft": 8662,
    "eingehen.": 8663,
    "beitragen.": 8664,
    "Gesicht@@": 8665,
    "zugrunde": 8666,
    "konkret": 8667,
    "entdeckst,": 8668,
    "auseinander@@": 8669,
    "Geschäft": 8670,
    "Generationen": 8671,
    "Bestimmung": 8672,
    "Album": 8673,
    "zusetzen,": 8674,
    "ls": 8675,
    "Site\"": 8676,
    "Anmeldung": 8677,
    "grammatisch": 8678,
    "endem": 8679,
    "Initi@@": 8680,
    "Binnenmarktes": 8681,
    "ändert": 8682,
    "vorgelegten": 8683,
    "sie@@": 8684,
    "Wasch@@": 8685,
    "ID": 8686,
    "Camping@@": 8687,
    "rich": 8688,
    "cho@@": 8689,
    "kurz@@": 8690,
    "erfüll@@": 8691,
    "Erhol@@": 8692,
    "Ausweitung": 8693,
    "9)": 8694,
    "weltweit@@": 8695,
    "qui@@": 8696,
    "korrekt": 8697,
    "enormen": 8698,
    "abe": 8699,
    "Herbst": 8700,
    "verschieden@@": 8701,
    "mehrfach": 8702,
    "ausser@@": 8703,
    "Unions@@": 8704,
    "Inten@@": 8705,
    "verhindern": 8706,
    "Ratschlag:": 8707,
    "Formul@@": 8708,
    "zusätz@@": 8709,
    "hervorra@@": 8710,
    "Schlusselphrase": 8711,
    "Pic@@": 8712,
    "\"Finde": 8713,
    "schaffen,/i>": 8714,
    "mit…\"...@@": 8715,
    "kontextuell,": 8716,
    "hinzufugen.": 8717,
    "Schlusselwort/der": 8718,
    "-und": 8719,
    "aufgezahlt": 8720,
    "Herausforder@@": 8721,
    "Optim@@": 8722,
    "Kern": 8723,
    "e!": 8724,
    "armen": 8725,
    "allgem@@": 8726,
    "kas@@": 8727,
    "isl@@": 8728,
    "erhältlich.": 8729,
    "Währungsunion": 8730,
    "Werden": 8731,
    "Restaurants,": 8732,
    "nächster": 8733,
    "gen?": 8734,
    "gemeinsames": 8735,
    "EZB": 8736,
    "stabil@@": 8737,
    "en),": 8738,
    "betreu@@": 8739,
    "Get@@": 8740,
    "2010@@": 8741,
    "teil,": 8742,
    "gewon@@": 8743,
    "erscheinen": 8744,
    "berühr@@": 8745,
    "Wähl@@": 8746,
    "Manage@@": 8747,
    "CS@@": 8748,
    "nord@@": 8749,
    "luss": 8750,
    "Paul": 8751,
    "Gerechtigkeit": 8752,
    "nische": 8753,
    "bringung": 8754,
    "Luf@@": 8755,
    "Abendessen": 8756,
    "set@@": 8757,
    "link@@": 8758,
    "europa@@": 8759,
    "Maria": 8760,
    "schicken": 8761,
    "schar@@": 8762,
    "quo@@": 8763,
    "(in": 8764,
    "Newsletter": 8765,
    "Debatten": 8766,
    "minister@@": 8767,
    "gilt,": 8768,
    "ergibt": 8769,
    "desto": 8770,
    "Säu@@": 8771,
    "Revolution": 8772,
    "wahl": 8773,
    "tisch,": 8774,
    "künst@@": 8775,
    "itu@@": 8776,
    "ausges@@": 8777,
    "aria": 8778,
    "sprach": 8779,
    "erschi@@": 8780,
    "erhäl@@": 8781,
    "Pflicht": 8782,
    "Geschwindigkeit": 8783,
    "offenbar": 8784,
    "erhöhen": 8785,
    "til@@": 8786,
    "benachteili@@": 8787,
    "alisiert": 8788,
    "Problem@@": 8789,
    "methoden": 8790,
    "lädt": 8791,
    "Sowohl": 8792,
    "zentren": 8793,
    "südlichen": 8794,
    "nisse.": 8795,
    "beiträ@@": 8796,
    "Klo@@": 8797,
    "herausra@@": 8798,
    "dierte": 8799,
    "Part@@": 8800,
    "befindet.": 8801,
    "am,": 8802,
    "Sz@@": 8803,
    "Strecke": 8804,
    "Kinder,": 8805,
    "zweck@@": 8806,
    "jed@@": 8807,
    "demokra@@": 8808,
    "Verk@@": 8809,
    "elt": 8810,
    "Mutter": 8811,
    "Kriteri@@": 8812,
    "ki@@": 8813,
    "Nehmen": 8814,
    "Geschmack": 8815,
    "Ausbau": 8816,
    "zustimmen,": 8817,
    "tung@@": 8818,
    "ersetzt": 8819,
    "angeneh@@": 8820,
    "Brie@@": 8821,
    "kas": 8822,
    "euro@@": 8823,
    "Grup@@": 8824,
    "ly@@": 8825,
    "fac@@": 8826,
    "östlichen": 8827,
    "ließ": 8828,
    "landwirtschaftlichen": 8829,
    "gebenen": 8830,
    "Auftrags@@": 8831,
    "Präsenz": 8832,
    "mau@@": 8833,
    "gesellschaftlichen": 8834,
    "Maschine": 8835,
    "Gut@@": 8836,
    "erw@@": 8837,
    "ausgaben": 8838,
    "Ungarn": 8839,
    "Test": 8840,
    "ue@@": 8841,
    "tierenden": 8842,
    "fördert": 8843,
    "em,": 8844,
    "dienstleistungen": 8845,
    "Verzeichnis": 8846,
    "Objekte": 8847,
    "Lis@@": 8848,
    "Dialogs": 8849,
    "stab@@": 8850,
    "hart": 8851,
    "Versorgung": 8852,
    "Schulden": 8853,
    "entspricht.": 8854,
    "bot": 8855,
    "Vereinigte": 8856,
    "Umweltschutz@@": 8857,
    "Tat@@": 8858,
    "Lissab@@": 8859,
    "well": 8860,
    "Kategorien": 8861,
    "Amerikaner": 8862,
    "IP-@@": 8863,
    "Gemeinschaf@@": 8864,
    "mittag": 8865,
    "Zeit.": 8866,
    "Wandel": 8867,
    "EU.": 8868,
    "zeigt.": 8869,
    "grad": 8870,
    "dein": 8871,
    "Sich@@": 8872,
    "Ih@@": 8873,
    "syste@@": 8874,
    "natur@@": 8875,
    "Erschein@@": 8876,
    "tagen": 8877,
    "gesp@@": 8878,
    "Außen-": 8879,
    "Ã¼@@": 8880,
    "unmöglich": 8881,
    "urop@@": 8882,
    "under": 8883,
    "komplex@@": 8884,
    "kette": 8885,
    "Anbetracht": 8886,
    "dramati@@": 8887,
    "beweg@@": 8888,
    "Rab@@": 8889,
    "Modernisierung": 8890,
    "fehlt": 8891,
    "ball": 8892,
    "Vertrieb@@": 8893,
    "Flo@@": 8894,
    "ella": 8895,
    "Tau@@": 8896,
    "Parkplätze": 8897,
    "diskutieren": 8898,
    "ages": 8899,
    "sse@@": 8900,
    "iser@@": 8901,
    "individu@@": 8902,
    "erstat@@": 8903,
    "Sachver@@": 8904,
    "kostenlose": 8905,
    "jedenfalls": 8906,
    "hnt": 8907,
    "Versuch@@": 8908,
    "Pack@@": 8909,
    "Investoren": 8910,
    "Pro": 8911,
    "vertrag": 8912,
    "Interpre@@": 8913,
    "Beachtung": 8914,
    "sse,": 8915,
    "iv@@": 8916,
    "artigen": 8917,
    "Identi@@": 8918,
    "umen": 8919,
    "sil@@": 8920,
    "fach": 8921,
    "aul@@": 8922,
    "Amts@@": 8923,
    "x.": 8924,
    "schwerwie@@": 8925,
    "l-@@": 8926,
    "erhalten@@": 8927,
    "Verbrech@@": 8928,
    "Kreditkar@@": 8929,
    "zeichnet.": 8930,
    "Weiterentwicklung": 8931,
    "Völ@@": 8932,
    "einrichtungen": 8933,
    "Fang@@": 8934,
    "sichts@@": 8935,
    "verhandlungen": 8936,
    "gegebenenfalls": 8937,
    "arti@@": 8938,
    "Schlag@@": 8939,
    "Komple@@": 8940,
    "autor@@": 8941,
    "Weg@@": 8942,
    "konfigur@@": 8943,
    "Para@@": 8944,
    "spezif@@": 8945,
    "glie@@": 8946,
    "bett": 8947,
    "Produkte,": 8948,
    "angebot": 8949,
    "lauf": 8950,
    "handl@@": 8951,
    "fäh@@": 8952,
    "esen.": 8953,
    "parlamentarischen": 8954,
    "ik.": 8955,
    "Wand@@": 8956,
    "Übergang": 8957,
    "met": 8958,
    "assi@@": 8959,
    "zunehmen.": 8960,
    "Zug": 8961,
    "Käufer": 8962,
    "General": 8963,
    "erlauben": 8964,
    "um-@@": 8965,
    "häl@@": 8966,
    "hilfe": 8967,
    "cas@@": 8968,
    "ver,": 8969,
    "heil@@": 8970,
    "lus@@": 8971,
    "it,": 8972,
    "ier,": 8973,
    "angeboten.": 8974,
    "NICHT": 8975,
    "professionellen": 8976,
    "günstigen": 8977,
    "andel": 8978,
    "Kooperations@@": 8979,
    "miß@@": 8980,
    "kurs": 8981,
    "bed@@": 8982,
    "TI@@": 8983,
    "Großbritann@@": 8984,
    "aktuell": 8985,
    "räumen": 8986,
    "kreis": 8987,
    "A3@@": 8988,
    "sis": 8989,
    "kurzfris@@": 8990,
    "gewünschte": 8991,
    "ei": 8992,
    "Schönheit": 8993,
    "verfügen,": 8994,
    "soli@@": 8995,
    "fahrens": 8996,
    "Adri@@": 8997,
    "erungen": 8998,
    "Eines": 8999,
    "pe": 9000,
    "gig@@": 9001,
    "betroff@@": 9002,
    "Grü@@": 9003,
    "Festival": 9004,
    "te)": 9005,
    "ruhig": 9006,
    "atemberau@@": 9007,
    "Via": 9008,
    "SCH@@": 9009,
    "Frak@@": 9010,
    "wünschen,": 9011,
    "mann@@": 9012,
    "höchst": 9013,
    ")\"": 9014,
    "pel@@": 9015,
    "interne": 9016,
    "Unternehmen.": 9017,
    "Tie@@": 9018,
    "änder": 9019,
    "viertel": 9020,
    "ater": 9021,
    "Seri@@": 9022,
    "Ordn@@": 9023,
    "konzep@@": 9024,
    "befinden,": 9025,
    "Zweiten": 9026,
    "lon@@": 9027,
    "Kandidaten": 9028,
    "Hotel.": 9029,
    "Agenturen": 9030,
    "4,@@": 9031,
    "ž@@": 9032,
    "übt": 9033,
    "vollständig@@": 9034,
    "kön@@": 9035,
    "genie@@": 9036,
    "Mechanismen": 9037,
    "usw.@@": 9038,
    "gerecht@@": 9039,
    "Garten@@": 9040,
    "Fluss": 9041,
    "Autonom@@": 9042,
    "wuch@@": 9043,
    "gestie@@": 9044,
    "begonnen": 9045,
    "Kopenhagen": 9046,
    "Faktor": 9047,
    "Verkaufs@@": 9048,
    "Konsu@@": 9049,
    "ument@@": 9050,
    "sä@@": 9051,
    "iker": 9052,
    "Mul@@": 9053,
    "Mittel,": 9054,
    "f�r": 9055,
    "behält": 9056,
    "afrikanischen": 9057,
    "Genau": 9058,
    "gangen.": 9059,
    "Mandat": 9060,
    "Autobahn": 9061,
    "beantwor@@": 9062,
    "Tom@@": 9063,
    "Hinweise": 9064,
    "General@@": 9065,
    "ruhig@@": 9066,
    "mien": 9067,
    "Buchstab@@": 9068,
    "250": 9069,
    "cia": 9070,
    "bir@@": 9071,
    "JavaScript": 9072,
    "Insgesamt": 9073,
    "Versammlung": 9074,
    "PL@@": 9075,
    "Contro@@": 9076,
    "zunehmen,": 9077,
    "prozesse": 9078,
    "net.": 9079,
    "aufgefordert,": 9080,
    "Berat@@": 9081,
    "vollem": 9082,
    "negative": 9083,
    "mäßigen": 9084,
    "kollek@@": 9085,
    "höch@@": 9086,
    "bio@@": 9087,
    "Wirtschaftskrise": 9088,
    "Erreichung": 9089,
    "Wiederaufbau": 9090,
    "Autob@@": 9091,
    "®@@": 9092,
    "teln": 9093,
    "größter": 9094,
    "bus@@": 9095,
    "bleib@@": 9096,
    "Minib@@": 9097,
    "Lü@@": 9098,
    "kehr": 9099,
    "it.": 9100,
    "etc@@": 9101,
    "bürokra@@": 9102,
    "artige": 9103,
    "angesehen": 9104,
    "Stellen@@": 9105,
    "energie": 9106,
    "Personen.": 9107,
    "Kompetenz": 9108,
    "22.": 9109,
    "ritt": 9110,
    "bewegen": 9111,
    "Zut@@": 9112,
    "wies@@": 9113,
    "stärksten": 9114,
    "hoffen": 9115,
    "halb@@": 9116,
    "Wet@@": 9117,
    "Regulierung": 9118,
    "Meister@@": 9119,
    "Investi@@": 9120,
    "But@@": 9121,
    "üblichen": 9122,
    "zug@@": 9123,
    "verwendet,": 9124,
    "erstes": 9125,
    "io": 9126,
    "S.@@": 9127,
    "Prior@@": 9128,
    "Opposition": 9129,
    "Entscheid@@": 9130,
    "Bezeichnung": 9131,
    "schwedischen": 9132,
    "angewendet": 9133,
    "akte": 9134,
    "Bevor": 9135,
    "(mit": 9136,
    "schauen": 9137,
    "präz@@": 9138,
    "gerechte": 9139,
    "bestän@@": 9140,
    "ausländischen": 9141,
    "Defiz@@": 9142,
    "elektronische": 9143,
    "jek@@": 9144,
    "Feld@@": 9145,
    "versammlung": 9146,
    "Kapital": 9147,
    "Brun@@": 9148,
    "Änder@@": 9149,
    "starten": 9150,
    "geschlossen,": 9151,
    "Partei@@": 9152,
    "iegel": 9153,
    "freier": 9154,
    "20-@@": 9155,
    "zugs@@": 9156,
    "ad.": 9157,
    "absol@@": 9158,
    "Schulden@@": 9159,
    "Potenzial": 9160,
    "Justiz@@": 9161,
    "Ingenie@@": 9162,
    "Heim@@": 9163,
    "Harmon@@": 9164,
    "EV@@": 9165,
    "gesprochen,": 9166,
    "Erinner@@": 9167,
    "tags": 9168,
    "Entfernung": 9169,
    "2/@@": 9170,
    "(siehe": 9171,
    "ía": 9172,
    "renovier@@": 9173,
    "chter": 9174,
    "aktivieren.": 9175,
    "agen,": 9176,
    "]@@": 9177,
    "rift": 9178,
    "grenzüberschreitenden": 9179,
    "gesprochen.": 9180,
    "plätz@@": 9181,
    "ambi@@": 9182,
    "Europas,": 9183,
    "lichkeits@@": 9184,
    "only": 9185,
    "geordne@@": 9186,
    "fur@@": 9187,
    "Besatz@@": 9188,
    "ausgerich@@": 9189,
    "spiele": 9190,
    "fe.": 9191,
    "Pflanzen@@": 9192,
    "Kunden,": 9193,
    "Aktien@@": 9194,
    "hohes": 9195,
    "innovativen": 9196,
    "geschieht": 9197,
    "gangen,": 9198,
    "brauchen.": 9199,
    "bereich.": 9200,
    "Los": 9201,
    "House": 9202,
    "Arbeitsplatz": 9203,
    "Alban@@": 9204,
    "Parlamente": 9205,
    "Orte": 9206,
    "Effek@@": 9207,
    "EU-Mitgliedstaaten": 9208,
    "sion.": 9209,
    "hochwertigen": 9210,
    "ständen": 9211,
    "außen": 9212,
    "Situation,": 9213,
    "unzäh@@": 9214,
    "set": 9215,
    "maximal": 9216,
    "gelern@@": 9217,
    "Tief@@": 9218,
    "schriftliche": 9219,
    "nisses": 9220,
    "breakfast": 9221,
    "Energiever@@": 9222,
    "Cent@@": 9223,
    "tie@@": 9224,
    "konzentrieren": 9225,
    "Block@@": 9226,
    "Überzeugung": 9227,
    "part@@": 9228,
    "besonderes": 9229,
    "Klassi@@": 9230,
    "Kamp@@": 9231,
    "zeichnet,": 9232,
    "ungst@@": 9233,
    "nat@@": 9234,
    "Nutzungs@@": 9235,
    "Extra@@": 9236,
    "maschine": 9237,
    "Vermögens@@": 9238,
    "Straßburg": 9239,
    "Pet@@": 9240,
    "Fläche": 9241,
    "Cock@@": 9242,
    "ökologischen": 9243,
    "kris@@": 9244,
    "Grundlagen": 9245,
    "Diesen": 9246,
    "sich.": 9247,
    "heimischen": 9248,
    "fort.": 9249,
    "Tonnen": 9250,
    "uns.": 9251,
    "fällig": 9252,
    "Haft@@": 9253,
    "Sau@@": 9254,
    "Oberfläche": 9255,
    "Mad@@": 9256,
    "23.": 9257,
    "(Die": 9258,
    "arabischen": 9259,
    "Volkes": 9260,
    "Ratspräsident@@": 9261,
    "Ordner": 9262,
    "Besitz": 9263,
    "och": 9264,
    "Desig@@": 9265,
    "bestra@@": 9266,
    "Versicherungs@@": 9267,
    "Reservier@@": 9268,
    "mediterran@@": 9269,
    "Ergebnissen": 9270,
    "…@@": 9271,
    "öffentlicher": 9272,
    "tet:": 9273,
    "1000": 9274,
    "ther": 9275,
    "persön@@": 9276,
    "geleitet": 9277,
    "erwarten,": 9278,
    "Vene@@": 9279,
    "Kennt@@": 9280,
    "Martin": 9281,
    "ähnlichen": 9282,
    "UM@@": 9283,
    "Bom@@": 9284,
    "Widerstand": 9285,
    "Gü@@": 9286,
    "Felder": 9287,
    "Emp@@": 9288,
    "(L@@": 9289,
    "lichkeit.": 9290,
    "habt": 9291,
    "Teams": 9292,
    "Rand@@": 9293,
    "Kontinent": 9294,
    "verlag@@": 9295,
    "lüssel@@": 9296,
    "Frauen@@": 9297,
    "(IT)": 9298,
    "Medikam@@": 9299,
    "Hinder@@": 9300,
    "vertreten.": 9301,
    "unabhäng@@": 9302,
    "misch@@": 9303,
    "Install@@": 9304,
    "volles": 9305,
    "scht": 9306,
    "gelegt,": 9307,
    "Marken": 9308,
    "AK@@": 9309,
    "bas@@": 9310,
    "Gold": 9311,
    "ł@@": 9312,
    "essi@@": 9313,
    "Programmier@@": 9314,
    "38@@": 9315,
    "S,": 9316,
    "34": 9317,
    "wenden,": 9318,
    "verges@@": 9319,
    "unterschiedlicher": 9320,
    "ichten.": 9321,
    "geliefer@@": 9322,
    "zir@@": 9323,
    "erinner@@": 9324,
    "erstellt.": 9325,
    "erfahren,": 9326,
    "enten@@": 9327,
    "Mechanismus": 9328,
    "Vel@@": 9329,
    "zweiter": 9330,
    "zuständig": 9331,
    "n?": 9332,
    "din": 9333,
    "Zucker@@": 9334,
    "Ablauf": 9335,
    "wachsen": 9336,
    "vieren": 9337,
    "vent@@": 9338,
    "Zone": 9339,
    "Brasilien": 9340,
    "Suiten": 9341,
    "Micro@@": 9342,
    "Herkunfts@@": 9343,
    "natür@@": 9344,
    "kontinuier@@": 9345,
    "Inv@@": 9346,
    "hingewiesen": 9347,
    "ziellen": 9348,
    "os,": 9349,
    "notwendig.": 9350,
    "gewährleis@@": 9351,
    "fünf@@": 9352,
    "Normal@@": 9353,
    "solch": 9354,
    "reduziert": 9355,
    "offiziell": 9356,
    "burg,": 9357,
    "auffordern,": 9358,
    "nd": 9359,
    "kostenlosen": 9360,
    "jüng@@": 9361,
    "Western": 9362,
    "Schnitt@@": 9363,
    "Können": 9364,
    "dos": 9365,
    "anta@@": 9366,
    "Versand@@": 9367,
    "Ansprüche": 9368,
    "zeichnungen": 9369,
    "meister": 9370,
    "jährlichen": 9371,
    "gebrachten": 9372,
    "entr@@": 9373,
    "ane": 9374,
    "China,": 9375,
    "Charak@@": 9376,
    "liziert": 9377,
    "geringen": 9378,
    "ED@@": 9379,
    "umfangreich@@": 9380,
    "kontaktieren": 9381,
    "Glauben": 9382,
    "tigsten": 9383,
    "keineswegs": 9384,
    "geäußer@@": 9385,
    "region": 9386,
    "gelang@@": 9387,
    "anzupass@@": 9388,
    "Update": 9389,
    "Therap@@": 9390,
    "Tar@@": 9391,
    "Immer": 9392,
    "Erkrank@@": 9393,
    "Dingen": 9394,
    "ration@@": 9395,
    "festgestellt,": 9396,
    "entsprechen": 9397,
    "System,": 9398,
    "G-@@": 9399,
    "virtu@@": 9400,
    "Volk@@": 9401,
    "Papier": 9402,
    "Belarus": 9403,
    "Auflösung": 9404,
    "hervorheben,": 9405,
    "Steigerung": 9406,
    "schlü@@": 9407,
    "grundsätz@@": 9408,
    "prim@@": 9409,
    "getragen": 9410,
    "beteiligten": 9411,
    "Spitze": 9412,
    "geschloss@@": 9413,
    "fließ@@": 9414,
    "erkennen.": 9415,
    "auber@@": 9416,
    "Ratifizierung": 9417,
    "Abend@@": 9418,
    "wirken,": 9419,
    "ta,": 9420,
    "Rechnungs@@": 9421,
    "Berichterstatter@@": 9422,
    "Auß@@": 9423,
    "pflanz@@": 9424,
    "führten": 9425,
    "Pake@@": 9426,
    "New@@": 9427,
    "Branche": 9428,
    "ling": 9429,
    "korrek@@": 9430,
    "ers,": 9431,
    "ann": 9432,
    "Eisen@@": 9433,
    "Dau@@": 9434,
    "lebt": 9435,
    "falsche": 9436,
    "beeinflus@@": 9437,
    "Augenblick": 9438,
    "ze.": 9439,
    "legt,": 9440,
    "Verantwor@@": 9441,
    "ungen:": 9442,
    "schützen,": 9443,
    "entsteht": 9444,
    "Existenz": 9445,
    "36": 9446,
    "Öl": 9447,
    ":30": 9448,
    "s!": 9449,
    "Beam@@": 9450,
    ".de": 9451,
    "bemüh@@": 9452,
    "Projekts": 9453,
    "onn@@": 9454,
    "ligkeit": 9455,
    "geänder@@": 9456,
    "Gesundheit@@": 9457,
    "umzusetzen.": 9458,
    "ermöglicht.": 9459,
    "einricht@@": 9460,
    "angegeben": 9461,
    "Nachhaltigkeit": 9462,
    "Lohn@@": 9463,
    "Hindernisse": 9464,
    "55": 9465,
    "traum@@": 9466,
    "meine,": 9467,
    "fertig@@": 9468,
    "Stoff@@": 9469,
    "Katalog": 9470,
    "http://www.@@": 9471,
    "ero@@": 9472,
    "(wie": 9473,
    "richt": 9474,
    "lis@@": 9475,
    "ität@@": 9476,
    "geführten": 9477,
    "allem,": 9478,
    "Tsch@@": 9479,
    "Fotogra@@": 9480,
    "din@@": 9481,
    "Kriminalität": 9482,
    "sierte": 9483,
    "ruhige": 9484,
    "betrachten": 9485,
    "Indik@@": 9486,
    "zell@@": 9487,
    "spanische": 9488,
    "situ@@": 9489,
    ");": 9490,
    "tan": 9491,
    "air@@": 9492,
    "kleinere": 9493,
    "fün@@": 9494,
    "Vit@@": 9495,
    "Todesstrafe": 9496,
    "Durchsetzung": 9497,
    "ter-@@": 9498,
    "sei.": 9499,
    "faßt": 9500,
    "beauftrag@@": 9501,
    "Vill@@": 9502,
    "Freund": 9503,
    "satz.": 9504,
    "integrierte": 9505,
    "Regen@@": 9506,
    "Bereitschaft": 9507,
    "Zusammenhalt": 9508,
    "Schwimmb@@": 9509,
    "Heiz@@": 9510,
    "Diagno@@": 9511,
    "Balkon": 9512,
    "(D@@": 9513,
    "wachsende": 9514,
    "geprä@@": 9515,
    "unterschiedlich": 9516,
    "erheblichen": 9517,
    "achten,": 9518,
    "Premierminister": 9519,
    "Post": 9520,
    "Nachfol@@": 9521,
    "kapit@@": 9522,
    "1992": 9523,
    "geehrte": 9524,
    "erinnert": 9525,
    "U-@@": 9526,
    "Alb@@": 9527,
    "zogen.": 9528,
    "gelangen.": 9529,
    "Konflik@@": 9530,
    "iedel@@": 9531,
    "begrenzt": 9532,
    "messen": 9533,
    "gelegene": 9534,
    "Inn@@": 9535,
    "gezwungen": 9536,
    "Kohäsionspolitik": 9537,
    "wiederher@@": 9538,
    "Orien@@": 9539,
    "Blog": 9540,
    "ding": 9541,
    "dass,": 9542,
    "ausgerichtet": 9543,
    "Magaz@@": 9544,
    "sprü@@": 9545,
    "porte": 9546,
    "chemische": 9547,
    "ergreifen": 9548,
    "Südo@@": 9549,
    "LO@@": 9550,
    "Gott@@": 9551,
    "more": 9552,
    "agen@@": 9553,
    "nicht-@@": 9554,
    "lien": 9555,
    "geworden,": 9556,
    "gehören.": 9557,
    "banken": 9558,
    "Spaziergang": 9559,
    "Reit@@": 9560,
    "BR@@": 9561,
    "zen,": 9562,
    "nehme": 9563,
    "lung": 9564,
    "innere": 9565,
    "Angelegen@@": 9566,
    "Weiterhin": 9567,
    "Stock@@": 9568,
    "Dokumenten": 9569,
    "theore@@": 9570,
    "beraten": 9571,
    "altung": 9572,
    "Vorstellungen": 9573,
    "Innovationen": 9574,
    "angepasst": 9575,
    "Vorsitzenden": 9576,
    "Uns": 9577,
    "Kultur,": 9578,
    "software": 9579,
    "Kompromiss@@": 9580,
    "Debat@@": 9581,
    "parte@@": 9582,
    "derart": 9583,
    "WTO-@@": 9584,
    "Sum@@": 9585,
    "31": 9586,
    "stanz": 9587,
    "parti@@": 9588,
    "cre@@": 9589,
    "Presse": 9590,
    "stätigkeit": 9591,
    "wiesen.": 9592,
    "seiti@@": 9593,
    "erne": 9594,
    "kompet@@": 9595,
    "kohär@@": 9596,
    "bein@@": 9597,
    "verdient": 9598,
    "läßt": 9599,
    "hafter": 9600,
    "erzielen": 9601,
    "elle,": 9602,
    "UNO": 9603,
    "Plaza": 9604,
    "Pakistan": 9605,
    "',": 9606,
    "verurteilt": 9607,
    "bun@@": 9608,
    "Einwander@@": 9609,
    "itäten.": 9610,
    "va@@": 9611,
    "getrenn@@": 9612,
    "Dokumentation": 9613,
    "Г¤@@": 9614,
    "liger": 9615,
    "eingesetzt.": 9616,
    "Lager@@": 9617,
    "E-Mail@@": 9618,
    "pac@@": 9619,
    "integriert": 9620,
    "geni@@": 9621,
    "gemütliche": 9622,
    "Bauern@@": 9623,
    "modern@@": 9624,
    "haupt@@": 9625,
    "anmel@@": 9626,
    "restaurant": 9627,
    "Rechner": 9628,
    "Flugzeug@@": 9629,
    "(Das": 9630,
    "zeug": 9631,
    "Prozent@@": 9632,
    "95": 9633,
    "niedrigen": 9634,
    "Rechtsstaatlichkeit": 9635,
    "Hat": 9636,
    "umfangreichen": 9637,
    "generell": 9638,
    "elegante": 9639,
    "däm@@": 9640,
    "sogenannte": 9641,
    "lage.": 9642,
    "erstre@@": 9643,
    "Fernse@@": 9644,
    "umgehend": 9645,
    "rist@@": 9646,
    "Kommiss@@": 9647,
    "Merk@@": 9648,
    "Beschaff@@": 9649,
    "than": 9650,
    "mün@@": 9651,
    "gelungen,": 9652,
    "ek": 9653,
    "Zimmerbeschreibung:": 9654,
    "Sieg": 9655,
    "Anforder@@": 9656,
    "Fertig@@": 9657,
    "Entwickler": 9658,
    "ester@@": 9659,
    "gül@@": 9660,
    "eingehen,": 9661,
    "Minute": 9662,
    "Hä@@": 9663,
    "tät": 9664,
    "ergeben": 9665,
    "berücksichtigen,": 9666,
    "Wall@@": 9667,
    "Volkswirtschaften": 9668,
    "Versuch,": 9669,
    "700": 9670,
    "motivi@@": 9671,
    "ger.": 9672,
    "diert": 9673,
    "Baum@@": 9674,
    "lösungen": 9675,
    "deutliche": 9676,
    "dert": 9677,
    "aj@@": 9678,
    "Argumente": 9679,
    "ys@@": 9680,
    "ventionen": 9681,
    "urs": 9682,
    "schreit@@": 9683,
    "ira": 9684,
    "gehören,": 9685,
    "annehm@@": 9686,
    "angemess@@": 9687,
    "sonn@@": 9688,
    "ellen@@": 9689,
    "Entspannung": 9690,
    "Denken": 9691,
    "David": 9692,
    "sport": 9693,
    "richtungen": 9694,
    "dende": 9695,
    "ausgegeben": 9696,
    "Zinss@@": 9697,
    "Revision": 9698,
    "Region,": 9699,
    "Cur@@": 9700,
    "luxuri@@": 9701,
    "ige,": 9702,
    "beschä@@": 9703,
    "Unterkünfte": 9704,
    "Jahr,": 9705,
    "Гј@@": 9706,
    "langem": 9707,
    "gungs@@": 9708,
    "amt": 9709,
    "Demonstra@@": 9710,
    "Audio@@": 9711,
    "vierung": 9712,
    "komplexen": 9713,
    "Wahrung": 9714,
    "Betreuung": 9715,
    "Alters@@": 9716,
    "33": 9717,
    "schö@@": 9718,
    "Oli@@": 9719,
    "Edel@@": 9720,
    "entsprechen.": 9721,
    "Palette": 9722,
    "Media": 9723,
    "verkauft": 9724,
    "regierung": 9725,
    "medizinische": 9726,
    "Vorgän@@": 9727,
    "Stamm@@": 9728,
    "Robert": 9729,
    "genauer": 9730,
    "gebro@@": 9731,
    "entspannen": 9732,
    "dürfen,": 9733,
    "Repräsent@@": 9734,
    "Platt@@": 9735,
    "Künstler@@": 9736,
    "tw@@": 9737,
    "perfek@@": 9738,
    "hier,": 9739,
    "Gemeinschaften": 9740,
    "Aktionsp@@": 9741,
    "vorüber@@": 9742,
    "Modus": 9743,
    "wahrschein@@": 9744,
    "Speisen": 9745,
    "Skri@@": 9746,
    "sy@@": 9747,
    "kontak@@": 9748,
    "Poker": 9749,
    "symbol@@": 9750,
    "speichern": 9751,
    "selbst.": 9752,
    "konnte,": 9753,
    "kandi@@": 9754,
    "fisch@@": 9755,
    "chter@@": 9756,
    "grafische": 9757,
    "genomm@@": 9758,
    "Wochen@@": 9759,
    "Satz": 9760,
    "nötigen": 9761,
    "maxim@@": 9762,
    "ist?": 9763,
    "fro@@": 9764,
    "automatische": 9765,
    "Wähler": 9766,
    "Architektur@@": 9767,
    "yer": 9768,
    "sichtbar": 9769,
    "Aufhebung": 9770,
    "sichern.": 9771,
    "endgültige": 9772,
    "Gebir@@": 9773,
    "zurückkehr@@": 9774,
    "zimmer@@": 9775,
    "ten!": 9776,
    "run@@": 9777,
    "ies": 9778,
    "Hör@@": 9779,
    "65": 9780,
    "tatsächlichen": 9781,
    "sprechend": 9782,
    "Grünen": 9783,
    "wachs@@": 9784,
    "Fäl@@": 9785,
    "29.": 9786,
    "..@@": 9787,
    "sou@@": 9788,
    "erforderliche": 9789,
    "dateien": 9790,
    "Suite": 9791,
    "Impf@@": 9792,
    "kultur@@": 9793,
    "Stiftung": 9794,
    "Pop@@": 9795,
    "Menschen.": 9796,
    "weich@@": 9797,
    "Stau@@": 9798,
    "Freitag": 9799,
    "inneren": 9800,
    "WLAN": 9801,
    "erlan@@": 9802,
    "droh@@": 9803,
    "Referenz@@": 9804,
    "Distri@@": 9805,
    "üben": 9806,
    "zahlungen": 9807,
    "wäch@@": 9808,
    "jüngste": 9809,
    "derer": 9810,
    "Verfahrens@@": 9811,
    "schmerz@@": 9812,
    "informieren.": 9813,
    "etwas,": 9814,
    "dacht": 9815,
    "bon@@": 9816,
    "Zerti@@": 9817,
[...]
