,
.
the
in
of
and
die
der
to
und
a
is
that
zu
for
den
von
ist
on
für
an
(
)
mit
with
das
The
be
auf
are
des
&quot;
as
-
I
eine
this
:
Sie
im
es
it
nicht
werden
ein
we
by
have
dem
dass
not
Die
sich
you
wir
will
auch
which
or
from
at
was
sind
/
wird
has
als
um
In
s
can
oder
ich
all
our
also
über
haben
-@@
European
so
einer
hat
!
?
&apos;
sie
wie
er
einen
zur
aus
Das
bei
your
Union
&apos;s
its
können
Ich
–
We
am
but
one
would
more
einem
’
their
nach
been
This
zum
It
Wir
diese
nur
uns
;
durch
kann
should
Der
Mr
de
un@@
dieser
...
er@@
very
do
Commission
must
Es
us
vor
they
daß
Kommission
ver@@
there
noch
new
“
wurde
other
only
time
like
EU
S@@
aber
about
&gt;
Hotel
man
wenn
Herr
an@@
re@@
sein
sehr
müssen
%
President
te
in@@
o
t
ten
B@@
these
i
k@@
en
en@@
&lt;
up
who
no
war
s@@
A
e
diesem
if
alle
P@@
1
out
2
mehr
T@@
any
t@@
ge@@
Europäischen
K@@
Europe
into
\
were
G@@
people
bis
C@@
D@@
Parliament
d@@
H@@
möchte
A@@
eines
such
ab@@
use
what
States
than
M@@
report
countries
my
Member
vom
F@@
when
need
ihre
his
some
most
Präsident
gibt
well
be@@
b@@
E@@
p@@
L@@
first
unter
now
hotel
work
f@@
dieses
sowie
ing
make
them
Council
many
e@@
n@@
y
important
g@@
N@@
between
z@@
system
hier
o@@
way
m
3
c@@
m@@
W@@
zwischen
take
because
An@@
R@@
muss
al@@
able
„
he
Ver@@
keine
Bericht
unsere
da
information
made
Ihnen
&#91;
Parlament
st@@
&#93;
If
ein@@
years
u@@
just
support
had
anderen
ch@@
&amp;
two
y@@
V@@
over
Wenn
where
world
sch@@
those
Mitgliedstaaten
O@@
d
Europa
ed
li@@
immer
dann
de@@
dies
”
me
i@@
aus@@
policy
being
Im
v@@
end
ung
ers
a@@
ter
di@@
diesen
may
even
gegen
damit
wurden
l@@
4
5
Diese
Ab@@
good
see
right
order
year
area
Frau
Zeit
ar@@
h@@
al
ent@@
You
Ihre
ation
el@@
unserer
here
ti@@
I@@
habe
gen
place
part
=
same
ts
le
seine
jedoch
market
l
through
after
sondern
.@@
si@@
10
neue
Europäische
possible
As
own
or@@
political
j@@
want
There
Menschen
J@@
used
heute
could
then
zu@@
ge
Sch@@
on@@
_
k
For
Jahr
ro@@
auf@@
ri@@
economic
development
within
bereits
Z@@
es@@
r@@
ate
rights
how
finden
both
Re@@
find
against
Ein@@
mich
neuen
sollte
europäischen
much
therefore
international
n
Jahren
le@@
ihrer
ohne
does
under
andere
point
denen
country
vor@@
number
room
public
ungen
zwei
el
without
Rat
w@@
Aus@@
sollten
Entwicklung
ra@@
at@@
free
service
um@@
last
Frage
services
available
great
allen
machen
ungs@@
ganz
bietet
still
geht
Mit
view
g
different
liegt
set
fact
say
u
Ein
se
social
viele
6
la
sten
p
b
already
U@@
course
Welt
In@@
Unternehmen
get
em@@
before
th@@
dazu
too
future
believe
That
über@@
know
am@@
data
c
today
weil
wieder
jetzt
et
products
tes
30
per
20
cannot
Informationen
case
denn
But
seiner
Bereich
Er@@
day
2009
dis@@
think
Lage
city
process
darauf
level
offers
her
einige
go
schon
Maßnahmen
st
dafür
sp@@
selbst
3@@
geben
ern
ated
So
e-@@
ens
ar
human
rooms
et@@
Commissioner
quality
during
Be@@
situation
x
Al@@
financial
ihren
Jahre
ihr
best
Eine
example
national
bar
Herrn
high
bin
Dies
Vor@@
ert
ob
sagen
issue
Arbeit
mir
viel
said
debate
ische
means
every
7
allem
small
All
lo@@
is@@
question
including
würde
Our
help
gut
meine
ab
ins
proposal
However
wollen
since
Land
business
each
unseren
form
ale
Für
ste
access
St@@
stehen
z
enden
op@@
8
eren
kommen
long
offer
ch
problem
Un@@
stellen
position
ad@@
Und
China
während
clear
Zimmer
etwas
wo
it@@
h
particular
lassen
ischen
Länder
Wie
next
möglich
nun
2@@
ter@@
waren
areas
doch
give
15
few
im@@
x@@
liche
put
measures
common
based
provide
agreement
On
se@@
co@@
Committee
4@@
seit
energy
taken
2010
large
citizens
ting
C
la@@
insbesondere
S
ur@@
back
�
ensure
sehen
again
con@@
bi@@
systems
steht
ger
name
erhalten
as@@
Unterstützung
&#124;
r
change
ersten
Rahmen
To
te@@
three
Art
Internet
os
come
sk@@
security
beim
further
problems
value
company
ber@@
using
Ländern
50
far
while
ende
unter@@
X@@
f
Y@@
lich
Zusammenarbeit
Teil
2008
soll
politischen
Parlaments
given
necessary
du
ma@@
why
located
however
shall
besteht
stay
gen@@
qu@@
Fall
With
ent
vote
life
group
Vorschlag
ating
ag@@
Bei
ac@@
They
down
einfach
Group
der@@
tun
cooperation
T
Namen
needs
always
page
At
real
ger@@
Stadt
vi@@
ly
lichen
And
action
ap@@
deren
seinen
ke
law
ja
Problem
Fragen
wichtig
drei
sh@@
einmal
letzten
main
hope
ck@@
us@@
Ziel
12
ler
wäre
less
ted
United
USA
dabei
ak@@
Daten
ant
km
current
better
-S@@
5@@
Bürger
Con@@
System
What
around
men
EU-@@
House
ten@@
Kollegen
Mar@@
Seite
große
chen
working
om@@
power
worden
land
Auf
großen
did
protection
bringen
zi@@
Was
18@@
Verfügung
que
E
Ihr
po@@
Recht
weiter
open
production
text
programme
Er
9
*
welche
special
When
full
These
Community
Bedeutung
become
ations
ei@@
au@@
legal
B
Sicherheit
Aber
US
Auch
whether
centre
another
Ar@@
terms
present
ol@@
together
Möglichkeit
ul@@
Nach
line
particularly
old
trade
D
wissen
gehen
to@@
mo@@
management
result
100
eigenen
ine
ne
children
bieten
Als
+
é@@
ates
basis
em
Regierung
site
Mrs
6@@
muß
O
region
gi@@
ser@@
conditions
2007
sen
ä@@
Thema
issues
kein
les
davon
aller
könnte
alles
state
control
Probleme
daher
stellt
companies
ere
ne@@
weitere
darüber
führen
experience
erte
befindet
certain
ings
close
Kunden
Staaten
Weise
pro@@
second
Ihrer
sowohl
water
Kommissar
t-@@
look
age
2000
Politik
women
role
location
various
ous
erreichen
whole
Ende
Mo@@
especially
industry
German
ed@@
modern
really
00
sector
Euro
Ro@@
besonders
list
create
hatte
Ma@@
account
Service
done
sen@@
matter
meiner
making
Beispiel
local
ci@@
25
government
wirklich
19@@
Di@@
Zukunft
health
private
inter@@
emph
pre@@
entfernt
unterstützen
unser
innerhalb
her@@
software
che
ihnen
specific
budget
verschiedenen
ges
natürlich
schen
global
ta@@
vielen
staff
möchten
Germany
ze
respect
days
gegenüber
Co@@
mi@@
tra@@
7@@
research
going
erten
ex@@
ans
start
Rolle
major
Richtlinie
hand
Weg
bo@@
ic
million
internationalen
Bo@@
den@@
Pro@@
2006
kommt
Ihren
tions
est
di
project
fully
several
zwar
range
something
ie
res
9@@
away
continue
direkt
itself
New
Frauen
8@@
politische
Seiten
dort
est@@
Tag
resolution
re
Alle
rapporteur
hi@@
Auf@@
000
Um
Hier
erste
ask
field
crisis
europäische
so@@
ve
Hotels
ing@@
often
ot@@
excellent
following
no@@
link
EUR
regard
Sp@@
isch
wish
11
En@@
gentlemen
single
least
red
off
general
per@@
found
transport
He
ir@@
Programm
stand
a-@@
No
rules
ni@@
price
personal
third
welcome
food
money
side
ene
growth
directive
once
gu@@
da@@
little
Artikel
environment
Ge@@
par@@
online
Über@@
Meinung
ut@@
F
Uhr
subject
nehmen
ha@@
World
ko@@
until
beiden
towards
pro
P
version
product
Lösung
ahelp
things
erung
Situation
institutions
customers
arbeiten
unserem
gesagt
fast
ors
Dieses
Zu@@
wei@@
Madam
Region
y-@@
M
Fraktion
individual
Hilfe
increase
Zusammenhang
him
Th@@
design
weniger
town
X
thank
fi@@
family
Software
su@@
standards
Par@@
opportunity
fen
wi@@
let
&apos;t
ob@@
Unter@@
40
Um@@
elle
los
Produkte
ts@@
®
Treaty
del
positive
ken
L
halten
Arbeits@@
home
rate
ec@@
building
rather
quite
key
activities
call
ds
interest
Präsidentin
nen
len
jeder
Mittel
macht
man@@
approach
2005
art
tri@@
bitte
provided
light
Leben
gilt
ber
An
resources
aid
ator
Deshalb
bzw.
daran
0@@
ö@@
Haus
forward
G
ding
w
yet
tion
via
technology
period
sti@@
politik
ali@@
end@@
eb@@
Mon@@
Ex@@
Ad@@
ü@@
etwa
zen
economy
schaffen
sogar
gra@@
solution
Grund
include
tive
ung@@
Members
members
ens@@
agree
me@@
International
might
September
dessen
alen
Millionen
Ch@@
ce
ou@@
indem
having
ek@@
points
hinaus
gemacht
taking
times
After
R
decision
State
ra
Europas
minutes
content
among
Schutz
th
ses
un
One
ladies
costs
play
due
il@@
Dieser
allow
24
proposals
ru@@
ster
nämlich
fer@@
left
words
ma
amendments
14
Unsere
18
Kon@@
2004
show
framework
Deutschland
Kinder
ebenfalls
safety
v
Li@@
nach@@
and@@
ihn
ons
TV
reason
einigen
website
called
progress
makes
unterstützt
enjoy
led
kon@@
sche
adopted
seinem
Form
sicher
mit@@
tu@@
id
ur
application
&apos;@@
brauchen
gel@@
gute
for@@
16
provides
bu@@
air
ty
darf
effective
ihm
difficult
Punkt
station
others
ally
.com
Website
d-@@
results
known
sa@@
projects
Rates
$
easy
Personen
above
views
contact
legislation
Aussprache
mon@@
ellen
Qualität
darin
opinion
hin@@
favour
Haupt@@
Po@@
car@@
groups
responsibility
öffentlichen
type
1@@
EN
Berlin
é
user
attention
non-@@
Finanz@@
policies
all@@
simply
gerade
addition
dürfen
Restaurant
beautiful
ep@@
mer@@
file
setzen
Bar@@
short
Inter@@
concerned
du@@
do@@
questions
á@@
meisten
Da
ati@@
pi@@
je
glaube
behalf
sollen
2003
nationalen
ideal
alten
De@@
genau
ho@@
jeden
ach@@
ary
Wirtschaft
gh@@
nichts
keinen
zurück@@
Le@@
ischer
Abstimmung
complete
importance
under@@
house
war@@
ihrem
ben
min@@
society
Lo@@
recht
Ebene
she
strategy
gt
Rechte
Gemeinschaft
handelt
greater
Grund@@
cultural
eg@@
bereich
av@@
V
Her@@
weiterhin
zusammen
pages
training
bel@@
13
sea
ka
sure
environmental
kind
Gu@@
betrifft
cht
over@@
required
men@@
Ort
ise
0
statt
sei
address
along
natural
step
ago
weit
bedeutet
eln
ches
ca
La
principle
findet
Bezug
heart
ability
durch@@
eh@@
sub@@
wichtige
recent
ß@@
licher
tion@@
Rechts@@
ange@@
nutzen
€
ft
K
würden
besten
breakfast
solche
ment
ff@@
führt
meeting
schnell
besser
deshalb
deal
Gesellschaft
wide
2001
century
Zugang
fall
Von
ging
Or@@
deutlich
clearly
bar@@
authorities
Ansicht
nächsten
ker
November
Windows
klar
aufgrund
ia
technical
ig@@
Dank
gehört
image
lot
Kosten
directly
standard
erst
Richtung
achieve
Please
solutions
IT
ah@@
sion
enough
liches
needed
plan
ad
Russia
hin
ell@@
bekannt
wer@@
Neu@@
past
Tra@@
employment
pool
facilities
language
essential
months
go@@
Ent@@
thing
60
serious
ver
history
currently
space
car
person
ms
nature
Markt
feel
Aus
bring
developed
ters
related
allerdings
Lu@@
20@@
Version
Nähe
From
guests
events
lan@@
risk
tige
Rück@@
responsible
longer
lange
restaurant
Umsetzung
proposed
top
live
ren@@
April
pl@@
markets
verwendet
visit
Menschenrechte
central
ran@@
requirements
ner
Gra@@
night
changes
interests
internal
hei@@
beispielsweise
ell
comes
ausge@@
bleiben
parties
near
eller
ance
besch@@
comfortable
Bau@@
Ziele
ER
Car@@
please
ina
voll
Verfahren
hoffe
Vertrag
Anwendung
Bedingungen
gestellt
2002
Am
themselves
Verantwortung
network
werde
regions
young
tern
involved
total
17@@
Durch
efforts
‘
Ihrem
ta
Pi@@
extremely
Se@@
ziehen
voted
democracy
strong
Ri@@
ck
big
GmbH
competition
notwendig
IN@@
team
mu@@
N
regulation
son
never
Dis@@
ic@@
implementation
keep
friendly
cases
Interesse
vielleicht
Vorschläge
Man
gemeinsamen
kleinen
Reihe
Bi@@
Demokratie
Grundlage
force
Geschichte
Haushalts@@
event
pa@@
ph@@
enen
four
ari@@
Daher
freedom
erreicht
1.@@
Möglichkeiten
Herren
Gebiet
upon
zeigt
ets
peace
Man@@
table
works
though
etc
situated
up@@
Doch
tre@@
alt
wirtschaftlichen
gegeben
tischen
är@@
..
created
lu@@
sprechen
democratic
date
act
sozialen
tigen
either
Tri@@
regional
France
care
s-@@
prices
könnten
AG
Sicherheits@@
material
negotiations
17
10@@
80
true
rates
oft
links
mar@@
sc@@
unique
Debatte
Institutionen
wenig
held
developing
consider
music
education
com@@
vo@@
ling
looking
pay
500
share
lei@@
dar
everything
Liste
seen
tung
try
request
almost
lin@@
spielen
verschiedene
vier
Qu@@
mal
res@@
states
bed
ves
additional
thus
Cor@@
beach
mer
early
Strategie
funds
improve
effect
success
parts
verfügt
reform
designed
liegen
AN@@
Bank
www.@@
card
16@@
ded
meet
according
aten
road
fundamental
200
term
climate
Ber@@
leben
cost
Text
American
ermöglicht
hard
Minuten
foreign
item
bei@@
test
Y
ure
Auswirkungen
famous
dern
pe@@
Su@@
gung
soon
Damen
send
program
unternehmen
included
weltweit
gemeinsame
actually
Dienstleistungen
later
Zu
Wirtschafts@@
helfen
ges@@
Berichterstatter
ties
French
à
idea
Abkommen
hatten
receive
tic
Park
bus
danken
tragen
gs
Israel
erforderlich
Presidency
understand
tax
ing-@@
living
game
turn
lead
center
accept
low
1999
fe
direct
takes
Programme
capital
Gruppe
he@@
Paris
wegen
outside
Wasser@@
Hinblick
users
Verhandlungen
appropriate
Mitglieder
ways
gesamten
How
mentioned
features
ev@@
workers
ven@@
Geschäfts@@
book
fragen
bereit
Regionen
amount
investment
Tatsache
San
einzelnen
»
run
mis@@
kl@@
ER@@
form@@
initiative
ebenso
legen
-B@@
cher
wa@@
active
chten
Nach@@
Außerdem
entwickelt
wor@@
Zentrum
Ergebnis
Bu@@
reach
Schritt
procedure
ori@@
ass@@
connection
week
rec@@
Com@@
ieren
weiteren
hours
lässt
gleichen
Ta@@
doing
denke
ative
internationale
ever
ern@@
Mit@@
geb@@
AT@@
majority
darum
konnte
gab
gebracht
í@@
ster@@
took
By
Kolleginnen
cu@@
Ko@@
ard
Q@@
board
communication
existing
throughout
Entscheidung
jedem
context
15@@
across
Bereichen
hätte
guarantee
add
IT@@
significant
…
certainly
writing
out@@
traditional
AR@@
Antwort
cor@@
tor
au
media
final
ST@@
function
Platz
ity
Rei@@
2.@@
ys
aware
Vereinigten
Änderungsanträge
19
befinden
Verbindung
tet
sch
perfect
Bar
gesch@@
basic
original
Blick
So@@
Beziehungen
files
Änderungsantrag
relations
Erfolg
cks
Ausdruck
America
Turkey
fahren
Krise
style
performance
bleibt
Bevölkerung
apply
gleichzeitig
ann@@
concerns
leading
br@@
ales
geführt
member
z.B.
ments
sed
gemeinsam
My
wichtigen
customer
weiß
Preis
zeigen
jede
und@@
Vi@@
knowledge
population
body
tische
Zum
values
walk
zeit
Seit
impact
moment
21
military
programmes
five
No@@
built
bekommen
kleine
heißt
code
ationen
bare
wohl
read
Geld
Aufgabe
tan@@
ders
although
professional
Ru@@
Unser
EN@@
Abgeordneten
els
AS@@
Information
completely
Du@@
eu@@
nothing
verbunden
established
va
Japan
stage
allows
ok@@
Türkei
W
includes
IS@@
reasons
Minister
committee
ana
enthalten
fin@@
gel
press
community
Mor@@
Government
Kar@@
Projekt
neu
Mal
Einsatz
equipped
decisions
cht@@
mm
ender
remain
fo@@
70
baren
Since
IC@@
model
concerning
agreements
English
meinen
Kontrolle
Per@@
Do@@
Bitte
web
fest
AL@@
culture
ben@@
Förderung
{
Wei@@
jobs
unseres
einge@@
London
ry
II
choice
practice
tieren
gestimmt
zurück
berg
22
fer
12@@
ents
sense
ats
Verordnung
tiert
partners
Court
internet
front
ces
en-@@
Forschung
o-@@
co
party
ente
move
pp@@
package
simple
ss@@
hal@@
received
holiday
Jahres
size
Damit
er-@@
applications
ps
Lösungen
equipment
jedes
face
bit
Erweiterung
stop
0.@@
gleich
Sa@@
ES
demand
mehrere
enthält
entire
develop
check
below
Let
ba@@
integration
fest@@
verwenden
hand@@
contains
For@@
Partner
gern
August
potential
objectives
Behörden
richtig
wichtigsten
nice
regarding
Entschließung
lichkeit
gerne
Here
quickly
90
Beitrag
tr@@
don
Lisbon
dar@@
focus
park
Nutzung
benefit
enter
stra@@
rund
Iran
ast@@
series
Wert
computer
fight
aim
ganze
einzu@@
scher
ones
successful
reports
agricultural
E-@@
concern
Server
Ausschuss
East
choose
video
eigene
return
hinsichtlich
derzeit
Mi@@
27
objective
South
Welt@@
ganzen
treatment
ändern
neben
mat@@
}
cken
des@@
Russland
euro
al-@@
mp@@
RE@@
14@@
seems
goods
ermöglichen
ations@@
Si@@
chte
lose
dy
Vor
enn@@
Design
May
Pre@@
wobei
genommen
il
Au@@
Verbesserung
recently
Landes
comp@@
document
keyword
det
achieved
ro
har@@
auszu@@
schaft
governments
Finally
server
hotels
tiger
levels
Wort
note
beginning
Ergebnisse
added
indeed
Ausschusses
col@@
mean
isches
ant@@
enz@@
weise
Umwelt@@
ks
ste@@
coming
National
mind
Ni@@
places
H
Bel@@
iert
«
guest
13@@
June
Bild
23
zusammen@@
prevent
fair
Central
Verbraucher
tel@@
sive
rest
Woche
job
Auswahl
huge
Angebot
gar
Verwendung
Änderungen
PC
Funktion
increased
Land@@
lines
clean
tim@@
re-@@
Gelegenheit
völlig
EL@@
click
verfahren
everyone
suchen
ang
shows
He@@
answer
Web@@
net
Some
lack
verbessern
closed
Ne@@
ES@@
presented
Schaffung
Spiel@@
lang
sites
tz@@
Darüber
tur@@
office
Initiative
anderer
anzu@@
dialogue
floor
direction
tig
fördern
Anzahl
Regierungen
reviews
Mitarbeiter
consumers
wirtschaftliche
ship
guten
relevant
großer
entwickeln
agreed
U
balance
Dialog
asked
higher
pf@@
land@@
enable
rich
ums
00@@
gest@@
verfügen
highly
hid
ie@@
ier@@
Affairs
eng@@
complex
ore
search
To@@
än@@
gehören
ade
shown
Hand@@
sustainable
carried
Team
Ukraine
Management
met@@
ess
programm
Zahl
ban@@
Now
fünf
emp@@
whose
nimmt
später
soziale
bestehen
300
half
ton
AC@@
Interessen
sing
Ho@@
eri@@
effects
lage
nuclear
Familie
anti@@
falls
considered
Pa@@
City
Notwendigkeit
dra@@
amendment
Zeitpunkt
setting
gas
Therefore
ort
commitment
principles
sorgen
Themen
zunächst
UN@@
Tage
dr@@
ving
option
innovative
travel
First
perhaps
details
latest
status
meinem
maßnahmen
previous
nie
ators
Frankreich
La@@
forms
ying
tatsächlich
ser
ano
Anfang
Barcelona
materials
Organisation
ence
possibility
Erfahrung
Of
Während
weiter@@
ist@@
Steuer@@
Person
Gesundheit
former
matters
Markt@@
Kultur
Dabei
ak
thanks
pri@@
Ba@@
Umgebung
stre@@
treffen
double
tete
ski
comm@@
bookmark
fu@@
angenommen
Herzen
lau@@
Gen@@
actions
sm@@
bre@@
easily
behind
opportunities
came
sta@@
Fahr@@
Mai
str@@
ation@@
genden
fl@@
af@@
popular
versch@@
sur@@
Fach@@
S-@@
Spain
accommodation
capacity
reduce
response
increasing
pressure
speak
schriftlich
reached
1.
sts
fallen
word
promote
aspects
lediglich
stark
verstehen
Sprache
Nor@@
atmosphere
hohen
sto@@
bisher
remains
partner
prepared
gesamte
innen
Systems
tionen
Einführung
sound
providing
Mitglied
external
creation
äußerst
Sozial@@
—
Africa
CO@@
tor@@
,000
joint
Juni
Article
Kampf
safe
ler@@
exchange
Sk@@
El@@
efficient
Meer
Aktivitäten
ll@@
ism
fe@@
por@@
bestimmte
supported
submitted
Bei@@
Por@@
somit
British
uses
produced
Umwelt
Also
len@@
une
EC@@
Museum
billion
oil
Go@@
bringt
gesetzt
limited
Italy
ese
ful
gemäß
Position
select
Prozess
versuchen
charge
Wahl
commercial
gewährleisten
summer
Kur@@
gives
source
Integration
Gäste
P-@@
pres@@
Wachstum
industrial
enten
supply
Web
protect
War@@
ess@@
voll@@
box
Wasser
Datei
leave
Mal@@
property
priority
halte
Lei@@
decided
bestimmten
the@@
fra@@
obwohl
funding
Hoch@@
Hand
December
Produktion
fordern
tik@@
Spiel
lung
scheint
sel@@
US-@@
follow
cause
ino
ther@@
Amsterdam
Convention
Raum
Western
zer@@
Daten@@
Lebens@@
35
independent
Dinge
island
restaurants
Preise
General
structure
gl@@
enlargement
weisen
Bekämpfung
Kommissarin
Fortschritte
zahlreiche
zweite
Euro@@
Services
message
zei@@
Nur
4.@@
produce
Handels@@
largest
Insel
similar
civil
organisation
ies
Gi@@
Linux
Industrie
stri@@
Natur
creating
aktuellen
hohe
bau@@
möglichkeiten
heit
Erachtens
steps
tors
leicht
erster
einschließlich
mobile
systeme
consumer
meines
Entwicklungs@@
assistance
ausgestattet
Stelle
York
größten
gleich@@
j
1998
Einzel@@
frei
setzt
AD@@
movement
kan@@
gr@@
platz
teile
tt@@
führung
tem
außerdem
distribution
apartment
23@@
Sal@@
ground
rule
Erklärung
treten
Fehler
Jo@@
hr@@
tungs@@
iz@@
star@@
solchen
Bestimmungen
instrument
bri@@
sagte
wer
hoch@@
January
insgesamt
Gar@@
March
lies
pleased
Dezember
Jahrhundert
brought
variety
dadurch
UN
Am@@
construction
regulations
bad
written
weder
einzige
airport
credit
started
zweiten
St.
mein
purpose
vergangenen
Handel
instead
section
activity
conference
OS
October
aler
Today
film
van
Punkte
ourselves
ili@@
gro@@
aufgenommen
ven
CD
distance
tions@@
ub@@
Me@@
stability
Booking.com
relation
aufge@@
ó@@
discussion
Mehrheit
became
bank
instruments
leider
Ti@@
paid
Flug@@
ite
Gewalt
Anforderungen
wählen
Investitionen
allowed
erungen
documents
Te@@
are@@
ären
Entscheidungen
Stunden
lagen
statement
leisten
ju@@
Küche
sei@@
Strand
sieht
01
interesting
geschlossen
study
sis
genießen
Vorschriften
ca.
Kosovo
base
Aufmerksamkeit
mittel
März
Party
tool
Center
we@@
Gästebewertungen
Dateien
Gefahr
ble
West@@
Bereiche
aufzu@@
fishing
pass
Projekte
giving
gar@@
DE
Energie
eben
agenda
payment
fa@@
Grenzen
ines
our@@
Ju@@
Chi@@
Development
Club
son@@
bevor
fre@@
Republic
werk
tell
om
kosten
lic@@
bezüglich
operation
Wi@@
legislative
gende
neuer
gefunden
regards
stell@@
quiet
sor@@
с@@
Fi@@
compromise
sent
schließlich
ssen
Macht
concept
gten
benefits
Linie
konnten
During
can@@
procedures
cal
effort
operating
North
weg
eingesetzt
download
school
ou
Villa
Lin@@
drive
zed
mm@@
damage
Many
Freiheit
Folgen
village
@
violence
Italian
contribution
wenige
types
changed
enti@@
extra
Regeln
July
ness
historical
eigentlich
require
größte
5.@@
Ac@@
self-@@
45
digital
#
Spanish
Höhe
Wettbewerb
tools
build
growing
1,@@
Anfrage
elements
bes@@
benötigen
mel@@
teilen
Groß@@
Business
Landwirtschaft
fil@@
abzu@@
Zur
Fre@@
kre@@
criteria
IS
Meine
durchgeführt
class
wichtiger
mann
sports
Microsoft
Frühstück
integrated
Bad
A-@@
erk@@
ll
erungs@@
task
provisions
Firma
Beschäftigung
Rights
Oktober
zehn
Pal@@
Your
equal
cli@@
Reform
vol@@
sions
kannst
Portugal
Br@@
Do
immediately
happy
Bildung
Site
ve@@
Besch@@
Standpunkt
alternative
AM@@
got
edi@@
University
tliche
Du
dung
Präsidenten
europäischer
kt
Nationen
erwarten
ör@@
Diskussion
Januar
zone
Ra@@
ality
forces
express
kurz
Op@@
Musik
genannten
nor
Although
six
allein
raum
Col@@
tro@@
goes
200@@
bra@@
challenges
cs
26
era
highest
Heute
met
official
ron@@
Centre
app@@
transparency
draft
late
round
bau
erneut
B.
apartments
chen@@
reading
Transparenz
28
getan
options
äre
sofort
Ha@@
Bilder
San@@
Ger@@
Berichts
Personal
Gemeinschafts@@
employees
ihres
eher
lower
shared
West
parking
annual
stellung
gelten
applied
avoid
helpful
angesichts
Wel@@
Furthermore
Gründen
gre@@
friends
ris@@
Ak@@
analysis
zwei@@
bl@@
Ben@@
rise
Tor@@
train
speed
Sache
Min@@
Luft@@
Sinne
trans@@
öffentliche
selected
daily
nahe
amp@@
log@@
processes
See
Bemühungen
reality
ya
Öffentlichkeit
offering
Ansatz
numerous
begrüße
finally
1997
elections
sal@@
bathroom
consequences
Schlusselwortern
ill@@
requires
Auffassung
Präsidentschaft
review
IM@@
Tur@@
draw
modified
pr@@
talk
bet@@
historic
ord@@
menu
Flughafen
geworden
tungen
poverty
king
entsprechenden
Ober@@
sum@@
Kraft
beitragen
conflict
ini@@
na
sport
star
labour
efficiency
beyond
lives
format
lernen
hält
offered
ini
fine
Har@@
morgen
medi@@
Urlaub
Kinder@@
ismus
email
Verkehrs@@
Room
solidarity
oben
ß
diejenigen
enz
Restaurants
OR@@
frage
reference
Fällen
colleagues
3.@@
saying
ages
pu@@
death
minimum
Wohn@@
freien
port
persons
phone
rä@@
wieder@@
verhindern
behandelt
Druck
bur@@
expect
lesen
ek
Tre@@
paar
Basis
Juli
wine
Monaten
Vo@@
LE@@
implemented
useful
ideas
Natürlich
player
wanted
vers@@
è@@
poor
starting
clients
Even
published
Dra@@
erfolgt
lat@@
practical
ständig
assi@@
bel
Kor@@
hätten
Selbst@@
entsprechend
Mediterranean
stimmen
Werte
Im@@
shopping
maximum
Den
Gesundheits@@
volle
vel@@
verb@@
ßen
geh@@
Tagen
Debian
illegal
wert
establish
ide@@
transfer
berücksichtigt
tiv@@
fields
Mittel@@
congratulate
sektor
news
terrorism
Behandlung
Ku@@
secure
weeks
learn
crucial
carry
Atmosphäre
unten
Bürgern
richtige
Gr@@
schließen
mal@@
tomorrow
Hotel@@
WTO
sales
folgen
Inhalt
50@@
win@@
hinter
selection
Tagesordnung
While
machine
stands
Austria
­
vergessen
Bri@@
erter
comprehensive
30@@
Sport@@
Mag@@
Tat
Änderung
cut
hoch
minute
ga@@
anderem
hold
zahlen
klicken
Nr.
id@@
ET@@
besondere
sches
Preis@@
head
versucht
reduction
prä@@
organisations
warum
erfolgreich
neues
ff
Unter
variable
monitoring
lin
modernen
za
RO@@
ably
sometimes
Bundes@@
deutschen
ology
I-@@
begin
Bal@@
1-@@
pen@@
technischen
yer
yp@@
Bürgerinnen
games
ue
ment@@
2-@@
nisse
lt
zer
Is
month
morning
Comp@@
schi@@
players
Fest@@
vertreten
Chinese
Ser@@
Stadt@@
bin@@
plant
Benutzer
probably
leaders
ack@@
Beginn
Lassen
überhaupt
anything
Italien
reichen
technologies
ga
voting
gan@@
caused
worldwide
Fu@@
bs
Ressourcen
Lissabon
Republik
Amendment
Viele
yn@@
Le
stelle
Not
alone
sted
anders
lösen
verantwortlich
Staats@@
challenge
historischen
street
beste
barkeit
Forschungs@@
gesehen
Sicht
languages
method
uni@@
con
gew@@
erklärt
Dr.
alte
Google
EC
interested
erwartet
häufig
Aufenthalt
EM@@
ready
vollständig
on-@@
plans
US@@
cities
Finanzierung
wal@@
z.
Spanien
Konferenz
gewesen
release
Vergangenheit
Gruppen
super@@
ungsp@@
Rechtsvorschriften
jeweiligen
rei@@
long-term
welches
Wochen
Technologie
chance
zahlreichen
child
ulation
mountain
del@@
una
je@@
leg@@
Sti@@
images
ement
thought
gender
Computer
waste
29
ften
Kultur@@
erfüllen
att@@
Schritte
ls
Airport
Zweitens
wing
lost
Only
farmers
31
ss
Wahl@@
Hei@@
automatisch
32
Erfahrungen
1996
gend
garden
inn@@
braucht
´
wahrscheinlich
worked
sa
eter
Thank
schützen
folgenden
ously
Security
methods
ette
banks
Conference
laden
Fund
ada
not@@
zes
ut
FR
Moreover
green
geschaffen
extent
kam
g-@@
tics
las@@
stets
5-@@
genutzt
folgt
scientific
außerhalb
Einige
zumindest
relating
processing
ics
Cas@@
endlich
Vertrauen
accession
genug
businesses
accordance
walking
sectors
advantage
mention
Cre@@
Mu@@
ole
legt
comfort
senden
od@@
verpflichtet
Natur@@
ai@@
map
zation
strategic
Aspekte
az@@
Berg@@
letzte
kennen
Kunst@@
Herausforderungen
bil@@
tsch@@
pan@@
Public
acc@@
mes
powers
Allerdings
despite
Directive
fish
Russian
75
Z
ür@@
Spieler
Einrichtung
ft@@
gli@@
Sub@@
influence
cre@@
loss
denken
privaten
ef@@
hören
Star
Dazu
heutigen
tation
erlaubt
separate
Kunden@@
motion
seines
Wein@@
Falls
tru@@
Angelegenheit
ants
raised
teten
persönlichen
Bur@@
visitors
ier
Ireland
cur@@
Gesamt@@
Sonder@@
amerikanischen
cally
entry
innovation
Bre@@
flexible
trying
join
Gebäude
accepted
Ihres
More
nu@@
san@@
°
negative
dan@@
doubt
fahr@@
Ur@@
bessere
Dann
SP@@
implement
Gegen@@
trotz
Obwohl
sechs
Berichterstatterin
stat@@
absolutely
Schwierigkeiten
ausschließlich
Parteien
cra@@
ast
bilden
deten
ear@@
alität
Name
hol@@
Free
borders
Neben
sting
scope
running
tal@@
oo@@
™
ien
in-@@
Staat
Bra@@
justice
regime
demands
rechts
sol@@
cover
²
Hinsicht
vollen
Arbeitnehmer
richten
Red
placed
aktuelle
currency
says
ierung
UK
e-mail
Dar@@
target
UR@@
overall
Wer
Secondly
Mat@@
schwer
Prozent
moderne
affected
CH@@
rel@@
critical
übernehmen
hen
verkehr
wo@@
fac@@
Gro@@
Milliarden
ir
laufen
border
Grand
gri@@
tlich
Folge
Funktionen
3-@@
Met@@
demokratischen
Praxis
mor@@
automatically
yourself
Val@@
contract
swimming
entscheiden
getting
о@@
intended
sierung
usually
Krieg
Vertreter
Mark@@
gekommen
Its
markt
Zusammen@@
normal
länder
beide
tn@@
Wunsch
bitten
Station
Aufgaben
Denn
zudem
и@@
calls
Ban@@
installation
oren
ical
Fe@@
erende
anischen
Arbeitsplätze
generation
6.@@
Angelegenheiten
anti-@@
screen
suitable
Bus@@
sage
love
erinnern
heard
Opfer
Instrument
bewusst
Afghanistan
At@@
Privat@@
usw.
opening
warm
defined
post@@
begrüßen
Zei@@
Standard
Indeed
reforms
adopt
kaum
rein@@
deine
zing
Ö@@
relationship
Solidarität
rü@@
tw@@
allgemeinen
erkennen
Bas@@
sha@@
freie
evening
qui@@
mainly
Klein@@
nis
Systeme
Code
ke@@
jo@@
DVD
endes
Frieden
tour
administration
namely
Sitzung
Organisationen
committed
initiatives
Sen@@
aff@@
Office
benutzt
gef@@
offen
gelegen
ik
Fer@@
traffic
increasingly
RA@@
Armut
gebiet
President-in-Office
El
representatives
maintain
vital
expressed
freuen
terrace
ley
Leute
planning
Karte
mission
Annahme
Medi@@
Sh@@
correct
arbeit
talking
etc.
Pan@@
Agenda
mark
elt
ON@@
functions
Nun
darstellt
nis@@
proper
comments
union
á
ich@@
Zeichen
signed
born
Gel@@
stärker
Hu@@
Online-@@
bald
Protokoll
Erstens
zusätzliche
größere
structural
Tran@@
improved
abge@@
stress
Verfassung
eindeutig
students
ures
teil
sign
serve
families
ah
vorgeschlagen
goal
approved
rechte
stand@@
tlichen
net@@
entspricht
Energie@@
ado
Hel@@
verfügbar
nor@@
beginnen
ren
4-@@
fort@@
feature
danke
haus
onen
People
plus
Ka@@
Enterprise
lig@@
Hause
Verpflichtungen
ach
nationale
industrie
Click
Ca@@
min
Anstrengungen
Falle
Klicken
Ist
protected
confidence
competitive
ca@@
Außen@@
collection
tourist
feld
ture
reduced
powerful
schaften
rin@@
zeiten
Ste@@
Costa
mindestens
Ä@@
Idee
fs
decide
Kriterien
infrastructure
photo
400
unbedingt
ational
DI@@
delivery
zug
erenden
globalen
ON
cker
25@@
IL@@
supports
ün@@
imp@@
Informations@@
India
Wieder@@
ße
prüfen
Fo@@
Produktions@@
Iraq
Em@@
tisch
Not@@
Verwaltung
überzeugt
database
track
tel
Prä@@
unemployment
uri@@
administrative
sources
gleiche
ner@@
gs@@
gesprochen
cohesion
Zustimmung
EL
Partei
covered
stable
stu@@
š@@
Produkt@@
D-@@
Test@@
began
langen
Inhalte
Wahlen
nt
extensive
served
exist
ID
sion@@
sicherheit
angezeigt
Schul@@
а@@
neu@@
Dokument
emissions
oni@@
conclusion
circumstances
worth
Wann
white
MP@@
Nations
Win@@
well-@@
founded
100@@
fri@@
Vereinbarung
Mc@@
lungen
Rec@@
record
E-Mail
gezeigt
unterschiedlichen
contribute
War
ns
ral
Kre@@
prozess
opened
pleasant
Nicht
genannt
Osten
back@@
electronic
Each
Reformen
benutzen
Just
introduced
Sol@@
vorgelegt
mehreren
ban
priorities
isch@@
selbstverständlich
else
financing
wider@@
mittel@@
Vorteile
larger
plants
gabe
Gipfel
Terrorismus
likely
appear
AS
fol@@
effectively
entsprechende
alisierung
schutz
Suche
work@@
150
Anerkennung
speaking
listed
http
Hor@@
encourage
si
zeit@@
Bild@@
laws
Qualitäts@@
gerecht
understanding
ots
paper
Cal@@
dringend
Produkten
ensuring
crime
Über
glauben
Technologien
Homepage
erwähnt
Greece
Video
wünschen
Kern@@
positions
Ara@@
managed
Stabilität
gn@@
risks
played
Haushalt
cia
Gesch@@
Straße
whom
cl@@
tä@@
Binnenmarkt
vari@@
limit
Swiss
gte
Then
PL
nahme
detailed
Char@@
le-@@
geändert
Produkt
Besuch
testen
Open
bestimmt
Asia
....
Reise@@
wonderful
sam@@
victims
programs
linked
ara
optim@@
wesentlich
rop@@
Anwendungen
Fin@@
participation
Bor@@
flo@@
berücksichtigen
Zudem
Ausschuß
stated
2020
tabled
Why
erfahren
shi@@
regular
sionen
aktiv
oll@@
Pra@@
save
arbeitet
nachdem
transparent
wrong
mark@@
ha
camera
agriculture
hoffen
scale
ki
C-@@
path
Schließlich
siert
animals
exactly
De
Sommer
hinweisen
Pri@@
Nord@@
discuss
las
tic@@
Volk
kommenden
sitting
akzeptieren
ehr@@
ars
dete
möglicherweise
won
represents
Frankfurt
1995
stone
manner
ice
acht
expected
ws
Zunächst
AB@@
ian
specifically
gang
beds
Durchführung
Mitteilung
purposes
Plan
becoming
partnership
aimed
metres
off@@
ID@@
dient
debt
uli@@
income
Tier@@
February
chs
Sea
Medien
LA@@
Cam@@
lä@@
wants
gem@@
zentrum
erzielt
ität
bestehenden
referred
fying
votes
burg
developments
sicherzustellen
ko
discussed
fahrt
val@@
és
unver@@
inside
Super@@
door
warten
client
measure
rural
besonderen
poli@@
Augen
Del@@
dienen
Chance
Format
connected
went
assessment
zuletzt
siehe
Ski@@
Kan@@
ologie
technische
getroffen
marketing
discussions
lig
Vol@@
Kontakt
thousands
Unterkategorien
ish
tradition
fresh
trägt
teil@@
ase
gelegt
playing
IP
Social
,@@
euch
cas@@
sub-categories
Einrichtungen
bro@@
precisely
co-@@
bedarf
sufficient
tures
character
elles
police
erfüllt
fellow
ark@@
John
Apartments
möglichen
shop
otherwise
Rooms
spacious
Nutzen
person@@
operations
Standards
far@@
umgesetzt
gener@@
Board
Bro@@
spend
alism
uren
element
erstellen
Tro@@
anderes
festgelegt
medical
Kl@@
Wettbewerbsfähigkeit
wenden
Sektor
introduction
followed
enterprises
display
earlier
reich@@
pat@@
stoffe
Haltung
syn@@
pol@@
Lan@@
char@@
schreiben
ato
notwendigen
Middle
Monate
Kunst
zeichen
kitchen
Agreement
cher@@
exclusive
daten
han@@
sun@@
houses
finanziellen
Fra@@
budgetary
represent
Pu@@
liber@@
elegant
stimme
7.@@
achten
Film
ved
facing
eingerichtet
Green
24@@
Einfluss
winter
closely
Ausbildung
AP@@
High
Mer@@
essen
ang@@
Kal@@
eck@@
Christian
IN
hour
Installation
losen
ged
pe
jene
Best
Most
Druck@@
spar@@
jederzeit
voller
beziehen
Open@@
considerable
vermeiden
buildings
Switzerland
strengthen
bek@@
degree
hor@@
ath
happen
NATO
ergreifen
items
ely
Anti@@
zo@@
Post@@
She
darunter
äu@@
Kindern
verfolgen
bal@@
ory
supporting
Anspruch
button
shops
institutional
Webseite
rat@@
erstellt
Menge
Ap@@
Ü@@
Human
numbers
rit@@
ce@@
ti
shower
acts
guidelines
Schutz@@
jeweils
ckt
window
ring
geeignet
season
Meter
Policy
ame
cards
print
components
blo@@
ki@@
purchase
so-called
dri@@
Star@@
ingly
werte
außer
Vielfalt
telephone
discrimination
Da@@
fied
Pol@@
Menschenrechts@@
sec@@
remember
ay
entweder
ass
networks
immigration
Innovation
handeln
politischer
speech
sse
erhöhen
improving
Sprachen
average
stadt
2011
welcher
Fl@@
stärken
unbe@@
hear
zen@@
trag@@
Czech
wel@@
Schweiz
erzielen
Roma
buy
gruppe
Konzept
His
vern@@
cap@@
stellte
experts
sicherlich
fla@@
übernachten
Research
funktioniert
Beg@@
color
fun
cer@@
teilweise
besuchen
e.g.
broad
entschieden
ire
ei
inen
Zeit@@
gem
&apos;ll
Leistungen
Vertrags
cuisine
stock
gelangen
heiten
cal@@
AG@@
cul@@
Data
Familien
fällt
sagt
aren
Spa
typical
vis@@
fung
pul@@
Pas@@
spielt
Wer@@
thinking
Net@@
pra@@
Stand
Jetzt
reg@@
guide
suggest
nung
verbessert
les@@
Rot@@
stes
trust
tourism
spricht
properly
gave
Arbeiten
Modell
Fischerei@@
wären
werk@@
multi@@
seem
wood
Can@@
Plan@@
reception
com
Ph@@
Des@@
Pap@@
greifen
Februar
presence
Instrumente
rat
Economic
Because
Unfortunately
href
core
entirely
Familien@@
relate
kur@@
Abschließend
Wege
Internet@@
Verwaltungs@@
richtigen
condition
Stimme
Berichte
fel@@
provision
Veränderungen
erleben
difference
refer
spirit
Warum
competitiveness
Tätigkeit
Status
gebaut
Leider
Ziel@@
spor@@
Kenntnis
Garten
Vereinten
95
tsp@@
appears
hab@@
generally
Abschluss
ME@@
Mitte
Poland
dé@@
ica
ella
rus@@
lands
actual
vorhanden
Forum
Werk@@
ona
rich@@
win
hervor@@
gruppen
Vergleich
presidency
Musik@@
schutz@@
Forderung
rent
ently
bodies
prior
advanced
ration
machines
summit
bes
Initiativen
fy
cat@@
99
Street
dro@@
fle@@
authority
Once
speziell
Brussels
reasonable
Teile
ausdrücklich
Durch@@
break
Online
Bürger@@
ple@@
plan@@
wollte
vorgesehen
Mis@@
Transport
coordination
Regelung
Zeiten
cy@@
lich@@
informed
klare
dagegen
ths
fan@@
Ausgaben
Gal@@
domestic
Vielen
politics
dealing
lichem
informieren
hot
ath@@
applies
betonen
Mac@@
spiel@@
ye
ink
district
meetings
Dienste
--
Engagement
difficulties
Abgeordnete
vehicles
ware
Indi@@
Ren@@
bedingungen
ash@@
Great
tional
title
Besucher
parliamentary
animal
lokalen
möglichst
coffee
Auto
exp@@
experienced
täglich
flexibility
fun@@
benötigt
zentrale
36
Multi@@
becomes
Angaben
gewinnen
durchaus
peaceful
beschlossen
ordnung
Herausforderung
äl@@
che@@
fisheries
Irak
estate
Ob@@
According
lö@@
permanent
consideration
My@@
Zeitraum
Mitgliedstaat
wenigen
ungs-
vision
fixed
picture
resort
tz
sieren
Cap@@
veröffentlicht
ination
Währung
ours
tere
Air
origin
Dem@@
Breakfast
stein
Trans@@
Sur@@
Golf
ched
Sel@@
gefordert
Kom@@
PT
IF@@
nächste
angeboten
club
Ter@@
analy@@
flow
Ki@@
bahn
Komfort
amen
34
courses
dank
Bet@@
names
eigen@@
konkrete
God
All@@
ingen
ISO
erscheint
told
easier
cars
gek@@
weight
wahr@@
pla@@
Mas@@
freue
Hauses
sem@@
Großbritannien
establishment
tin
Association
führenden
48
monetary
darstellen
Gebieten
aspect
System@@
Mio.
geschrieben
high-@@
finanzielle
Programms
Jahrhunderts
starke
Gas@@
cking
Best@@
combination
structures
Wissen
combat
erfolgen
konzentrieren
gewährleistet
threat
Nieder@@
web@@
dec@@
dly
para
Res@@
AL
ships
practices
Dennoch
län@@
forget
object
economies
leader
models
aims
Cro@@
kulturellen
trip
Wor@@
tätig
Spezi@@
führte
attempt
ester
sets
dre@@
Auto@@
Uni@@
art@@
Terrasse
tät
translation
Comm@@
glich
Kingdom
nissen
ater
continued
sters
Madrid
Tour
sides
entstehen
failure
session
0,@@
associated
Sil@@
stehenden
bit@@
Beitritt
bor@@
Herstellung
Nachfolgend
Mess@@
ertes
myself
south
Rel@@
cou@@
spent
dliche
unabhängig
detail
Worte
post
unk@@
de-@@
sou@@
buffet
erklären
seriously
amm@@
Option
propose
TR@@
folgende
fund
Sam@@
dennoch
gers
unterschiedliche
Fran@@
asi@@
Hal@@
haft
air@@
inform@@
ited
mati@@
Rede
Antrag
е@@
nah@@
Einigung
schönen
betrachtet
Titel
Zweifel
Santa
Zweck
hu@@
med
lets
attractive
ahead
ancient
himself
Aufnahme
anyone
Kirche
Klima@@
Private
promoting
schwierig
Regel
chi@@
nation@@
2.
cke
differences
halt
relax
Sehr
changing
Manager
inc@@
As@@
Forderungen
д@@
Download
98
rück@@
wall
Geld@@
OL@@
grounds
Voll@@
brand
cm
sischen
kom@@
Hintergrund
Universität
studies
Analyse
läuft
welt
installed
availability
einiger
umfasst
Stellen
mü@@
gain
gegründet
reducing
dlich
released
phase
band
seite
reservation
Pakistan
gene
tage
Dollar
uner@@
ey
architecture
regi@@
Belarus
600
announced
anten
pre-@@
finance
one-@@
Links
absolut
reicht
Größe
ack
ick
eingehen
iger
Texte
beaches
voice
Liefer@@
lie
posi@@
impossible
carefully
Österreich
gestalten
Zwei@@
river
statements
museum
Tel@@
mobili@@
Einhaltung
learning
hon@@
Paket
fähigkeit
conc@@
humanitarian
bul@@
balanced
Stellungnahme
fire
oh@@
heraus@@
End@@
booking
Ja
Ã
charged
ised
geschehen
Firstly
diskutieren
Elemente
arian
Irish
dangerous
geleistet
kaufen
defence
Sehenswürdigkeiten
Fonds
happened
opposition
ener
interface
consumption
überprüfen
immediate
hands
producers
ante
EADS
agencies
duty
Health
concrete
Griechenland
pictures
race
failed
Achtung
liebe
bas@@
implementing
anlagen
port@@
instance
lie@@
mail
Every
exhibition
dic@@
tiven
England
Gleichzeitig
Kommunikation
AT
Abend
Trade
ener@@
trading
dat@@
Kno@@
ands
Adresse
Player
37
advance
regionalen
orders
arrival
article
zimmer
Foundation
28@@
sort
inform
visible
Energi@@
schul@@
punkt
described
Vielzahl
Due
Guest
tab@@
ai
respond
truly
registered
recognition
Hersteller
fore@@
raise
criminal
Prime
Arten
ée
introduce
einander
recommend
passed
aci@@
s.@@
verlassen
Angesichts
Shi@@
yl@@
fonds
Sorge
packages
evidence
Sport
Fuß
ological
Entwicklungen
IR@@
ländern
profitieren
verfolgt
devices
bars
skills
meters
lang@@
device
glichen
Aspekt
contain
Very
III
zz@@
Gei@@
black
improvement
garantiert
ery
Stil
digen
Afrika
Prioritäten
Last
calling
Beschreibung
istischen
feststellen
completed
ee
33
relaxing
cro@@
Casino
Europeans
continues
arten
Hin@@
guarantees
sensitive
Wettbewerbs@@
spiel
firm
Kat@@
Polen
werke
chan@@
т@@
standing
possibilities
genuine
nearby
bauen
imm@@
reliable
Rechnung
to-@@
television
у@@
sale
capable
combined
sichern
Arbeitslosigkeit
wishes
harmon@@
weiterer
Tu@@
Gast@@
eli@@
spending
9.@@
zeichnet
Start
gutes
Mann
ins@@
membership
unacceptable
fication
Partnerschaft
figures
persönlich
enables
Rad@@
tal
empfehlen
и
sum
Industri@@
miteinander
seek
election
campaign
write
Control
cle@@
Indien
gent@@
Stärkung
übrigen
1994
adoption
frei@@
ander@@
bezeichnet
felt
verk@@
Nacht
Grenz@@
6-@@
Pat@@
install
religious
Kenn@@
lo
Plat@@
Seine
Moment
Formen
greatest
obtain
definition
lar@@
unless
tasks
ty@@
tin@@
Gesetz
gegenwärtig
allowing
tiges
African
territory
kept
ion
ausschuss
fes@@
strongly
Deutsche
Wal@@
tom@@
groß
insurance
fiscal
export
Leistung
SI@@
manage
surrounding
enk@@
tend
ular
participate
istische
angesprochen
erhält
geschützt
ists
absolute
zy@@
Betrieb
Bedürfnisse
court
kor@@
Lesung
signal
contents
Problemen
ate@@
olo@@
beginnt
hom@@
fordert
gegenwärtigen
eingeführt
Home
Ideen
Another
•
eds
pal@@
w-@@
Aussch@@
französischen
Michael
square
hingewiesen
Justice
unfortunately
inf@@
elected
middle
surface
überall
Tradition
ering
kosten@@
closer
freiheit
Gemeinsamen
zufrieden
Wa@@
linie
positiv
Priorität
Irland
Hol@@
an-@@
mode
38
marked
route
mag
danach
platform
paragraph
Ei@@
tests
flu@@
desire
800
attractions
fear
demokratische
memory
Han@@
Can
dad
einsetzen
Barroso
rechten
komplett
Überwachung
piece
listen
tt
Sonnen@@
Sinn
mehr@@
sun
Richtlinien
dedicated
comment
einfache
command
coast
lige
55
compared
Hamburg
Sor@@
Banken
Jeder
tives
unterstütze
beauty
leistungs@@
ba
großes
alist
Turkish
science
-F@@
rufen
Such
Vienna
sation
tical
Agrar@@
wagen
aufmerksam
wasser@@
Federal
ausreichend
erforderlichen
mb@@
storage
We@@
Stu@@
Farb@@
etz@@
geöffnet
Regelungen
keinerlei
adi@@
forced
Wählen
Bewertung
controls
umfassende
8.@@
Fortschritt
bear
Fisch@@
besitzt
Anteil
assen
sämtliche
spezielle
bot@@
moving
pos@@
ersch@@
corporate
stic
fall@@
Geschäftsordnung
gezogen
engine
Hi@@
ik@@
cent@@
Verhältnis
Greek
Kol@@
ends
val
valid
Technik
Meiner
claims
bestätigt
enormous
tens
Geb@@
größeren
09
background
Far@@
onto
ams
biggest
beteiligt
ri
host
länger
vorliegenden
Kritik
mas@@
individuals
Entwurf
update
ay@@
hergestellt
extended
accessible
perspective
mittels
Eastern
entitled
sonst
Mil@@
ink@@
stei@@
expression
luxury
wind
Prinzip
ically
Dor@@
IG@@
rau@@
holidays
satz
Märkte
OT@@
institution
Schlüssel@@
Tex@@
Studio
k-@@
story
exercise
Institute
vier@@
ig
Media
Syn@@
totally
ined
Absatz
08
Inn
nennen
gelöst
National@@
alismus
railway
convinced
Nevertheless
Q
schöne
Beim
Kri@@
sicht
Brüssel
payments
wunder@@
x-@@
advertising
straße
books
ktion
Verpflichtung
2,@@
kostenlos
verbundenen
tik
lungs@@
Beschäftigungs@@
flight
Poli@@
č@@
dienst
Innen@@
Democrats
Monat
internationaler
hel@@
Pe@@
urgent
Yet
initial
yst@@
read@@
Unternehmens@@
Use
wil@@
onn@@
alter
hof
ez
Kam@@
steigen
offensichtlich
d.
reisen
Weitere
Betriebs@@
ständigen
ences
drawn
Company
vers
garantieren
discover
Fotos
führ@@
Methode
dem@@
Maße
factors
Time
bekannten
tou@@
modules
church
Sprach@@
older
Motor@@
Agentur
default
Out@@
chosen
cho@@
organization
stan@@
enst@@
don@@
Mitteln
ata
übertragen
advice
Treffen
PR@@
bath
Globalisierung
starken
Worten
testing
expensive
Netherlands
ligen
1990
ett@@
Atom@@
Pl@@
Lake
7-@@
indi@@
successfully
Austrian
OS@@
zusätzlich
Kraft@@
O-@@
weapons
Tal@@
lag
Note
stattfinden
organised
unable
sions@@
tag
beinhaltet
granted
fit
nation
dialog
ön@@
fte
kraft
category
Altstadt
Unterkunft
&apos;re
disease
attack
Gründe
fern
Festival
tig@@
komm@@
schlagen
Are
ker@@
Verkehr
zählen
wn
Gre@@
dor@@
limits
mögliche
Ost@@
ching
abgeschlossen
wirken
register
Fol@@
Tr@@
zung
establishing
haften
Generation
Kontroll@@
outcome
vit@@
fach@@
liste
entsprechen
Umfang
perfectly
deutsche
ot
atic
contrary
stru@@
Bush
verloren
Resort
solcher
block
fli@@
zuvor
zus@@
relativ
Ereignisse
ane
р@@
Niveau
loc@@
conclusions
fälle
tried
zufolge
unit
wesentlichen
Erklärungen
ables
Mel@@
mountains
Aktionen
Patienten
store
water@@
mäßig
ust
betrachten
britischen
vehicle
massive
zw@@
Beteiligung
Peter
Palace
Doppel@@
neither
unto
Card
TH@@
igen
Foreign
ining
furnished
sat@@
rightly
Gegensatz
Thus
finde
dig@@
Latin
ambitious
artists
Sta@@
Sei@@
Gott
saw
commitments
clo@@
existence
pas@@
sta
Dec@@
agency
Reise
07
cy
maintenance
ov@@
Prin@@
sli@@
Pres@@
Politiker
speziellen
xi@@
convenient
sprache
Bis
phrase
Pen@@
ord
Air@@
touch
PL@@
gets
Entschließungsantrag
Risiken
minister
h.
64
22@@
approximately
Bildungs@@
mei@@
ui
SE@@
asylum
Flexibilität
tak@@
monitor
berei@@
Europäer
PHP
Eigen@@
eck
Kompromiss
claim
aller@@
honourable
nom@@
Mitgliedern
row
asking
sell
remind
Nachdem
factor
Eindruck
gol@@
gehalten
candidate
ine@@
Off@@
karte
ç@@
wider
Zahlen
wh@@
Palestinian
65
gegangen
Aussicht
Hon@@
ku@@
ré@@
squ@@
el-@@
browser
down@@
Aufbau
Schi@@
schafts@@
rechtlichen
constantly
Is@@
ía
achieving
stoff
utili@@
Zi@@
surrounded
sho@@
copy
targets
lake
,00
guter
m2
Standard@@
obviously
continuing
dungen
produktion
Begriff
deliver
Phase
Zahlungs@@
Wirkung
manchmal
Innen
erhöht
daraus
foot
dia
fort
jüngsten
produk@@
Verständnis
goals
intervention
Erde
Located
96
02
informiert
lichkeiten
ierte
Empfehlungen
dlichen
reden
alisation
erfordert
colleague
outstanding
promotion
rep@@
stations
Mand@@
Gebiete
ports
Flu@@
contained
independence
Versch@@
ambi@@
nationaler
Meeres@@
Haus@@
Pro
sh
aj@@
suite
в@@
AN
etten
Haup@@
aircraft
ffen
hauptsächlich
laid
Such@@
Constitution
Regi@@
Farben
Hinweis
F-@@
Other
someone
öl@@
Realität
photos
operate
Dom@@
mass
Link
deep
bildung
Anlagen
Back@@
beachten
origin@@
19.
keeping
Botschaft
Any
ideale
ischem
Details
remove
ction
chs@@
weg@@
obligations
advantages
Tages@@
Öl@@
physical
Risiko
gliche
edge
north
yesterday
Eigenschaften
binding
Paul
High@@
Nutzer
bt
mitteln
genen
waiting
plat@@
emb@@
Those
allgemeine
ge-@@
planned
Hoffnung
Global
Regulation
counter@@
staatlichen
Bank@@
м@@
error
öh@@
fühlen
Einstellungen
Teilen
entered
Führung
ari
looks
Vom
intensive
qualified
ard@@
setzung
taste
landscape
sobald
OM@@
Pf@@
1992
obvious
unden
Inseln
recommendations
berühmten
wichtigste
dimension
ige
Both
damals
hängt
Obama
Market
eth@@
aufen
geschieht
Agency
0er
Grundsatz
consists
participants
decades
equality
Sar@@
lon@@
bringing
nearly
nte
Rom@@
Rome
hilfe
recovery
situations
Nu@@
Square
Menschen@@
Bedarf
0-@@
einzigen
smaller
expenditure
ziert
named
Dimension
stoff@@
Teil@@
führer
bewegen
physi@@
regelmäßig
governance
Süd@@
Winter@@
putting
soft
oral
pointed
Beach
communities
globale
vous
ch-@@
jungen
Dienst
exc@@
fi
manufacturing
seeking
Mak@@
Ham@@
Mul@@
aries
by@@
wirtschaft
legung
nachhaltige
species
festgestellt
versions
servi@@
ECU
Ul@@
trifft
Dokumente
Einkaufs@@
Emp@@
elten
dynamic
97
merely
trä@@
leads
prevention
staaten
objects
satellite
Energy
е
Grunde
iel@@
Hälfte
einverstanden
persönliche
input
kes
Geh@@
Hauptstadt
tar@@
The@@
н@@
Voraussetzungen
registration
Gri@@
Mindest@@
Fraktionen
Bio@@
Welche
Firmen
cc@@
bers
atische
Ebenso
deb@@
jährlich
Beihilfen
mechanism
Vorteil
Gegenteil
substantial
my@@
Environment
medium-sized
tten
42
disposal
i.e.
Mus@@
X-@@
IP@@
ppen
ual
UT@@
Korea
consistent
ising
spezi@@
betroffen
turned
ierten
zugleich
minim@@
kers
tigkeit
Städte
stellungen
Bestandteil
vorgeschlagenen
Rau@@
Infrastruktur
sia
.00
determined
politisch
spaces
Summit
seh@@
en-
ning
examples
entgegen@@
Prüfung
contemporary
quote
Martin
enter@@
fron@@
eng
JavaScript
extend
primary
ther
rapid
stabili@@
glass
Friedens@@
hafte
causes
echte
Netzwerk
multiple
acceptable
denk@@
ka@@
guaranteed
.de
schneller
anbieten
meaning
Rules
arms
Island
alised
Veranstaltungen
räume
Sha@@
alle@@
driving
Buch
Vertrags@@
brings
lieb@@
Royal
wait
resulting
serves
eiten
Landschaft
spa
Winter
praktisch
regeln
Klimaanlage
gewählt
traditionellen
compliance
flü@@
Struktur
mut@@
Holz@@
sper@@
Fil@@
u.
es-@@
wodurch
Ausland
Bus
EU@@
Ruhe
Bon@@
erin
treated
woh@@
fies
Thanks
Internationalen
fand
Datenbank
spread
beschäftigt
05
wn@@
betroffenen
q@@
welchen
Angebote
Sweden
ately
EF@@
sign@@
herzlich
golf
seven
sky
öffnen
49
hau@@
optimal
voran@@
kol@@
Fa@@
conclude
spec@@
vorschlagen
Lau@@
tter
Alliance
Überprüfung
radio
cru@@
ola
Tit@@
dom@@
SM@@
entwicklung
3.
Material
ming
früher
patients
ett
Unabhängigkeit
Gesetzgebung
Erhöhung
adequate
Zimmern
pleasure
dos
weiteres
addressed
ED@@
85
forest
explain
migration
bereiche
stoffen
gesellschaft
multi-@@
letter
association
attacks
Aufgrund
kürzlich
vollkommen
abkommen
st-@@
ball
Trotz
zählt
fuel
begann
п@@
temporary
set@@
requested
8-@@
identity
ING
responsibilities
Absch@@
Pic@@
besseren
diversity
hren
anda
junge
IA
nations
strengthening
industries
PC@@
einzelne
strategie
Methoden
THE
Jahres@@
Serie
atory
3D
previously
delay
extreme
User
head@@
nden
accounts
dest@@
ena
einerseits
Königreich
bedroom
Charakter
T-@@
breite
Kr@@
Quali@@
diskutiert
schools
Financial
reagieren
Kli@@
Ratspräsident
presentation
grün@@
bezieht
Mehr
Find
evaluation
talks
lec@@
Stadtzentrum
Unternehmens
Pool
Mad@@
miss@@
primarily
asse
fur@@
Liberalisierung
notice
ward
abhängig
fällen
Nice
Laufe
Dutch
EG
schön
Männer
Bewegung
Grenze
urban
trac@@
liefern
Day
quick
sam
kinds
aming
PH@@
sten@@
e.@@
Enjoy
Licht
steel
ül@@
ye@@
IB@@
Gästen
MS
Pop@@
width
ßt
barer
Teilnehmer
emphasis
investments
skin
rech@@
л@@
thereby
Ci@@
Handel@@
height
Suite
Liebe
Diskriminierung
valuable
stimmt
consensus
GDP
length
ous@@
discussing
tende
spezifischen
alt@@
all-@@
liability
250
Anpassung
Romania
Men@@
gone
mil@@
enth@@
Brenn@@
kli@@
Rou@@
mus@@
explo@@
Test
delivered
aktivieren
iti@@
Leistungs@@
Beh@@
esen
lauf@@
bequem
zurückzu@@
Two
sian
aro@@
Ansch@@
ol
author
Fenster
Show
Vil@@
kar@@
haf@@
PDF
Bl@@
Fälle
Book
opposite
umwelt@@
Fähigkeit
tigung
pension
ances
Ordnung
bildet
Lam@@
GB
ê@@
angeht
shape
Kombination
Klimawandel
Waren
akzeptiert
Nicht@@
password
figure
representative
1993
seitens
m-@@
Despite
fr@@
willing
competence
160
pour
Before
Freunde
spezifische
moved
intensi@@
prepare
Minutes
Reaktion
leadership
Wander@@
20.
Maria
rail
Tiere
к@@
Koordinierung
rati@@
feeling
positiven
compatible
wards
controlled
tenden
licherweise
atives
übernommen
technological
tour@@
destination
van@@
Versuch
betont
aria
Telefon
wirkt
Westen
affect
southern
Unterschiede
cies
manufacturers
jahr@@
Support
rechts@@
Zustand
regionale
Formular
Stunde
ero@@
Dadurch
Technology
micro@@
units
runs
gemein@@
dealt
leiden
dol@@
xes
dig
output
Vorbereitung
sicherstellen
ong
forum
ländlichen
audio
ended
Lehr@@
represented
Willen
í
.000
26@@
te-@@
tain
urge
noise
Gefühl
wealth
speakers
diverse
lots
demo@@
basiert
lia
avi@@
Gesetze
conduct
Ther@@
höchste
recommended
Wegen
eins
sanctions
Ster@@
verlieren
06
alo@@
strength
preis
Umständen
Körper
run@@
significantly
arbei@@
dritten
Amerika
Sc@@
sur
Vit@@
Via
fruit
ced
Roman
Süden
settings
cel@@
approval
fal@@
master
fill
Aqu@@
nochmals
viel@@
serviert
ergeben
los@@
Hilfs@@
cing
andererseits
profile
White
Verbraucher@@
abo@@
alli@@
ehemaligen
bericht
zustimmen
f-@@
Diskussionen
parti@@
Bahnhof
Anliegen
locations
verstärkt
Zugriff
exists
engineering
Spiele
equ@@
Power@@
Fern@@
39
highlight
werfen
sin@@
Mein
inv@@
Video@@
launched
Strategien
opp@@
expertise
Nutz@@
nötig
Erd@@
Vielleicht
tly
Teilnahme
SO@@
eff@@
Anlage
improvements
mental
dir
gewisse
ping
bon@@
Studie
Delegation
Ir@@
aging
hinter@@
websites
zt
Einklang
helps
ón
wiederum
Express
interpre@@
charming
mechanisms
seien
Bedenken
helping
tra
knows
lam@@
relatively
Cli@@
derzeitigen
reply
mutual
gestern
soweit
David
amongst
Kunde
except
Freude
haltung
marks
log
extension
Kategorie
l-@@
Definition
View
Schule
sieben
Ges@@
requests
covers
MO@@
expectations
Ob
trees
consultation
refugees
vielmehr
Militär@@
stro@@
OR
Verfügbarkeit
respective
Paper
WC
sy@@
zunehmend
tritt
gens
ppe
AV@@
boat
ran
Poker
gkeit
Regierungs@@
Projekt@@
bedrooms
Lebensmittel@@
experiences
schen@@
Kollege
Rotary
keiner
fei@@
verlangen
Antworten
sold
schei@@
Mikro@@
10.@@
fen@@
21.
ghts
delegation
Eis@@
aktive
Volks@@
Straßen@@
acting
tau@@
umfassenden
Munich
Voraussetzung
load
privacy
Fas@@
kleiner
solve
03
kul@@
erer
lern
Wien
Log@@
q
unternommen
attitude
finding
LO@@
p.m.
western
weltweiten
qualität
oni
amerikanische
IC
Dan@@
Sanktionen
manager
articles
yes
Letz@@
hinzufügen
anerkannt
discovered
Farbe
genauso
cri@@
zeu@@
spot
constant
aly@@
trotzdem
taxes
ly@@
historische
hilft
texts
starten
pping
1000
wichtiges
Geist
Raum@@
Prodi
Wil@@
behörden
Take
heraus
Karten
Architektur
befassen
drawing
furniture
Plaza
tag@@
gegen@@
faced
billi@@
Verhalten
Tod
ände
streets
nten
Welcome
Fü@@
behandeln
ausschusses
Allgemeinen
deiner
preis@@
Gener@@
120
trau@@
Menü
dishes
tigt
info
gelungen
cent
Page
äch@@
700
profit
tex@@
dinner
rejected
th-@@
cheap
Effizienz
installiert
Fort@@
Wider@@
Gold
fighting
bli@@
Apartment
Grundrechte
temperature
cr@@
ala
separ@@
latter
drugs
gespielt
top@@
Vis@@
elled
obligation
hoher
44
regret
appeal
ble@@
ziemlich
brechen
Mau@@
compensation
Optionen
höhere
DA@@
Sitz
operators
ania
B-@@
Symbol
Berücksichtigung
River
ater@@
Untersuchung
sorgt
Übereinkommen
ills
reich
fantastic
dienste
mitten
Struktur@@
watch
ruhigen
appreciate
Küste
politicians
jemand
walls
ativen
bing
Kauf@@
beträgt
healthy
Sand@@
Kapital@@
schicken
handling
dates
Spe@@
rely
esses
arch@@
Mehr@@
mus
konkreten
dge
pen
ativ
dert
recognise
ст@@
emphasise
centres
Schäden
Buch@@
willkommen
cont@@
Auftrag
Liber@@
tter@@
erscheinen
sicher@@
arrangements
ama
Beifall
ress
betreffen
niemand
erhältlich
tierung
cycle
Grundsätze
menschlichen
Camp@@
PS@@
Autom@@
parallel
S.
duc@@
Tatsächlich
reflect
buchen
resolve
producing
volume
Chamber
Netz@@
Oper@@
gie
Lebens
radi@@
truth
Kop@@
Britain
43
tours
ello
ads
automatic
Bat@@
suffering
acy
wesen
helped
Verträge
Lab@@
ared
R-@@
quali@@
Einstellung
album
CS@@
ute
Bil@@
Computer@@
Lord
intention
9-@@
omm@@
tran@@
proof
aussch@@
karten
Old
anische
rup@@
comple@@
tho@@
define
els@@
Basi@@
eten
substances
Fernseh@@
produkte
.org
tern@@
tte
lag@@
schließt
Putin
entdecken
comply
gsten
Bau
Materialien
kin@@
ligh@@
Rule
Ohne
formen
künftig
Wo@@
soci@@
Recht@@
School
friend
Where
Kind
Leitlinien
happens
Nachfrage
führende
NL
cam@@
Anfragen
toren
begonnen
Norden
properties
whatever
entlang
On@@
Maßnahme
tur
confirmed
eröffnet
determine
aden
mobility
fäl@@
affairs
zusätzlichen
Verbrechen
dungs@@
creative
low-@@
Werk
Ambiente
entertainment
cross-border
reserve
hostels
sla@@
disaster
sofern
applicable
Java
Alp@@
Dort
ards
eigenes
inzwischen
kulturelle
Dol@@
recognised
holding
tis
president
anz
gy
pose
largely
danger
scht
Produk@@
Wirtschafts-
verändert
Japanese
tut
chain
wir@@
DA
naturally
Jan@@
Element
rt
Völker
Landwirte
eye
Safety
Dat@@
lab@@
renewable
lay
stor@@
assist
ł@@
egt
Special
Wahrheit
tiv
Gol@@
Box
CO2
diseases
Essen
ständige
Mari@@
2013
wissenschaftlichen
wesentliche
Stand@@
best@@
RO
eight
opposed
Instead
Gedanken
ham@@
kan
A3@@
dans
exclusively
speci@@
serv@@
italienischen
dining
Absicht
na@@
Erwartungen
Sach@@
Strategy
kurzem
west
medium
personally
bus@@
spring
näher
ony
41
finished
Nov@@
Schaden
Rat@@
fraud
staatliche
DS@@
interessiert
outdoor
Ferner
institutionellen
plays
audi@@
Bes@@
reali@@
Weiter@@
couple
USD
Zoll@@
Swedish
waters
kam@@
zuerst
millions
ros
Hau@@
angemessen
displayed
pieces
Ministers
sauna
schönsten
Pass@@
removed
Alternative
Mittelpunkt
officials
Beispiele
ered
ernst
fail
whilst
rasch
leisure
Hil@@
2012
U.S.
fähig
impressive
burden
spek@@
GNU
spo@@
unge@@
tre
atoren
zentralen
ok
charges
grundlegenden
Foto
Datei@@
heavy
stellten
involving
dige
natürlichen
perform
legi@@
recht@@
11.@@
Mö@@
Entwicklungsländern
Park@@
constructive
Experten
ght
journey
kal@@
gespeichert
Good
1991
mt
Industrie@@
Stra@@
preise
sätze
Fischerei
Bru@@
Englisch
Get
increases
PS
vo
kat@@
exceptional
break@@
1989
Angriff
castle
mas
ani
zieht
ehen
195@@
entwickelten
insi@@
Shop
Verbesserungen
sup@@
kenn@@
Kosten@@
schwierigen
lan
bild
neuesten
AR
Schweden
blue
amounts
ticket
besitzen
erweitert
hervorragende
disp@@
techn@@
fassen
Beratung
offices
Rechts
ze@@
Ag@@
Bay
criticism
kostet
Schengen
freundlich
zweifellos
laut
Lö@@
oc@@
Over
George
gefördert
lebens@@
Charter
equally
dorf
niemals
prove
Robert
27@@
protecting
Berufs@@
Action
Pla@@
Badezimmer
meist
schätzen
stehende
ech@@
ni
cold
ausgezeichnete
Tagung
leaving
post-@@
Verkauf
fein@@
10-@@
BR@@
sitz
messages
mag@@
Black
eld
tierten
decorated
Fri@@
M-@@
bestand
Europ@@
Stre@@
täts@@
Lauf@@
SS@@
Los
ando
resi@@
ries
lovely
Reg@@
erheblich
hit
Dublin
trägen
Normen
east
passengers
offenen
obtained
Kab@@
mandate
bedeuten
parks
getragen
westlichen
fran@@
residence
kämpfen
ome
40@@
Kin@@
Klima
schnelle
einfachen
bezug
USB
weather
höchsten
depends
Sou@@
Str@@
Hü@@
connections
Flash
doors
directives
unmittelbar
def@@
Ab
anzeigen
filter
peoples
anlage
ys@@
AND
Wirklichkeit
teilnehmen
tickets
Komp@@
Canada
blu@@
Spar@@
11.
involvement
Regime
weshalb
Unterschied
blog
organizations
ziele
ñ@@
father
remaining
Ladies
allgemein
termin@@
proved
fee
entstanden
creates
inst@@
strategies
happening
Halb@@
treaty
lle
Kra@@
Nahen
behalten
King
mi
Bucht
kurze
Mac
Stein@@
mo
sle@@
maschinen
smus
Their
Waffen
Cat@@
Van
Strukturen
parents
stance
combating
Agrarpolitik
Boden
returned
seeing
berechtigt
ausgezeichneten
München
gewi@@
eyes
sexual
ú@@
maintained
ele
vorzu@@
Sy@@
Ausstattung
AC
colour
Websites
Tim@@
verlangt
rating
Vision
let@@
din@@
wie@@
launch
ursprünglichen
falsch
aufzunehmen
tory
cable
contributions
died
iler
Network
issued
tenen
grundlegende
module
Sü@@
Sat@@
bemüht
Ant@@
AM
produziert
46
Kann
Verbindungen
ED
etzen
Anbieter
Tourismus
Abschnitt
Ware
Music
geln
organisiert
divided
Lag@@
digung
repeat
brief
communications
occasion
Dorf
Ratsvorsitz
Croatia
ecken
Dusche
Dem
occup@@
4.
Maschinen
chinesischen
präsentiert
system@@
balcony
renovated
Empfehlung
musste
driver
Jedes
Select
kun@@
uss
offen@@
abroad
entscheidend
z-@@
Neue
discharge
hall
Blo@@
meat
welt@@
pun@@
drink
ought
hy@@
5.
wa
resolved
rein
two-@@
Hostelsclub
doesn
jahr
preparation
Gleich@@
Tab@@
organized
pfen
chtung
Führungs@@
zugänglich
Stellung
Ausgangspunkt
spanischen
restrictions
Problems
Bestellung
erlauben
printing
library
Kamera
Krankheiten
Lim@@
dritte
ain
Förder@@
weist
bedeut@@
rapporteurs
buch@@
lus@@
requirement
Zentral@@
behörde
riesigen
wünsche
abgelehnt
s.
zig
ron
surroundings
assure
Pflicht
configuration
vast
regul@@
reserves
markt@@
roads
Revolution
Hafen
ening
C.
mul@@
Künstler
für@@
Überzeugung
Geräte
umzusetzen
ash
lautet
signs
Staat@@
Punkten
classic
Hy@@
47
App@@
ong@@
ó
Kredit@@
Front
Klasse
collective
Massen@@
ela
höher
maschine
Kooperation
sole
USS
stände
een
identify
definitely
int
Airbus
hardware
bike
Life
AP
är
starts
Wird
Projekten
Analy@@
Under
atten@@
debates
contracts
gratulieren
ont
erst@@
owners
ny
verursacht
ells
betreffenden
urs
erei
Nachrichten
Hinter@@
pass@@
owner
vorgenommen
Trau@@
Des
UN-@@
Post
tes@@
wirksam
regularly
bed@@
Luxembourg
derartige
updated
Buchung
übernimmt
cket
Tom@@
regulatory
Alter
fizierung
anstatt
pers
ize
spon@@
Bulgaria
opinions
precise
tierte
technik
focused
Den@@
Sec@@
characteristics
Angst
funktionieren
wirtschaftlicher
extrem
Mitgliedschaft
eding
Mach@@
tene
Netz
vollständige
resolutions
frame
pil@@
sn@@
investors
verschiedener
Executive
defend
Mich@@
S.@@
zogen
Identi@@
Framework
Set
Abkommens
rap@@
faster
definiert
ile
Steuern
mod@@
systemen
schafft
Thomas
liberalisation
lock
worse
Sit@@
Harmonisierung
dd@@
Kommunikations@@
Gebrauch
durchzuführen
messen
deli@@
kop@@
Sommer@@
facts
vieler
bekämpfen
freundliche
lists
intend
amb@@
komme
conflicts
transportation
gaben
Yes
continent
Organ@@
verstanden
enzen
Eltern
künftigen
inner
MEPs
Dek@@
AK@@
Veranstaltung
realistic
gener
sehe
topic
Film@@
sichere
Will
hundreds
Fähigkeiten
hot@@
joined
glad
Second
Polish
involve
Text@@
elling
wers
Marina
schau@@
Beweis
nat@@
depending
träge
proud
nahm
fordere
match
Report
gei@@
license
os@@
a.
sicht@@
Nein
nights
Erholung
Gestaltung
iso@@
wär@@
performed
Schw@@
Award
awareness
leben@@
aktiven
carbon
echten
zahl@@
impression
conducted
plätze
füllen
dynam@@
ethnic
aufgefordert
Rumänien
Immobilien@@
Ausführungen
umgeben
confirm
Eu@@
frequently
Tisch
MB
Führ@@
Procedure
kurzen
facilitate
Übereinstimmung
ergriffen
Entwicklungsländer
seat
weiten
Ausnahme
wirk@@
sinnvoll
heating
suites
Partnern
Ausführung
corner
operational
jährigen
clubs
understood
wachsen
bre
annehmen
deals
tically
grow
them@@
¤
Programmen
Konflikt
reiche
cell
Las
ino@@
sern
druck
Real
bezahlen
Gegend
lift
Verhandlungs@@
Whether
Institution
ap
nachhaltigen
teren
Reform@@
gän@@
Strukturfonds
correctly
Ausgabe
familiar
festival
Ausstellung
formed
schlägt
Ratspräsidentschaft
ish@@
isi@@
wen@@
hö@@
Umgang
komp@@
leiten
cian
Grün@@
durchführen
Austausch
appointed
statistics
productive
Zwischen@@
Änderungsanträgen
LE
coun@@
iting
frag@@
mostly
effectiveness
firstly
zeugen
follows
Port
index
04
Fac@@
72
ce-@@
zulassen
86
Radio
chn@@
u.a.
prec@@
Aktion
beschränkt
provider
irs
Wohl@@
wan@@
dru@@
Übersetzung
Währungs@@
submit
swi@@
Hall
machte
avec
Ret@@
ault
oning
customs
ky
wasser
Tar@@
sheet
bridge
linien
Vorschlägen
hervorheben
Sun@@
Straßen
answers
Seg@@
eignet
windows
somewhat
demanding
ausgeschlossen
Messe
VER@@
Adobe
sm
18.
Schwerpunkt
ail@@
Hostels
will@@
liefert
gas@@
schem
Washington
interior
bestätigen
custom@@
Dru@@
ac
gehende
electricity
temp@@
Geschäfte
verbringen
dam@@
sight
noted
chter
UM@@
interessante
notwendige
gestellten
altung
drivers
universal
sch-@@
minority
Gentoo
sodass
Mensch
li
Wind@@
Monetary
ultimately
mar
cross
Sauna
orial
EX@@
decision-making
beglückwünschen
Kilometer
früheren
Beitritts@@
Alles
ora
а
emergency
Tru@@
Drittens
stored
Ide@@
blood
Kurz@@
fehlt
Aut@@
grant
aw@@
Wissenschaft
eckt
bottom
personnel
ausgeführt
nungs@@
ließ
techniques
vin@@
stars
publi@@
theit
Schlafzimmer
speichern
Update
MySQL
visited
verabschiedet
stag@@
mä@@
bern
bound
cked
bung
Komponenten
breiten
~
SMEs
Maß
meant
ased
Stück
Mexico
Flü@@
fläche
iten
Brazil
Feld
massage
installieren
cast
Deutschen
52
ministers
Arbeitsplätzen
well@@
reported
aufnehmen
Je@@
parliaments
vorher
PO@@
beg@@
tested
Drittländern
contacts
teams
tables
zugunsten
pm
Sek@@
lik@@
entwurf
prefer
geprüft
hidden
ises
verhindert
einzigartige
zuständigen
welfare
chemical
hostel
islands
tert
lounge
kri@@
ausgesetzt
ausgesprochen
angemessene
ado@@
contrast
inflation
Planung
2.0
V-@@
indicated
nieder@@
Luft
career
fic@@
metal
accompanied
percent
Description
verringern
grateful
buch
Beziehung
northern
sucht
ned
Prinzipien
EG@@
Rund@@
Besonders
rou@@
Wol@@
wann
Gleichgewicht
studio
Sim@@
Cyprus
feed
pped
looked
Band
Verringerung
farm
ade@@
Firmen@@
channels
eingesch@@
zunehmen
presents
Zer@@
Faktoren
gearbeitet
Mur@@
Sony
bert
HT@@
TO@@
russischen
Werbung
Acc@@
valley
Jede
Individu@@
fru@@
ney
relaxation
Euro-@@
passiert
deckt
satisfied
famili@@
subsidies
Mobile
remote
mot@@
delighted
rad
containing
Beiträge
Transport@@
invite
Church
gold
verändern
geo@@
Fuß@@
wines
Sonne
newly
woman
Vereinbarungen
turen
Außenpolitik
Miss@@
Es@@
News
ita
desk
bom@@
rock
Speci@@
ean
Plattform
Gerichte
eastern
unmöglich
Gemein@@
showing
theme
Protection
ordin@@
holen
desired
drücken
Edition
Wein
arrive
flights
eit
Poly@@
Tools
channel
modern@@
isen
Plenum
klaren
or-@@
Schluss
Saint
visiting
declared
Earth
d.h.
tourists
Gesellschaften
höheren
ession
Handeln
welchem
Festlegung
functioning
p-@@
3,@@
terrorist
î@@
ck-@@
Copenhagen
actively
Che@@
recommendation
&apos;ve
ending
aged
cells
Fel@@
BIP
Image
fon@@
direkten
exciting
corruption
Congress
nahmen
entsteht
soli@@
Prop@@
Zimmer@@
visa
Morgen
Pet@@
asp@@
Skype
vacation
ed-@@
judicial
spartner
Act
12.@@
Na@@
scheinen
Wünsche
Zusatz@@
reifen
priv@@
este
widely
burger
AD
Gespräche
decken
1st
heits@@
werten
sierte
categories
Budapest
entrance
Friday
occur
serving
ling@@
35@@
einhei@@
Drogen@@
boot
cosy
auto@@
hil@@
bio@@
careful
ques
schlecht
verleihen
Mün@@
Sicher@@
pollution
Brand@@
bilateral
deck@@
Cri@@
imposed
reise
bestimmen
gran@@
declaration
Trek
Noch
pt
explore
gardens
firms
ungefähr
Space
lauf
erreichbar
Bemerkungen
ska
inhabitants
afternoon
transition
involves
betra@@
Prague
speaker
Mont@@
Red@@
rechtliche
expert
Garantie
generated
Hier@@
51
vertre@@
gestaltet
Hot@@
ov
specified
oriented
winning
formal
Mod@@
dich
Straf@@
ais
geboren
demonstrated
ación
Design@@
erleichtern
Assi@@
gio
teilt
EM
tea
documentation
psych@@
Je
kamen
wollten
Nachricht
basi@@
exit
erneu@@
Veröffentlichung
Regierungskonferenz
collaboration
fashion
gerichtet
directory
ton@@
Chinas
Verteidigung
Ziffer
heritage
gebiete
count
Fru@@
sorgfältig
Minderheiten
stellungs@@
James
reject
strict
Ele@@
nahezu
earth
settlement
atischen
appearance
Digital
maintaining
intellectual
auer
Haftung
spoken
competent
Deswegen
Or
artist
brau@@
motor
Funds
and-@@
Perhaps
lebt
Herz@@
angegebenen
saving
ario
begrüßt
functional
zieren
Baltic
solange
assets
entsp@@
quarter
nit@@
Given
recorded
conditioning
ongoing
argument
Justiz
Zentralbank
expansion
Kir@@
tennis
esch@@
Plus
resistance
Ferien@@
Verbot
Gründung
ski@@
ils
demonstrate
plenty
AU@@
Power
otel
Soviet
ect
replaced
68
bestehende
spe@@
Sorgen
Datenschutz@@
gallery
Kontakt@@
präsentieren
illi@@
high-quality
Portuguese
eing
ère
PRO@@
Versionen
Fon@@
hän@@
zahl
ked
ч@@
aches
ency
replace
uss@@
0.000
derung
ersetzt
Sollten
films
Training
Rest
bemühen
foot@@
Question
schauen
lösung
facility
überzeugen
Studenten
fitness
Arab
lokale
sharing
ond
mix
etes
G-@@
IV
Rem@@
raw
я
eres
fördert
usual
Sozi@@
bet
corresponding
trafficking
perfekt
letztlich
Pack@@
ero
Rom
Chancen
direc@@
fir@@
sil@@
department
rapidly
stylish
è
committees
gezwungen
inde@@
educational
heutige
15.
alization
organisationen
Einbeziehung
vil@@
reli@@
passenger
Marketing
Fun@@
Cha@@
staat
kürz@@
Marktes
iner
ausschuß
justified
regarded
glob@@
isation
sierten
essen@@
spra@@
Sollte
Charta
Boo@@
schlag
Identität
Webseiten
transactions
concluded
Insbesondere
possibly
dependent
früh@@
gewal@@
verehrte
größer
geltenden
weite
HTML
with@@
KMU
einrichtungen
Kurs
betrieben
Hostel
å@@
Signal
informationen
schrift
Umfeld
tem@@
awarded
Fal@@
apart
Bewer@@
Applause
ham
cutting
wand@@
book@@
ENT@@
owned
ž@@
Mobilität
copyright
ent-@@
J
erinnert
foundation
hair
gie@@
label
long-@@
planet
individuelle
liegenden
scheme
Fein@@
vorhandenen
BO@@
Tou@@
entes
vorlegen
bekannte
Balkon
standen
räger
Gest@@
Golf@@
Preisen
moral
Zielen
Bars
selbst@@
beraten
lasting
britische
TO
bereitet
su
absch@@
wed
se-@@
Wir@@
dürfte
ace
Rob@@
mother
ferner
oms
swe@@
Ram@@
towns
zieh@@
treiben
connect
Town
Vorgehen
zun@@
Untersuchungen
Py@@
CE@@
flat
updates
EP@@
Northern
Num@@
kla@@
emerging
respon@@
respected
verbinden
assume
66
з@@
puts
routes
characters
overcome
zeichnen
Fischer
sich@@
jegliche
verhalten
Wi-Fi
Hungary
ann
Internet-@@
Puerto
ail
omp@@
direkte
prot@@
yed
verkaufen
het
spectacular
IV@@
determination
Software@@
Glas@@
erfolgreiche
Blu@@
sz@@
organisieren
abgestimmt
Freiheiten
cuts
partly
minorities
tackle
Selbstverständlich
belie@@
Fle@@
anst@@
crimes
übrigens
Vorschlags
Belgium
wohnen
verdient
eil
programms
professionals
heat
satisfaction
acted
dur@@
credibility
sprachen
prozesses
IT-@@
Women
Lok@@
isch-@@
Newsletter
manufacturer
Don
eti@@
individuellen
spi@@
Mail
identi@@
Cu@@
einig
handel
Eurozone
stronger
angegeben
reduzieren
entscheidende
vorschriften
Gerichtshof
Sig@@
ading
component
verkauft
ssi@@
Son@@
entwickelte
Games
gerät
Werke
Kräfte
cash
kg
Oder
non
gehenden
bly
6.
Verbreitung
Konsens
ete
Tour@@
derer
Schwar@@
gewährt
occasions
Asien
din
verurteilt
aktiviert
beziehungen
Mitarbeitern
Kapitel
Arbeitsmarkt
jün@@
Within
marquis
Eing@@
begrenzt
Politiken
zentral
Studien
aner
bemerk@@
Krankheit
dan
Anschluss
get@@
mö@@
beruht
programming
Videos
54
Wirk@@
modell
stischen
einheitlichen
disk
Tem@@
fans
lob@@
Zone
hum@@
wat@@
Mes@@
rali@@
immigrants
annte
import
weekend
Konto
Zwecke
sending
glaub@@
Well
arrived
nam@@
ental
Pact
schö@@
sicheren
Amendments
Desk
enjoyed
Cra@@
Client
Champ@@
Nah@@
tier@@
still@@
erhebliche
äußern
slightly
inklusive
grundsätzlich
strategischen
Canon
einfacher
Wachstums@@
reform@@
vorstellen
Termin@@
Besorgnis
Medien@@
genannte
Fehler@@
miles
Food
genügend
fs@@
Nummer
ico
division
Vel@@
Gewicht
Pakete
Following
pack@@
bekämpfung
solid
adults
et-@@
rental
71
Extre@@
Get@@
housing
but@@
CON@@
Wes@@
Städten
trag
liberal
hängen
tei@@
distributed
Israeli
Dre@@
Gam@@
Ton@@
г@@
raten
Vorstellung
ums@@
addresses
constitutional
drinks
Waren@@
Kas@@
enabled
legitimate
â@@
aum
Rezeption
Freunden
ktionen
Einwanderung
UC@@
sprach@@
92
mach@@
igung
cab@@
industri@@
Exchange
Mail@@
shares
herr@@
tan
Sein
ader
conver@@
va@@
Erstellung
Fron@@
Schlüssel
ées
beschäftigen
Hohen
ruhig
Gerät
providers
cial
mann@@
heben
nd
boo@@
youth
CE
nunmehr
domain
tered
suppliers
versorgung
Bedrohung
Kap@@
Systemen
Schulen
Gesam@@
jenen
194@@
jo
losses
·
subsidiarity
generate
Charles
sensible
Main
banking
Taiwan
mächti@@
identified
wiederholen
offiziellen
Year
Without
vorbereitet
Dach@@
filled
Cer@@
wrote
magnificent
üb@@
funktion@@
erzeugt
destruction
secret
Bemerkung
ishing
Eli@@
theory
effektiv
ements
AF@@
Asyl@@
steuer@@
werken
Prof@@
constitution
läßt
7.
elte
Selbst
gewonnen
Mol@@
ented
Gold@@
description
interpretation
Auge
tlicher
Marke
orts
gangs
EA
maritime
Malta
zusammenarbeiten
OF
Ah@@
drei@@
exception
behaviour
Erzeugnisse
straight
tun@@
fas@@
Zy@@
lers
taxation
Live
considering
ema
rising
globalisation
Zusätzlich
aussprechen
pot
aufs
Blog
par
smo@@
Grad
Atlantic
sinn@@
sek@@
prü@@
sprach
layer
Project
elsewhere
Wohnung
Tau@@
leistung
wear
Browser
electric
ensures
egal
kompet@@
Lie@@
dance
spann@@
VAT
gesellschaften
67
wege
geräte
Europol
rie@@
fantas@@
verstärken
eventually
gebieten
außerordentlich
Denk@@
erfolgreichen
tively
milk
anne
Sunday
sü@@
führten
Next
shot
Hungarian
Fax
denden
niveau
herrscht
poly@@
französische
Gran
arti@@
Kauf
Mission
Parlament@@
EB@@
Einheit
tischer
Schwei@@
Viertel
Kontrollen
sit
notes
rig@@
exports
Valley
kette
Structural
anz@@
wissenschaftliche
virtual
preparing
SV
A.
mes@@
antes
symbol
Play@@
ologi@@
rum
traditionelle
battle
encouraging
hear@@
extraordinary
unverzüglich
NI
inger
oper@@
Kyoto
Roh@@
ös@@
jener
tief@@
erhielt
scene
courts
erlebt
slow
Sektoren
aux
uting
elec@@
wave
Verk@@
17.
Tabelle
Like
ank@@
ci
portal
proposes
Thirdly
©
evol@@
op
decisive
irgend@@
voraus@@
beschrieben
dischen
eingereicht
Eisenbahn@@
visibility
Gran@@
ator@@
liked
verantwortungs@@
alized
Pul@@
conf@@
ffs
Benutzer@@
kt@@
zäh@@
Salzburg
Stimm@@
asser@@
Bereitstellung
vulnerable
formation
selben
didn
Sho@@
Rö@@
topics
citizen
politi@@
Balkans
vieles
entscheidender
Person@@
Apple
ulate
Rap@@
itäts@@
Choose
Wohlstand
packaging
Programm@@
weisung
army
everyday
Point
gram@@
Islam
Verb@@
New@@
por
Blan@@
ites
stream
revi@@
Master
ähnlich
Vorsitz
Vorsch@@
substance
dende
Einkommen
bonus
kleines
selling
Lieferung
Theater
deficit
Beschluss
complicated
enhance
OK
surely
gefallen
sugar
chts@@
Stat@@
plenary
Werbe@@
Touristen
Assembly
wechsel
beigetragen
antly
SC@@
tos
university
WLAN
Neben@@
Rich@@
Ep@@
transpor@@
Spaß
finanziert
add@@
inclusion
lessons
luxurious
studi@@
großem
20-@@
Kontext
Tool
spoke
Ansichten
garten
accurate
8.
änden
bestimmter
kanischen
Sicherung
examine
schu@@
ologischen
ride
intern@@
supplies
ag
Sum@@
Zwei
Männern
directed
patent
Nos
§
videos
Rus@@
invest
Boot@@
asses
sk
Thursday
arguments
Ungarn
bislang
fahrer
proven
handle
jährige
ungser@@
Garden
wunderschönen
lad@@
elektronischen
gestattet
ories
angebot
Schlussfolgerungen
Form@@
ahn@@
verkehrs@@
Rahmen@@
ols
Katastrophe
Frei@@
fly
zustellen
proceed
viol@@
therapy
excessive
beteiligen
Vorlage
COM
impose
root
concepts
MA@@
Mangel
Dienstleistungs@@
Quality
16.
igkeit
arm@@
suffer
integriert
60@@
leistungen
wohl@@
Brasilien
deposit
Staates
finish
renowned
Genehmigung
hundred
applying
Budget
Leg@@
absence
Bö@@
stolz
druck@@
equi@@
essi@@
ests
File
Law
punkte
einzigartigen
vermitteln
Protocol
shipping
ergibt
Hom@@
Betrag
Einwohner
relative
fü@@
adopting
hervor
wert@@
ima@@
forests
klar@@
solches
Kontakte
Dauer
ET
suggestions
departure
ville
56
drug
dt
Bou@@
greatly
akt
verbindet
Vater
objek@@
pes
unde
geschichte
schwer@@
Polizei
sichts@@
menschliche
vorher@@
diplom@@
kraft@@
cot@@
lined
BMW
Modelle
flows
Bul@@
savings
eig@@
Plas@@
mischen
abuse
anwesend
Rechtsgrundlage
trend
aqu@@
carrying
Besides
traditions
sozi@@
Trop@@
bereichen
satzes
ehrt
arischen
alities
centuries
pel@@
ami
investieren
fang
lied
SA
sische
gg@@
passen
--@@
wonder
heim@@
häuser
vorsch@@
saved
gained
Schiff@@
ativ@@
asing
trial
representation
chem@@
mechan@@
hör@@
bearbeiten
comparison
Cup
Alt@@
solely
voluntary
proposing
colours
raising
subjects
Wo
ätze
countryside
beendet
organ@@
Guests
mol@@
kräfte
CS
sab@@
villages
gungen
Konsequenzen
ization
absor@@
Bern@@
Boden@@
Lounge
L-@@
supplier
ersetzen
Entscheidungs@@
Ke@@
tree
Provinz
paying
steller
duties
bility
Ol@@
ordinary
Arbeit@@
disabled
thousand
internen
eingehalten
bat@@
zeichn@@
Darum
wiederholt
artistic
auff@@
gh
Les@@
ähnliche
Landes@@
geboten
philosophy
int@@
PP@@
Hamas
grös@@
resul@@
appeared
53
museums
freut
ter-@@
Posi@@
gering@@
cell@@
sus
motor@@
skiing
beantworten
überprüft
a.@@
sers
Wur@@
verfügbaren
gewissen
bereitgestellt
trips
Positionen
toler@@
fuer
effizient
gerufen
Elektro@@
Prozesse
dul@@
Schwer@@
nevertheless
treat
consent
hr
individuell
bergen
übersch@@
Beschlüsse
receiving
promised
Holiday
invited
PD@@
della
Professor
fern@@
Vier@@
Interessen@@
Objek@@
no-@@
ring@@
aut@@
klein@@
reservations
inten@@
pursue
missing
Legal
non@@
Strom@@
Kroatien
weitgehend
Pil@@
tobacco
Maastricht
ziel@@
Castle
script
altet
manche
refer@@
König@@
beobachten
periods
inmitten
bedeutende
difficulty
klu@@
mussten
wechsel@@
licht
Ganz
nde
lischen
liefer@@
cos
uted
laufenden
GN@@
anc@@
Egypt
unity
digt
zuständig
enswert
Having
Jun@@
Politik@@
Mei@@
Kopf
mittleren
tot@@
award
Direk@@
gebildet
bekommt
ffe
Überlegungen
confirmation
unds
Glaubwürdigkeit
suggested
upper
uter
ref@@
St
esti@@
Refer@@
portfolio
ausgezeichnet
sozialer
sicherung
б@@
Trotzdem
Monday
Parkplatz
fertig
entspannen
erstmals
satz@@
verwaltung
Kulturen
-based
pools
setz@@
Reduzierung
anbelangt
sounds
wach@@
Zivilgesellschaft
Bulgarien
Place
Cur@@
pure
einbezogen
Based
CF@@
Gast
anim@@
Suiten
Mr.
ausgerichtet
Gegenstand
mid-@@
probleme
depend
Situated
Christ@@
Passwort
Check
overview
reduziert
wireless
88
4,@@
optimale
Islamic
ursprünglich
XP
prosperity
stil@@
eat
Korruption
reit@@
rem@@
initi@@
langfristige
Agriculture
langsam
Playa
istic
gue
Glück
Budgets
necessarily
wirtschafts@@
verteilt
80@@
Tan@@
FT@@
leb@@
Mrd.
typ@@
Asian
Gehminuten
Geschmack
nummer
well-known
patient
Seiten@@
welcoming
delicious
moder@@
Parameter
Anlass
drop
Spre@@
gedacht
Gefahren
attempts
Energien
ausgegeben
productivity
angesehen
mali@@
cleaning
wis@@
Rol@@
hill
sichtbar
Gut@@
leaves
Americans
Offen@@
sprech@@
wirtschaftlich
Vorhaben
löschen
ras
Telefon@@
Völker@@
referendum
prin@@
herunterladen
teilung
ständen
weak
ori
pä@@
schwei@@
merk@@
gres@@
KDE
dauert
richtet
Kollegin
Tip
Dafür
sau@@
gut@@
Konzer@@
Stoffe
instructions
arbeits@@
SD@@
permitted
SL@@
Eigentum
Pin@@
Strasbourg
10.
chtet
verein@@
Gewährleistung
gewünschten
auftreten
parameters
Lebensmittel
Pau@@
religion
Finanzierungs@@
mangel@@
richtung
existiert
fix
altern@@
farming
Filter
sections
homes
play@@
united
59
letztendlich
Körper@@
enabling
villa
Through
esse
DO@@
imports
Federation
recognized
Schiffe
lobby
visu@@
projekte
auswählen
luss
betreiben
schnell@@
täglichen
Gerade
anner
lev@@
dream
politically
struktur
Wald@@
Aufsichts@@
behaupten
Bahn@@
addi@@
rieren
satisfactory
Geben
significance
constitute
ament
verkehrs
killed
ura
angepasst
Verlust
entschlossen
continuous
allocated
Drei@@
Wirtschaftswachstum
kontaktieren
publication
dienst@@
rot@@
Don@@
estimated
atz
hierbei
CD@@
bach
Pon@@
kehr@@
zukünftigen
revision
füll@@
refers
Guide
unforgettable
stä@@
camp@@
inos
sively
fax
succeed
ital
kontrolle
Prüf@@
unterscheiden
rare
Single
wort
Wechsel@@
Facilities
aut
Sterne
clean@@
supposed
Cent@@
roll@@
Bade@@
functionality
tionally
bis@@
Personal@@
Kriegs@@
gelingt
künftige
societies
spiele
iPhone
Bot@@
welcomed
bares
Fahrzeuge
anzuzeigen
Dep@@
cooperate
zentren
Erfüllung
ume
breit@@
Tei@@
Weg@@
nungen
Geschäft@@
Kommissions@@
sah
absol@@
Gaza
sparen
Entlastung
einzusetzen
Def@@
ald
Est@@
ließen
gründen
Praktiken
Typ@@
klein
Gericht
kn@@
ange
Det@@
obliged
Who
Benutz@@
fourth
Belgien
Übergangs@@
versichern
graphic
steuern
militärischen
vent@@
9.
Schiff
Prozesses
Line
specialist
song
größeres
Freitag
ès
Genießen
Islands
Les
58
individu@@
й
verti@@
utz@@
acceler@@
destroyed
pp
trieben
stern
verteidigen
konfrontiert
militärische
HO@@
toward
Thailand
ey@@
anschließend
hung
ologische
offene
Verfassungs@@
leh@@
Tat@@
ix
yo@@
ECB
12.
illu@@
hardly
stör@@
Anstieg
archi@@
Finland
allzu
blocks
kno@@
contributed
hier@@
chti@@
entfernen
93
Mini@@
Verarbeitung
Anti-@@
none
male
ра@@
Gemeinde
gelassen
konzentriert
remained
lived
Australia
Ausflüge
zeug@@
heim
Berliner
legte
Verletzung
ano@@
Sind
Up
designs
interessant
adap@@
covering
elli@@
actors
Bis@@
Perspektive
Album
Willkommen
Runde
prakti@@
dering
welcomes
itali@@
organic
Andere
classes
fundament@@
Nachbar@@
resource
errors
unabhängigen
Kla@@
Zeitung
äden
Gerechtigkeit
Gir@@
euros
Standort
Frühstücksbuffet
prime
Mut
maß@@
yers
Sin@@
printed
lunch
dence
ford
hi
empfangen
ere@@
dau@@
Last@@
bestellen
sex
negotiating
13.
Family
harmonisation
Should
armed
Amt
fulfil
Sachen
Übernachtung
brachte
oring
hospitality
Institu@@
fähigen
Situationen
sty@@
ans@@
Top@@
Nachbarn
songs
Komm@@
Eink@@
explained
letters
suffered
zeug
vollständigen
unterstreichen
supervision
preventing
Zug
protocol
indicate
fees
trends
Schweizer
zuzu@@
formats
ux
thin
Betten
Institut
viertel
modi@@
ollen
Flüchtlinge
waffen
dy@@
Quelle
adverti@@
tori@@
gendes
wettbewerbs@@
vice
unterzeichnet
sphere
amenities
ken@@
gste
illegalen
Ker@@
Education
tracks
ind
ji
mitteilen
Wirtschaf@@
computers
deswegen
dargestellt
gemeinschaftlichen
movie
Weiteren
institutionelle
Organe
h-@@
Stad@@
züge
strategische
Top
gering
fanden
63
Mah@@
bisherigen
Director
restricted
reaching
komple@@
anhand
Pläne
legally
aire
roman@@
Anwendungs@@
turning
thermal
musical
forthcoming
Märkten
Fir@@
stages
prop@@
könnt
mitglieder
combine
Tätigkeiten
vorzulegen
barriers
weis@@
gap
57
betreffend
c-@@
driven
freedoms
ô@@
thi@@
einsch@@
wirksame
Optim@@
Donnerstag
spreche
NGOs
abstimmen
ote
everybody
hart
ento
flächen
zukünftige
lieber
Krisen@@
arise
kro@@
Wür@@
cour@@
Schon
natürliche
gewis@@
hochwertige
Verteilung
Roll@@
introducing
halb
Grünen
belief
Fla@@
äh@@
angebracht
Up@@
stocks
Quellen
originally
Hö@@
Widerspruch
Regierungschefs
enheit
URL
oth
football
unterliegen
Veränderung
caseinline
appe@@
Cookies
conventional
labelling
Ankunft
grosse
nutz@@
vorgeschlagene
Saturday
mente
Sammlung
wellness
sustainability
ax@@
Abendessen
umfangreiche
materi@@
stück
Bin@@
fassung
um-@@
enhanced
aran@@
Auditors
wild
hydro@@
Lang@@
transmission
movements
GT@@
premi@@
Does
enterprise
Blue
olog@@
verdienen
vorgesehenen
Redner
pit@@
Venice
grade
enge
ungs
69
suit
Schloss
geprägt
firmly
SW@@
Transpor@@
Ebenen
AIDS
fuhr
linken
Using
severe
itä@@
Mark
effiziente
fährt
alisierten
fairly
reflected
realise
praktische
Geschäft
unabhängige
Kong
sauber
Geschwindigkeit
Equ@@
showed
sing@@
servers
festlegen
langfristig
Kanada
Datum
vertrag
Internationale
Zus@@
Ausmaß
gam@@
GM@@
behoben
egel@@
passt
Zuständigkeit
schule
Finanzkrise
entsch@@
Vista
beings
selten
Mallorca
proceedings
remarks
hingegen
anschließen
Bab@@
Stability
stimm@@
gemeinschaft
Stimmen
fikation
UL@@
cancer
Ablehnung
14.
lösungen
kel@@
collected
boards
nbsp
virtu@@
Corporate
Vietnam
Rent@@
eo
Rio
Piazza
imagine
strukturi@@
vorschlag
tol@@
reflects
gebeten
82
Serbia
vorge@@
adapted
considerably
amt
täten
gesetz@@
Zahlungen
budgets
director
geraten
Hä@@
grenzen
edition
hearing
Regional
Socialist
sierungs@@
förder@@
Lat@@
Ga@@
vorbei
dio@@
amazing
Ale@@
Büro
normalerweise
94
seri@@
Armee
key@@
án
wachsenden
eta
sammeln
whereas
Captain
iled
Konferenz@@
Typ
ро@@
benen
shed
ill
obstacles
safeguard
stieg
tual
erkannt
Bibliothek
Search
62
Ed@@
universities
Sau@@
sogenannten
Leitung
sw@@
SE
adapt
normalen
enthaltenen
Respekt
Inv@@
CHF
Reisen
endorse
Sul@@
Road
dark
Lizenz
Zivil@@
Abhängigkeit
fit@@
Berg
wahren
gewähren
ished
Christmas
parliament
EP
alisieren
regardless
coordinated
super
zahlung
Stockholm
König
dings
73
Techn@@
acceptance
Deutsch
Dreh@@
graphics
freundlichen
Rein@@
female
dere
Ali@@
Regel@@
birth
Partner@@
Mutter@@
dry
hervorragenden
activ@@
ope
any@@
romantic
Hab@@
Location
lim@@
Darstellung
faith
Ari@@
GU@@
Geneva
schnellen
automati@@
fast@@
Got@@
chair
Erinnerung
verboten
Objekte
dankbar
a.m.
VI@@
wür@@
arbeitete
folge
thy
900
tail@@
Sohn
gemä@@
nehmer
Freizügigkeit
sights
schli@@
hen@@
investigation
signi@@
externen
virus
worthy
amed
ign@@
Börse
steigt
switchinline
Micro@@
aufgebaut
equivalent
string
bili@@
consulting
sach@@
Maschine
forschung
Content
dict@@
reaction
Staatsan@@
Gerichts@@
ato@@
federal
Heizung
hohem
ichte
tief
fähi@@
methoden
annten
beenden
Meines
greift
Prozess@@
läu@@
tigungs@@
vorliegende
öffentlich
supplied
generations
dens
Urheber@@
Wochenende
till
sin
ease
vessels
märkte
vereinbart
quar@@
ration@@
e-
Forsch@@
proc@@
0s
besonderer
Aktionsplan
exploitation
Konflikte
mouse
det@@
pretty
Indian
undoubtedly
decade
Customer
feu@@
Г
Abschaffung
managing
alem
abilities
checks
Jugend@@
körper@@
Rückkehr
kontrollieren
compact
ordered
leu@@
produzieren
Gang
disasters
Orte
ungsverfahren
alty
vic@@
Hong
bereiten
step@@
Reservierung
heißen
.xhp
Tür@@
gert
ares
77
travelling
rechnen
iniert
hervorgehoben
Haushaltsplan
sees
graph@@
Entspannung
Volkes
Planeten
ouse
Ach@@
Teams
low@@
fleet
Dam@@
Erst
geplant
sought
mouth
Stuttgart
89
Führer
konferenz
griechischen
ernsthaft
erfreut
Beide
Notes
Symp@@
sischer
greif@@
politisches
Culture
Information@@
gefragt
bs@@
restored
Cy@@
missions
Exper@@
nicht@@
joining
inner@@
internationally
nütz@@
Befugnisse
guided
ausgewählt
Marken
jetzigen
metro
leitung
Fahrt
NO@@
Berichten
anywhere
mess@@
antworten
Investitions@@
erzeugen
shift
cement
Jahrzehnten
bestimmungen
Beteiligten
us-@@
pris@@
courage
analyse
Dritten
Kirk
alisiert
komplette
pet@@
panel
Alexander
zog
dating
sible
nec@@
underground
roots
letz@@
Administration
Kü@@
küh@@
vali@@
Il@@
of-@@
vent
tier
öff@@
unterschiedlich
aling
sound@@
decline
ager
dische
Verlauf
umzu@@
Access
Der@@
Nav@@
mini@@
MA
exclusion
Tor
beru@@
beschränken
tiz@@
eur
überein
Gleichstellung
Binnenmarktes
wald
Pot@@
Blut@@
melden
gelesen
layout
Georgia
Geheim@@
einheitliche
processed
Tibet
Netzwerk@@
erfordern
steten
Go
Fan@@
Debian-@@
shadow
BC
believes
Kreditkarte
überaus
gelegte
Dokumenten
ners
bou@@
bol@@
doub@@
grad
angewendet
500@@
Modul
mine
ten-@@
switch
reliability
profession@@
Diam@@
bo
berechnet
magazine
mittlerweile
learned
excluded
SCH@@
steh@@
entgegen
festzulegen
ure@@
ped
Tests
schweren
i-@@
cultures
bezahlt
entdeckt
Papier
heit@@
restore
trav@@
Tourism
Friendly
max
diversi@@
penalty
Handels
Lizenz@@
leichter
Faktor
Meeting
commun@@
sim@@
satisfy
subsequent
Sitz@@
Schlaf@@
Euch
Objekt
transferred
gehei@@
zugrunde
Großteil
Academy
Schönheit
deep@@
regel@@
Mutter
autom@@
CD-@@
irre@@
Länge
bild@@
gkeiten
erwähnen
Terror@@
dunk@@
krise
klassischen
berichten
besu@@
letzter
Bearbeitung
91
seu@@
agi@@
Sonn@@
Tages
Vorausschau
floors
kte
concentrate
luss@@
restructuring
Hat
Berich@@
reserved
Eingang
clause
usage
61
violations
korrekt
remin@@
emplo@@
factory
justi@@
но@@
lien
Events
Allianz
schla@@
untersucht
bedanken
komfortable
perfekte
diert
Licht@@
Ursachen
verse
Kategorien
hierfür
humanitäre
nachdrücklich
counter
reck@@
Tal
stammt
Area
dent
aster
ACP
gesp@@
ökonomischen
faces
entering
steam
kernel
hü@@
ebene
gestaltung
Gemeinsame
Spielen
maßen
everywhere
Hauptbahnhof
rol
groß@@
sand@@
non-smoking
dignity
sovereignty
umsetzen
ats@@
assembly
Port@@
eingegangen
zurückzuführen
tile
hast
contrac@@
Mir
Opposition
voc@@
Tausende
Sound
aside
erweitern
geleitet
Direc@@
Be
Nero
ght@@
Casa
sand
Pati@@
Foto@@
ко@@
Branche
keys
Stock
Fried@@
bende
sichti@@
umfassend
Opera
produces
Kriminalität
stant
holds
ever@@
Will@@
Emissionen
stan
gungs@@
tac@@
icon
musi@@
pap@@
Musi@@
Aktu@@
Commissioners
Rechten
Arbeitsplatz
Sol
cla@@
heading
einf@@
ray
blei@@
Sudan
Agenturen
dead
plastic
var
Il
vornehmen
meal
overlooking
Fr@@
Museen
gehör@@
grossen
einzuführen
meter
nine
Schla@@
Nahrungsmittel@@
records
76
approve
deut@@
student
Balkan
ausgewählten
targeted
Richard
lädt
Investoren
Pack
Joseph
enorme
Module
Bag@@
Gibt
assess
bour@@
Cou@@
listings
Früh@@
eingestellt
main@@
ex
hoffentlich
Vertrages
occurred
GR@@
Generationen
Küsten@@
festgelegten
picturesque
Registrierung
Haben
Koh@@
ähr@@
ANT@@
Schön@@
porting
Waffen@@
miss
Ok@@
ütz@@
Würde
phones
cool
Ama@@
Haut
treatments
accident
stores
undertaken
tum
strengthened
Fernsehen
frühen
eingeb@@
seconds
mid@@
teils
Minute
bright
Would
operates
deeply
Cel@@
senken
Staff
Gor@@
wonach
geeignete
besorgt
worst
normally
Bereitschaft
Somit
Anwender
oria
strasse
Industry
promise
A5-0@@
cin@@
lü@@
offizielle
Dro@@
Mü@@
vorschläge
ativer
Lern@@
operator
Besitz@@
Verzeichnis
H-0@@
Rechtsstaatlichkeit
adding
ih@@
empfohlen
EZB
78
dei
Deb@@
schnit@@
einfach@@
digitalen
begleitet
Among
bles
Innenstadt
teste
attached
recording
executive
trat
Anim@@
intelligent
IK@@
Reserve
fishermen
Zahlung
past@@
struc@@
eleg@@
collec@@
fut@@
eda
selb@@
würdig
reconstruction
Van@@
icht@@
posed
1980
stattfindet
synchron@@
colors
panoramic
gal@@
oned
Hum@@
adds
Spezial@@
festen
Schn@@
disc@@
freely
gements
izi@@
direk@@
amp
diskrimin@@
folder
eur@@
Dies@@
LA
Parkplätze
ausgaben
pur@@
Common
hiking
Archi@@
Schad@@
Handlungs@@
Audio
fers
Speisen
Stärke
Kontinent
rö@@
General@@
verwende
-up
province
emen
Überblick
empty
Black@@
geäußert
DR@@
ARE
unfair
IM
dated
geber
engines
gement
voraus
superior
individually
anniversary
Öffnung
EE@@
illustr@@
ennen
bathrooms
stran@@
mere
solar
IMF
worfen
mented
plate
presenting
Speicher@@
räumen
Oberfläche
Volksgesundheit
ups
dness
Golden
dollar
keinem
Dritte
Frist
Keine
qualitativ
pot@@
highlights
logical
Strand@@
Strecke
Tel
Audi@@
Miß@@
Email
tain@@
Steuerung
türkischen
pressing
casino
ati
profits
Kle@@
wechseln
30.
nützlich
verfol@@
briefly
Herz
CAP
flug@@
Dialogs
Explorer
collect
iling
Consumer
Presse@@
Kranken@@
prozesse
array
manufacture
revolution
popul@@
Cho@@
lehr@@
CDs
Denmark
Niederlanden
threats
belong
codes
Amerikaner
Quar@@
ø@@
fik@@
taxi
Ferienwohnung
fähige
fro@@
selber
prospects
Dass
Resolution
Sky@@
Instruments
Kompetenz
Vir@@
imperi@@
300@@
esta
chern
Währungsunion
neighbouring
reputation
pace
Ty@@
program@@
statisti@@
Motor
genaue
steigern
Spitzen@@
M.
funded
Wellness
Umwel@@
Kampagne
Key@@
acknowledge
wage
sleep
ecological
datei
akzep@@
begins
Gelder
west@@
langer
Cab@@
poses
herrlichen
returns
teaching
reis@@
Kapital
kurs
Herbst
Consequently
bewältigen
journ@@
Chem@@
oured
Jugend
gegenwärtige
Cle@@
engaged
gestärkt
twice
warning
three-@@
Nat@@
gewer@@
Wandel
sichergestellt
struggle
lieben
überwinden
gesetzlichen
zerstört
operated
Wirtschaftskrise
ici@@
camp
such@@
Umweltschutz
binden
Saf@@
stuff
varied
labor
stunning
visual
Autobahn
loser
Andererseits
PA
cas
io
Lesen
Schreiben
eria
Quell@@
Residence
efficiently
rupt
Differ@@
Detail
BSE
stration
Auftrags@@
ergänzt
mile
Bestimmung
ases
Öl
erklär@@
zwingen
execution
inn
ziger
xen
Science
gia
Zürich
kus@@
Maschinen@@
Miet@@
eigener
richtlinie
gültig
meets
Hohe
eben@@
bot
Society
äm@@
Dokument@@
unmittelbarer
manual
Bir@@
Projek@@
Bord
Satelli@@
behält
proportion
Potenzial
Montag
integrierten
mem@@
cit@@
kir@@
effek@@
Vereinfachung
immer@@
Freund
froh
outs
combines
Phili@@
U-@@
riding
verweisen
Florenz
zel@@
zeichnungen
Lit@@
Bour@@
ř@@
gesam@@
surprise
án@@
aktuell
Kern
native
speciali@@
itable
Messe@@
Verein@@
stärkere
Debatten
CN@@
Bol@@
peri@@
Belgian
Automati@@
gon
74
Projekts
opens
By@@
makers
Bed
Š@@
mistake
delete
Conc@@
frem@@
itäten
Bit@@
EV@@
Tsch@@
sufficiently
funktion
gleichermaßen
CL@@
Kaffee
unden@@
pillar
Wesentlichen
о
Export
acqu@@
Autos
lichkeits@@
Have
Lü@@
nic@@
eurozone
rechtzeitig
checked
heads
vely
zukommen
wendet
19th
kilometres
Benutzung
irischen
SQL
wur@@
rolle
Beseitigung
Intern@@
Berichterstatters
highlighted
phenomenon
UNO
Professional
BS@@
territorial
angemessenen
Account
illa
Afri@@
meister
zige
negativen
manu@@
seats
CR@@
Presse
strah@@
Erhaltung
yard
garage
shel@@
urgently
push
sophisticated
vis
parameter
atur@@
Parti@@
anzubieten
Rh@@
kel
DC
succ@@
legitim@@
TS
Plug@@
ktion@@
Small
relates
Nokia
shuttle
medicine
langfristigen
fot@@
scientists
grown
Geschle@@
stammen
EU-Mitgliedstaaten
enes
Renn@@
upgrade
Suites
SAP
arising
Zw@@
schm@@
ahn
Av@@
klasse
Tür
effektive
ses@@
Kandidaten
diplomatic
aring
bedeutenden
Polizei@@
ms@@
convenience
ry@@
ua
candidates
A.@@
inspired
Sup@@
Modus
benden
derzeitige
projec@@
spä@@
endet
Language
feet
College
zü@@
typischen
ct
uniform
specialists
gewählten
ection
81
wartet
unentgeltlich
Bereits
mögen
Mechanismen
entation
xis
Fläche
Parlamente
acquired
predic@@
damages
besucht
Children
polis
sit@@
Straßburg
Fire@@
Lux@@
Hinweise
ähn@@
anwen@@
hinzu
Further
lica
aktu@@
Sobald
causing
meals
kern
Gewinn@@
Ordner
nar@@
ín
concert
Hard@@
ept
bi
Einen
sorge
virtually
außen
Rand@@
Luxemburg
appropriations
Ombudsman
succeeded
betrieb
Pension
в
gehörigen
oldest
ily
angenehmen
Versorgung
choices
habit@@
olo
Bom@@
recognize
5,@@
constructed
Anmeldung
Berge
Stamm@@
Dingen
rechtlich
lenken
350
dal
integrate
bewahren
pick
zia
ENT
Bug@@
intends
extra@@
Bedürfnissen
Mass@@
honour
Appartements
griffen
Schulden
construc@@
rable
marine
boost
part@@
zy
resulted
Fehl@@
stoßen
geographical
vention
stem
ı@@
Leit@@
sichtlich
roll
Lastly
Verkehr@@
Innovationen
Tonnen
angenehm
bank@@
Kopenhagen
referring
ão
impor@@
Patent@@
Studi@@
erstaun@@
Personen@@
diff@@
schw@@
Operation
hierzu
erfahr@@
maxim@@
ost@@
untersuchen
Sierra
tant
engage
tö@@
producer
ländliche
strictly
enne
Fluss
phot@@
ential
stab@@
Höchst@@
alter@@
pas
entscheidenden
engli@@
consequence
glo@@
essentially
eable
eless
hou@@
Religion
coherent
Sonntag
Deck@@
dauer
unch
affects
Islam@@
gradually
boats
wes@@
champ@@
tivität
hole
Source
QU@@
gänge
urlaub
gate
ues
atom@@
benutz@@
kümmern
realer
compar@@
passing
classical
hypo@@
Eur@@
errichtet
plug@@
liable
ington
knapp
llen
DV@@
Hän@@
Ägypten
top-@@
explanation
klassi@@
tab
Augenblick
beinhalten
lichsten
dateien
konkret
reporting
loading
ples
Warcraft
Asi@@
Meg@@
Car
Visi@@
ologisch
я@@
sitzen
vorgestellt
widespread
bü@@
ärer
ober@@
wertung
Edi@@
Sound@@
Nikon
müsste
Übertragung
taining
vergleich@@
narrow
attri@@
hop
denjenigen
onal
bay
4-star
innov@@
losigkeit
gekennzeichnet
Staats-
Bedien@@
lla
snow
überlassen
aviation
percentage
Drittel
Felder
ätzung
ätz@@
Häuser
auffordern
Stock@@
gefähr@@
ires
fted
Free@@
ünd@@
Work@@
exact
incorporated
IX
radik@@
spezialisiert
Senkung
sement
Saddam
fehl@@
Investment
nern
Regulierung
Besuchen
erklärte
human@@
troops
praktischen
administ@@
favourable
chtigen
produkten
kontrolliert
pression
grund@@
Pflanzen
finanzieren
clicking
HD@@
forth
hes
fiziert
Dokumentation
grünen
angel@@
revenue
gross
Ausbildungs@@
87
Pacific
Authority
gastronom@@
anwenden
Program@@
freund@@
Eth@@
Käufer
Tauch@@
teachers
ached
soil
Al
fak@@
projekt
stechnik
Zusammenhalt
sequ@@
organis@@
LIN@@
Govern@@
beer
tnissen
Nachhaltigkeit
stick
Porto
n-@@
alcohol
Jer@@
fes
Argumente
Mechanismus
Hindernisse
Danish
cker@@
Todes@@
Mittelmeer@@
GE
airports
til
Erst@@
stories
agents
UNESCO
geschickt
Vertretern
ret@@
alls
Max
Jugendlichen
Ansprüche
img
rad@@
girls
befasst
Department
ho
constitu@@
abili@@
verl@@
clock
victory
bett
Entwickler
Team@@
repair
renoviert
Eng@@
DER
Urteil
Beachtung
geführte
ected
Rock
considers
TE
¼
älteren
Ergebnissen
loo@@
2015
objec@@
Vic@@
199@@
weak@@
Todesstrafe
Game
participating
Sicherheitspolitik
tut@@
Sem@@
Stell@@
Register
chron@@
gere
netz
programmen
Mandat
ht
lian
verfahrens
rank
olive
Premierminister
developers
gelangt
Lis@@
Cooperation
sied@@
Aktivi@@
surprised
gy@@
encouraged
Esp@@
eventuell
verwal@@
Entfernung
frequ@@
capabilities
sexu@@
Samsung
dation
Ay@@
ßer
siv@@
Glauben
angeb@@
definieren
Ori@@
prosec@@
Ersatz@@
Level
prob@@
wu@@
tiere
Macht@@
observed
sä@@
beeinflussen
chinesische
tigkeiten
ood
lier
betrieb@@
Jon@@
Index
organiz@@
klimati@@
gehandelt
fällig
.net
specialized
Ass@@
domin@@
stayed
azz@@
Kopf@@
diesbezüglich
broken
attend
wesentlicher
navigation
column
mäßige
versammlung
sterben
Truppen
correc@@
scheduled
contextual
günstige
Widerstand
ography
6,@@
moderni@@
weltweite
hinzugefügt
mentation
Pr@@
BM@@
Nor
willingness
Mexiko
src
Journalisten
Apart
Transfer
world-@@
prison
hills
müssten
Enter
free@@
25.
Constitutional
HD
UR
grenz@@
Foot@@
achievement
Helsinki
Wirksamkeit
optional
Chile
Airlines
edited
Portal
gefährdet
Vice-President
wahr
oli
Kein
setzte
wander@@
utmost
Civil
Finnland
lit@@
festzustellen
by-@@
spite
verletzt
bringung
Terms
Full
ali
och
liger
Betreuung
Cir@@
associations
Louis
akte
Ner@@
sidenten
booked
arm
Versammlung
Urlaubs@@
begrün@@
europäisches
Holz
bewer@@
ansehen
conferences
prisoners
regulated
Oliven@@
geblieben
Erlebnis
permission
seeks
Over@@
wooden
know-how
roof
angewandt
insist
composition
Saison
neun
Auflösung
märkten
sessions
thri@@
tags
preserve
ekt
Gewal@@
exec@@
iges
armen
kehren
Make
promises
Fur@@
Wild@@
Jerusalem
Weil
clarify
bruch
wonder@@
shore
oftmals
180
pilot
accidents
Präsenz
Werten
jek@@
Är@@
uring
rations
bak@@
Scho@@
stung
Mädchen
XML
ao
professionelle
convention
crises
fenster
verst@@
illegale
umin@@
ve-@@
momentan
jedenfalls
iring
sauber@@
kas@@
FA@@
theore@@
ück@@
Travel
theatre
alongside
83
abend
ergänzen
loaded
minor
assigned
Frequ@@
spät
Web-@@
Räume
geliefert
Read
eries
ý
Cr@@
Finde
längst
regelung
Viel@@
eien
Publi@@
indoor
&apos;m
soeben
geregelt
tivity
catch
bien
nes
Tabak@@
alitäten
Gemeinschaften
porte@@
cky
suff@@
mische
Strände
Bildern
chapter
Franc@@
itation
Kohäsionspolitik
sitz@@
Billi@@
Dresden
alisierte
infolge
Tak@@
Cock@@
Samstag
Wohnzimmer
design@@
fing
id315@@
Aktien@@
akes
lement
ose
homo@@
bewerten
quotas
Marken@@
NE@@
schwierige
discount
acks
Ly@@
purely
evident
stätigkeit
blan@@
bug
hopes
harmful
netz@@
airlines
Engineering
tains
Product
Swi@@
gesetz
Schrift@@
anzunehmen
Schu@@
convergence
kle@@
tliches
Inflation
garanti@@
verbindung
dor
wirkliche
Firefox
Big
nü@@
Regional@@
schwere
sektors
bewähr@@
regierung
Verwirklichung
Ratschlag
dist@@
Aufzug
zent@@
Spitze
hinweg
Vorstellungen
expand
ened
Span@@
Software-@@
tigte
fehlen
Modernisierung
Ticket
Rechner
charakter@@
Lev@@
peti@@
suche
Jedoch
new@@
isse
RS@@
gesucht
Zuge
verwendeten
dest
ě@@
Basel
Glei@@
palästinensischen
finanzi@@
eht
transfers
dispute
agne
charm
angle
accounting
Hit@@
stry
Bed@@
mon
communicate
flexi@@
elli
Bestell@@
Cl@@
calm
ansprechen
herstellen
MP3
Florence
seemed
compulsory
Wen@@
Spezialitäten
Vertrag@@
Energieeffizienz
B5-0@@
stake
jk
quellen
encies
s-
20th
Az@@
incentives
humanitären
edit
decre@@
Sz@@
references
Doppelzimmer
Versicherungs@@
anger@@
afrikanischen
Michel
implications
unt
aufzubauen
verringert
power@@
List
Three
ea
adventure
fan
saf@@
Haar@@
K-@@
Joint
Wirtschaftspolitik
Hardware
governing
sel
relationships
Muslim
stam@@
Übrigen
Cuba
Corporation
radical
hur@@
arts
gabe@@
günsti@@
geschlossenen
kanische
istisch
chtigkeit
Betriebe
Jesus
bearing
chi
Bla@@
wäl@@
distur@@
Nigeria
branche
entliche
Gau@@
elev@@
superb
hervorragend
Errichtung
band@@
ultimate
öl
organise
initially
arians
stag
Chairman
hä@@
Weiterentwicklung
CA
Stri@@
Riviera
Burma
progres@@
Stiftung
HU
Kit@@
Schle@@
Milch@@
Add
1.5
forming
expense
12.00
busy
enjoys
Adri@@
sample
arium
verhältnis
Schwe@@
kennt
Performance
ungst@@
bahn@@
Treaties
ehemalige
wächst
Pak@@
vi
tags@@
Jac@@
tious
Gay
gast@@
Unterkünfte
Gruppen@@
zahlungen
eland
meaningfully
sien
Schei@@
Bücher
smooth
portra@@
Herr@@
digitale
html
Leipzig
Werden
felder
pop@@
gor@@
Imp@@
offenbar
Philosophie
wife
medieval
entieren
Library
ede
crew
believed
Grundlagen
änder
ücken
tagen
staying
closure
maximal
statten
м
manchen
Edinburgh
inal
Os@@
Fei@@
krimin@@
multilateral
technique
approaches
versteht
äumen
enthalt
Flughäfen
Außen-
Safe
H-@@
ank
Fabri@@
Kaffe@@
strukturen
Schüler
Traditionen
describe
maybe
Arena
Armen@@
Satz
Schwellen@@
Vie@@
Listings
italienische
leiste
Zypern
poker
wind@@
Schulden@@
derte
Amts@@
Zwar
Danach
stische
partic@@
stur@@
sional
alisi@@
Verteidigungs@@
berühmte
Jewish
84
Wohnungen
addressing
retain
Laden
sprechend
Bek@@
repeated
shortly
Press
var@@
woo@@
Super
Ky@@
enforcement
bungen
werks
mehrfach
eded
dial
Jung@@
volles
Wissenschaftler
Series
Inc
remarkable
esc@@
erh@@
ändert
Akteure
studied
hungen
Umweltfragen
digungen
utt@@
Bak@@
concentration
Ausarbeitung
bought
completion
tender
CEO
ierungen
Volkswirtschaften
Fli@@
custom
fair@@
Fundamental
audience
interne
Arbeitnehmern
Mode
Flo@@
collabor@@
ehm@@
Annehmlichkeiten
Wähler
Coun@@
Peti@@
Orten
kontextuellen
endor@@
negotiation
cop@@
Einer
Vermittlungs@@
entdeckst
permit
Nord
chter@@
V.
Salz@@
employed
entstand
schemes
kostenlose
ons@@
kamp@@
eliminate
frequency
Valencia
1988
Filme
faßt
Wit@@
Fahrer
kür@@
alists
vac@@
ziel
Ven@@
Jean-@@
Syria
gäste
Export@@
erend
cum@@
ados
nutzt
deci@@
Real@@
cer
ingredients
buses
kra@@
hinzu@@
eingebracht
prev@@
grammatically
Wiederaufbau
sizes
Nich@@
contextually
Eff@@
amended
fizieren
grund
Katalog
geniessen
Krieges
hinzufugen
tness
Times
Effekt
Zwischen
verw@@
Tieren
Ehr@@
segment
Allah
poorest
qui
ж@@
Himmel
erteilt
kontextuell
d.@@
asset
enormen
grammatisch
constitutes
Autor
vorzunehmen
exposed
Arti@@
Seri@@
fried@@
Argument
gesellschaftlichen
vorliegen
Verbraucherschutz
Prot@@
gence
tali@@
Subject
medicines
Strah@@
anten@@
leich@@
Internetzugang
Ausrichtung
Gesetzes@@
Sekunden
Kommentare
aufbauen
olle
bla@@
ć
arranged
lic
kes@@
chairman
Schlusselwort
Schlusselphrase
Apart@@
cen@@
halt@@
aufgezahlt
Comple@@
teen
chairs
Revision
nehme
logo
Pir@@
tribute
abel
Deutschlands
Lernen
rus
Ech@@
paths
Appartement
Sieg
Vordergrund
überwachen
communic@@
ull
Inn@@
Nehmen
ausüben
mail@@
Ken@@
translated
extending
anen
Updates
campaigns
ship@@
bekann@@
geschäft
Ausbau
planen
beseitigen
SP
SA@@
liter@@
Cit@@
ore@@
desto
Maj@@
prize
110
caf@@
sent@@
Dänemark
Wall
BA
certified
Together
echn@@
lass
endo
Aussage
ad-@@
Copyright
Palma
enburg
Bestätigung
reagiert
NICHT
Serbien
Denken
gemeinsames
ized
flat@@
Lor@@
berger
ausser@@
Werkzeug
Befehl
vorgelegten
shor@@
Inform@@
History
loses
managers
verständlich
Übergang
Tun@@
poll@@
rest@@
divi@@
League
neo@@
Bezeichnung
beantwortet
stätten
preferred
ample
Physi@@
Metro
HIV
beu@@
milit@@
ji@@
Empire
trained
newsletter
ektion
proz@@
appro@@
bonds
enting
fewer
legitimacy
bedürf@@
dumping
Kommun@@
umgehen
professionellen
ckets
appointment
Angel@@
Wasch@@
gebühr@@
Sektors
boasts
Km
financed
detailli@@
Verbrau@@
zero
fresh@@
diving
bru@@
nov@@
Ausweitung
rum@@
neighbours
ruhige
thumbnail
zugs@@
wissen@@
signing
Burg
städ@@
zeichnete
trags@@
Plenar@@
D.
sig@@
ratification
dlicher
31.
beln
Sowohl
südlichen
Reh@@
Moscow
solved
cope
Mängel
residential
ani@@
tial
Eisen@@
weilen
Ruf
veränder@@
ware@@
Siemens
Oli@@
wand
lock@@
baus
Abfall@@
eingeleitet
repe@@
desirable
prohi@@
gestartet
iPod
advis@@
sorry
günstigen
gewidmet
ury
Wand@@
teuer
ständi@@
ide
Sab@@
Sens@@
betre@@
sad
Universitäten
ownership
PM
ardi@@
Moder@@
Internal
fire@@
enhan@@
mixed
tax@@
Wednesday
Green@@
enger
terror@@
Beru@@
bevölkerung
Vorsitzenden
Erwachsene
künst@@
Besitz
electrical
taus@@
Set@@
Att@@
examination
urgency
schä@@
quest
Inf@@
gewöhnlich
Sun
Slovakia
Unions@@
wick@@
Anonymous
Storage
Gegner
nächster
Program
cle
suggests
crow@@
verstehe
hinaus@@
Erfolge
transaction
beach@@
400@@
ids
freier
hochwertigen
moments
mäßigen
perio@@
LAN
Einsatz@@
innovativen
landwirtschaftlichen
enjoying
pec@@
Rit@@
Souveränität
deserves
han
Arch@@
aktualisiert
gerechte
gegebenenfalls
reads
appar@@
24.
alisten
event@@
iss@@
drin@@
fascinating
WW@@
inadequate
Inst@@
full-@@
becken
behand@@
exemp@@
Klassi@@
Haf@@
östlichen
secondary
iron
commit
elegante
Kie@@
Stur@@
Genau
tigten
uten
Original@@
gebenen
desktop
instru@@
staat@@
Eines
ind@@
thaus
collapse
üblichen
erhoben
क@@
ign
selec@@
underlying
Hof
Vereinigte
Spaziergang
broad@@
whereby
IBM
Wind
Russlands
keineswegs
leiter
IWF
Maß@@
repeatedly
perf@@
Atlan@@
130
partial
natur@@
azi@@
erkunden
Anmerkungen
Gottes
Glob@@
Chin@@
foundations
escape
sely
ress@@
travellers
begun
Rin@@
üh@@
Café
pic@@
nei@@
Insgesamt
erstes
position@@
Immobilien
welle
Können
veröffentlichen
Kooperations@@
cookies
prefer@@
öst@@
kräften
pft
ador
Kön@@
conciliation
Monte
Patri@@
besonderes
achtet
Festplatte
Editor
cious
Intelli@@
eder
losing
proble@@
größe
herzustellen
dramatic
Rü@@
umfassen
Niederlande
Besonder@@
journalists
denkt
zusehen
vacc@@
gesichert
ausgehen
unnecessary
extrac@@
vez
gab@@
hotel@@
SU@@
stens
Ehre
berichtet
Entwick@@
gefährlich
würdigen
Zweiten
ökologischen
Several
genes
Med@@
gestiegen
bigger
Event
eni@@
ologischer
representing
bud@@
hilfreich
rom@@
rev@@
designer
expanded
suited
Ran@@
seln
Intergovernmental
swriter
PAR@@
zweifel@@
atta@@
hell
compete
Schreib@@
glichkeit
Employment
gesetzten
fügen
occupation
Vari@@
saal
ichten
forwar@@
ds@@
Human@@
gige
hundert
Blair
vollem
gehend
Existenz
cancellation
zo
sever@@
stärksten
kün@@
parlamentarischen
Modern
Migration
HID
sport@@
Glück@@
tiker
modify
ris
Marco
intensiv
zahlt
sozial@@
angehen
considerations
Ministry
ausländischen
beibehalten
Anbetracht
Palette
evi@@
religi@@
euer
offiziell
Nichtraucherzimmer
häl@@
Ingenie@@
observe
sey
ego
iness
err@@
ool
zin@@
verbreitet
effizienter
vary
false
Ablauf
Fassung
principal
thro@@
Montenegro
emo@@
hence
Woh@@
Feld@@
Verkaufs@@
Statistiken
gewünschte
sco@@
bon
economically
Radi@@
Gas
splendid
1986
violation
Ausblick
größter
Prozeß
counts
red@@
Feu@@
ы@@
Ange@@
zusetzen
existieren
venture
Chief
EX
beteiligten
comparable
listening
kti@@
quelle
bits
Distribution
andal@@
mass@@
Publikum
purchased
konsequent
OLAF
höchst
ghter
baby
differ@@
characteristic
Kau@@
gegenüber@@
gericht@@
Fisheries
reibungen
Ereignis
Prof.
paket
Nizza
BER@@
sender
instantly
wai@@
lor@@
transp@@
Nation
zeigte
GA
timetable
erleb@@
elektronische
Konvent
Section
thorough
Mir@@
Gebühren
fluss@@
Left
Düsseldorf
schwedischen
Lad@@
ep
measurement
7,@@
g.
Gaz@@
coastal
schar@@
Kompetenzen
ancy
DS
Edel@@
Leben@@
ahnen
genau@@
smart
tent@@
fare
maj@@
möglichkeit
Antri@@
erwiesen
erheben
Entschlossenheit
certificate
Quark
lively
Hen@@
Sav@@
Inclu@@
tat
gemütliche
regionen
tension
annt
xel
incorpor@@
sensi@@
genuinely
TV@@
examined
geni@@
withdraw
Lom@@
lans
prozeß
calendar
79
spectrum
lette
Rechnungs@@
Hör@@
gefühl
Demokraten
carte
der-@@
debating
günstig
gift
geschlagen
kungen
Andalu@@
hard@@
matic
τ@@
lische
Immer
generell
tätigen
drop@@
ille
Prag
beispiel@@
Lot@@
ción
Mé@@
Werkzeuge
Know-how
gewicht
Verbrauchern
informal
diver@@
Bekann@@
linge
Ausrüstung
chat
blind
ly-@@
allo
onic
Aspekten
Erreichung
kleinere
integrierte
Bestellungen
tolerance
Alps
Patten
baut
по@@
agen
betriebe
grenzüberschreitenden
viewing
slopes
fat@@
over-@@
techni@@
W-@@
cken@@
dev@@
convert
openness
wehr@@
schriftliche
pattern
exist@@
Bevor
bürokrati@@
vertraut
widmen
bewegt
bedroht
BI@@
perform@@
high@@
turns
kas
autumn
Schau@@
Lehrer
Ratifizierung
gestatten
Contact
ago@@
featuring
Original
speeches
logic
kit@@
falling
foremost
bewus@@
Rechn@@
richtungen
connec@@
DL@@
fix@@
textile
Heimat
schung
weichen
simultaneously
soul
intentions
Sports
pay@@
genauer
eas@@
William
adult
Stahl@@
Sachver@@
alternatives
apparent
loans
Weiß@@
arily
Tickets
shing
credi@@
anpassen
funktionen
Vorrang
spots
strike
Rennen
Vermögens@@
accessories
branch
dend
liz@@
reibungs@@
hohes
civili@@
schwi@@
Betrieb@@
arabischen
bewußt
Ps
accuracy
horse
tips
früh
Australien
geous
Mem@@
pol
Val
Abteilung
Wett@@
Pflanzen@@
ähnlichen
Diesen
terminal
subsequently
EW@@
orientation
viewed
situ@@
arte
lights
affili@@
Ideal
papers
Ashton
External
Behörde
hafter
Type
rated
fft
Clubs
kostenlosen
erwerben
fell
Brücke
DN@@
ior
Venedig
arbeitungs@@
1945
isti@@
mung
2nd
sunny
destinations
complaints
ethical
Regen@@
Risiko@@
t.@@
Len@@
Net
Arts
hang
ideally
stones
moreover
stein@@
Wäh@@
EG-@@
afford
Morocco
Spi@@
überrascht
chts
kten
teilungen
conversion
Spor@@
Gemeinden
codecision
smoking
ystem
Dur@@
geladen
Verwal@@
vertrau@@
tera
atik
zugeben
förderung
Change
tool@@
posts
destroy
uno
falsche
fangen
schwerwie@@
finanzierung
unterschiedlicher
anzuwenden
expenses
manufactured
respects
Greens
Konvention
gebung
affordable
Berei@@
22.
Präsentation
öffentlicher
Slowakei
getreten
authors
mechanical
arrangement
Lap@@
Uns
Schnell@@
E-Mail-Adresse
kit
Schil@@
Tief@@
langem
Weine
dieren
earn
som@@
Gö@@
hielt
Steigerung
gues
sheets
essing
Host@@
vermittelt
devoted
Sing@@
terrible
gü@@
pensions
reib@@
Durchsetzung
accordingly
Jahr@@
erkennt
formular
verz@@
Brow@@
ution
icht
stil
Samm@@
spür@@
sisch
Klarheit
Otherwise
stopped
excursions
FR@@
fter
на@@
umgehend
lieren
Anzeige
artige
chemische
bird
Chan@@
kurse
Wichtigkeit
mur@@
celeb@@
Kreuz@@
solch
Soldaten
α@@
komplexen
Ursache
schnitt
fortsetzen
alled
geringen
Village
Caf@@
і@@
Kenntnisse
Häfen
num@@
WTO-@@
specify
cost-@@
ester@@
guaranteeing
Audio@@
standes
erteilen
sses
Youth
Für@@
Schicksal
depth
ME
composed
1985
schir@@
Schulz
fahrzeuge
bewegung
zweitens
behavior
continuously
Haiti
funktionier@@
zweiter
ña
ander
ket
Bud@@
1987
blick
behauptet
Garantien
SS
Order
Tech
Start@@
Übersicht
wachsende
komplexe
Master@@
sid@@
importantly
Gü@@
Meinungs@@
xe
clarity
survey
vocational
Automobil@@
stands@@
gehörige
jährlichen
LT
verbreit@@
kombiniert
verurteilen
preserved
Nordic
Growth
condemn
refused
Einsch@@
frü@@
Kredi@@
mäß@@
motorway
nä@@
Vorgehensweise
editor
answered
inspection
histor@@
Poker@@
hochwer@@
flexibel
publish
entries
FI
inclusive
wel
eux
derart
glich@@
spanische
wise
FC
onia
centers
lining
SDL
Cin@@
Lager
Plätze
Fortsetzung
Ander@@
Block@@
kunden
Fleisch
Seele
eting
residents
jointly
Palestinians
niedrigen
äder
herrsch@@
Dynamik
relief
verursachen
eure
instrumente
Rechen@@
Volkspartei
rufe
Herkunfts@@
Mittelmeer
v.
mand@@
Boot
forgotten
Force
Versand@@
entran@@
fragt
lüsse
revised
tragedy
Lohn@@
sul@@
Solar@@
vertra@@
Brü@@
tragic
Hände
Inhalten
GO
heav@@
bic
Bergen
CO
Menschheit
Ents@@
fifth
erische
gelegenen
Kommissionspräsident
noon
pain
gepf@@
ständiger
anzupassen
Wünschen
Entwicklungshilfe
SL
Organis@@
afraid
gon@@
Jan
schwan@@
getrennt
gebäude
trenn@@
änge
nisses
bewertet
potenti@@
Solana
vertritt
beabsichtigt
grand
Distri@@
Southern
oppose
Jean
Strom
interess@@
Ferienwohnungen
stal@@
öffnet
finds
cir@@
Ros@@
herausge@@
Betreiber
inneren
beweisen
buying
erfol@@
Linien
drückt
9,@@
tie
certification
Garten@@
Schmi@@
Frauen@@
blicken
üsse
umfangreichen
violent
instruc@@
unt@@
emer@@
ame@@
mein@@
Lateinamerika
wirklichen
ensu@@
lassung
ен@@
klin@@
treas@@
jurisdiction
Francisco
ful@@
SK
traum@@
befürworten
terin
Kürze
Weltkrieg
mensch@@
Versprechen
eve
Water
commerce
gemütlichen
Partnership
ausgestattete
Zuverlässigkeit
Alternativen
fünf@@
broader
biom@@
GAP
ð@@
erheblichen
arrange
Ry@@
aled
Heads
Halle
oked
ION
schedule
deadline
lte
äuß@@
Aussagen
mir@@
stops
erarbeitet
doubts
closing
tion-@@
gradu@@
argue
yo
aush@@
Zimmerbeschreibung
at-@@
assurance
dacht
Jag@@
engen
ceiling
Stau@@
Reinigung
Zucker@@
begegnen
Weiterhin
consum@@
Hans
inte@@
arri@@
Commerce
Saint-@@
überra@@
Einzelheiten
pair
angebote
Lieferanten
Oc@@
relaxed
omen
mmen
Kennzeichnung
derselben
Mischung
schutzes
promoted
Gesicht
brands
Avi@@
tionary
here@@
Fang@@
Offenheit
arbeiteten
Haushalts
pack
publishing
eder@@
evo
typisch
tausend
alistischen
Profil
geehrte
transfer@@
Connec@@
holder
gingen
teln
23.
stattgefunden
fungen
gieren
clu@@
ground@@
nobody
Phot@@
zentraler
Problematik
standardi@@
dog
KG
öse
könne
respektieren
belongs
honest
schn@@
nötigen
meldung
-und
Südo@@
harmonisi@@
Gallery
affecting
displays
sculp@@
Kul@@
po
Sto@@
insul@@
afri@@
IP-@@
technisch
ausführ@@
präzise
organize
wheel
tower
Peri@@
enor@@
il-@@
ни@@
¶
zustande
fertigung
Bü@@
auswirken
dimensions
focuses
lot@@
Sex@@
tradition@@
Finnish
stet
Dou@@
signals
cio
sus@@
Mot@@
Quad@@
angekündigt
ems
NEW
Million
Taste
klären
Beschränkungen
terrasse
strebt
Olymp@@
specially
tropical
erie
Funktion@@
Bauern@@
erleichtert
innere
uneingeschränkt
removal
PE
sake
TA
davor
perpet@@
Betracht
Provi@@
rub@@
lei
Fans
focusing
Wich@@
geren
ku
namen
verpflich@@
Netze
Nachdruck
inary
ре@@
eleganten
aching
exhi@@
Past@@
Bewusstsein
deutliche
eits@@
short-term
MD@@
Labour
pressed
ebt
einiges
medizinische
hood
viable
quantity
Wissen@@
electoral
Kling@@
vorliegt
regionaler
California
elen
nel
Clar@@
xed
Gy@@
krieg@@
Änderungs@@
vertrauen
maps
Stan@@
gemessen
wirft
methode
Phil@@
lac@@
attended
Proz@@
knew
ops
whe@@
renewed
Zurich
mini
evalu@@
healthcare
Schö@@
motivi@@
spüren
verteilung
duration
contra@@
Pum@@
stren@@
PN@@
Sä@@
Baum@@
kurzer
sibility
refuse
Yo@@
kü@@
nicht-@@
cameras
fts
up-to-date
visits
Gem@@
sogenannte
Zeitplan
Bauern
Maxim@@
Cast@@
univers@@
olen
Ausnahmen
integrity
chose
tari@@
Gebir@@
stärk@@
Desktop
360
zip
fam@@
dien
‚
Minister@@
verbindungen
jüngste
keiten
stressed
einstellen
übt
führungs@@
90@@
boxes
declare
ecks
recall
Südafrika
Verheugen
HP
winner
Empfang
egen
Derzeit
Dav@@
drucken
Zielsetzungen
plane
unknown
tone
PER@@
missed
ratio
unterbrochen
haber
alisierungs@@
installations
Ford
Gui@@
tica
russische
Eröffnung
pper
alise
progressive
Freizeit@@
vermutlich
österreichischen
Protokolls
advise
automotive
basically
faire
transitional
Szen@@
geisti@@
painting
judge
30-@@
Gute
ehmer
Wahrung
endgültige
zweif@@
whatsoever
W.
ehe
wunderschöne
Co
bag
precision
Feuer@@
prospect
faszini@@
grenze
empfängt
archive
adjustment
Neues
privileged
Berlin@@
Galileo
realisiert
researchers
officially
expressly
fications
Interface
monuments
Ski
ml
Illu@@
hing
angenehme
Heimat@@
küste
tatsächlichen
ranging
GPS
ariat
Lebensmittelsicherheit
authorized
Alban@@
eth
less@@
dity
issen
zimmern
Ministerpräsident
miß@@
catalogue
enni@@
ingu@@
Č@@
Übernahme
erforderliche
Tool@@
ht@@
ignore
drives
rela@@
deserve
institution@@
Part
Brau@@
politiken
kriterien
horizontal
Kün@@
leistet
erstreckt
menge
verwiesen
fairen
Frühstücks@@
May@@
wol@@
ftung
Minderheit
herum
Produktivität
gau
Alters@@
plac@@
environmentally
ony@@
zurzeit
å
abe
Nachmittag
wärts
verarbeitet
lebenden
typically
1970
trains
Massage
cap
Betrifft
Гј@@
last@@
cz@@
moderner
posted
anna
vals
erweisen
cross-@@
Schnittstelle
Engli@@
delays
credible
ctions
Cologne
than@@
insp@@
fa
schie@@
Zellen
Bevölkerungs@@
Display
Tarifa
presidential
Rab@@
Representative
aufgeführt
verarbeitung
Georgien
rational
Augen@@
geringer
exhibitions
Lieb@@
PRODUCTNAME
whenever
ric
occupied
Ord@@
actor
dienstleistungen
drängen
imported
neighbourhood
agen@@
lossen
Erarbeitung
genießt
passion
Ms
EIB
läufe
visi@@
Olympic
onds
rac@@
newspaper
Solutions
feder@@
Laut
Taten
anerkennen
Right
aks
dep@@
soldiers
bac@@
Lun@@
esten
ursprüngliche
rücken
observation
esi@@
Iron@@
Fak@@
kollek@@
brauch
Landwirtschafts@@
zeichnung
erwähnten
begründet
Tradi@@
Kontak@@
Install@@
mines
GUE
Gewi@@
Drogen
Händen
verzichten
formuliert
movies
Dum@@
arrest
aufnahme
Chancengleichheit
Kohlen@@
chers
dring@@
isierung
Großen
promising
Nation@@
zugestimmt
Verfahrens@@
the-@@
absurd
Ref
geeigneten
interessanten
Zerstörung
Syrien
Everything
uncertainty
Until
sson
populations
arbeiter
bezeichnen
komfortablen
begünsti@@
vorsieht
End
bedro@@
interven@@
dien@@
Schne@@
Herkunft
promenade
Dri@@
übermitteln
cycles
Daniel
verstän@@
kapit@@
sensor
identification
Hyper@@
holi@@
diagno@@
scar@@
gan
dokum@@
Fischler
technischer
aggres@@
Bay@@
hem@@
inser@@
Bureau
freight
Digital@@
einst
Privatsphäre
Jav@@
But@@
oli@@
liegende
mechanismen
achievements
ausger@@
planung
beneficial
feedback
surveillance
weit@@
verabschieden
erweise
neutral
marking
dres@@
dal@@
Prize
Haft@@
vable
beef
explicitly
gla@@
Milan
tia
Experim@@
gebühren
ausländische
vereint
persi@@
interactive
releases
proximity
symp@@
musikali@@
gerung
Kurz
Gewinn
frequent
IA@@
rung
Fast
SC
Wiederherstellung
Bürokratie
downloaded
sandy
leichte
Abbau
Advanced
Chr@@
Country
Lar@@
emerged
Fisch
nem
terung
religiösen
dieselbe
unusual
suspended
deu@@
sovereign
moves
ा@@
Aufhebung
occurs
converted
institute
literature
Tari@@
emphasi@@
erien
ESS
cancelled
fin
replacement
tels
Hafen@@
dieselben
sicherer
Rückgang
hire
ial
trouble
nahme@@
herrschen
gelernt
erarbeiten
yang
140
Defence
läge
eröffnen
throw
sailing
ür
nur@@
gend@@
habt
rechn@@
ierungs@@
schenken
Tower
aul@@
Save
Studios
act@@
tigh@@
Designer
1,5
hört
orientierte
Mittwoch
abgesehen
utes
precious
employers
comb@@
ц@@
EIN@@
Wellness@@
gehabt
Angabe
gehe
fuhren
`@@
SY@@
decor@@
haus@@
Sac@@
prinzip
ökonomische
ax
Ann@@
fitted
machinery
Strategi@@
Ltd
aking
här@@
reguli@@
licht@@
plätzen
Verfahrens
prestigious
patri@@
facilit@@
Fremden@@
zeichneten
medizinischen
Summe
Liberalen
änderungen
split
distinction
Wat@@
Technologies
schein@@
Adressen
Nichtraucherzonen
EURO@@
flying
ature
concerts
ér@@
logistics
ava
Zahn@@
Minibar
cus
angen@@
Nic@@
nete
Gut
beinahe
handels@@
Ful@@
jed@@
compla@@
entlich
zugelassen
konfigu@@
eted
License
degrees
stim@@
Beijing
Third
Bahn
Kreu@@
UNG
obligator@@
subscribe
J.
Rand
bestände
Zunahme
eigentliche
Verordnungen
Bridge
Gil@@
fav@@
ook
granting
feste
wahre
sized
Develop@@
retail
Fremd@@
vie@@
enced
ple
rey
Roth@@
eindeutige
zweck@@
marktes
postal
toilet
Governance
fahrts@@
liert
ssig
kohär@@
Mar
11@@
behandlung
angenommenen
premium
Strasse
verkehr@@
entspann@@
streben
Intel@@
siven
dahin
umso
Klimawandels
mechanismus
CM@@
gebau@@
Funktionalität
announce
ices
eping
relevanten
Stufe
verschaffen
Kapazität
Tag@@
Vin@@
Kel@@
chemicals
Theorie
dasselbe
vermieden
gemeinsamer
preparations
Sri
debated
Tampere
spektakul@@
kämp@@
sub-@@
certainty
Origin@@
refle@@
Wettbewerbs
Edit
Argentina
mist@@
Dest@@
prevented
ruling
taxpayers
Fahrzeug
blieb
Erhalt
höchster
plant@@
europa
herunter@@
integrieren
Experience
zzo
reflection
Händler
kredi@@
Finanzen
indicates
oration
äum@@
geringe
trags
Terroristen
accum@@
bab@@
ritten
berührt
menü
Einnahmen
Formulierung
patterns
negotiated
territories
Kämp@@
exce@@
tle
9001
ssa
Trend
theater
Presidents
landschaft
undertake
Umstände
verzer@@
Wireless
favourite
Rek@@
rem
Doha
glei@@
Anreize
academic
Charme
innen@@
etabli@@
zwischen@@
kleineren
Could
consistently
revealed
indicators
funk@@
Bad@@
Versuche
Begründung
Installations@@
anforderungen
zones
maximale
industriellen
Amerikas
ison
Bett
besser@@
alike
lighting
publications
Köln
stützt
alp@@
heated
ph
Mobili@@
realize
mistakes
deficits
befürwortet
pum@@
black@@
ude
tisches
Bildschirm
retten
zwölf
etri@@
bahnen
heutzutage
problemlos
Lul@@
hyper@@
esa
trop@@
threatened
Non-Smoking
Tam@@
ophi@@
ratified
kö@@
ë@@
Nam@@
tigem
comprises
admit
secondly
Fall@@
26.
untern@@
Intel
Rural
tries
Route
lös@@
ears
hesitate
29.
recession
Ausgangs@@
oberen
kritischen
eg
en.@@
cali@@
resp@@
gelegene
Richter
doppelt
Kontra@@
tauchen
Verabschiedung
Hist@@
gangen
formul@@
Scotland
necessity
aktualisieren
verage
En
insufficient
Volk@@
Schuld
Binnen@@
Leiter
keits@@
purchasing
lovers
stering
Doma@@
gegenseitigen
Wälder
Photo@@
Well@@
deaths
Anbindung
inci@@
Sich@@
mern
glaubt
bedauerlich
à@@
berat@@
geg@@
Besu@@
Print
text@@
stücke
späteren
Glas
schalten
PPE-DE
evaluate
jun@@
tioned
generous
innovations
Zeu@@
terien
fün@@
VI
tika
pak@@
bereit@@
lusses
architectural
telecommunications
m.
primi@@
civilian
eingeben
ahl
aufgestellt
snow@@
BS
etry
Karl
cast@@
2.5
aces
geräum@@
hunder@@
kampf
dün@@
acquisition
Holland
elf
Meinungen
photographs
Terminal
Themen@@
durchzusetzen
Double
eled
mün@@
ec
formula
Dok@@
scre@@
anning
Schwarz@@
ja@@
Meister@@
bezogen
Ausgrenzung
Look
Class
abgeben
beruflichen
niedri@@
Menschenrechtsverletzungen
Consi@@
nos
thanking
basieren
automatische
00.xhp
catering
frau@@
Reich
beschäf@@
negotiate
magic
rist@@
wünscht
bisschen
favorite
inge
1979
entlichen
rever@@
ef
wski
kehr
Vertrieb
Jugendliche
Spektrum
ota
dollars
Gan@@
Logik
Verfolgung
spare
profit@@
passieren
Sant
veranst@@
spielte
defaultinline
empfiehlt
Abgeordneter
Rechnungshof
digit@@
fails
airline
protest
Wald
nieren
Handlungen
Bürgerbeauftragten
senior
placing
transit
slo@@
hn@@
boden
beschreibt
Lissabon-Strategie
veni@@
para@@
ebenen
Konzern@@
ressourcen
lem
Call
DP
ij@@
schönes
wör@@
Energiever@@
Bühne
station@@
High-@@
gratis
gle@@
rows
I.
performing
Amp@@
Inde@@
alien
fahrten
kreis
benannt
beruhen
teri@@
3D-@@
konkur@@
wars
ria
Wetter
ehrlich
präsen@@
gebunden
defining
Conditions
sende
Satelliten@@
normen
Metro@@
greenhouse
Eri@@
zunehmende
Raums
mandatory
justify
argum@@
GP
streng@@
oma
aben
28.
Anträge
wertvolle
lowing
harbour
iner@@
ennung
passende
atively
SV@@
versehen
platten
Fakten
erlangen
locate
claimed
borne
admi@@
Innov@@
bureaucracy
Türen
Künstler@@
copies
BL@@
intelligence
dic
schlechte
sear@@
Aufenthalts@@
rahmen
Funktionieren
atten
Excellent
machten
griff
mittlere
tages
tus
pays
FL@@
robust
verschieden@@
abstra@@
Wri@@
fiel
lassungen
halten@@
sonstige
Demokrati@@
polnischen
nachzu@@
Eintrag
wies
antwor@@
Erzeugung
creature
pling
aton
erlassen
geld
gerechtfertigt
patents
3rd
demonstrates
alistische
leitungen
Zusammensetzung
unterscheidet
Goo@@
Rep@@
thir@@
allocation
brut@@
farms
Bewohner
Kuba
Belastung
notably
sofa
initiated
gewinnt
Aufnahmen
endgültigen
Ausbeutung
poin@@
Industrial
notified
Mani@@
ktions@@
ingt
Konfiguration
Word
seg@@
cooking
slowly
authorised
iti
edo
Hoh@@
kostenfrei
neten
cancel
dual
Neg@@
Mann@@
quot@@
asen
Beste
effizienten
Bonn
deutsch@@
angebotenen
punkten
externe
leidet
Sus@@
harm
supplementary
Gewinne
englischen
Hussein
worrying
Versorgungs@@
griffe
coordinate
Itali@@
terer
schreibt
Ergänzung
A4-0@@
IL
downtown
condi@@
rage
Democratic
Getränke
eva
stö@@
Referendum
eingeladen
Abstand
18th
humanity
dauern
Fremdenverkehr
ball@@
assemb@@
ika
solven@@
kräf@@
geplanten
Außenminister
rischen
überwacht
Weltwirtschaft
tise
whi@@
Fair@@
timely
ausreich@@
eignen
ablehnen
Olympus
einzig
Erfol@@
Simp@@
clothing
tioning
gang@@
sist@@
gestellte
jeglicher
Zeile
einführen
steuer
erzeug@@
Spannungen
need@@
Process
Peace
enza
Metall@@
beeinflusst
ausreichende
Istanbul
Handy
measuring
chtige
Sied@@
Osteuropa
proto@@
heavily
voters
unions
Risi@@
wahl
sq@@
caught
urity
citizenship
Rak@@
geteilt
ichts
qualit@@
Heil@@
Wesen
t-
Horiz@@
gebnis
apparently
bun@@
og@@
Alpen
Geschäften
schwieriger
Which
DIN
gebe
verliehen
Wichtig
kontrolli@@
organisierten
grat@@
edy
pho@@
od
nationals
Invest@@
Bli@@
Fünf@@
abgegeben
lows
dum
Kapit@@
verwalten
Work
differenti@@
agrees
Vers@@
zwanzig
Energiequellen
insert
simul@@
thesis
illing
ules
Lon@@
EST
fts@@
konzep@@
Fußball@@
mers
potentially
erous
wherever
Krieg@@
Jacques
Stich@@
bigen
graphy
directions
vig@@
jour@@
Pit@@
ruf
austausch
inated
amente
Kn@@
wä@@
Beurteilung
sagten
workshops
künfte
älter
twin
Republi@@
zehn@@
Dev@@
sech@@
vielsei@@
automation
coal
Drive
infl@@
keit
Art.
würdi@@
aussehen
Fischereipolitik
Contin@@
jen@@
Galerie
OECD
betten
Deposit
integral
abgel@@
geachtet
bedienen
gelingen
einstimmig
premises
alla
regimes
zah@@
organisierte
Verlängerung
Mengen
beschleunigen
styles
Juli@@
breaking
DR
Beratungen
Haushalte
stays
Insel@@
jects
inch
Bell@@
Einschränkungen
beliebigen
investiert
dargelegt
ärmsten
cut@@
after@@
lamp@@
question@@
Fitness@@
vereinbarten
betri@@
govern@@
cians
turing
dominant
expanding
IR
Beamten
Marokko
conventions
kap@@
pru@@
Medikamente
ausführen
Visa
District
pa
eigenem
transformation
emission
ę@@
Ten@@
stret@@
intervene
Israelis
viert
Vul@@
one@@
tranqu@@
acci@@
FOR@@
contractual
Rahmenbedingungen
Rezession
ο@@
fis@@
conservation
gestal@@
ösen
Glo@@
Snow@@
Georgi@@
Kö@@
Ungleich@@
Gärten
Palästinen@@
mals
ränk@@
schlech@@
staatlicher
Menschenrechten
settled
accommodate
kä@@
platforms
£
Hung@@
lux@@
react
contributing
Unternehmer
cache
coverage
adjust
Bill
Ron@@
José
withdrawal
bearbeitet
zugute
israelischen
chief
arity
math
lion
structured
ät
zur@@
tonnes
onien
räu@@
kunden@@
unterwegs
handled
Cathedral
applicant
Gebäuden
ght-@@
ST
vel
unanimously
Beschwerden
elemente
zellen
goo@@
Technical
qualifications
Premi@@
laser
verständnis
tened
JP@@
mature
hosts
experiencing
imposing
Sili@@
Anwen@@
Traum
einnehmen
berufen
Light
attrac@@
stattdessen
Still@@
С@@
geschafft
Erwägung
Features
API
iel
verstärkte
starkes
writer
Dynam@@
Similarly
Close
powered
appreciated
systematic
intense
Muse@@
eger
те@@
Mä@@
ansch@@
bewahrt
Föderation
70@@
til@@
Aller@@
voices
plates
ök@@
Produktion@@
aturen
erstens
dium
Gum@@
Termin
Schutzes
demokratisch
Diplom@@
Nom@@
ks@@
tas
Phänomen
streng
plugin
enta
Her
flug
ausgedeh@@
Mobiltelef@@
Info@@
Iranian
Monti
geograph@@
mie@@
Ecke
reiben
Reader
controlling
Catal@@
churches
zell@@
Muster
ekte
Konferenzen
Schmer@@
Anwesenheit
keeps
hat@@
orie
ва@@
vergeben
Feier@@
stützen
Service@@
editing
silver
r.@@
lé@@
schein
Tö@@
27.
eigentlichen
unterstütz@@
Spy@@
aded
Hou@@
authentic
revolution@@
Malaysia
Tot@@
echter
Lager@@
terrorists
uen
probieren
gebraucht
respectively
rid
Basic
exposure
drinking
breach
statt@@
Lithuania
dnis
franzö@@
Unterhaltung
Eigenschaft
Dun@@
Alber@@
ver-@@
tough
biological
operative
workshop
procurement
büro
Intervention
vir@@
half-@@
state-of-the-art
creativity
guard
produzi@@
trennen
Erweiterungs@@
überein@@
blin@@
Tol@@
ausstattung
Leuten
Verletzungen
teilte
tering
minimal
Nar@@
agt
vielfältigen
Release
nachhaltig
watching
racing
fting
diger
außen@@
bir@@
approx
hit@@
ees
arbitrary
Secretary
Feststellung
teilzunehmen
nord@@
Solche
Gali@@
Ot@@
view@@
silence
teu@@
SH@@
iny
Milli@@
headquarters
kön@@
PK@@
BE@@
Arbeitsgruppe
wahl@@
auen
Produzenten
Pflichten
vorgehen
Verfasser
mini-@@
dat
CP@@
krieg
vielfäl@@
Einschätzung
inakzeptabel
Visit
self
sentence
unstable
mien
Aktion@@
hospital
Gebühr
vorrangi@@
realen
chro@@
emerge
Division
sar@@
projek@@
ühr@@
lokaler
Einwanderer
consul@@
jet@@
rez
Ged@@
kostengünsti@@
blame
dene
Spit@@
UND
dachte
eingeräumt
visitor
Santiago
rose
Madeira
sos
See@@
gesammelt
spätestens
Innerhalb
Play
birds
temperatures
Var@@
Rub@@
breit
auseinander@@
Santer
endem
Icon
choosing
Andreas
pet
hef@@
Zul@@
kommun@@
zon@@
Cala
worry
elderly
Slovenia
Fair
facto
mic@@
disputes
competences
Hunder@@
angelegt
trei@@
Betrug
Dritt@@
kids
kommerziellen
prote@@
alarm
handed
schöner
Geräten
About
RSS
erischen
loved
emin@@
ernsthafte
arische
Merk@@
basierte
eintreten
NRO
Virus
consistency
ret
warmly
findings
lässi@@
fangs
orientierten
fulfilled
tro
camps
ug@@
ligkeit
kontinuierlich
fügt
geräten
Freuen
Steuerzahler
motions
Ric@@
Come
CH
orien
ough
sichert
Friedens
Verts
Import
wra@@
essence
pursued
mut
führungen
erfasst
räum@@
jemals
insofern
volcan@@
Grupp@@
undermine
Ferien
Inspek@@
Vertretung
überzeu@@
Apache
3000
suggestion
Bonus
vention@@
anony@@
normale
tube
Whit@@
sens@@
Pur@@
inischen
tured
warming
Fed
Darfur
Arbeitgeber
ßten
passes
Obviously
ruhiger
mp
assured
Yugoslavia
-in
isn
agent
pf
Live-@@
Liqui@@
ambition
Drei
berichte
Sitzungen
derjenigen
describes
Smith
rel
pro-@@
т
registri@@
orienti@@
compli@@
beginn@@
Renaissance
Gespräch
Gerä@@
lichste
perspectives
süd@@
wahlen
equity
Organization
fortgesetzt
kreu@@
то@@
alleine
Konstruktion
igungen
Vill@@
lowest
rom
Aro@@
crops
Standard-@@
Tourismus@@
gewählte
geistigen
Konzentration
erneuerbaren
signature
tations
salon
zeitgenös@@
bewirken
login
196@@
shaped
paradise
ira
ords
Wiener
bestens
verwirklichen
ruft
explains
continental
bill
zione
01.@@
hed
Erbe
Gemü@@
Tä@@
Stei@@
receives
survi@@
venue
Das@@
modernes
stete
gegeb@@
Emissions@@
verpflichten
ausführlich
Archit@@
1984
Woo@@
Venezuela
Liberal
erweiterten
bilder
Tennis@@
Rubrik
Europar@@
verzeichnen
Drittstaaten
activated
specialities
Seen
Saal
abilität
Inkrafttreten
open-@@
judgment
Fore@@

tnis@@
450
Profession@@
fuhr@@
biodiversity
Lebanon
TV-@@
Brok
Mehrwert
legten
beschließen
lou@@
Key
restau@@
controversial
ae@@
schaftsp@@
steuerung
AKP-@@
chtig
threshold
wages
Shanghai
iche
bindung
irische
Sty@@
Ocean
politan
Vene@@
Tuesday
blichen
wäch@@
Grundsätzen
phi@@
Mountain
holes
Tom
wen
well-being
convince
wirkungs@@
zunehmenden
Tochter@@
bags
bildungs@@
Ausübung
unvergess@@
gesundheits@@
24-Stunden-Rezeption
IE
PCs
Communist
Zü@@
Vertre@@
plötzlich
Wort@@
Aktivität
erlei
Französisch
Sli@@
pleas@@
FOR
concent@@
Reser@@
.ch
ulen
Aktionsp@@
ń@@
Techniken
fuels
Tut@@
deutlichen
affung
verletz@@
Number
plain
capture
Elevator
adju@@
como
ate-@@
Konzep@@
weitaus
AKVIS
confident
Sper@@
eindrucks@@
Krisen
fehler@@
outs@@
leather
artificial
Kais@@
UM
Wie@@
Konzepte
namens
verwen@@
respektiert
Rußland
batt@@
æ@@
specifications
vend@@
Aff@@
chens
discher
Kongres@@
rats
periode
Antonio
legislat@@
voneinander
Zit@@
sonstigen
Koordin@@
ordnungsgemäß
craft
Palacio
query
blatt
ysteme
Them@@
Panasonic
Kreativität
vierte
gelegten
Merkmale
Verluste
dou@@
disappointed
8,@@
Buchungs@@
änder@@
vertreter
strit@@
Studium
Ähn@@
novel
gesonder@@
Herrschaft
typische
cha@@
curi@@
Finance
produkt
Referenz@@
meldungen
Grünbuch
circle
Cham@@
care@@
Mom@@
Eco@@
ös
Gerichten
dges
flag
Medizin
bereitung
empfin@@
erbaut
CC@@
messe
Formul@@
institu@@
Four
Main@@
Fernseher
unemployed
Consulting
Jak@@
leid
Konflikt@@
Ausschüsse
demokratischer
Feli@@
Sher@@
feiern
ausgewählte
oting
gaining
enswerte
pron@@
of@@
avoided
ller
Alltag
komfortabel
übergeben
lesson
buil@@
Communication
Cubase
Höh@@
wiesen
flicht
Sign@@
MS@@
Taliban
völ@@
U-Bahn@@
Frü@@
aufgerufen
Än@@
zielt
swit@@
devi@@
liness
lick
Rhein@@
Getrei@@
Direkt@@
eingeschränkt
olls
Pass
executed
Natural
arab@@
sitzung
luß
gefährden
Clu@@
Kirchen
folglich
Premium
estimate
eradic@@
Innovations@@
-Seite
Storni@@
Unsicherheit
Aktualisierung
practically
vern
Fot@@
minist@@
Ath@@
nötige
II.
sor
fizi@@
Supp@@
harmony
schil@@
Tanz@@
frischen
wirksamen
konstruktive
bedauere
experim@@
consult
genetic
isten
Umsatz
hte
Kabel@@
Rassismus
Beschluß
Gipfeltreffen
eu
noticed
Sie@@
Unterlagen
Vorgaben
Additionally
girl
performances
substantially
meantime
emphasised
catastrop@@
Lamp@@
teilten
basierten
Erfolgs@@
vorbehalten
shots
Capital
Gulf
reibung
fach
gische
angewiesen
zentr@@
bewiesen
Erforder@@
nehm@@
tiefe
zentrali@@
erörtert
measured
ects
ś@@
Hôtel
torate
fig@@
Fes@@
beizutragen
vernünftige
rubber
teacher
parado@@
fliegen
getötet
Besteuerung
checking
partnerships
angeben
Zeichen@@
demokrati@@
theat@@
lakes
Nacht@@
Kräften
Reserv@@
Plugin
cep@@
ired
chambres
Datenschutz
qualifizierte
Lou@@
Kernel
klär@@
fühlt
sheit
Äußerungen
Angriffe
ohnehin
Parlaments@@
decent
chef
fate
bureaucratic
bür@@
Anweisungen
verschmutzung
recep@@
setup
proce@@
Bosnia
einzugehen
Motto
Bewältigung
ignored
belt
org@@
ль@@
Angeles
Lobby
calculated
piano
ally-@@
usi@@
unzu@@
ältere
Unterzeichnung
pedi@@
scenery
treaties
heu@@
Optimierung
verschieben
wü@@
officename
technologische
thoroughly
Everyone
supple@@
raises
differ
incentive
Bedienung
aktion
austau@@
biet@@
Kapazitäten
unterbreiten
rul@@
day@@
eling
anter
ministeri@@
vernünftig
versicherung
Schatten
bürger
Wettbewer@@
connecting
circul@@
ailing
solo
х
realistisch
dena
Millennium
plurali@@
doctor
thei@@
tons
pursuant
Anna
amending
orientiert
deutet
Konkurrenz
optionen
Anhörung
expl@@
grand@@
bian
emm@@
Wissens@@
traums
spiegelt
age@@
sons
1978
guides
spit@@
blä@@
verkün@@
deliber@@
controller
Cav@@
defen@@
fold
develops
tangible
lingen
angeblich
kritische
mithilfe
Ibiza
enlarged
may@@
S.A.
Karriere
Kongress
labels
searching
Büros
2007-2013
frucht@@
Übersch@@
globaler
gains
aves
verzö@@
strange
lehnt
Zurück@@
konzipiert
flowers
Stor@@
grav@@
Vorfeld
digte
übermittelt
breathtaking
hierarch@@
1967
Sarkozy
Siehe
ungeh@@
schließe
neglec@@
glu@@
Under@@
schriften
wendung
Flugzeug
Beschäftigten
Energiepolitik
gefangen
damaged
jet
schnei@@
Vinc@@
Boh@@
stoß
Güter
Verteidigungspolitik
labor@@
favor@@
aya
distor@@
ova
statistical
interessi@@
preliminary
modus
Attraktionen
technologischen
enters
drafting
amo
Hir@@
Dienst@@
zeuge
bilateralen
europ@@
paintings
score
challenging
Heating
compare
ypen
voran
achtung
erwähnte
aps
A1
ranken
izing
onder@@
compo@@
photography
Nonetheless
Deep
Städ@@
Komit@@
Taus@@
Bezahlung
schrittweise
bone
oul@@
Young
Zimbabwe
pharmaceutical
Techni@@
Classic
talked
stent
kali@@
irgendwo
detaillierte
nachdenken
koordini@@
DH@@
dental
21st
peak
hop@@
prim@@
CAR@@
verantwor@@
tailored
isolated
OP@@
Moh@@
battery
associ@@
Brun@@
brech@@
inbegriffen
Luxus
etzung
Abenteuer
Bedingung
Fro@@
plas@@
konto
Missbrauch
Lasten
Prävention
themes
bath@@
regulate
Flexi@@
Parliamentary
finances
esischen
Kontin@@
terungen
änderung
subscri@@
complexity
ul
Palestine
Korrek@@
right-@@
36@@
CAD
entrepren@@
Wör@@
vre
stipul@@
horizon@@
Regulierungs@@
downloading
incredible
acknowledged
az
endgültig
ethnischen
Ve@@
conveniently
INTER@@
reiz@@
Diagra@@
gelöscht
örtlichen
registriert
Betrach@@
schließ@@
läne
cip@@
rice
provin@@
Regul@@
eingerichtete
füh@@
beabsichti@@
angeschlossen
Docum@@
ston
ε@@
Luggage
24-Hour
lege
neben@@
schieben
rene@@
centrally
algorith@@
ailed
waff@@
brenn@@
Besitzer
derartigen
begrenzte
einhalten
Fluggesellschaften
lea@@
wan
med@@
produ@@
ow
Fähr@@
familien@@
konzept
acquire
short@@
SMS
bread
engineers
lav@@
benef@@
Hitler
celebrate
internation@@
pos
zips
Frühjahr
abhängi@@
hersteller
steu@@
gging
derived
odation
deemed
ssel
Dritter
rän@@
Erste
erfolgte
unteren
strengen
zielen
Import@@
Engine
runde
Flugzeuge
finest
adjusted
forcing
ffer
во@@
komplex
forums
abund@@
interview
Extra@@
Hügel
samkeit
exklusiven
istischer
recei@@
consequently
sicherungen
CI@@
Transaktionen
reformen
Lehre
konstitu@@
environments
LCD
recip@@
Universal
eras
forderte
kontrollen
pend@@
dez
Ball@@
gutem
nah
nonetheless
iens
zten
Empfänger
geordnet
militär@@
Übereinkommens
Disk
bevorzu@@
gefährlichen
Panoram@@
ça
Iraqi
bene
Climate
characterized
haven
aggressive
sto
nö@@
Tempo
Betriebssystem
aufgaben
falschen
vorgesch@@
eigh@@
keen
declarations
evolution
ebs@@
ausgesch@@
Bewegungen
beruhi@@
gefährliche
Non-@@
holders
sporting
demographic
Head
eco@@
Regimes
Darin
vermögen
speich@@
Hektar
Privacy
adily
discre@@
PDF-@@
zeile
verbesserte
Regionalpolitik
ehrgei@@
secured
volunte@@
exchanges
ritt@@
bra
Dienstleistung
Abstimmungen
surfing
Leu@@
grei@@
deleted
lis
ggling
Uhr@@
gewünscht
zeigten
seaf@@
ministerium
Übersetzungs@@
s.com
founding
Labor@@
News@@
Hannover
erfolgreich@@
beurteilen
abschließend
chart
Milit@@
pain@@
rak@@
coordin@@
Autoren
fertigt
Subventionen
Alpine
Spring
rhyth@@
islam@@
etz
größerer
ließt
würfe
Besuchern
propri@@
Entspannen
fluss
deutscher
ahlen
halts@@
Katastrophen
beiträgt
Watch
cheese
Learning
optical
fought
reverse
Ufer
schlü@@
Kurse
149
promo@@
licence
discipline
FS
za@@
schol@@
Products
Enter@@
realized
kurzfristig
mie
Beratungs@@
grenzüberschreitende
inters
ption
L.
Pel@@
jack@@
geom@@
atis@@
Laser@@
erreichte
begleiten
foods
ext
Gegenwart
Justiz@@
hervorra@@
schlechten
reichung
konsequ@@
Lehren
argu@@
unlike
tories
lum@@
restrict
kund@@
Touren
gewisser
biegen
Soweit
Vereinigung
realisieren
Wall@@
Rav@@
Parks
onie
negativ
Metern
ignoriert
MT@@
prohibited
surprising
Sand
Pflege
Öko@@
Entdecken
kritisiert
Einkommens@@
qualifizierten
tells
RAM
Working
veran@@
beobach@@
geschäft@@
vorteil@@
Erkenn@@
gigen
gene@@
ense
walks
expressing
fizierungs@@
unterbreitet
quer@@
branches
Lanzarote
skilled
victim
acknowled@@
ECO@@
Vertei@@
multimedia
twenty
confusion
fet@@
interinstitutional
Trends
Ank@@
monat@@
geeig@@
slide
3.0
recycling
BAS@@
integri@@
Unternehmen@@
partei@@
Grafiken
pfung
mäßigkeit
telling
GP@@
tail

dominated
gesetzte
gelei@@
ologien
erinnere
Color
inations
erb@@
Indonesia
musik
Effekte
Betroffenen
Subsidiarität
Gefängnis
Entertainment
Maus@@
ION@@
Onlin@@
fears
dition
gangenen
Futter@@
monitored
Punk@@
würdige
Schengen-@@
publish@@
check@@
anticip@@
1982
akzeptabel
Water@@
vorn
schrieb
13.@@
tec
mirror
15-@@
gewinn@@
registrieren
Vergnügen
alize
translations
gym
wording
Wille
Zimmerservice
interessieren
ürzt
erörtern
block@@
1975
Discover
guidance
Clearly
simpli@@
Internation@@
kulin@@
beizu@@
vorange@@
Gewinner
strenge
ligt
Archiv
üblich
einheiten
seiten
hl
prominent
ishes
pregn@@
acquis
Mili@@
Logo
herrliche
Vermittlung
Gepäckraum
unerlässlich
symboli@@
aten@@
Picard
enttäuscht
regrettable
Dir
feh@@
Erwer@@
weißen
ratifiziert
navig@@
RI
gst
dependence
elektron@@
ünsti@@
dress
Norway
bid
agentur
spiritual
unde@@
lean
Easy
die@@
berühm@@
pfe
Jackson
ysi@@
thoughts
Macedonia
solide
ansonsten
Konjunktur@@
abri@@
Om@@
inhal@@
dein
korrek@@
womit
schläge
5th
show@@
stood
Socialists
Schlei@@
Schlag@@
positionen
rechtfertigen
erläutern
ermutigen
Zuständigkeiten
lar
mani@@
außerord@@
bist
Ein-
Reaktionen
automated
manifest@@
zuge@@
Bewertungen
Überarbeitung
Sometimes
WA@@
gent
spre@@
té
sexuellen
Wiederauf@@
nia
tech
B.@@
kommende
isl@@
Dim@@
undertakings
Vorsitzender
indication
breaks
Wach@@
Hence
dell
beschreiben
ttern
greg@@
Zo@@
survive
Radio@@
beschei@@
treff@@
jahre@@
einher@@
Armen
Gemäß
tägliche
semi-@@
sums
Cold
defense
Genuss
Freiwil@@
entscheidet
pione@@
Initi@@
belonging
shortcomings
langes
erläutert
haftet
Hav@@
Chal@@
Meanwhile
einheit
Bilanz
KO@@
fund@@
transatlantic
economics
reduces
Karten@@
zigen
Arzt
Arbeitnehmer@@
Arbeitsbedingungen
postp@@
Barcelon@@
Age
subsidiary
bauten
MAR@@
näh@@
schaff@@
erzielten
ott
crip@@
sustained
utzen
Tochter
meistens
lacking
group@@
essed
filling
tung@@
Altern@@
datum
vorherigen
ament@@
Shar@@
Victoria
separately
ego@@
fel
backs
estimates
Citizens
schiff
teure
sett@@
condemned
mining
Kaiser
ques@@
ographic
punk@@
halb@@
Reihenfolge
Realisierung
Textil@@
Gestatten
Store
etric
nin@@
Building
erial
seminars
centrali@@
Sevilla
hoped
krank@@
6-0@@
potenzi@@
befriedi@@
separated
daten@@
beleu@@
Danke
berufliche
handels
line-@@
rant
Büro@@
debat@@
lohnt
Streit@@
ausgelöst
Weltbank
preferences
Currently
accepts
upcoming
yn
Gl@@
Gru@@
exceed
Pierre
samen
Schwimmbad
leitet
C5-0@@
Hotelsafe
expec@@
widri@@
Investition
betrag
Auth@@
VO@@
tempor@@
taught
flav@@
Prote@@
notion
Buenos
Spezialisten
lit
Soft
loy@@
veget@@
trails
excellence
avo@@
Nature
fisch@@
bevorstehenden
governed
dus
alpine
Lido
hüb@@
Aires
survival
Trink@@
unzureichend
inieren
Zufriedenheit
implemen@@
Zusammen
verwaltet
accom@@
married
Stadium
unfortunate
ensured
aga
Army
Above
koh@@
ruppe
Wochen@@
japanischen
geholfen
Orts@@
Güter@@
Möchten
Branchen
Nicht-@@
embedded
golden
oes
lon
Jazz
Sir
HR
you@@
68@@
databases
exceptions
ular@@
Papier@@
HR@@
Aufenthal@@
gewachsen
ions
Taxi
returning
Declaration
Stein
LateRooms.com
grundlegender
litten
gefäl@@
Hz
exerc@@
Philipp@@
tape
zeitig
rot
Tisch@@
Vertriebs@@
Abstimmungs@@
mathemati@@
autonomy
stätte
ökonom@@
Herberge
fault
feels
boy
brain
éri@@
accu@@
outset
kultur
Anreise
Rande
Weiterbildung
verwöhnen
jeweilige
eingebunden
Dikt@@
abkommens
vorhin
denti@@
Frank
Verantwortlichen
Anregungen
gerweise
flash
as-@@
WE@@
Breit@@
Müller
Fif@@
Zug@@
Kost@@
genehm@@
Anhang
erworben
Broad@@
amend
Hoff@@
Wü@@
Gesprächen
Gipfels
racism
deri@@
png
Territ@@
gebrochen
Palästinenser
Fat@@
resorts
Naz@@
circulation
ürz@@
Ltd.
Pfei@@
Israels
ordnungs@@
Übersetzungen
mündlichen
Heimatland
Out
org
invitation
Juan
ousness
gur@@
propor@@
alogue
bedenken
Europa-@@
erneuerbare
Beruf
drafted
List@@
fur
orten
vorkommen
Datenbanken
cheaper
begeistert
deser@@
migrants
T.
rob@@
modes
nette
deck
immense
Sak@@
Studien@@
Moskau
wachsen@@
Fahrzeug@@
Tragödie
Lösungs@@
Verträgen
departments
Voyager
stän@@
Gewerkschaften
Entfer@@
printer
crossing
unlikely
Klin@@
schungen
Tee
händler
Erkenntnisse
keinesfalls
adel@@
TER@@
tionality
künstler@@
fris@@
nutzbar
seits
Beruf@@
dom
mou@@
Manche
Magic
Baby@@
disch
Abschluß
Tschechischen
Ministerrat
Buddh@@
simplify
Franz
abandoned
Kabel
therapie
ätzen
Lebensqualität
Menü@@
Laufzeit
accepting
presentations
rence
atmosp@@
Econom@@
fusion
torture
Verhand@@
dreht
teilgenommen
Lebensmitteln
ails
Cher@@
delicate
ourcing
Budgetary
ertem
ois
Wales
arge
orte
Wikicars
schützt
liberalen
Aktien
ökologische
idealen
Mitglieds@@
Patent
DI
identical
Fab@@
Steuer
fertigen
vergleichen
Kreis
bezauber@@
bekräftigt
monthly
thr@@
themati@@
bands
bal
incorporate
droht
CP
inquiry
responses
Schnei@@
follow-up
tip
Unabhängi@@
Pilot@@
kritisch
Amtszeit
exploring
conjunction
grew
Medical
quer
demonstration
real@@
Journ@@
Fahrrad@@
Gitar@@
simp@@
user-@@
sanc@@
eken
Hill
discovery
lens
stecken
verhäl@@
kore@@
bewe@@
Sowjetunion
daughter
rier
inning
master@@
frist
einzelner
Einzelnen
activate
Avenue
Planet
organ
Gesellschafts@@
lässig@@
publicly
NT@@
enha@@
grants
reichhal@@
Immobili@@
Massa@@
grüne
haltenen
Problem@@
angefangen
Unterdrückung
ältesten
vegetables
infringement
badly
advoc@@
distri@@
p.@@
Christ
indu@@
Minimum
Milosevic
ganz@@
RI@@
rejection
LED
Service-@@
Wartung
homepage
Panorama
izz@@
reale
allies
Enth@@
Behin@@
zerti@@
D.@@
000@@
roughly
penalties
makro@@
Verbindungs@@
exklusive
Litauen
Mittelmeerraum
ungere@@
athle@@
1976
attract
inen@@
eingerichteten
Nahrungs@@
analysieren
ungeachtet
authentic@@
rolling
large-scale
Ast@@
elson
Ji@@
Öffnen
schneiden
Chr.
lehnen
Aufforderung
neg@@
interaction
time-@@
Naturally
Libya
1968
indirect
internationales
geführten
xx
unification
Tyrol
COM@@
ι@@
Indem
irgendwelche
gesell@@
gegenseitige
Excel
characterised
landscapes
Buffet
Palazzo
Sard@@
Einschränkung
klassische
compatibility
Cop@@
assumed
celebrated
combining
scienti@@
GBP
Ear@@
zip@@
failing
Integrations@@
hiermit
enfalls
calcul@@
tery
defects
mitgeteilt
landes
kompatibel
troub@@
aciones
moderate
desper@@
gaming
Stro@@
kompletten
fiable
doctors
ulated
aufweisen
tü@@
Erzeuger
underline
perc@@
trademarks
enco@@
lessly
DIE
Azer@@
vereinbar@@
Heiligen
expan@@
chocolate
öffent@@
Brief
Bron@@
prüfung
gesunden
Umweltschutz@@
Schattenberichterstat@@
Loc@@
orca
conci@@
advent@@
transformed
Rahmenprogramm
Kinnock
freies
verhe@@
Kathedrale
magne@@
conve@@
Heritage
rix
Nan@@
Terra@@
EST@@
spruch
Tennis
quarters
Peru
lossenen
Video-@@
plä@@
Ausstellungen
zurückkehren
tensions
yellow
Cultural
Run@@
beträchtliche
bischen
Tabellen
clothes
Saudi
announcement
requiring
freundliches
FIN@@
deleg@@
Provin@@
riesige
ruhen
stritten
Application
vine
trol@@
Yu@@
Clinton
Wahr@@
überwiegend
messer
Arbeiter
CC
inher@@
Neph@@
Alpha
Albania
lah
Kron@@
substan@@
hinein
deinen
configure
test@@
ames
tv
expor@@
atorium
Zauber@@
sprachigen
Suchen
desc@@
minds
reductions
bases
reinforce
dopp@@
weis
Freih@@
reine
Unterhaltungs@@
birgt
wenigstens
schrieben
verkauf
umfassen@@
mond
Wikitravel
receipt
einziges
Graphi@@
quantities
.The
ss-@@
interim
Autor@@
Analysen
erbar
Libanon
gesellschaftliche
einzubeziehen
pin
zon
weekly
stro
RT@@
Alpen@@
denied
kopieren
up-@@
Frank@@
nich@@
humans
backed
cool@@
exo@@
ROM
Begri@@
US-Dollar
Wachstums
ATION
enemy
unlimited
gru@@
Ré@@
ison@@
Mid@@
Dach
enorm
Kopie
bezogene
zusprechen
Einwohnern
Leh@@
gä@@
-System
Arzneimittel
Finanzmärkte
exhau@@
alliance
Aufruf
niederländischen
fires
implies
Therap@@
Limited
gui@@
Kaz@@
gekauft
Autonom@@
verband
vorherige
Gerichtshofs
Mazedonien
Lodge
Coast
airo
continually
kei@@
währ@@
einig@@
verschiedensten
hide
ety
Vent@@
vernach@@
vieren
weigh@@
skep@@
pursuing
slau@@
tnis
Finanzmittel
partition
Qui@@
vierten
übersetzt
Hintergrund@@
multip@@
allow@@
simplification
Entschließungs@@
concentrated
mainstre@@
kab@@
Internetseite
äufe
Formel
्
beider
konsolidi@@
einzuhalten
4th
bration
muy
ahr@@
herz@@
thilfe
ordnen
wirkungen
vie
trig@@
unprecedented
votre
erre@@
sprä@@
Öff@@
Heran@@
unkte
erfreu@@
Chef
impres@@
Ris@@
coinci@@
Temperaturen
gebühr
abwechslungs@@
Zwangs@@
traum
Haushaltsplans
host@@
tless
Lav@@
Siena
bliche
generi@@
iere
Jahrzehnte
gegenseitig
föder@@
ernste
Kandidaten@@
bench@@
Ring
engagi@@
jan
evil
continuation
mad
undertaking
radio@@
Montage
ärm@@
Temperatur
richti@@
Gebiet@@
behinder@@
dlichkeit
lagern
vereinfachen
jährliche
Legislativ@@
mails
nau@@
permanently
respecting
adher@@
leit@@
verträ@@
hilfen
einfügen
Konsultation
Ratsvorsitzes
shareholders
confron@@
urs@@
cycling
steckt
Verkäufer
erheb@@
lower@@
Put@@
tener
én@@
defending
Technologi@@
Weihnachts@@
geschwindigkeit
PSE
notwendi@@
DVD-@@
Moderne
announ@@
guil@@
observers
kos
Niemand
genehmigt
Bisher
forderten
culinary
risen
securities
Anhänger
fertig@@
herauszu@@
einzel@@
Ausfahrt
denselben
nick@@
eon
Credit
participated
zerstör@@
radiation
CAM@@
chner
weiterzu@@
Einheiten
ty-@@
Frau@@
sightseeing
agements
tzei@@
reiterate
mieten
wiederhol@@
örung
sicherheits@@
titles
Superior
Instrumenten
nennt
charter
rain
thos
bathing
anas
schnitte
ha-@@
eating
FAQ
practi@@
Fitness
span@@
löst
Flotte
dazu@@
mysq@@
winners
Dé@@
R.
rank@@
listened
Kanal
E-Mail-@@
niedriger
wake
jec@@
Gate
solving
U-Bahn
iser
Baro@@
ssel@@
tradi@@
frisch
gefällt
Inhaber
konsul@@
quota
chester
Que@@
Danube
ï@@
Semin@@
kennen@@
Erstellen
Sozialdemokraten
ete@@
shire
Nä@@
konfli@@
Textes
Verstärkung
Halbinsel
refined
dot@@
Barack
profound
gere@@
Marbella
5.000
ignorieren
teria
suddenly
bedien@@
Europa@@
Renten@@
beglei@@
Buil@@
lief
kultur@@
Ursprung
ausgewo@@
analyses
commonly
computer@@
adv@@
sorgfäl@@
15.@@
vul@@
euro@@
gerichtete
Komponente
banned
adaptation
tam@@
Kun@@
198@@
ssigen
Entwicklungszusammenarbeit
programmi@@
bekanntesten
Stattdessen
kill
rs
lish
extrem@@
ри@@
Eigentümer
Hochschul@@
zuverlässig
verabschie@@
ausgewogenen
Let@@
lay@@
acher
ector
consisting
influenced
acking
qualitative
berg@@
stanz
atz@@
ecke
stau@@
Flüge
Auslegung
profiles
Camp
Premier
officer
dedic@@
optimum
enthusiasm
specialised
consolidation
Sales
Kup@@
berechtigten
versetzt
Datens@@
ee@@
Four@@
adly
e.V.
Soli@@
aufgehoben
Ausgang
konstru@@
Überwachungs@@
Scheitern
Absichten
beat
Singapore
backing
jähri@@
kommerzielle
newspapers
eness
Manhattan
Famili@@
sont
Tipps
Dienstag
untergraben
ation-@@
investigate
ilt
salt
müh@@
samer
Prü@@
Marketing@@
VIP
nen@@
ae
Implementierung
invested
bia
Liter@@
Mou@@
marg@@
EMU
drück@@
antrag
Ernährung
xhp
unterhalten
Aktiv@@
Metho@@
Wolfgang
alling
Geschäftsbedingungen
Repräsent@@
engagiert
rivers
gli
dam
globalization
lager
ны@@
aden@@
multilater@@
begangen
jahres@@
17.@@
Base
ambience
erhol@@
heik@@
beeinträchtigt
filters
hops
ware-@@
complimentary
etta
ş@@
Architek@@
E-Mails
derten
Profi@@
accused
Job
Castell@@
Arm@@
hebt
tackling
Entstehung
Verhältnisse
verschoben
digten
Diensten
Berater
vorsichtig
Richtlinien@@
Listen
Cube
aders
aments
masch@@
bereichs
durchgeführten
2014
Mount
districts
awar@@
bran@@
Ira@@
ш@@
aktivitäten
harte
Partnerschaften
vicinity
Neu
Mun@@
längere
begeist@@
Vizepräsident
verehrten
photo@@
-TV
aters
elem@@
Lich@@
is-@@
Fund@@
Leidenschaft
idealer
vermis@@
trauri@@
Variante
lück@@
aufeinander
ne-@@
rek@@
odi@@
ceram@@
CAN@@
quantitative
Fleisch@@
gäbe
undes
wichti@@
lending
maker
refurbished
inia
Verzögerung
Küchen@@
Funktions@@
Grafik@@
effektiver
benutzer@@
restoration
urban@@
toi@@
camping
Head@@
shof
geho@@
Allgemeine
bricht
Ruh@@
gelang
Geschenk
auswärtige
magnetic
Allow
Schre@@
Hop@@
isiert
bezahl@@
Marktwirtschaft
lap@@
hosting
luggage
prof@@
cat
debi@@
Perspektiven
reiten
Spuren
Thai
earned
tening
tiny
Label
wohn@@
ICH@@
anspruchs@@
häusern
weitreich@@
wirkung
sämtlichen
duction
epide@@
Kamp@@
Fili@@
achte
Partei@@
gleicher
porno@@
linguistic
round@@
Exp@@
Et@@
murder
Napol@@
bedingt
Industriel@@
größt@@
wäs@@
amtierender
removing
ask@@
Photo
Theater@@
Junior
Material@@
Kernkraft@@
Sn@@
notification
ranges
sharp
gross@@
waves
schaden
Flug
durchsetzen
ungarischen
Berichterstattern
DVDs
ò
degra@@
suspici@@
Histor@@
Grö@@
extern@@
Aktions@@
Vergleich@@
reduzi@@
air-conditioned
cau@@
Chicago
Cour@@
startet
dak@@
äußerster
Komplettpreise
differently
founder
demanded
striking
Schwan@@
kung
upgra@@
PP
Luf@@
ateau
Harbour
Kommand@@
regelmäßigen
aufwand
OG@@
vot@@
alive
Toi@@
harm@@
raff@@
Tunisia
verschi@@
klarer
führender
menus
cmd
scenario
analo@@
inj@@
aket
ernden
Vorsitzende
erober@@
agra@@
dive
Italien@@
Thermal@@
verwand@@
schluss
Rather
clin@@
excess
ambitions
zahlreicher
sendet
projekten
streit@@
zungen
unterliegt
beseitigt
ermitteln
Quoten
befürworte
deriv@@
Future
carrier
Monte@@
commission
gos
Passagi@@
asks
&apos;d
umb@@
196
tagon@@
competitors
leg
Portu@@
Swimmingpool
Bosnien
stabilität
tausende
bewertung
Auswahl@@
wendungen
clou@@
ke-@@
officers
alties
villas
liv@@
revenues
ech
contributes
Ero@@
bat
ynn
Klaus
Luxus@@
Initiativ@@
Slowenien
Elementen
abzielen
circuit
oblig@@
anded
isolation
rescue
hausen
strive
NOR@@
Deut@@
Himm@@
Segel@@
Schmu@@
friedlichen
schlage
Jugoslawien
knowing
arrested
Ernst
Fragestunde
Zinsen
fai@@
Hur@@
voic@@
cca
Marine
ace@@
spr@@
CT@@
Stahl
Abu
ausgelegt
Präsidentschafts@@
freiem
Converter
motivated
Gelände
gefasst
Ernährungs@@
Help
dogs
Ankündigung
Whirlpool
emissionen
Beobachter
stärkeren
deta@@
PX@@
cui
wissenschaften
TEN@@
Koordination
verhandeln
amerikanischer
ebo@@
seminar
electronics
Ton
überlegen
verhältnisse
gebilligt
errichten
Kohärenz
partially
capability
transmitted
Caribbean
acro@@
simil@@
aer@@
baro@@
DEN
Kali@@
Verein
glück@@
belegt
produc@@
warranty
employee
1981
ule
Zut@@
gear
sweet
clearer
Fut@@
zent
Europä@@
niedrig
einzigartig
Spek@@
mitzu@@
Feuer
part-session
UPS
scho@@
Split
schlechter
Luftfahrt@@
diensten
Empfän@@
Gesetzes
IF
Annual
emotional
straßen
Breite
verfüg@@
drehen
jähriger
igten
bestimmung
ensystem
Hierbei
schnelles
mill@@
12-@@
pact
lifestyle
congratulations
ellem
Zugleich
neueste
Zahlreiche
zusammenzuarbeiten
verbrau@@
einzurichten
EU-Ebene
colonial
derog@@
distribut@@
modest
Wetter@@
discrimin@@
Reb@@
Blin@@
rachte
Beendigung
Skla@@
o.@@
Files
Bran@@
nik
Isol@@
mig@@
allen@@
insu@@
pré@@
destabili@@
Vogel@@
füllt
Zur@@
ektor
rasche
mid
Awards
calculation
usses
Gew@@
strö@@
Aufwand
Verbrech@@
Camping
trademark
ras@@
practic@@
pren@@
nowadays
tedly
esp@@
Spei@@
zustand
versuche
einrichten
Migrations@@
Between
pending
Residen@@
Dau@@
inspiration
rors
Revol@@
Ereignissen
reader
Format@@
Layout
lov@@
currencies
Yor@@
Blick@@
reih@@
materialien
brother
Summer
PRO
heb@@
yp
permits
zuverlässi@@
Kommentar
lands@@
Pfad
personenbezogenen
utility
distinguished
railways
jum@@
brutal
ungsh@@
Grande
designers
owing
bö@@
verleiht
stärkt
europä@@
verankert
2000-@@
infra@@
schön@@
Ern@@
tivi@@
Demon@@
Gegenstände
Aufträge
kontroll@@
exploit
Queen
ror@@
16th
bears
-in-@@
vermu@@
höh@@
Eintritt
Kredite
Charak@@
sätzen
wofür
malerischen
Local
Bali
revol@@
Benjamin
Oslo
vielfalt
menten
diesmal
besetzt
Berechnung
entfer@@
schaftlichen
Besonderheiten
Outlook
four-@@
Prac@@
aca
palace
pis@@
render
Lum@@
ment-@@
Architekten
trock@@
Begriffe
verknüpft
glücklich
fits
roles
jer@@
obtaining
inspec@@
Ev@@
Top-@@
schaf@@
portugiesischen
irgendeiner
agieren
Opfern
Wahrscheinlichkeit
ATA
dangers
cultiv@@
besticht
finanziell
veranstaltungen
sinn
independently
boarding
mari@@
tight
PC-@@
authorisation
у
Freizei@@
vielfältige
ulieren
Chat
Granada
wire
talent
Modi@@
uliert
biologischen
Palästina
einzelstaatlichen
mailing
NG@@
HS
220
panels
deny
Direct
alig@@
Dich
nördlichen
einstellungen
eingereichten
translate
1973
Euros
elabor@@
comforts
mounted
emble
embar@@
inequality
bew@@
regen
Zäh@@
Rechnung@@
Mehrwertsteuer
konvention@@
Provider
cam
1983
anger
festivals
ess-@@
boundaries
explicit
170
plying
verbesser@@
grave
appreciation
eite
abgesch@@
entstand@@
intensiven
Gelegenheiten
effektiven
loud
fruits
Rental
dged
encounter
Schwimm@@
streichen
endete
begrenzten
Fehlen
installing
Collection
Anders
Deine
Auseinandersetzung
igkeiten
Eingabe
safely
00-@@
LD@@
Kommissare
schwerer
SD
laboratory
zi
Clo@@
Relations
LT@@
macro@@
harv@@
Stadtteil
verstoßen
Mittelme@@
nützliche
29@@
scenes
gathered
repa@@
ovo
amm
21.@@
Ess@@
Reak@@
assessments
einmalige
blau@@
Frage@@
Speicher
auszuüben
Verzögerungen
Wachstumsp@@
Simul@@
16.@@
woods
fehler
Treiber
Aussichten
gesunde
gehörigkeit
chal@@
spons@@
struck
Spirit
stakeholders
rative
3-star
ion@@
zerstören
Flughaf@@
Memory
Script
uk
Ras@@
shr@@
ultra@@
gerechten
flotte
mengen
Vorbereitungen
bey
extends
weren
mehrerer
Konstruk@@
ichtet
.com.
recover
embran@@
capacities
ttes
thal@@
Große
gericht
kunst
fache
stunden
Table
Create
classi@@
ocean
mming
Diagno@@
featured
Funk@@
eption
orient@@
Wert@@
anbietet
Sorgfalt
aufrechterhalten
distribute
observations
sé@@
Cross
grid
investigations
Touristen@@
üben
konstruktiven
leidung
commands
scape
hectares
alia
fossi@@
aterie
investing
vorne
fang@@
Gemeinsam
schlimmer
Untersuchungs@@
Entschließungen
anxi@@
yle
energ@@
Sant@@
Jam@@
verliert
stabile
analysiert
breites
struction
conscious
awards
intim@@
Moldova
IK
pi
bestä@@
CO2-@@
Freien
vorhandene
biets
beliebten
accountability
luck
witness
GF@@
tournament
warmen
Bür@@
Kompromis@@
fortable
diente
ritt
Beweise
zukünftig
griechische
müsse
SSL
ouring
appen
climbing
zumal
authenti@@
Mountains
credited
shoes
versi@@
Fortschrit@@
auseinander
klares
Facebook
kilometers
ints
Forest
1974
cinema
perman@@
stringent
lags
technologie
giert
junger
gic
Adam
exquisite
Theatre
Henry
É@@
beha@@
touched
Impulse
dago@@
gerichteten
erw@@
flüge
summary
mn@@
Tokyo
towels
ually
Juden
selbe
Ce@@
Pad@@
seekers
Genf
zauber@@
erwar@@
Trennung
Eigentums@@
erlau@@
Block
cross@@
u.@@
Protok@@
wid@@
Simply
1960
fic
Bremen
divide
secret@@
Digit@@
Fün@@
Beachten
gegebenen
interpreted
afterwards
Days
Algarve
neys
constraints
dentally
ologically
türkische
speaks
sag@@
Veranstaltungs@@
sexuelle
stufen
Organen
prompt
Merkel
Rock@@
Argum@@
Hierzu
zukunfts@@
endung
gültigen
bereitzustellen
Korean
Adriatic
tale
dner
preventive
Acht
atur
stärke
Wechsel
reicher
wechselt
genauen
steigenden
finanzieller
andt
lok@@
Ultra@@
orn
Tap@@
Gebrau@@
Integrität
Legitimität
cooling
finishing
fifteen
collections
verständ@@
schau
eigen
Christen
faktor
firmen
Tendenz
Visual
18-@@
Proc@@
E.
fabri@@
cha
tico
tron@@
rift
Basis@@
schulden
Manchmal
Arbeitsweise
wenigsten
luxuriöse
Reichtum
Kommissionsvorschlag
Panel
kin
theast
profitable
zin
Ze@@
wolle
glie@@
verhandlungen
fier
brie@@
Psych@@
Sequ@@
Rosen@@
unmittelbaren
ि@@
maß
Frattini
anstelle
bedauern
processor
conditional
jud@@
wedding
promotes
aken
liziert
dä@@
Statistik
र@@
younger
sav@@
first-@@
abe@@
Spon@@
out-@@
Transa@@
zö@@
gewiss
Downlo@@
till@@
household
class@@
Journal
turn@@
atte
män@@
Channel
countless
levard
Partners
xen@@
stimulate
supervisory
Abonn@@
Golfplatz
gipfel
Konflikts
template
scra@@
spell
adequately
damaging
Bosni@@
größtenteils
reaches
mos
musicians
Meer@@
phy@@
Män@@
mittag
Erleben
Tatsachen
Kluft
Effektivität
Randlage
cus@@
bestellt
unterstreicht
trü@@
belgischen
Oxford
Sym@@
alog
Folglich
angehören
symbols
Statisti@@
coalition
FF@@
Jews
besides
pati@@
weapon
consulted
Kim
Mehrere
Abgesehen
id314@@
landwirtschaftliche
keyboard
jac@@
Tai@@
studios
RE
delayed
gebrau@@
skosten
ades
125
Band@@
Jur@@
attra@@
feelings
Mart@@
retro@@
free-@@
reser@@
Estonia
Gastfreundschaft
starker
wandern
Armuts@@
Holy
seaside
Etik@@
joy
cine
she@@
eman@@
unterhalb
enzi@@
drücke
Trag@@
rägern
beitreten
pride
dent@@
15th
eper
killing
margin@@
tom
Friedrich
lern@@
gases
wünschenswert
mittlung
asiatischen
graphical
thor@@
vineyards
vels
Prix
ege
TAC@@
esco
höhe
surplus
schuldig
Mauer
bereitstellen
begreifen
umgekehrt
bloo@@
accompli@@
ity-@@
sail@@
dreams
Energieversorgung
recogni@@
ake
gni@@
washing
elite
hôtel
brand@@
Mario
Mountain@@
Spen@@
wissenschaft@@
wus@@
Vorbild
Seever@@
recover@@
format@@
libraries
cz
unanimous
Workshops
Flas@@
Klar@@
konz@@
coherence
ühle
wurfs
bedeutendsten
cles
prosp@@
qualities
Unlike
ä
Zent@@
nähe
umfassendes
südlich
dauerhafte
blocked
fat
interfaces
am-@@
flan@@
terror
1500
Fig@@
reconciliation
ь@@
Blut
tner
besseres
latt@@
ausgestatteten
Argentinien
indirek@@
unvergesslichen
belieb@@
lüssen
Weißbuch
detection
b-@@
Electri@@
assign@@
blü@@
Verbin@@
Eurostat
Kunststoff@@
Zubehör
Schaden@@
gewann
gefolgt
Stabilitäts-
moon
Regarding
Garda
gebir@@
adresse
Nationalpark
Ausgleich
verbot
mehrmals
Inneres
drag
Sky
I.@@
geklärt
reiter@@
erhö@@
großzügi@@
Versuch@@
schmerz@@
Teneri@@
Business@@
Andr@@
indigenous
saison
Leid
Versand
Erreichen
nachvoll@@
fristig
kauf@@
sendung
zulässig
zutiefst
DM@@
mac@@
Mary
Ny@@
rang
ausbildung
stunde
zugän@@
sac@@
inevitable
Directors
ы
ALE
Rats@@
Rezep@@
retri@@
17th
Rate
stit@@
unken
Privi@@
zeitraum
parlamentarische
tained
integr@@
arran@@
anmelden
zeitlich
Prak@@
ströme
influ@@
Smart
luxuri@@
og
dictatorship
abolition
sincerely
furthermore
flei@@
Konver@@
optimalen
Zwecken
weisungen
Defizite
DJ
separation
Ben
opponents
Sci@@
pur
bark@@
Chaos
Prestige
Schokol@@
lägen
Fertigung
friedliche
64@@
use@@
Veget@@
shine
Jes@@
más
Texas
Dolmet@@
PPE
arien
Vorwand
korrigieren
Menschenhandel
php
Long
bec@@
Supervisory
Being
bub@@
Elec@@
Focus
eligible
acken
umen
ölle
etzt
interessen
Zugangs
Jahresbericht
single-@@
Muslims
Love
justification
wandeln
verglichen
USB-@@
engagement
ot-@@
Fischer@@
rische
ffene
Hinsichtlich
Vermeidung
bedeutend
tätigkeit
Date
audit
elegance
albeit
crystal
Roman@@
realised
disman@@
veter@@
argued
Quer@@
lez
betrug
berich@@
Neuigkeiten
Voraus
recy@@
ger-@@
selecting
delivering
cements
Rimini
ßte
Geschlechter
untereinander
getestet
120@@
tick
noti@@
ING@@
pe-@@
-Spe@@
LateRooms
helicop@@
explanations
offset
indispensable
sident
assungs@@
übrig
Leistungsfähigkeit
dauerhaft
Religions@@
Rahmens
Respon@@
therap@@
Shopping
in-depth
dimin@@
â
Zulassung
müßte
förmi@@
Spielraum
Fertig@@
herunter
erschienen
kommens
rd
Cot@@
corpor@@
counting
Univers@@
schwarzen
runden
bietern
gged
suspension
Clear@@
ignor@@
Tony
pipeline
resistant
entities
Interview
SQL-@@
ausgezeichn@@
gebenden
chemischen
vertei@@
Stütz@@
geltend
gehörte
Exhibition
tif
entiert
institutionen
stroll
Deluxe
conviction
font
aal
EK@@
Watson
Mozilla
F.
gi
mins
KOM
Betra@@
tchen
enster
wunderbare
Zugangs@@
unverbin@@
außergewöhnliche
durchgesetzt
entworfen
dging
att
races
0.00
jub@@
Timor
servative
schle@@
Offizi@@
ausgebaut
strategien
Tunesien
Settings
confi@@
cem@@
twelve
ance-@@
erc@@
nav@@
Intensi@@
Anla@@
acht@@
Territorium
Galax@@
Jack@@
complement
outer
clarification
onte
Zah@@
korrekte
Wurzeln
thers
decoration
utive
marriage
noisy
adi
leihen
siv
passenden
begrenz@@
Virtual
ICE
attempted
arriving
aan
Elite
netze
etten@@
wesens
veröffentlichten
Glaub@@
äle
buttons

echo@@
fici@@
ruled
existed
ladimir
hung@@
colon@@
Standpunkte
Telekommunikations@@
Transpar@@
energie
Verona
smu@@
singer
Deutsch@@
Rechtsan@@
bereitschaft
Gäste@@
tauschen
genügt
spezif@@
PT@@
tram
consist
complic@@
на
undes@@
wuchs
frisch@@
ar-@@
reproduction
Gä@@
alis@@
chil@@
Alm@@
gesorgt
spieler
mündliche
leichten
emandem
PA@@
invites
1977
Karel
Ganzes
Christdemokraten
Ursprungs@@
jung@@
Freie
stischer
sieb@@
verbindlich
agre@@
enjoyable
ograph@@
Verzeichn@@
fehlende
14.@@
lawyers
Petersburg
Zusammenbruch
it-@@
gels
Besichti@@
ektionen
kompliziert
Abfälle
ssige
Heim@@
Netzes
MIN@@
globally
inhab@@
variables
Klu@@
contest
erzi@@
Hunger
vorangegangenen
Tagungs@@
designated
Carlos
Walter
missi@@
Klick
schulen
weitergegeben
installi@@
Zuerst
Activ@@
Recy@@
John@@
Child
reviewed
container
ovi@@
räder
rechnung
islamischen
Wohlbefinden
ferenzen
Vorredner
tunnel
endless
electro@@
somewhere
ende@@
einzustellen
Fokus
taten
belegen
maßgeb@@
zwangsläufig
kirche
deeper
G.
ember@@
Maison
té@@
tlichkeit
Materials
vement
hrt
artig
Hilfen
character@@
Merc@@
quet
trail
enda
Consul@@
ppen@@
Inte@@
Festung
erschien
kurz@@
systematisch
Libyen
wozu
Speed
margin
bag@@
await
aving
packed
repres@@
Leonardo
critic@@
Informationsgesellschaft
Heb@@
MAN@@
gemü@@
vorbe@@
gischen
Laeken
Frankreichs
mountain@@
scep@@
samples
decentrali@@
omed
reinforced
Azur
industrielle
nachhal@@
Zielsetzung
Albanien
Grundfreiheiten
matches
Deli@@
Songs
Syner@@
stieg@@
IST@@
gical
Classi@@
von@@
vertical
simplified
distan@@
symbolic
bann@@
unglaub@@
ständiges
Durchschnitt
Geschichten
geliefer@@
Ersatz
Nutzungs@@
erweiterte
kamera
Präsidium
Ash@@
länge
inne
stün@@
dierung
Review
ppy
anno@@
Feder@@
Schlu@@
limitations
otype
dents
ront
dian
avoiding
Stabili@@
ausgewogene
4-Sterne-Hotel
check-in
co-operation
five-@@
Fuss
Monitoring
Stimmung
Ernennung
einsei@@
Anzeichen
eph@@
liquid
Christians
Cannes
sozusagen
geseh@@
verbieten
hinzuweisen
Konflikten
Document
hairdryer
teach
prints
admission
SIS
Ja@@
ahl@@
halts
Mailand
kenntnis
Sämtliche
hebung
mount
ebook
gl
Stefan
autor@@
Steu@@
Erfin@@
xis@@
Konzert
Komple@@
äd@@
dbar
verschlech@@
bemerken
langjährige
bor
fundamentally
implic@@
Spanisch
Landschaften
Ärzte
geschätzt
Stränden
Arbeitskräfte
wich
fif@@
igrant
Friedrich@@
Copy@@
authorit@@
Mugabe
Viol@@
Kühlschrank
autonom@@
Abend@@
sc
Simbabwe
open@@
1.2
hazardous
yl
outlined
lays
bürger@@
Wahrnehmung
weitem
Schaltfläche
subscription
ruption
Flam@@
Zell@@
Betrugs@@
fischen
Informations-
double-@@
bikes
Large
spac@@
retirement
Round
freundlicher
Krä@@
qm
hopefully
besi@@
erinnen
zierte
Mühe
Fertigungs@@
generating
SK@@
panorama
Infos
Monta@@
Geo@@
Schaf@@
Progno@@
bte
aufre@@
Solange
fasst
Dörfer
mean@@
Soci@@
ckers
cargo
Relax
Navigation
Applikationen
Besteller
wettbewer@@
treibt
Gemüse
wasn
HOTEL
1950
Oracle
distant
sert
REACH
bevor@@
Schiffs@@
besagt
freu@@
stechnologie
laying
massi@@
incident
highway
hunger
vessel
bün@@
besetz@@
Konzerte
ausgedrückt
.uno
Later
year-old
TU@@
ective
scop@@
OL
porte
heil@@
Einladung
ausgearbeitet
aktiver
Binnenmarkts
RES@@
Messenger
on-line
tracking
legendary
beautifully
vou@@
inevitably
nobyl
neter
echtes
vermehr@@
Schwier@@
pointing
endeav@@
fabric
Tob@@
abends
Wunder
Mitwirkung
gesendet
H.
....@@
mic
turm
impetus
diox@@
Literatur
Verkehrsmittel
Pfer@@
oods
delivers
shooting
shell
Côte
Hein@@
verbin@@
Dringlichkeit
Gleichbehandlung
Ratspräsidenten
pop
19.@@
supplement
advances
asi
floo@@
Kro@@
eh
stattung
späten
holung
riert
religiöse
dust
remo@@
impro@@
Much
Fis@@
inter-@@
contem@@
Dr@@
openly
fertili@@
Flag@@
eingang
traditionell
antiken
Anmerkung
Benutzern
Mittel-
Cyber@@
Works
Boli@@
vised
stechn@@
uph@@
advocate
LAN@@
intergovernmental
Gross@@
Dubai
geschätz@@
wahrnehmen
benötigten
incorrect
cost@@
fulness
door@@
sensitivity
valu@@
Statt
durchschnittlich
schwedische
benachtei@@
manip@@
ouldn
ateway
carries
Nothing
Kil@@
universe
passi@@
Verz@@
glicher
Persön@@
beding@@
upload
Downloads
Ima@@
ont@@
kot@@
großartige
Zins@@
instability
tana
Balance
aku@@
schaftliche
defizit
hinzuzufügen
scalc
Windows-@@
Beton@@
entschei@@
linking
capit@@
notic@@
sser
nnen
bewirkt
Vermarktung
tatsächliche
Devisen@@
änderungs@@
Ausnahmeregel@@
layers
wähl@@
1969
buff@@
Canaria
stating
adidas
ammern
fangs@@
Beobach@@
anderswo
entwickel@@
verzeichnis
abgehalten
verwirklicht
stoppen
maintains
ft-@@
gen-@@
erschein@@
doppel@@
pläne
Quadrat@@
Abweich@@
Sicht@@
zweimal
Zeilen
anstreben
Profile
BIL@@
Gur@@
tremendous
Commun@@
ju
workforce
stir@@
gezielt
lässigen
indirekt
lying
placement
exceptionally
cris@@
capitalism
ummer
Stil@@
Teu@@
deutlicher
Bestimm@@
Unserer
Sensibili@@
Parlamenten
Andro@@
mixture
itz
worker
strand
yal
infrastructures
NE
Schalt@@
wende
Automobilindustrie
Bluetooth
decrease
Commander
Spra@@
Baroness
Norwegen
Stellenwert
ave
systematically
oth@@
In-@@
refriger@@
Wag@@
eal
christ@@
prochen
EGF
atemberau@@
entity
insight
ideological
twenty-@@
oxi@@
horses
verbreiten
Bier
Kommunikation@@
Bestand@@
wickelt
aka
parall@@
zel
mineral
kör@@
Vielmehr
häufiger
fahrzeugen
Petitions@@
NOT
queries
overnight
Jack
infec@@
ingo
Anth@@
law@@
dereg@@
betreibt
Eck@@
resumed
Abwicklung
Buchstaben
vereinfacht
Annäherung
restra@@
Though
reasonably
ucc@@
contradic@@
tritts@@
Direkt
Finanziellen
DB@@
defin@@
newest
sequence
Little
emis@@
Any@@
mono@@
booth
robots
brin@@
ckte
Operationen
latein@@
Substanzen
vorschlägt
128
Cru@@
Domain
Everest
TNG
refugee
robu@@
Energies@@
Egal
Gerne
Übertrag@@
gegrün@@
Konkurren@@
Mitentscheidungs@@
Word@@
prevents
paragraphs
aboli@@
abuses
boom
tolle
flüsse
high-speed
alising
Johannes
shock
Peking
donors
Schiffen
Kandi@@
Anzeigen
verstärkten
verschwinden
Zentren
attraction
nutri@@
1990s
mah@@
Umgeb@@
Datent@@
Projektes
Indonesien
abzielt
Remo@@
utter
enrich@@
ila
pository
Eurex
Hob@@
UNO-@@
leute
farbe
gründlich
help@@
frames
Lama
insel
ausführliche
Einblick
verschlüssel@@
vorrangig
anfangen
shaushalt
Airways
Johannesburg
edes
ALL
Nag@@
Fres@@
defici@@
sames
Gefäng@@
Verantwortungs@@
einbringen
Künstlern
Users
rarely
skill
opera
Linux-@@
iga
Mechan@@
zugreifen
Aufrechterhaltung
defiz@@
XX@@
privati@@
integrating
provi@@
utions
sex@@
2,5
Millenni@@
stehe
veröffentlichte
Welthandelsorganisation
aluminium
ów
Sofia
pig@@
bungs@@
hinterlassen
32@@
SM
berge
Lanka
tually
herself
kov@@
genz
walt
geordneten
CA@@
quiries
entrepreneurs
Crus@@
unkt
saubere
packen
tiefen
Behinderungen
Umstrukturierung
downloads
tment
Tourist
TEC@@
jn
norm@@
bil
Sän@@
Musli@@
bücher
büros
beliebt
fließen
promp@@
secre@@
threatening
Model
coach
criterion
Dunk@@
enswer@@
Ansätze
Ebenfalls
Fäl@@
Gefangenen
erfor@@
ebung
Entschei@@
anlässlich
harten
advised
chances
anch@@
Rum@@
exten@@
athon
Albert
disagree
bekam
Griff
personenbezo@@
gleichzei@@
Nuklear@@
geschäf@@
beantragen
Scrip@@
laimed
borro@@
execute
asting
Innsbruck
terraces
Vall@@
sives
Co.
frische
druckt
Flach@@
Eleganz
allmählich
Sofern
Barnier
Einwände
schaftlich
Treibhausgas@@
Cont@@
rounded
attach
proliferation
artier
dio
subjected
wache
ASA
Berlusconi
esk@@
erkenn@@
schieden
besitz@@
Jahrzehnt
bels
silent
adjustments
mits
rer
trieb
Datenbank@@
Vorstand
Minderheiten@@
Wid@@
standard@@
achel@@
sse@@
socially
stitution
Environmental
Som@@
Hear@@
aro
ör
ppt
Zeitungen
territori@@
Verpackung
beantragt
Symbol@@
beliebtesten
ansä@@
fähiger
encomp@@
nearest
annually
Florida
corri@@
allo@@
breeding
judges
Produc@@
ка@@
mache
setzten
bige
Sicherheits-
Indikatoren
exam@@
cover@@
authori@@
auftritt
automatischen
kommunistischen
Freedom
18.@@
wishing
defeat
heres
Räumen
ventionen
Fristen
klausel
reveal
awa@@
terly
on-site
ż@@
ellers
uty
Shop@@
Harry
latt
enthal@@
persönlicher
Drucker
Arbeitslosen@@
vide@@
auto
clinical
ror
His@@
gradual
Repar@@
abstained
gerechnet
damaligen
Nahrungsmittel
gebnisse
Währungen
1.1
Back
licensed
correspon@@
Sw@@
arises
Epo@@
loan
С
ielle
Gesetzen
stahl
männ@@
beeinträchtigen
PPE-DE-Fraktion
gle
giant
Martin@@
.....
CV@@
kommission
ateg@@
akten
Kosme@@
Spalte
Sicherheitsrat
dänischen
globe
furnishings
reihe
Doppelbett
Gefan@@
poss@@
Controller
interference
disciplinary
oph@@
Chechnya
inspiri@@
kämpft
Internetseiten
gerer
scripts
adverse
bicycle
usa
Bern
Nobel
Dör@@
therapeu@@
Frontex
vernünftigen
das@@
healing
ù
zn@@
50-@@
beam@@
technically
element@@
befür@@
Foren
Pharma@@
Spielern
Teilnehmern
Kompromisse
moralische
Nachbarschaftspolitik
jor@@
customized
beside
iz
endo@@
stra
Kei@@
terie
Gletsch@@
criminals
vente
Reden
Geburt
Speichern
Options
asts
Willi@@
figh@@
eira
orious
routine
supran@@
Romanian
Imple@@
Nachteil
Untern@@
Infrastrukturen
städtischen
diagra@@
büh@@
imperative
HI@@
ro-@@
verteilen
ли@@
Maßstab
geholt
Forst@@
gesetzlich
Alkohol
zuverlässige
attempting
gather
etings
Song
modelle
añ@@
regelmäßige
dringen
Dy@@
Treib@@
Sehen
Vertrieb@@
Flüchtlings@@
anzugehen
vorhaben
Bangkok
tar
Especially
brun@@
charman@@
Termine
präz@@
sigkeit
meint
markiert
distributors
mild
cup
Upon
strecke
ometer
incomes
Euror@@
Busse
touristischen
optimieren
schlä@@
pflan@@
accessed
Info
origins
sevent@@
painted
Railway
locally
frau
assador
qu
compan@@
höchst@@
familie
medizin@@
Minder@@
Active
obo@@
ATE
complaint
affir@@
probe
axis
Feri@@
Kondi@@
letztes
ECHO
beweist
frühere
Vergü@@
Säule
koordinieren
iles
hearts
educ@@
Unless
Souven@@
Athens
teur
G20
pflich@@
Weiter
Krank@@
Smart@@
otten
crats
exclude
aki
Fest
Erika
volumen
preises
Erschein@@
Ganze
kompetenz
Generalsekretär
Signale
nachzudenken
Gleichheit
carriers
accommodations
eron
knowled@@
ismo
Kühl@@
Mobil@@
wachen
vorausgesetzt
gesetzliche
Sortiment
hütung
befreien
Aufsicht
chip
provo@@
end-@@
terrain
Minim@@
kenntnisse
Finanz-
P.
3.5
harmoni@@
boys
repression
Desk@@
Maus
träglich
luft@@
überflü@@
maßgeschnei@@
animation
episode
coins
resolving
Officer
Kari@@
lten
sst
Diktatur
Gesamtheit
couples
vacuum
142
kanz@@
bahnhof
orange
surgery
civilians
bemerkt
schreck@@
nutzung
feier@@
Augenmerk
rounds
yield
Turk@@
City@@
Statute
determining
Offic@@
FS@@
Medium
Criminal
gelände
σ@@
Statut
thaf@@
geschlossene
ßes
unzureich@@
Orientierung
Anreiz
Style
gau@@
segments
essive
Kalender
Einbindung
Verbrauch
passive
gies
World@@
Vegas
discretion
dev
Contrac@@
bedient
peac@@
gebor@@
banken
Publik@@
grundlage
schaft@@
Demokratien
RS
revolutionary
harmonised
Kleidung
fikationen
schien
beruf@@
Einträge
unvermei@@
Night
Punta
funden
Redebei@@
MAC
Written
Schlo@@
cular
refra@@
compens@@
onian
o.
was@@
Solar
tiver
lins
Modell@@
immerhin
Exek@@
static
chamber
Bruder
einlad@@
fungs@@
tragenen
erreichten
hn
totalit@@
Religi@@
Somm@@
Lud@@
gig
englische
effizi@@
Swoboda
Aufgaben@@
besichtigen
FTP
foo@@
Bulgarian
supporters
rigorous
Entschädigung
ausgeübt
Gültigkeit
mangelnde
TP
plu@@
intuitive
resol@@
distinct
Appart@@
Points
sincere
AST@@
inson
bearbeitung
vorbereiten
perception
Lob@@
rts
Gab@@
WHO
Lust
Sternen@@
gelag@@
Netzwerke
Passagiere
columns
patch
autonomous
personality
tent
echt
Emo@@
äler
gerin
Kurs@@
investitionen
kapital
berühmt
ulierung
Images
essor
amin
geschicht@@
ache
spru@@
geschütz@@
Unternehmer@@
Häufi@@
Jahrhunderte
5000
instant
ologies
Mira@@
ön
Dom
Banglades@@
toll
fahrt@@
Einfluß
Früchte
beschä@@
Banken@@
dauerhaften
bezogenen
shofs
glas
Ramblas
democracies
ium
Vot@@
Solidaritäts@@
uitem
engagieren
ym
comfortably
examining
ferry
cigare@@
Looking
Arri@@
dimension@@
SOL@@
Quartal
Gesetz@@
Dienstes
bten
öhnung
Auftraggeber
ernannt
Dafürhalten
py@@
tice
Terrace
thwest
excuse
umen@@
apel
drit@@
abteilung
starb
genutz@@
abgestimm@@
Autonomie
Nichtregierungsorganisationen
quick@@
alpha@@
Od@@
clas@@
anti
off-@@
Solidarity
-European
Paradies
Servic@@
Meister
römischen
erung@@
einsetzt
Insofern
Creative
reciproc@@
herein
Algorith@@
pillars
Kanäle
circum@@
serie
nische
erzählt
verträge
ophobia
guitar
schicht
certificates
syner@@
dynamischen
identifizieren
zunehmen@@
has@@
oll
Newspapers
Zealand
dis
herausra@@
brachten
downlo@@
Disabled
serial
dryer
ardo
ALL@@
Dür@@
restrictive
audiovisu@@
Nachbarschaft
Säu@@
dichte
atri@@
nings
photograph@@
indirectly
vei@@
Gedäch@@
Studies
ceremony
dramati@@
üt@@
exi@@
modular
communist
divisions
delle
gra
Vig@@
strom
skri@@
genetically
renovierte
teres
Möbel
Anpassungen
lagen@@
begab
Naturkatastrophen
Depending
invoice
lifts
thou@@
theoretical
Loch
liqui@@
investig@@
perat@@
bollah
Mitarbeiter@@
ruf@@
verknü@@
Inflations@@
65@@
developer
strikes
pin@@
tu
embry@@
envisaged
zir@@
Musiker
mord@@
Völkern
gefügt
bekräftigen
protective
Pod@@
doz@@
pine
Megapi@@
appearing
ás
Filter@@
zierten
angeführt
path@@
DNA
Perf@@
reactions
credits
Unit
rale
workplace
procedural
IGC
Schnit@@
gerei@@
inierten
artigen
zierung
veri@@
literally
vian
ACE
ox@@
validity
temperat@@
Jobs
erkennbar
erfassen
screen@@
formerly
encing
ò@@
tionelle
Selb@@
verkauf@@
Campingplatz
ziehung
sl@@
milli@@
Production
organs
09.@@
Syri@@
findung
geschützten
Hongkong
vorzubereiten
laufende
Verwen@@
lichung
Kameras
configured
l.
Button
german
securing
tox@@
quo
ORE
dek@@
eb
seitdem
0.222inch
verify
listet
sv@@
Cash
scrutiny
wet@@
Folge@@
andau@@
behindert
fortzusetzen
verschul@@
ITY
anism
Event@@
CIA
folk
Sloven@@
protests
Minist@@
Gefähr@@
billigen
Beförderung
categ@@
altitude
zza
hunting
meri@@
Impf@@
Erneuerung
legisl@@
38@@
headed
mile@@
cils
uner
Pom@@
Brand
raums
zusammenzu@@
bewundern
äußer@@
compromises
portion
bad@@
arena
prejudi@@
EZ@@
Lobby@@
Schottland
windigkeits@@
corporations
RF@@
uniqu@@
taire
penet@@
Spann@@
Preis-Leistungs@@
loh@@
zügen
sowje@@
webe
WiFi
nai@@
ow@@
hosti@@
visas
lingu@@
disastrous
senen
Wärme@@
größ@@
tseite
nahen
Zutaten
PSE-Fraktion
Laman@@
terra@@
concludes
ageing
interventions
jan@@
Später
congratulating
ologen
baute
Rechtssicherheit
Additional
enhancing
Ukrainian
formally
ý@@
SPA
Angeboten
hir
Keram@@
beratung
Resultat
Ansprechpartner
Beschaff@@
energie@@
mitglied
Again
dered
24.@@
cathedral
convincing
anci@@
arme
Gläu@@
vielfach
beglückwünsche
Stellungnahmen
abzulehnen
6th
decor
Wizard
gebo@@
TA@@
Imperi@@
geschmackvoll
Schie@@
Schwi@@
Nichts
basierend
Lauf
Symbole
Essen@@
fed
1972
stad@@
admitted
Screen@@
burning
foster
Gibraltar
Cardassi@@
perfek@@
schaftlicher
schwäch@@
ländischen
Map
pedestrian
accommod@@
aero@@
hip
zio
sacri@@
azione
DO
Simon
auswahl
Formate
Direktor
Rohstoff@@
Mensch@@
letter@@
pushed
bugs
formali@@
unum@@
mobilen
festhalten
viewer
Aero@@
ulative
Kloster
Whilst
Chancellor
consolidated
productions
Angebot@@
Bewegungs@@
stufe
Herstellern
Energiet@@
onisten
nigen
länen
Mitgliedsstaaten
Photoshop
Chris
Solarium
cotton
MM@@
ehl
blicke
Variablen
Vorbe@@
wertvollen
definierten
unterstrichen
Haushaltsjahr
preference
tling
Budd@@
Blau@@
metro@@
Stars
urg@@
dicht
Programmier@@
gründe
ersuchen
Inanspruchnahme
Piet@@
Volkswagen
anzen
Milch
Komplexität
nisch
Begeisterung
preisen
roten
bedürfen
erfahrenen
zivilen
Prim@@
Schauspiel@@
preservation
histori@@
Canadian
depic@@
SIM@@
Heu@@
Latvia
Obst
architekton@@
Kompromiss@@
Vorbehalte
Erkrankungen
Ganzen
Learn
smallest
exclu@@
fres@@
arly
seller
Ostsee
monopoly
го
behei@@
partner@@
packt
aufweist
Forscher
Petitions
rungen
Hoffnungen
readers
etto
otive
ML
Wu@@
arest
Schü@@
gerte
tonight
Dutz@@
elung
bör@@
ermittelt
dokument
aufrufen
intimate
ever-@@
innocent
urop@@
Trav@@
Sep@@
unilateral
tank
Gegebenheiten
ventions@@
Entschließungsanträge
Son
Recently
carri@@
paint
overwhelming
Pfle@@
adet
diversen
verlust
Gesundheitswesen
Gegenwärtig
reti@@
istan
galleries
berry
wanting
Hans@@
philosoph@@
reiches
Dich@@
Rücken
stabilen
worried
perceived
sorts
Canal
abandon
modernsten
Demokratisierung
Nachfolger
führend
tles
aran
neo-@@
inviting
750
Öster@@
Pent@@
non-governmental
attraktive
Fahrzeugen
läufi@@
Italiens
erender
dynamische
hoff@@
Klang@@
Ungleichheit
Persönlichkeiten
Sozialpolitik
Harmon@@
ounced
Beauty
Anyone
wished
kost@@
Potential
tschechischen
Designs
niedrige
muslim@@
serklärung
Conver@@
mitt@@
FO@@
Div@@
Secure
Festivals
Erwerb
Catholic
winkel
morali@@
ausmachen
außergewöhnlichen
gesenkt
tled
rent@@
dramatically
adjacent
DE@@
ark
Alex@@
Multi-@@
sprin@@
Bundesrepublik
bildungen
Interpretation
Konsumenten
chips
dec
transported
E.@@
Price
deter
assessed
Dr
Raf@@
gesu@@
Zap@@
Kä@@
Schluß
alternativen
Streitkräfte
spiri@@
nier
Jet
Audio-@@
aktionen
Kampf@@
Adress@@
koordiniert
deployment
surfaces
dion
Pots@@
Inser@@
sachen
grundlegend
rahmens
gemeinschaftliche
Hoheits@@
Redezeit
Veri@@
stairs
safeguarding
correction
sympathy
Priv@@
Veter@@
geräumigen
DS9
sth@@
fundi@@
unweit
ह@@
steine
Höhepunkt
gehand@@
Entwicklungspolitik
minibar
Against
buyer
partement
Ausstellungs@@
unanimity
Straß@@
dahingehend
dürften
Richtigkeit
Partnerschafts@@
anwendungen
friedi@@
escal@@
Hollywood
studying
etts
GM
missible
egu@@
Zukunfts@@
refusal
gster
beobachtet
verweist
transatlantischen
annehmbar
Down@@
Manchester
sys
ula
gasse
direkter
classified
accompanying
Höhen@@
BSD
klick
lieferung
benachrichtigt
wertet
Masse
verbindliche
Zentralbanken
medic@@
night@@
stimulus
estro
aver@@
Germans
ART
inet
Cards
profession
energies
Phan@@
ignano
zügi@@
verlängert
westliche
Störungen
wiederhole
Imm@@
council
Neither
IND
exploited
anyway
Koso@@
immen@@
jenige
aktivi@@
ausgestellt
lichere
Krimin@@
Nachrichten@@
forderungen
unternehmer@@
Beispielsweise
witn@@
thinks
Democracy
statute
Stim@@
Schal@@
ausgeben
Gesetzgebungs@@
ρ@@
Dal@@
artic@@
Blizzard
hof@@
Nit@@
Clients
far-reaching
Rä@@
sache
fläch@@
begriffen
proves
friend@@
Jacuzzi
Political
orn@@
eß
Besetzung
amtierende
Unterstütz@@
abzuschließen
Linken
counted
valuation
wash@@
7th
vibrant
BE
45@@
vigil@@
Porsche
Magazine
Andre@@
österreichische
Erweiterungen
grenzt
Entdeckung
Flüchtlingen
vorzuschlagen
modification
omo
Meas@@
diam@@
unified
consultations
Plu@@
beachtet
Kindes
bekämpft
Außengrenzen
unes
scri@@
Lady
Cul@@
ourc@@
baths
gemütlich
ld@@
ystems
gängig
tigkeits@@
Vorgang
digkeit
voranzutreiben
A5-00@@
exportieren
Kernenergie
nightlife
plot
memories
pull
landing
dämm@@
dorthin
einrichtung
loads
simulation
diesel
magn@@
solidar@@
Pay@@
aiming
Profil@@
TE@@
endeavour
Marin@@
Hunderte
enten@@
Vide@@
fünfzehn
Zivilisation
besteh@@
Twitter
bury
tible
proportionate
Biom@@
Kast@@
schwe@@
Assozi@@
außer@@
ausgebil@@
übertrag@@
Argent@@
Major
Spr@@
bets
Bavaria
dialo@@
Starfleet
Geschäftsführer
Schlacht@@
amtierenden
number@@
Along
documented
lifting
Mic@@
guest@@
zern
jar@@
mort@@
Congo
kum@@
abgeschafft
Beitrittsverhandlungen
Pho@@
endorsed
wisdom
Ferr@@
Temp@@
limiting
chno@@
ité
FT
worauf
geschnitten
Publikationen
guimen@@
pricing
Gent@@
Eas@@
gewöhnliche
kunde
Medizin@@
Norm
expliz@@
Landwirten
lush
author@@
tout
transpar@@
Ferienhaus
neut@@
blockiert
gefahren
wunderbaren
screeninfo
begrenzen
broadcast
listing
torial
drew
Machine
confirms
Toleranz
Konfigurations@@
versetzen
bewahr@@
Lissabon-@@
safer
micro-@@
ao@@
geographi@@
Prince
Command
unic@@
costly
Rohr@@
Lieblings@@
vollkomm@@
cons
Still
Domin@@
spark@@
Klo@@
er-
fragile
austerity
4-0@@
indischen
zte
Verknüpfung
legislativen
administrator
exe
bottle
1980s
anne@@
deciding
tiers
Anleitung
fizierten
Afrikas
duplic@@
Sydney
relie@@
Virtu@@
Voraus@@
Gewer@@
Kamer@@
freiwillig
Autorität
beherbergt
Infrastruktur@@
grafischen
mittel-
hony
six@@
ers@@
23.@@
popularity
writers
anton
gravi@@
Zucker
heruntergeladen
vereinbaren
Crist@@
noble
demonstrations
horn
racht
tei
Genauigkeit
abschließen
haz@@
brilliant
Colombia
Kanz@@
disch@@
ausgeliefert
Kapitalismus
detect
portable
random
advan@@
behold
defe@@
Mie@@
trials
Medina
Glücks@@
bereitgestellten
halben
verschärft
gigan@@
hec@@
english
lity
detention
Zentrums
Rollen
Artikeln
Zeug@@
Strafgericht@@
HA@@
repar@@
improves
classification
Updat@@
configu@@
af
Seattle
Rose
Hilton
surve@@
CR
gemon@@
gessen
Gutes
Durchführungs@@
versprochen
Moldau
Standorten
ständigkeit
Immunität
DF
geber@@
Korrektur
verlu@@
bestraft
Artikels
Pakist@@
Fusion
trans-European
Wanderungen
festgehalten
tigungen
rumän@@
Scre@@
definitions
cho
estic
gency
Akademie
emphasize
geschle@@
bedauer@@
ausgehend
irgendeine
Zinssätze
punishment
ordering
posing
praise
Turni@@
indications
Giovanni
Unterricht
Beträge
ehren
deckung
ausgenommen
tivitäten
manually
bums
2.2
ISA
responding
oi
ields
admire
princip@@
dead@@
counter-@@
gebucht
об@@
kus
Etage
Alkohol@@
Ziels
licate
Sax@@
Fau@@
deadlines
ا@@
tta
lio
angemessener
Wandern
strafrecht@@
faktoren
gemachten
aufhören
Zustellbetten
thereof
Championship
Monaco
positives
Hydro@@
beeindruck@@
Bün@@
angen
setzungs@@
kunfts@@
Durchschnit@@
Wissenschaft@@
Gegenden
Track
Core
ruins
snacks
introduces
assen@@
elas@@
obstacle
Quart@@
Gepäck
kriti@@
sein@@
Schritten
vereinbarung
Bolkestein
Ära
Kreatur
rear
there@@
market@@
volumes
press@@
road@@
zufriedenstell@@
kunft@@
legend@@
Palast
Verpackungs@@
verordnung
massiven
Anwendungsbereich
verblei@@
inwieweit
standardis@@
timent
pragmati@@
ith
Delta
construct
park@@
20.@@
Universi@@
stitu@@
Protot@@
stechnologien
Spiels
durchschnittliche
Zelle
Diejenigen
einzuleiten
Konvents
sends
omas
wild@@
limitation
Cz@@
apped
flex@@
Olympischen
situationen
Zertifik@@
Try
dish
surance
anta
critique
schwach
Beleu@@
bestanden
Strecken
Berechn@@
cream
advisory
wis
gress
lv@@
evaluated
cling
Lee
honest@@
guilty
immunity
completing
Guatemala
Expan@@
muster
Charakter@@
gien
zenten
Zuliefer@@
Aufklärung
modifications
meaningful
settle
Sahara
N-@@
ICH
stuhl
Freizeit
Nas@@
zeugt
Werken
kreative
Gewährung
Königreichs
gratuliere
UP@@
tanks
compet@@
Translation
KL@@
europas
zed@@
Szene
Sieb@@
gter
anspruchsvolle
ränkten
abhängen
sämtlicher
Kriterium
complementary
audiovisual
UT
lend
diet
Guinea
entary
witnessed
Benz@@
thur
chni@@
Lizenzen
selek@@
ausreichen
spartnern
Akzeptanz
distinguish
subjec@@
morgens
Heiz@@
nan@@
delegations
Bä@@
Europäisches
Gedanke
einbeziehen
controll@@
Scandin@@
Gift
tasty
Rica
Agri@@
laufend
abschluss
Balkan@@
Gehir@@
Begrenzung
Möglich@@
europa@@
pflegen
Gleichwohl
197@@
ference
casting
Stephen
worlds
legacy
Total
ukra@@
illness
Viel
ehr
sung
Übermittlung
iranischen
virtuellen
trinken
herrschenden
schlimmsten
künften
grafische
ard-@@
KE@@
Oliver
bedded
courtyard
neutrali@@
etti
opol@@
inserted
Jordan
Eurocopter
identifying
Authenti@@
Haltestelle
rachten
definierte
Vorsicht
Tiefe
Monats
Flächen
Effek@@
diesbezüglichen
ausgerüstet
optimiert
bewäl@@
gezahlt
stants
eive
opping
Tok@@
textiles
mare
energe@@
edly
profitiert
painful
medicinal
atum
Stern@@
attraktiven
schwarz
Verwenden
dle
bund@@
mood
boutique
ticul@@
modernisation
traditionally
dog@@
insur@@
Trä@@
Zeitschrift
erho@@
10.000
Therapie
genommenen
ausdrück@@
Folgendes
Weltkrieg@@
sozial
IVE
ecture
crimin@@
defines
psychological
Ai@@
kommunizieren
ausgeprä@@
diplomatischen
Schließung
multilateralen
Func@@
Fam@@
tch
Clau@@
salle
astronom@@
region@@
intelligente
tür@@
Inzwischen
gestrichen
Sammel@@
westen
berau@@
short-@@
Dry
FREE
contro@@
fulfil@@
Promenade
reluc@@
Hindernis
Bedürf@@
konkre@@
CO2-Emissionen
birthday
aker
tariff
long@@
Oper
y-to-@@
uta
mel
bunal
rump@@
remedy
Monum@@
†
ftungen
wurf
uts
blocking
tendency
void
card@@
Romanti@@
agu@@
invasion
dark@@
Shutt@@
Europe@@
dop@@
Turm
Etagen
pfli@@
Schwerpunkte
suits
efs
inland
Canary
unmittelbare
Ple@@
hair@@
Inten@@
Absol@@
ried
sche@@
Trin@@
ā@@
Küh@@
wehr
Spiegel@@
beginn
Auslands@@
Tagungen
ausgewogen
bewegungen
Zusammenfassung
Broschür@@
geneti@@
Fülle
Gehen
Shor@@
backup
.NET
smoke
aven@@
farm@@
sleeping
bik
irrespective
siedlung
consolidate
mmer
Schuh@@
Zwischenzeit
Zahl@@
fän@@
Geldpolitik
eme
gul@@
baggage
spreading
Anschließend
merken
anzusehen
konstruk@@
eventuelle
Nutzern
Behandlungen
Verhinderung
fried
chair@@
Brown
linder
undi
fassten
Jahreszeit
verbundene
fizierte
Bedrohungen
wirksam@@
transform
fabulous
Para@@
priced
distinctive
intent
wheels
betreut
betragen
struk@@
utern
Visum@@
Endes
spam
model@@
Americ@@
exotic
problematic
Whatever
samt
Cruz
ket@@
definitive
Ala@@
ssi
Sustain@@
Lange
Las@@
Darauf
vergleichbar
Kyoto-@@
iell
Meinungsäußerung
pflanzen
vorberei@@
en-suite
Unix
très
fasc@@
escap@@
Psy@@
reservieren
kontra@@
folgte
mittelalterlichen
Auflagen
Daraus
bekanntlich
soft@@
recur@@
thick
linear
Shuttle
tied
Johann
Warsaw
seas
Holding
dioxide
geräumige
Depression
timm@@
Schätzungen
henden
wirtschaf@@
uit@@
Soft@@
prerequisite
Equipment
RA
Kok@@
Has@@
Inhalts@@
privater
Elektriz@@
Davon
sparteien
gambling
favor
coastline
wholes@@
Tuscany
eks
Check-@@
selts@@
affen
Ostse@@
स@@
schriftlichen
anien
quoten
wirksamer
zurückkommen
2.1
Ec@@
arom@@
Fan
TW@@
disabilities
Blei@@
Pazi@@
Ansprüchen
Schwach@@
sichten
Katastrophen@@
regelungen
disappear
Malaga
Ball
clauses
reimbur@@
Sv@@
ellen@@
unglaublich
Seh@@
geschenkt
Rech@@
gerlich
Zeitalter
themen
Bestrebungen
burn
enses
cattle
stas@@
broadcasting
24-hour
tima
ultra-@@
bold
dimensional
oro
ouver@@
не@@
Ih@@
Ticket@@
scheinbar
Dokuments
unterschied@@
Sitzungsperiode
protects
μ@@
Annex
aboard
orous
ags
sere
Cohesion
nig
verhandelt
Herzlich
effizienter@@
Erdbeben
gerungen
Dienststellen
Navig@@
dairy
stically
weal@@
pushing
zzle
UK@@
Zigare@@
Sozialisten
zweit@@
übertragung
draws
que@@
persu@@
compiled
metals
jazz
aba
Steel
Erfassung
bestätigung
veranstaltet
Folter
Allein
herrschaft
Chinesen
fitting
boot@@
tiveness
GEN
Subjek@@
abzugeben
sh-@@
lling
pets
flora
Algeria
KM@@
contam@@
abetes
reaffir@@
erholen
zusammengestellt
Temperatur@@
Zyper@@
Wollen
Wh@@
locked
temporarily
retained
1971
erning
aman@@
Ungleichheiten
Hotelzimmer
funktions@@
perfekten
Posselt
niedrig@@
Wäscheservice
Befug@@
shes
Un
mediterran@@
recru@@
conducting
utz
-Sterne-@@
Hybri@@
personen
Konzern
Nachteile
Hochschulen
rieben
möglicher
Beobachtungs@@
detected
Sites
offer@@
deplo@@
Comfort
BB@@
echo
onna
х@@
Stern
Tier
problemen
verwandeln
durchschnit@@
jemanden
Überleben
Periode
enswerten
Maustaste
bürgerschaft
1.0
oasis
miner@@
Want
Some@@
Häusern
existi@@
liebt
Blä@@
gangene
Reinig@@
biologische
Zertifizierung
gewöhnlichen
beunruhi@@
YouTube
consu@@
put@@
abor@@
experiment
servatory
ventura
in-house
č
Amat@@
Ds
kat
tierenden
Bürgerrechte
dität
Defizit
economical
timing
OM
cation
fridge
U.@@
Steinberg
pots
hygiene
π@@
leuten
Migranten
beeindruckende
Schlußfolgerungen
zoom
Monitor
tranquil
surf
passport
south-@@
Upper
Orchestra
kid@@
frank@@
Räumlichkeiten
Trock@@
läufigen
gebrachten
Nordkorea
couldn
brea@@
stle
vri@@
enforce
Electronic
Portfolio
aph@@
vermieten
verwendete
steigende
erbare
abschließ@@
Behandlungs@@
optimized
lun@@
tà
bie
sau
concep@@
dele@@
ansprüche
Somalia
gültige
irgendwann
Aufpreis
künstlerischen
erzielte
klarstellen
renewal
NA
Hague
cooperative
passion@@
turel@@
Arbeiter@@
titel
Ergeb@@
Vermögen
traf
FP@@
preci@@
holt
Beau@@
Manuel
feasible
lemma
coura@@
Hof@@
exacerb@@
econom@@
verdanken
zulegen
Schlacht
erhebt
Mini
heimischen
Leon@@
wirst
italien@@
Mercosur
versorgen
shorter
POR@@
Croatian
Fire
continuity
confidentiality
oming
architek@@
Wissens
erstre@@
unkten
mware
cabin
colo@@
multinational
responded
pse
Property
dex
condem@@
β@@
Tempel
herbei@@
Kongo
versprechen
CPU
Lufthansa
trendy
quoted
Zak@@
Incre@@
geschul@@
Vern@@
fairer
untergebracht
zuführen
gefertigt
Warnung
Bandbreite
Felsen
Bügel@@
scan
Maximum
righ@@
unge
11-@@
comprehensible
ideology
Metal
ographie
Gestalt
einhalb
kapazität
pfei@@
Übereinkunft
som
Century
Parking
rh@@
IRC
irgendwie
Cafés
dringlich
Verhaltens@@
Funktionsweise
änen
höherer
le-Distribution
sided
Montreal
automobile
Lyon
diplomacy
humane
tration
ecker
rand
Heidelberg
Ergän@@
Bearbeitungs@@
Eingabe@@
Ursprün@@
zugang
Chro@@
Conci@@
port-@@
LI@@
Geor@@
safeguards
train@@
Versicherung
Upgrade
10th
tiques
encourages
ain@@
BA@@
atar
Cash@@
onale
Borg
geschnit@@
wenngleich
Rettungs@@
anbieter
Instabilität
Finanzielle
CMS
beh@@
evenings
fulfilling
lateral
arded
ograph
ло@@
stisch
soren
takt
Erhebung
Phasen
Umstellung
menden
Gemeinschaftsrecht
stellbar
bestehend
brow@@
density
amendo
dropped
13th
chet
tum@@
Gonz@@
prescri@@
donor
kultureller
.png
firma
mord
nachfolgenden
exzellente
mächtigen
anzuerkennen
Tschetschenien
confidential
buffer
Six@@
gun@@
SilverFast
accessibility
Nab@@
Legen@@
ückt
Klassen
eigent@@
Stabilisierung
eso
St.@@
spati@@
ser-@@
damp@@
Herzegovina
erwarte
Bibliotheken
machung
lasten
aufgeführten
belastet
fortsch@@
encountered
ateur
S-B@@
cel
resear@@
attacked
platt@@
andin@@
Guantánamo
Reichweite
flexiblen
ueber
licity
networking
Inspi@@
matching
femin@@
gathering
barrier
stadium
stock@@
Norwe@@
Instrument@@
konver@@
exakt
Mannschaft
gelan@@
Netto@@
wörter
e.
eric
seed
households
ement@@
congress
Associ@@
Us
definite
modul@@
Mix
forestry
assessing
mau@@
Secretary-General
etwa@@
überwälti@@
zuständige
berechnen
Fischereiabkommen
eno
aston@@
String
vere
impressed
andel
Skrip@@
Anreis@@
ungsphase
lieferungen
Zertifikat
br
Far
ians
Check@@
settlements
apaz@@
geld@@
Klassen@@
Fotografie
Poettering
disc
MI@@
apar@@
incidents
organising
Sey@@
toxic
ğ@@
opou@@
erhielten
problematisch
Gesprä@@
stetig
Mitgliedsländer
Erzeu@@
Industriepolitik
Me
opt
Aar@@
dak
ranks
Marx
Gad@@
Welle
Mön@@
proch@@
roler
Eich@@
soll@@
forder@@
Fundament
Kohäsion
batteries
suppor@@
architect
Lab
03.@@
Finn@@
enab@@
sade
schlicht
esenen
Begleitung
trächti@@
sprachige
privileges
bition
marble
Metrop@@
German@@
satelli@@
Bike
Verw@@
Entdeck@@
medien
akadem@@
drängt
besuchte
Variable
Continental
cane
ure-@@
Legi@@
earthquake
Objective
behindern
Bologna
valued
heimer
Veneti@@
zeh@@
duktion
Anzei@@
berechti@@
ggf.
Konsolidierung
municipality
parent
sic
outline
debts
propaganda
grey
ю@@
toys
komplizi@@
Haut@@
Erziehung
Aufstieg
ierter
Modellen
Mittagessen
viruses
Synchron@@
Art@@
Fortunately
Princ@@
antique
ressed
magazines
stream@@
Agent
unen
prozessen
spreis
Texten
Vertrau@@
schweigen
vollsten
übergreifende
Gewerk@@
Entscheidungsträger
tops
LabVIEW
trace
pit
Nepal
Dolomites
Tepp@@
за@@
Police
iors
Aparthotel
sprung
ranking
Rober@@
convic@@
recognises
wälte
Boutiqu@@
Hygi@@
einigt
imbalances
demselben
übernahm
Engine@@
aked
varying
Explo@@
rays
Fou@@
Economy
She@@
entre
Domini@@
Logistik
Cancún
Rohstoffe
Attra@@
zurufen
auseln
erhöhte
ergänz@@
vorgesehene
kritisieren
Quick@@
NT
Kit
County
Castro
DEN@@
Barro@@
Wand
einfaches
tritts
gewaltige
emit@@
purchases
xy
Verlag
ratify
anticipated
мо@@
Wolf
Dolomiten
gehalt
zuhalten
Anweisung
Mut@@
harder
östlich
Beibehaltung
bilität
closest
linen
understandable
attitudes
captured
.-
Machen
Leb@@
Labor
Grie@@
korrigiert
beliebige
anerkannten
Estland
versuchte
TRA@@
sored
attentive
Gothic
preserving
coup
demon@@
Management@@
ewi@@
ь
nun@@
unzählige
idyl@@
Motoren
Erkenntnis
entfernten
beauftragte
geheim@@
Verbündeten
wahrgenommen
wins
employ
rassi@@
Auskunft
kr@@
bemü@@
tigsten
Unterbrech@@
Ausschüssen
ma-@@
icons
hosted
atics
merchan@@
α
jana
Koch@@
erbringen
Leer@@
Verschlüssel@@
Reparatur
mietung
ttaus@@
Malware
partment
enemies
Bav@@
dealer
rand@@
CD-ROM
ThyssenKrupp
wy@@
holz
Neut@@
.jpg
Wikitravel-Benutzer
erstklassige
aufhalten
Griechenlands
Auftrag@@
widerspiegelt
Insert
Below
Workshop
conservative
asso
én
sortium
Design-@@
Organ
sfer
offizi@@
Beschäf@@
potenzial
Hauptziel
Arbeitszeit
UP
refreshing
erup@@
husband
Shops
Chianti
sion-@@
contin@@
tiles
WE
floods
vos
energi@@
κ@@
Misch@@
Kart@@
Kompetenz@@
lässigkeit
Plattformen
trug
Gemeinschaft@@
Darlehen
geeinigt
Canc@@
activists
Spiegel
Hypoth@@
verantwortung
Reisenden
getre@@
aufkommen
verläuft
zonen
Finanzminister
Prüfungen
Klaren
dup@@
measurements
avian
stationen
Geg@@
tigste
hardt
Wartungs@@
Traff@@
experiments
midst
qualification
Terror
Jas@@
amoun@@
Christi@@
AI
broadly
ext@@
ereien
Vollständigkeit
befreit
voltage
22.@@
organisms
Schnee
2050
wohnt
endums
Verschlechterung
Erwachsenen
verlängern
vereinbar
Copy
transnational
tat@@
wood@@
Cleaning
Mercure
positioned
esto
veness
unkomp@@
dei@@
empf@@
zwecken
aufnahmen
Herstell@@
ferenz
schwä@@
erzählen
gründete
Typen
christlichen
Bestände
Rechtsrahmen
Ethernet
24-@@
curr@@
10.00
Ecu@@
Pisa
PVC
dose
Wörter
stungen
Aussehen
maßgeblich
diagnosis
lib@@
semi@@
rocks
baum
senses
formity
schmer@@
Kamin
macroeconomic
kostenfreien
partnern
Hinzu
enna
horiz@@
Alli@@
journalist
coating
warrant
Univer@@
riften
verwandelt
privilegi@@
japanische
Ersten
westlich
Konvergenz
Clean
warran@@
Integr@@
Platform
Salon
Leiden
verkörper@@
vierung
entnehmen
Militär
debatte
initiate
olds
logan
ie-@@
imagination
tot
Hochschule
grö@@
Baden
versu@@
unkon@@
echnik
gemeint
plung
israelische
Sozialpartner
launching
mption
umbrel@@
promin@@
ancies
Emer@@
Japan@@
Spock
definitiv
Multimedi@@
ultur
Astrium
Blü@@
wünsch@@
Wohl
Besucher@@
versorgt
Spannung
Zusagen
verursachten
genetisch
installer
Krem@@
solarium
stituted
bend
inspections
Stab@@
Harmonie
gelassen@@
Tauchen
Gebäudes
aufrechtzuerhalten
potenziellen
vigor@@
mé@@
Cardiff
Obst@@
rewar@@
ammer
ICA
ilit@@
gül@@
vorzugehen
MB@@
boy@@
EI@@
present@@
Quite
retention
Seel@@
YORK
ASEAN
asten
sweise
Grafik
Mineral@@
streiten
begeben
gelegentlich
slowak@@
isons
Donn@@
ckness
essel
Pilot
hielten
Tschech@@
े
tim
NH
K.
dossier
Jord@@
Oster@@
extremis@@
ichts@@
transparente
Ministerpräsidenten
discipl@@
Law@@
Course
Á@@
transl@@
agn@@
101
dable
Slovak
Mozart
ubs
Franç@@
pressures
ASP
ernde
Komplex
Wärme
entsprechender
anschauen
sky@@
HTTP
AVI
priori@@
Motion
Collec@@
Catalunya
semin@@
arre@@
halter
Nordirland
ancen
Gremien
screens
sy
consec@@
fastest
tivities
lack@@
Moz@@
crash
Kath@@
adar
weakness
our-@@
Doctor
Oran@@
lov
Amerikan@@
Zeich@@
Katalo@@
widmet
Sekret@@
acou@@
Ped@@
1200
demnächst
arbeitenden
benennen
Kreis@@
euer@@
न@@
Messen
juristischen
folgedessen
bedaure
sp
Temple
Ali
ström
Impul@@
Südtirol
stabil
Diversi@@
mutz@@
verbrauch
Franzosen
Subsidiaritätsprinzip
shut
Malm@@
Alz@@
reserv@@
stretch
call@@
edt
adop@@
competitions
lings
intu@@
fu
tücher
1.000
gewalt@@
Wagen
Einsparungen
vertik@@
Konferenz-
statutory
Cambo@@
strich
nächstes
Fahrrad
ichtungs@@
lichten
Kontinents
sätzlich
Ermitt@@
Appell
etch
Wilhelm
handi@@
Stop
gian
kking
Handbuch
theti@@
Einfach
dachten
Jahrestag
Fotografi@@
Ökon@@
bilaterale
beugen
Starting
conditioned
passage
kne@@
successes
enzo
inappropriate
Anmel@@
Nürn@@
liner
gelt
aufgeben
Regierung@@
Birma
Handhabung
Tragen
wählt
widerspiegeln
14th
esthouse
eggs
Davi@@
Vati@@
1930
Questions
api@@
Cape
hoping
agua
Seminare
Wunder@@
Erwäh@@
Vulkan@@
schiff@@
Werkzeug@@
bege@@
Arbeitsplat@@
oberste
luß@@
Pakt
Überwindung
IDE
arch
Competition
neighb@@
withdrawn
Tie@@
respec@@
vegetation
recreation
Sauber@@
ernity
Allgemein@@
deutsch
keln
einheimischen
steil@@
mittelständi@@
beloh@@
Sicherstellung
USE
34@@
rics
café
disappeared
miet@@
Thessaloniki
Sandstrand
tagung
verteidigt
Alt
thrown
collecting
ped@@
commodity
Egyptian
ARD
imag@@
stered
topical
G8
Fuss@@
vene@@
typ
Vö@@
Preises
blauen
corresponds
utable
onom@@
QuarkXPress
Inc.
Five
did@@
dirty
satis@@
sensors
rede
nder
Inneren
hervorzuheben
unterschiedlichsten
stellvertre@@
Viren
zweier
öser
Anleger
anymore
convey
home@@
dh@@
attending
ITE
TM
instances
rasse
Male
Exempl@@
erei@@
katho@@
wöch@@
disku@@
überdenken
Tunes
otyp@@
pursuit
ush@@
Iz@@
Reservi@@
splan@@
weiterentwickelt
schätzt
kehrungen
erzeugung
territorialen
organizing
v.@@
Dame
educated
Niel@@
Mono@@
Geschäftsreisende
ämp@@
Wiederein@@
galt
assungen
untersagt
vorherseh@@
beauftragt
Bemühen
roph@@
slight
geable
Scottish
Laundry
Proven@@
injury
Reich@@
foodstuffs
orph@@
gee
artikel
Stücke
Stoffen
chtest
flag@@
DB
prises
steep
Nazi
HT
sympath@@
weaknesses
quiry
speisen
Linien@@
stellern
usamment@@
vernünf@@
beheben
beschleunigt
Brief@@
wet
minded
recti@@
pir@@
particip@@
Verkehrsmitteln
stresses
ν@@
günstiger
Unser@@
ausgegangen
Ehe@@
Biokraft@@
Scientific
broadband
forever
xer
tub
Mare
relevance
genocide
enfor@@
Patch
hochrangi@@
Angehörigen
Kompromiß
beunruhigt
Happ@@
eliminating
105
ört
precautionary
Lande
strukturellen
func@@
archives
bookings
affair
Exc@@
Articles
lieu
grain
ussy
Angestellten
Natura
Gerü@@
gemeldet
Spekul@@
Terrorismus@@
bedeutender
encryption
indul@@
correspond
desert
1,000
Garage
thirty
YOU
deliberately
normali@@
ender@@
Badewanne
Flugzeug@@
erbe
Gewähr
Asyl
Filmen
Delegationen
Kommissars
Viertens
preview
pedition
Flor@@
Angola
Carl
happ@@
screening
¿
Sisko
offensich@@
Standor@@
Strafe
umgewandelt
Algerien
versichert
Konservativen
ccer
crop
tet@@
gentle
ism@@
motivation
Torre
Bonus@@
Garanti@@
Glan@@
Einleitung
geplante
Beschränkung
isieren
merkt
install@@
Neigh@@
prostitution
prison@@
stence
vegetable
cure
liquidity
extremen
Nächte
anscheinend
Ansehen
ALDE
Schwächen
Euro-Mediterranean
Erwachsen@@
Stay
loyd
SEO
municipal
atus
nutrition
Kurdish
Nachtleben
ehrte
feldern
blich
zufriedenheit
Daneben
hinnehmen
höher@@
wissenschaftlicher
gewaltigen
beihilfen
ces@@
Gardens
Museums
auction
jack
coordinating
concessions
Fundament@@
outermost
Dialog@@
malen
Gegen
vereinen
Chemikalien
überwachung
masters
shame
peripheral
represent@@
Palais
Exist@@
bow@@
enny
pretext
Pixel
Genau@@
äume
Stück@@
entziehen
belastung
Aufstellung
ordnungen
utionen
Book@@
33@@
persuade
establishments
wearing
Al-@@
Momente
overseas
chio
jour
racy
rhetoric
bauer
risk@@
mili@@
hauses
artiges
persecution
cryp@@
yacht
eiro
`s
dit
recipient
Tast@@
Clin@@
Palm
katastrop@@
formulieren
Meilen
belast@@
unverändert
belebung
updating
kni@@
family-run
color@@
vin
ane@@
OSCE
zügig
Gemäl@@
Einerseits
repräsent@@
Gewässern
Mitbürger
accoun@@
Zar@@
LL@@
Turin
Swe@@
Bah@@
macher
Cypri@@
pension@@
Bilder@@
intensity
unk
experimental
positively
HTML-@@
Bisch@@
Likewise
Eis
betreffende
herkömmlichen
zucht
osteuropäischen
gewähr@@
Damals
Gesichtspunkt
cion@@
doc@@
consi@@
coff@@
Available
liest
mysteri@@
scal@@
conscience
glia
sprechende
geschlossen@@
verläss@@
rechnet
schrei@@
aufgegriffen
berechtigte
Rechtsprechung
Freilassung
Fax-
geschah
Fortsch@@
replacing
Near
celebration
modernis@@
ex-@@
catalog
mounting
fred
lifelong
bron@@
nett
ographi@@
ме@@
tenden@@
windi@@
versicherungs@@
Rhyth@@
zweites
Lieferungen
afft
wünschte
älteste
Aufnahme@@
Verhaltenskodex
apo@@
halls
sidy
cocktail
tura
protectionism
lical
Bestandteile
Schriften
anschließ@@
überschritten
Pfeiler
Veranstaltungsräume
handelte
uneingeschränkte
grande
Stream
thful
light@@
restric@@
aufrecht
laim@@
Alexand@@
Ment@@
halle
FUN@@
GA@@
vising
graben
Wellnessbereich
ängen
einzeln
mitzuteilen
polizei@@
Schulungen
ventions
laundry
springs
Seven
state-@@
indic@@
Feedback
mme
lierung
setzungen
gkeits@@
gekrön@@
antwortet
E-mail
travel@@
accomplished
Chirac
spective
lou
bay@@
virtuelle
Kriege
Leser
Ausbruch
inierte
alisierungen
deployed
possession
Spec@@
stainless
pfer@@
Ausgleich@@
annter
verarbeiten
unternimmt
chains
accompany
Nau@@
gin
emergence
GL@@
та@@
Blumen
egen@@
befehl
Schwanger@@
ästheti@@
gründet
appelliere
Share
stly
built-in
ckey
1956
speculation
Dub@@
democratically
Werde
kenne
komb@@
kontak@@
Schauen
Unregelmäßigkeiten
zusammenhän@@
entdeckte
folgendes
Commer@@
real-time
Check-In
C.@@
andal
Ausnahme@@
DER@@
Softwa@@
komfort@@
hne
ą@@
Aufteilung
esische
Auszeichnung
repräsentiert
Interventionen
Streben
Gemeinschaftsebene
influences
Records
barely
Radisson
descriptions
amento
PE@@
diameter
Toskana
inion
asien
ablen
bester
reinen
Größen@@
Löhne
Gesetzgeber
getroffenen
gewichte
Fit@@
spiritu@@
denom@@
contradiction
IO
Hart@@
loten
Befürchtungen
Ausserdem
angekommen
terten
Größen
förderungs@@
elektrischen
bestrebt
hinreich@@
gänzlich
Speicherk@@
abgedeckt
chment
instruction
mill
strip
incredibly
ested
eo@@
socialist
NATO-@@
Romul@@
reminded
verbesserten
mende
Plätzen
lässig
teilnehmenden
geehrter
Error
transi@@
sheep
Rest@@
eventu@@
turnover
geist
GMOs
wap
poorer
glän@@
geschä@@
Aufbau@@
Eintritts@@
wiederherzustellen
täu@@
bürgerliche
hine
reveals
Mr@@
Magazin
irregularities
tissue
NCC-@@
COD
Vieh@@
zufügen
ehrgeizige
Klausel
herauszufinden
älen
vertrauens@@
gewahrt
Send
manipulation
Returns
picked
signatures
llon
san
Stoff@@
Instanz
häufigsten
Schuld@@
schwar@@
prüft
einschlägigen
xing
gger
Estate
Care
utor
shortage
servatives
trium@@
bum@@
dening
varieties
weiß@@
steigerung
gesetze
veranlassen
analog
casts
acres
1900
hion
donation
objections
momentum
facilitating
Lock@@
Paragraph
strahlung
nein
Varianten
scanner
Menu
Link@@
copy@@
Hack@@
flower
personalized
mais
multitude
nels
Partic@@
oa
Fenster@@
äck@@
populi@@
Trainings@@
aufw@@
Dauer@@
dermann
Gleiche
glichkeiten
pflicht
Zoll
vertrieben
wns
upgraded
Package
infection
Boutique
Rotterdam
Markus
designing
Lyn@@
osity
Tunnel
resist
itar@@
Di
chtern
-Seiten
rote
etern
BSE-@@
Münzen
richtete
Almost
oos
fem@@
bridges
ounce
hosp@@
atories
codi@@
EEC
Aluminium
polnische
embargo
eger@@
aussieht
veränderten
sprüche
unterstützten
PayPal
liberty
Zoo
attracted
billions
infrin@@
zuvor@@
Christop@@
sanit@@
Business-@@
privat
ени@@
kub@@
Entschul@@
aufgeteilt
ganzhei@@
agenturen
vorwiegend
speeds
second-@@
ardian
injection
allet
Bier@@
Tank@@
Paar
steil
Wohlergehen
verlor@@
zyklus
i18n-@@
Lic@@
directors
Hot
amentos
German-@@
coin
moul@@
Provence
Arc@@
Sciences
part-@@
telefon@@
hafen
Vorder@@
igte
wirtschaft@@
Gründer
Applikation
Reisende
verweigert
gekürzt
Freihandels@@
lug
Keep
mitting
sharp@@
Maybe
Appar@@
itement
olf
consultants
Dorf@@
mobil@@
economists
lus
Bec@@
Freund@@
umfangreiches
Anstatt
Volkswirtschaft
Genfer
verlang@@
Gefühle
vorüber@@
oter
user@@
izza
tism
beau@@
Communications
Alicante
inkl
socio-economic
thirds
LK@@
Konsu@@
Genehm@@
ganzes
Botschaften
obliegt
Exporte
Schriftliche
Cadiz
brücke
rial
eliminated
³
Legisl@@
bring@@
ausch
Flair
yen
protein
Vertrauens@@
halbe
Schienen@@
Diskussions@@
echnet
800@@
Conil
Official
Model@@
voor
basin
esen@@
fortress
earnings
inequalities
1957
zona
motto
88@@
cultivation
Bayern
Dell
ause
Dün@@
großzügig
fängt
ebe
Enga@@
ritte
enttäu@@
schwachen
Heraus@@
sozio@@
ampli@@
php@@
alleged
shipment
Partition
preparatory
Autovermietung
befes@@
kaner
vermei@@
häufi@@
Anbau
geprä@@
Spaniens
001
1965
Vac@@
grass
Around
Mist@@
erledigen
behilflich
einwand@@
östliche
Nahrung
willigen
Herzegowina
twi@@
Iber@@
successor
Claude
ularly
Dalai
acid
HE@@
mitig@@
Afghan
kommend
Fahrzeu@@
Finger@@
Teilnehmer@@
springen
Verhältnis@@
Experten@@
Verstöße
Persönlichkeit
buted
moment@@
best-@@
hospitals
Has
reward
exemption
Made
factories
Iran@@
ле@@
Logos
disadvantaged
Meeres
graf@@
Wertpap@@
dlern
teeth
Coff@@
Jen@@
uries
Amar@@
shoulder
cury
rab@@
Fass@@
ти@@
alleg@@
Wallström
historischer
Strafre@@
folgend
Politikern
Unfall
Evaluierung
Generaldire@@
Flusses
gedenkt
infin@@
bond
variations
beck
cham@@
08.@@
rises
kW
dü@@
marken
unilater@@
Berichterstattung
bekannter
Besatzung
sensiblen
unterrichtet
wachstum
Wiederaufnahme
Erwärmung
Aufstockung
115
dine
anto
tired
Istri@@
quanti@@
stamp@@
Brit@@
Dup@@
ILO
XL@@
contradi@@
Money
nesses
ção
bräu@@
bein@@
ühlen
üpp@@
gängigen
Näch@@
schü@@
verlaufen
posting
Codes
11.00
strongest
wag@@
guiding
entin
gaps
appe
decke
ihrerseits
tilien
Stärken
pakete
Paket@@
Wechselkur@@
besorgniserre@@
einräumen
varies
scrat@@
Seminar
HER@@
elimination
fossil
dial@@
Stress
Posten
multination@@
verfassungs@@
Camping@@
Logistik@@
Übersetz@@
ehemali@@
Lettland
obgleich
do-@@
thou
inas
forti@@
sat
treating
progno@@
ami@@
Spo@@
Robo@@
unüber@@
fachen
hinausgehen
Lebensbedingungen
abzustimmen
rag@@
Russians
INI
Zir@@
Brie@@
sitzt
zwecke
Vergabe
geordnete
währung
vorgaben
drawings
altogether
assor@@
proofed
pon@@
commissioned
EOS
cryst@@
mont
Arabia
entino
broke
assu@@
inter
strei@@
Erdgeschoss
sene
bodsch@@
vergabe
Belastungen
organisator@@
Fische
ähnlicher
Erzeugnissen
finger
pause
cand@@
Cambridge
predictable
vio
sciences
generates
gage
NA@@
rami@@
Streit
verfü@@
Spritz@@
EM-@@
ziehungs@@
Beantwortung
traten
zwingend
importieren
Protektionismus
eval
Cany@@
anding
Certainly
undering
Divi@@
disadvantage
deterior@@
isen@@
Flora
differenzi@@
auber@@
phar@@
leer
sebene
befindlichen
entscheidungen
Gebäu@@
wesent@@
Berechti@@
verfasst
rüstung
distances
eses
offensive
deliveries
cks@@
Farm
commend
Kirchen@@
bettzimmer
Villen
gleicht
Sün@@
orientieren
lebens
hten
studierte
Verfas@@
faul@@
TT@@
Nikol@@
fully-@@
eri
symbo@@
liance
asymm@@
SR@@
schal@@
Befreiung
Verfü@@
Abfahrt
Richtungen
Kolumbien
48@@
vulnerability
Acces@@
attack@@
shapes
psycho@@
transform@@
avoid@@
redund@@
eto@@
stron@@
tackled
IS-@@
unterstützte
europaweit
zusätzlicher
Kohle
PI
land-@@
Currency
São
Isa@@
Polo
pher@@
ambots
fortgeschrit@@
accountable
Stä@@
restlichen
längeren
Banan@@
Züge
geschäfte
Fahren
stuft
Exten@@
rigor@@
cans
pragmatic
brü@@
Län@@
Brüder
Arafat
ethnische
Erlaubnis
gesteuert
scrip@@
binary
process@@
threaten
ă@@
renovation
Knowledge
neuro@@
staff@@
sme@@
energy-@@
rea
Venti@@
befin@@
Weihnachten
Mitt@@
begannen
zugewiesen
krei@@
sahen
wissens@@
vertrags
sofor@@
fehlenden
daraufhin
Erleichterung
103
elligkeit
umfangreich@@
Schauspieler
Liikanen
komponenten
schrecklichen
überarbeitet
operieren
refund
Gom@@
wle@@
fically
Transfer@@
later@@
arks
formati@@
konvention
Oase
lebte
unglück@@
beeindruckenden
befürchten
Telec@@
Commons
charts
exported
architects
Arn@@
Infineon
chel@@
bezir@@
Patente
bevorzugen
Bildschirm@@
erledigt
yards
1948
Chur@@
Orange
Ferrari
Impro@@
unsch@@
zün@@
Corbett
CNS
Konz@@
gerich@@
Serviceleistungen
haltungs@@
Telefonnummer
vorlage
persönliches
beanspru@@
Wäldern
Einwander@@
Vali@@
own@@
exercises
Walking
Alle@@
eco-@@
Ethiop@@
Serbian
Frankfurter
kombin@@
FI@@
GAT@@
Süß@@
glas@@
Fris@@
Erholungs@@
gestütz@@
unvergleich@@
Teils
Gescheh@@
Geträn@@
ausschließ@@
laptop
displaced
delightful
hill@@
eau
monastery
amos
toff@@
alar@@
baden
Reding
Atlantik
Beein@@
Auseinandersetzungen
Dienstleistungsrichtlinie
aufgetreten
gefährlicher
forbidden
verification
fireplace
Miner@@
confronted
fabrics
lifetime
Scott
honor
la-@@
Challenge
intern
ň@@
Anlage@@
gesetzgebung
ernähr@@
conversation
Touch
temple
specification
corner@@
Certi@@
sidents
Nei@@
symptoms
Platz@@
Rücksicht
Füßen
ffekt
Buchungen
abhängt
ehrgeizigen
eler@@
Gene@@
professor
M.@@
grace
stop@@
incurred
college
Imperial
inau@@
metalli@@
PR
negligence
ennt
ermutigt
Kürzungen
Low
simpler
enchanting
promptly
ceas@@
motiv@@
präsent
fabrik
Modul@@
getr@@
anke
fik
läufig
Zufall
Pflan@@
Bildes
einzigartiges
sity
tap
SI
ito
Magi@@
atin
щ@@
gl.
Durchbruch
Eigentums
ämmen
seitigkeit
konkreter
empfehle
nachkommen
YO@@
Carl@@
Max@@
bulk
shores
entr@@
Liberals
mg
Mik@@
informations
Mär@@
grupp@@
Gestern
zögern
Installi@@
derartiger
Ring@@
rehabilitation
accus@@
VII
pity
grades
Italia
bow
Value
Rosa
Spiri@@
anth@@
Steck@@
Akteuren
steck@@
haltens
fürchte
lars
-and-@@
Silver
shop@@
ill-@@
frozen
Meerblick
zusammengefasst
Demokratischen
versteck@@
positiver
Verurteilung
Database
actu@@
collap@@
fortun@@
Gall@@
recreational
yan
ghted
Sla@@
dying
mothers
livestock
Sech@@
Strei@@
oun@@
heiligen
ärten
Öffent@@
jah@@
Auslieferung
Konsequenz
unberühr@@
Stabilitätspakt
Langu@@
Animation
finan@@
Purch@@
emotions
cave
sko@@
foli@@
Milliarde
willen
Forschungs-
GVO
tragene
richtlinien
Behauptung
angehört
unterricht
transeuropäischen
storm
Sounds
bute
decides
ld
dies@@
dened
Málaga
Are@@
02@@
spiegel
Zuschauer
folg
Trenn@@
entierte
ägyp@@
jeglichen
Erläu@@
Pestizi@@
komplizierten
Mitentscheidung
AKP-Staaten
Run
asty
juice
compensate
Uganda
woll@@
ф@@
Jed@@
tten@@
deinem
Jeden
Sogar
gebil@@
freiwillige
läßlich
anspruchsvollen
Bestreben
Servers
news@@
Liechtenstein
SG@@
age-@@
Expo
repercussions
demic
pump
Innenhof
Agen@@
Saudi@@
Schulung
Eingan@@
nördlich
Körpers
Kuli@@
atisch
lindustrie
Gastronomie
allgemein@@
nachtei@@
äter
Spam
Acrobat
ype
Eden
1966
Klei@@
aspirations
Yesterday
ART@@
Coll@@
ELL@@
ambiguous
sentation
möge
wendi@@
Dienstleister
einander@@
zivi@@
verlin@@
nahmen@@
gewöh@@
seinerzeit
Zusammenhalts
fruit@@
Verwand@@
ologist
Residenz
business@@
Statement
unab@@
envis@@
Kino
Liga
anmerken
rats@@
ränkungen
Währungsfonds
erzeugnisse
ernamen
Ausdehnung
Klärung
Ausgewogenheit
CSS
notify
sooner
optimization
interoper@@
Photocopying
Myanmar
ologists
allevi@@
fisher@@
prevail
IMO
Student@@
ordentlich
Länder@@
Technologie@@
biger
Käl@@
Urlaub@@
Konsum
Energiem@@
unterzeichnen
templates
scann@@
itiner@@
gourmet
ear
ny@@
Graz
seating
FORM@@
regulating
competing
vocal
gangs@@
parliament@@
chaos
rout@@
occurring
Linz
umfassender
complied
gaben@@
äuft
offenkundig
Privatisierung
ernsten
Sozialdemokratischen
Automatic
Adju@@
Ray
exceeded
oul
coa
istics
Rac@@
endt
MEP
ordnet
elektro@@
ktiver
ält
meisterschaft
tschech@@
Baden-@@
ing.com
formulated
Schir@@
stanzen
EWG
aktuell@@
ankommt
Jarzembowski
Fotokopiereinrichtungen
Mec@@
600@@
ascript
aesthetic
5.00
Quin@@
Krebs
spot@@
Gh@@
mom@@
zh@@
assumption
historisch
Strö@@
gelad@@
Eingri@@
diesjährigen
Dring@@
fragte
kombinieren
hoben
promotional
Fine
arious
Defin@@
igt
mittelalter@@
Verband
Krankenhaus
Ansonsten
schied@@
third-country
vertiefen
jenseits
gewäs@@
Vorsorge@@
liberale
Layer
versatile
47@@
seasonal
iden
Map@@
Dolom@@
Nep@@
Schrö@@
CAD@@
soviel
Wiedergabe
Telekommunikation
scheu@@
enshrined
massiv
absoluten
gendsten
Betrieben
staates
buchs
Informationsschalter
verurs@@
Move
connects
substitute
accurately
Salvador
bound@@
dear
concer@@
Stras@@
Richt@@
wholly
Marktan@@
Wirtschaft@@
erkrank@@
Standorte
stamm@@
auszubauen
balls
Oz@@
ycle
aga@@
Mars
blas@@
igungs@@
anischer
gescho@@
begrüß@@
ouren
voraussichtlich
tierungs@@
[...]
