<unk>
<s>
</s>
,
.
the
in
of
and
die
der
to
und
a
is
that
zu
for
den
von
ist
on
für
an
mit
with
(
das
The
)
be
are
auf
des
as
I
-
eine
this
Sie
im
:
it
es
nicht
werden
&quot;
we
ein
by
have
dass
dem
sich
not
Die
you
wir
will
auch
which
or
at
from
was
sind
wird
has
als
um
In
s
ich
can
oder
all
our
also
haben
über
European
-@@
so
einer
/
hat
!
?
sie
&apos;
wie
einen
er
zur
Das
aus
bei
Union
your
&apos;s
its
Ich
können
–
We
but
am
one
would
more
einem
’
their
been
nach
This
zum
It
Wir
diese
uns
nur
un@@
durch
should
kann
Mr
Der
de
;
dieser
do
very
Commission
must
...
Es
vor
er@@
us
daß
they
Kommission
there
noch
new
“
wurde
other
time
ver@@
only
like
EU
an@@
aber
about
re@@
Hotel
Herr
man
wenn
S@@
sehr
sein
müssen
President
t
these
in@@
i
up
who
e
war
o
en
B@@
no
ten
diesem
k@@
te
en@@
if
P@@
ge@@
alle
A
s@@
out
mehr
%
any
Europäischen
Europe
into
T@@
were
A@@
people
t@@
2
Parliament
bis
möchte
G@@
K@@
such
eines
ab@@
what
D@@
1
use
States
d@@
C@@
than
H@@
countries
report
be@@
my
Member
vom
need
ihre
when
his
some
most
Präsident
well
gibt
M@@
p@@
e@@
F@@
now
hotel
first
unter
sowie
work
dieses
E@@
b@@
make
them
Council
many
f@@
L@@
important
N@@
m
between
y
ing
o@@
way
n@@
hier
g@@
m@@
system
z@@
take
because
zwischen
able
da
ein@@
muss
c@@
3
An@@
W@@
Bericht
keine
„
unsere
he
al@@
Ver@@
made
information
Ihnen
ch@@
Parlament
years
R@@
just
If
had
support
anderen
two
&#91;
over
y@@
&#93;
world
those
d
Mitgliedstaaten
where
u@@
Wenn
Europa
immer
”
O@@
dies
li@@
policy
dann
i@@
me
being
de@@
v@@
ed
aus@@
Im
st@@
sch@@
V@@
ter
di@@
may
diesen
gegen
end
a@@
damit
even
wurden
Ab@@
Diese
good
see
5
al
right
Frau
year
order
ers
4
Zeit
area
l@@
ent@@
Ihre
unserer
gen
here
habe
ti@@
ung
part
place
ar@@
You
seine
same
market
jedoch
h@@
sondern
k
le
after
l
Europäische
through
el@@
ts
possible
neue
As
10
ation
political
j@@
own
I@@
&amp;
Menschen
heute
There
could
used
Jahr
then
economic
For
development
want
si@@
.@@
ri@@
Sch@@
within
J@@
Be@@
bereits
or@@
r@@
ro@@
rights
ate
how
Z@@
auf@@
both
Ein@@
finden
against
find
mich
sollte
europäischen
much
international
therefore
Jahren
ihrer
neuen
denen
ge
zu@@
ohne
under
does
andere
le@@
vor@@
country
on@@
point
room
es@@
public
g
at@@
Rat
um@@
zwei
without
sollten
Entwicklung
free
Frage
service
last
services
number
great
machen
Re@@
allen
ganz
ra@@
still
bietet
available
w@@
geht
n
Mit
different
liegt
fact
say
Aus@@
view
social
u
viele
Ein
In@@
ungs@@
ungen
set
la
course
Welt
already
Unternehmen
6
se
before
future
believe
dazu
too
get
That
U@@
el
know
weil
today
jetzt
wieder
products
p
sten
3@@
über@@
30
20
But
denn
seiner
per
te@@
cannot
case
c
Er@@
think
Informationen
2009
Lage
th@@
city
darauf
dis@@
process
her
go
Bereich
data
am@@
offers
level
einige
day
ar
em@@
Maßnahmen
schon
dafür
selbst
tes
ern
human
So
rooms
Commissioner
quality
situation
during
geben
financial
Vor@@
ihren
Jahre
ihr
b
best
ated
national
Herrn
x
high
bin
sagen
issue
Eine
Al@@
Dies
said
example
mir
Arbeit
viel
debate
st
et
lo@@
allem
means
every
ob
small
ab
7
question
würde
ch
Our
gut
including
meine
sp@@
proposal
ale
However
since
et@@
help
stehen
All
wollen
enden
ens
z
business
Land
unseren
each
e-@@
ische
Für
op@@
form
stellen
access
offer
long
problem
Und
ins
China
ste
kommen
bar
la@@
is@@
it@@
Zimmer
etwas
clear
während
position
8
con@@
wo
particular
ad@@
Länder
nun
Wie
ischen
se@@
lassen
h
waren
möglich
areas
doch
give
next
few
ter@@
measures
15
common
S
provide
agreement
liche
Committee
4@@
Un@@
x@@
co@@
based
put
St@@
im@@
seit
energy
2@@
taken
On
citizens
2010
large
insbesondere
ent
�
ensure
back
steht
again
systems
sehen
ger
erhalten
three
come
Unterstützung
ersten
vi@@
&#124;
Rahmen
further
Art
problems
security
company
change
Ländern
far
f
r
der@@
Internet
Zusammenarbeit
politischen
while
2008
Parlaments
ber@@
Teil
using
ur@@
necessary
du
50
ma@@
beim
why
given
located
however
shall
Con@@
ende
stay
besteht
us@@
To
T
Fall
ting
Y@@
vote
soll
life
Vorschlag
With
ert
ta@@
eren
They
cooperation
tun
einfach
group
needs
lich
Bei
always
real
down
At
Stadt
Group
X@@
And
os
seinen
C
ke
ating
lichen
law
Fragen
wichtig
gen@@
ap@@
ja
deren
Problem
drei
einmal
hope
wäre
USA
as@@
United
Ziel
letzten
ag@@
Namen
main
dabei
action
less
km
better
unter@@
Bürger
12
sk@@
What
around
EU-@@
men
House
Kollegen
5@@
ler
ck@@
große
ac@@
qu@@
power
ted
working
großen
did
worden
protection
bringen
land
po@@
ly
Daten
Mar@@
System
Was
ten@@
Recht
Auf
Verfügung
D
production
weiter
Er
programme
Ihr
ger@@
current
zi@@
welche
special
full
Seite
Bedeutung
These
Community
become
au@@
ant
legal
Aber
US
Sicherheit
Auch
When
centre
ic
to@@
terms
present
ations
together
Möglichkeit
whether
trade
particularly
open
bi@@
wissen
another
sh@@
chen
E
18@@
ol@@
page
gehen
eigenen
9
-S@@
children
em
Nach
bieten
management
old
result
basis
Regierung
Als
*
ei@@
100
ul@@
Mrs
muß
Ar@@
que
region
site
gi@@
conditions
2007
Thema
é@@
issues
les
davon
könnte
alles
pro@@
daher
Probleme
aller
state
companies
om@@
kein
ine
stellt
pre@@
ne
ings
darüber
experience
line
weitere
ak@@
ser@@
Kunden
Staaten
befindet
certain
führen
Weise
control
sen
close
Kommissar
6@@
ne@@
water
sowohl
B
Politik
second
women
O
Ihrer
role
ates
various
erreichen
2000
especially
her@@
location
industry
whole
modern
German
mo@@
sector
besonders
really
Euro
Ende
Ro@@
hatte
ie
ges
matter
government
done
meiner
making
Zukunft
health
7@@
look
local
private
wirklich
ous
account
Service
unterstützen
unser
25
Beispiel
+
ihnen
Mo@@
tra@@
budget
natürlich
create
entfernt
name
innerhalb
verschiedenen
schen
age
specific
global
inter@@
Ge@@
vielen
staff
ere
Germany
respect
gegenüber
ci@@
erte
sen@@
research
days
ds
going
che
Rolle
Richtlinie
major
den@@
di
hand
19@@
software
Weg
ze
internationalen
million
möchten
kommt
2006
bo@@
_
tions
00
list
zwar
fully
something
ä@@
ken
Ihren
project
several
8@@
Bo@@
away
itself
politische
continue
Frauen
start
Co@@
no@@
direkt
da@@
est
rapporteur
resolution
dort
t-@@
ve
crisis
europäische
Hotels
Tag
hi@@
P
often
000
ask
Seiten
excellent
so@@
erste
range
man@@
Auf@@
ding
EUR
regard
wish
ans
gentlemen
ing@@
Ma@@
Alle
Hier
least
New
mi@@
general
Um
single
transport
Pro@@
He
off
me@@
following
stand
per@@
rules
price
9@@
ex@@
isch
welcome
third
food
growth
personal
money
Le@@
directive
red
Programm
little
once
Artikel
environment
Meinung
found
side
tri@@
arbeiten
online
ts@@
a-@@
field
est@@
subject
Uhr
ko@@
towards
par@@
De@@
beiden
until
Lösung
product
things
institutions
11
customers
Situation
Über@@
unserem
nehmen
gesagt
En@@
pro
World
fast
ir@@
Madam
No
ut@@
wei@@
Region
ha@@
Zu@@
Fraktion
Dieses
F
Zusammenhang
increase
Di@@
individual
him
res
town
weniger
version
thank
standards
family
opportunity
erten
ob@@
design
Hilfe
ber
Produkte
fen
®
Treaty
Ex@@
los
del
building
40
rather
&apos;t
positive
y-@@
let
quite
activities
su@@
home
Präsidentin
M
technology
Mittel
elle
call
Arbeits@@
approach
Par@@
re
Sp@@
jeder
interest
2005
provided
Leben
bitte
th
gilt
resources
value
Deshalb
ster
daran
L
un
nen
light
Haus
rate
aid
forward
yet
economy
fi@@
via
do@@
wi@@
sogar
etwa
schaffen
bzw.
Software
period
ce
ens@@
An
solution
Grund
Members
agree
members
September
might
R
include
key
zen
Millionen
ot@@
having
Th@@
macht
Se@@
Um@@
X
ou@@
hinaus
taking
dessen
halten
gemacht
ors
Europas
alen
indem
decision
times
International
among
ladies
art
minutes
Schutz
After
State
d-@@
points
costs
ur
due
proposals
ally
allow
play
ö@@
nämlich
One
gt
amendments
len
text
sti@@
Unsere
sche
Dieser
content
gra@@
Deutschland
framework
safety
2004
24
ho@@
Kinder
ebenfalls
w
erung
ung@@
18
words
Unter@@
reason
14
fer@@
ihn
makes
il@@
einigen
ü@@
ator
enjoy
progress
called
website
0@@
adopted
TV
ben
show
seinem
.com
v
brauchen
ons
ati@@
all@@
ses
gute
ene
ec@@
sicher
Mon@@
&apos;@@
unterstützt
mit@@
provides
left
effective
difficult
station
Kon@@
ihm
air
others
ischer
darf
Rates
Website
projects
politik
easy
Punkt
legislation
Aussprache
Personen
ach@@
views
opinion
é
darin
Form
ka
16
results
favour
mon@@
above
application
gu@@
Qualität
known
contact
ra
for@@
responsibility
öffentlichen
du@@
Finanz@@
groups
attention
policies
Berlin
ali@@
simply
pi@@
Restaurant
addition
beautiful
non-@@
concerned
gerade
dürfen
tu@@
questions
short
Da
meisten
glaube
behalf
led
nationalen
je
over@@
ideal
2003
Bar@@
genau
Po@@
Wirtschaft
ves
jeden
nichts
Abstimmung
ß@@
mer@@
pe@@
importance
ni@@
Li@@
keinen
G
Ch@@
car@@
house
sollen
com@@
ihrem
society
and@@
ru@@
complete
gh@@
recht
strategy
Gemeinschaft
Haupt@@
she
setzen
cultural
ker
Lo@@
ment
greater
end@@
Rechte
handelt
ia
bu@@
weiterhin
hin@@
ep@@
sea
zusammen
sa@@
Grund@@
klar
training
zurück@@
environmental
kind
Ebene
betrifft
nach@@
Inter@@
Ort
ange@@
he@@
sei
statt
natural
along
ago
13
ig@@
weit
required
á@@
wer@@
La
principle
step
heart
bedeutet
Ad@@
findet
pages
wichtige
recent
sure
EN
durch@@
Bezug
ellen
€
würden
eb@@
breakfast
kon@@
bereich
nutzen
besten
solche
Rechts@@
under@@
meeting
Or@@
min@@
besser
deal
century
fall
führt
deshalb
schnell
Gesellschaft
wide
Her@@
war@@
ma
deutlich
clearly
address
K
authorities
ic@@
tion
2001
November
technical
Zugang
ability
aufgrund
gel@@
user
tern
men@@
ches
Dank
go@@
Von
gehört
Kosten
sub@@
achieve
solutions
erst
Russia
Richtung
ca
alten
nächsten
enough
plan
directly
past
up@@
10@@
ed@@
employment
hin
needed
pool
facilities
essential
lot
standard
bekannt
ty
serious
ran@@
car
IT
Markt
months
thing
feel
ise
person
nature
bring
developed
allerdings
av@@
history
Nähe
related
guests
Ansicht
60
risk
currently
Please
responsible
Aus
ging
restaurant
proposed
Umsetzung
longer
1@@
markets
Ent@@
events
eln
ft
ary
Menschenrechte
vo@@
April
central
visit
requirements
lange
live
ded
tre@@
interests
hei@@
bel@@
Lu@@
tige
N
ters
ms
Rück@@
comes
cht
parties
bar@@
From
near
Windows
internal
voll
works
comfortable
licher
Ziele
$
language
ina
beispielsweise
top
son
Bau@@
Vertrag
hoffe
night
please
themselves
eller
Verfahren
Verantwortung
Version
Car@@
gestellt
2002
ets
team
werde
regions
ff@@
young
Bedingungen
Gu@@
involved
efforts
Am
0
extremely
democracy
voted
‘
ell@@
mar@@
ver
changes
competition
Durch
total
GmbH
regulation
notwendig
ta
verwendet
Anwendung
strong
never
implementation
friendly
vielleicht
Interesse
sch
cases
Demokratie
keep
ell
kleinen
gemeinsamen
Ihrem
Vorschläge
ck
V
Haushalts@@
ziehen
held
force
four
Neu@@
Grundlage
network
Man
Reihe
Geschichte
gung
Daher
AN@@
freedom
Gra@@
peace
gesch@@
Herren
Gebiet
upon
17@@
20@@
Möglichkeiten
event
bleiben
erreicht
though
Tra@@
ad
Doch
wirtschaftlichen
situated
etc
democratic
pa@@
sprechen
France
file
regional
sozialen
prices
gegeben
ren@@
zeigt
..
care
either
könnten
negotiations
material
rates
ausge@@
space
Sicherheits@@
developing
Debatte
bed
Institutionen
created
ure
AG
wenig
Man@@
consider
liches
unique
true
education
dar
oft
looking
pay
17
music
eh@@
seen
everything
80
Tri@@
share
almost
states
500
Ri@@
Bi@@
big
request
tischen
thus
beach
tigen
tion@@
ling
verschiedene
vier
funds
mu@@
1.@@
Pi@@
Strategie
reform
success
improve
early
book
ner
spielen
är@@
verfügt
designed
Bank
ie@@
additional
Dis@@
parts
liegen
meet
ster@@
fundamental
climate
sion
road
ari@@
try
cost
à
dern
date
ative
foreign
according
effect
Auswirkungen
form@@
200
famous
bei@@
ern@@
ermöglicht
Damen
type
American
soon
Minuten
lu@@
besch@@
lei@@
tive
hard
links
card
term
s-@@
Dienstleistungen
mal
gemeinsame
weltweit
Qu@@
included
actually
send
Wirtschafts@@
unternehmen
helfen
Berichterstatter
idea
enen
Abkommen
hatten
gs
danken
receive
later
www.@@
French
lin@@
Park
Israel
Presidency
Su@@
act
test
understand
aten
ah@@
ER
tragen
living
tung
pl@@
bus
ven@@
lead
ER@@
Zu
turn
accept
sc@@
erforderlich
capital
tan@@
Paris
direct
program
tic
1999
Verhandlungen
Hinblick
takes
wegen
Mitglieder
Programme
appropriate
low
center
outside
Wasser@@
geb@@
workers
mentioned
fe
Tatsache
mis@@
gesamten
Regionen
Ber@@
users
bereit
tax
Geschäfts@@
investment
San
»
ass@@
features
ebenso
ways
mer
lan@@
cher
Ko@@
entwickelt
Zentrum
Außerdem
einzelnen
Gruppe
fragen
How
reach
ori@@
tet
IN@@
amount
table
Cor@@
run
procedure
Liste
leben
Schritt
hours
denke
wa@@
Nach@@
weiteren
doing
internationale
week
majority
ance
Y
va
gebracht
took
darum
Kolleginnen
í@@
16@@
ders
ard
ever
communication
chten
Ergebnis
Entscheidung
throughout
gleichen
By
ieren
lässt
active
hätte
AR@@
across
guarantee
jedem
konnte
Bereichen
certainly
significant
wor@@
traditional
Ho@@
ationen
EN@@
connection
ph@@
final
Änderungsanträge
legen
aware
Vereinigten
existing
Antwort
Platz
writing
…
-B@@
befinden
gel
perfect
19
Krise
Blick
sed
America
ing-@@
kt
Änderungsantrag
Turkey
Erfolg
Beziehungen
relations
Ta@@
board
Com@@
media
Bevölkerung
context
performance
concerns
gab
Sa@@
leading
gleichzeitig
geführt
gn@@
15@@
member
AT@@
br@@
original
stage
initiative
fahren
wichtigen
gemeinsam
customer
IS@@
ments
z.B.
Preis
weiß
knowledge
cu@@
My
zeigen
military
jede
cks
impact
ente
walk
Seit
body
add
So@@
ges@@
population
programmes
Bar
Rei@@
five
built
moment
wohl
game
&gt;
bekommen
ST@@
kleine
apply
Ausdruck
heißt
Per@@
Unser
professional
although
Abgeordneten
Geld
Pre@@
bleibt
Ne@@
rec@@
ben@@
Bu@@
Aufgabe
ents
Japan
21
2.@@
completely
tische
Verbindung
Türkei
tor
au
nothing
gern
Mit@@
established
Minister
reasons
ties
committee
=
code
includes
fo@@
bare
community
Zum
verbunden
zeit
Government
decisions
read
equipped
allows
Einsatz
Mal
remain
fe@@
concerning
ys
agreements
Mor@@
Since
basic
stra@@
Kontrolle
ender
meinen
AS@@
ast@@
style
baren
culture
Förderung
lichkeit
kl@@
Q@@
unseres
English
70
enthalten
London
iert
practice
gestimmt
choice
enn@@
jobs
Projekt
sense
eu@@
front
und@@
ana
Kar@@
Verordnung
partners
ry
Court
fer
model
tz@@
neu
out@@
Forschung
internet
des@@
party
Vi@@
Ru@@
tr@@
kan@@
Jahres
ats
web
holiday
For@@
22
files
values
Do@@
demand
Damit
received
Lösungen
IC@@
hand@@
simple
Wei@@
auszu@@
einge@@
develop
ity
ba@@
Information
package
applications
ums
jedes
face
integration
Let
W
il
Partner
els
equipment
stop
fest@@
potential
Erweiterung
objectives
August
ones
entire
Behörden
Bitte
II
ales
richtig
wichtigsten
Entschließung
regarding
move
gerne
don
cor@@
dar@@
ES
Iran
o-@@
Beitrag
function
Lisbon
below
quickly
IT@@
park
benefit
bit
Nutzung
rund
mehrere
gleich
Here
focus
fight
nice
aim
det
agricultural
12@@
concern
eg@@
Ausschuss
fin@@
successful
East
90
pp@@
fest
reports
hinsichtlich
image
zurück
mp@@
er-@@
objective
ganze
derzeit
cken
enthält
eigene
Russland
treatment
ven
check
ganzen
co
goods
seems
euro
South
ermöglichen
27
contains
return
einzu@@
AL@@
lose
kte
genommen
May
No@@
Landes
neben
Verbesserung
recently
wobei
governments
achieved
Vor
press
dy
Finally
hotels
ann@@
Au@@
ces
al-@@
tig
indeed
size
ks
Ausschusses
en-@@
levels
Text
mind
Umwelt@@
{
series
versch@@
«
mean
guest
coming
Ergebnisse
June
Verbraucher
mat@@
Du@@
beginning
fair
National
prevent
rest
huge
Angebot
än@@
weise
added
Central
gar
str@@
isches
job
ste@@
increased
hal@@
computer
ES@@
tungs@@
keyword
places
Gelegenheit
clean
Woche
völlig
Wort
lack
everyone
verfahren
id
ban@@
Design
answer
Schaffung
presented
verbessern
zusammen@@
Me@@
re-@@
RE@@
23
sites
Darüber
Verwendung
dialogue
anderer
enter
14@@
mm
office
Initiative
wirtschaftliche
Land@@
closed
cht@@
Some
floor
reviews
fördern
ier@@
consumers
note
Regierungen
Mitarbeiter
eri@@
lang
agreed
guten
entwickeln
shows
berg
großer
verwenden
ss@@
relevant
highly
higher
asked
anzu@@
Affairs
Mi@@
verfügen
balance
ship
E-@@
lage
PC
tur@@
land@@
direction
choose
gehören
sustainable
ub@@
Ukraine
dr@@
carried
ving
sis
enable
complex
ang
ändern
lines
soziale
Interessen
La@@
nuclear
Team
fünf
chte
bestehen
half
später
Bild
rich
falls
sing
Familie
whose
Notwendigkeit
amendment
gas
commitment
res@@
Welt@@
ps
Wert
considered
Now
Therefore
effects
principles
nimmt
sorgen
Zeitpunkt
suchen
Themen
shown
Server
Änderungen
inc@@
innovative
comp@@
travel
perhaps
Spiel@@
300
Frankreich
maßnahmen
ore
nie
13@@
meinem
zunächst
City
server
eng@@
col@@
latest
EL@@
Markt@@
Management
tatsächlich
materials
Barcelona
pres@@
scher
Tage
possibility
Erfahrung
H
Web@@
dra@@
Hand@@
setting
Of
matters
Organisation
Während
ant@@
programm
har@@
ano
EC@@
Gesundheit
ton
Kultur
tete
Auswahl
former
Nor@@
thanks
Person
fre@@
forms
sta@@
treffen
tiger
}
ro
Herzen
details
UN@@
enz@@
He@@
angenommen
ist@@
tieren
Umgebung
Dabei
opportunities
easily
ess
came
behind
Mai
video
ski
Anfang
previous
First
double
popular
net
Spain
accommodation
sto@@
weiter@@
increasing
status
actions
pressure
Fahr@@
Fach@@
fallen
reduce
schriftlich
0.@@
promote
AC@@
speak
aspects
stark
response
verstehen
ations@@
lediglich
atmosphere
search
hohen
reached
ak
anti@@
ser
bisher
ying
tim@@
partner
pf@@
prepared
ort
providing
tel@@
capacity
remains
—
Mitglied
ino
äußerst
Einführung
Steuer@@
innen
creation
Africa
joint
Kampf
Juni
gesamte
genden
safe
Article
Ba@@
ism
1.
sound
Anzahl
exchange
Meer
ies
ssen
Aktivitäten
billion
external
efficient
oil
submitted
je@@
Bel@@
produced
somit
wer
British
Umwelt
Am@@
Italy
Bei@@
bringt
Also
bank
Museum
the@@
commercial
limited
charge
bestimmte
tiert
Wachstum
por@@
Sprache
Wahl
sts
summer
gemäß
gewährleisten
tliche
industrial
Gäste
link
ation@@
supply
gten
ese
Prozess
gives
00@@
uses
Systems
versuchen
ful
met@@
lies
protect
Wasser
obwohl
Integration
decided
ve@@
stre@@
gesetzt
kten
funding
supported
voll@@
mann
ll@@
emp@@
Produktion
US-@@
scheint
priority
December
fordern
sur@@
P-@@
halte
cause
Hand
leave
Amsterdam
Lei@@
Convention
Hoch@@
follow
fu@@
bestimmten
property
Por@@
gre@@
Lebens@@
Raum
island
Zahl
Daten@@
Dinge
Preise
restaurants
Western
enlargement
independent
can@@
Kur@@
stri@@
Kommissarin
El@@
ler@@
Bekämpfung
ess@@
zahlreiche
Go@@
tungen
Fortschritte
we@@
Te@@
produce
enten
ther@@
civil
Insel
ade
largest
gro@@
Euro@@
pri@@
zweite
Natur
bad
35
organisation
To@@
similar
Industrie
CO@@
Erachtens
word
option
hohe
S-@@
systeme
consumer
leicht
structure
ence
assistance
erster
ili@@
ators
ausgestattet
bre@@
meines
gl@@
möglichkeiten
Jo@@
Funktion
instrument
zer@@
mobile
York
größten
einschließlich
heit
Spiel
hr@@
bau@@
aufge@@
Entwicklungs@@
steps
Gen@@
1998
creating
movement
comm@@
iz@@
Services
frei
lau@@
sel@@
außerdem
teile
apartment
ines
setzt
Bestimmungen
solchen
Erklärung
Einzel@@
platz
Position
pleased
Jahrhundert
March
our@@
January
lagen
Dezember
Web
Stelle
weisen
insgesamt
rule
brought
variety
UN
sive
regulations
dadurch
sagte
führung
construction
Ha@@
General
Sozial@@
airport
fl@@
j
source
len@@
einzige
credit
hoch@@
weder
Gar@@
mel@@
Pa@@
Handel
vergangenen
War@@
bri@@
mein
St.
af@@
purpose
conference
Pal@@
ok@@
October
Dialog
ourselves
tem
zweiten
written
Today
ktion
message
Nur
,000
activity
stability
van
Booking.com
Mehrheit
ble
sm@@
started
aufgenommen
verb@@
discussion
ground
became
Gi@@
instruments
instead
ó@@
kt@@
leider
zei@@
Gewalt
distance
Linux
Anforderungen
are@@
Entscheidungen
paid
kosten
Investitionen
Sal@@
film
Küche
Stunden
relation
Strand
distribution
study
Punkte
sieht
interesting
ären
Vorschriften
Kosovo
click
23@@
aler
genießen
section
mittel
ca.
Aufmerksamkeit
ß
allowed
geschlossen
März
Gefahr
sent
ev@@
document
Gästebewertungen
4.@@
Party
fishing
leisten
aufzu@@
giving
une
West@@
Energie
Projekte
ju@@
U
sei@@
tool
vol@@
agenda
Grenzen
Mal@@
ite
kre@@
Ste@@
Republic
bezüglich
tell
pass
legislative
statement
Macht
regards
Club
quiet
compromise
gar@@
bevor
с@@
benefits
payment
schließlich
Bereiche
base
concept
effort
lung
ness
Center
Development
procedures
Handels@@
During
werk
Villa
growing
DE
konnten
North
school
Freiheit
tors
violence
eingesetzt
damage
neuer
village
aktuellen
Folgen
gelten
weg
ou
bes@@
wenige
contribution
Many
Italian
historical
July
stell@@
operation
Chi@@
eigentlich
extra
self-@@
größte
require
log@@
CD
Wettbewerb
item
Regeln
Ni@@
drive
OS
fra@@
operating
Spanish
26
Landwirtschaft
zed
documents
Anfrage
wichtiger
abzu@@
digital
Frühstück
benötigen
integrated
gende
sports
provisions
tools
Beschäftigung
gleich@@
schaft
met
enti@@
Rights
download
durchgeführt
Meine
Firma
Bad
treten
types
lic@@
task
Reform
Oktober
build
zehn
28
teilen
criteria
kannst
Portugal
class
dung
Linie
Zur
happy
Standpunkt
box
Präsidenten
Bildung
Br@@
Höhe
europäischer
changed
Business
forces
Du
45
erwarten
Diskussion
1,@@
ll
mal@@
wählen
immediately
Januar
alternative
Nationen
got
Site
express
nor
assi@@
University
ris@@
Although
Ti@@
sions
Groß@@
star@@
ill@@
genannten
Sk@@
six
challenges
allein
ality
kurz
goes
official
zone
hinter
Heute
highest
Musik
draft
elements
apartments
fa@@
getan
equal
era
late
Your
IS
yer
chen@@
erungs@@
Gemeinschafts@@
eher
ihres
gr@@
Centre
San@@
employees
West
parking
tro@@
Si@@
Berichts
na
angesichts
app@@
sofort
transparency
bau
helpful
Furthermore
avoid
ik
round
Gründen
Ju@@
sor@@
Fehler
Flug@@
Op@@
Transparenz
friends
rise
Wel@@
Sache
reading
train
Sinne
öffentliche
bra@@
Personal
Ger@@
analysis
erneut
yp@@
daily
alte
Bemühungen
nahe
zwei@@
lower
processes
tel
applied
Öffentlichkeit
begrüße
Ser@@
offering
Ansatz
numerous
pr@@
bl@@
tsch@@
1997
finally
reality
consequences
ga
elections
Luft@@
bathroom
bel
az@@
Schlusselwortern
Präsidentschaft
Auffassung
Ben@@
Ra@@
Gr@@
eben
trans@@
historic
RO@@
geworden
review
ör@@
poverty
requires
Besch@@
Bilder
Flughafen
za
gefunden
B.
speed
5.@@
Wi@@
talk
conflict
MP@@
See
beitragen
stellung
Kraft
tt@@
vel@@
king
efficiency
labour
sting
lives
beyond
star
morgen
offered
lernen
ismus
AD@@
Urlaub
solidarity
son@@
Kinder@@
hält
ya
sport
entsprechenden
Restaurants
diejenigen
modified
colleagues
Verkehrs@@
sum@@
Fällen
death
Ober@@
saying
Room
tlich
freien
persons
verhindern
expect
@
ini
Do
bur@@
medi@@
Juli
Dateien
ini@@
volle
wine
Bal@@
poor
gender
behandelt
ideas
tlichen
Druck
pu@@
paar
Natürlich
Monaten
Kor@@
fine
fol@@
implemented
wanted
minimum
useful
Tor@@
Tur@@
sted
bs
practical
published
ständig
draw
hätten
Even
clients
con
phone
Mediterranean
cs
shopping
erfolgt
ron@@
ßen
vers@@
stimmen
dan@@
terrorism
establish
geh@@
congratulate
illegal
sektor
entsprechend
Tre@@
starting
Tagen
crucial
fil@@
Atmosphäre
learn
Debian
Bürgern
stands
news
tomorrow
WTO
carry
Basis
kennen
secure
weeks
berücksichtigt
sales
richtige
ment@@
technologies
Behandlung
Hotel@@
­
Tagesordnung
OR@@
comprehensive
Fi@@
edi@@
Har@@
vergessen
sal@@
tik@@
Austria
ce@@
wieder@@
Gesundheits@@
transfer
Tat
mm@@
player
Sport@@
Energie@@
ide@@
lesen
Staats@@
While
cal
warum
Nr.
Den
Dar@@
anderem
Vo@@
besondere
organisations
rä@@
Preis@@
hoch
technischen
Mittel@@
prä@@
Selbst@@
minute
Min@@
reduction
acc@@
options
modernen
ably
monitoring
folgen
sometimes
port
maximum
ement
versucht
machine
LE@@
frage
Microsoft
deutschen
A-@@
pan@@
lin
head
ke@@
3.@@
Bürgerinnen
win@@
Bundes@@
oben
amp@@
Unter
reference
vertreten
leaders
morning
zahlen
hold
ff
Änderung
denken
plant
Bri@@
Italien
Stadt@@
probably
überhaupt
worldwide
voting
inn@@
players
anything
caused
Lissabon
tn@@
Fu@@
Lassen
Amendment
ord@@
schließen
Le
lie@@
begin
games
Republik
challenge
alone
Is
Chinese
verantwortlich
month
historischen
Gro@@
street
Viele
flo@@
Sicht
ut
Beginn
anders
Ban@@
beste
email
interested
pen@@
gesehen
Mag@@
raum
ga@@
Aufenthalt
Forschungs@@
gew@@
erklärt
kti@@
Ressourcen
Dr.
annual
cities
Spanien
häufig
sches
erfolgreich
plans
Fest@@
lösen
reichen
Vergangenheit
neues
Finanzierung
ür@@
200@@
barkeit
ready
cut
Rechtsvorschriften
long-term
gewesen
chance
vollständig
Konferenz
ages
wal@@
languages
zahlreichen
RA@@
Technologie
erwartet
ktionen
mountain
I-@@
stelle
Wochen
thought
Datei
waste
bin@@
sa
zer
jeweiligen
welches
Kultur@@
child
erfüllen
farmers
Zweitens
banks
Airport
#
2-@@
Wahl@@
Fe@@
IM@@
äre
ette
Gruppen
wahrscheinlich
Fre@@
erungen
braucht
unten
Erfahrungen
leg@@
release
cur@@
ously
1996
Thank
Moreover
ET@@
lost
1-@@
Produkt@@
Fund
worked
ungsp@@
selection
´
Ku@@
garden
ien
Schritte
extent
EC
ture
kam
geschaffen
FR
methods
jo@@
on-@@
ich@@
ics
una
Vertrauen
scientific
zumindest
Inhalt
relating
Conference
ada
accession
businesses
stets
Werte
accordance
Lin@@
green
endlich
advantage
genutzt
ss
mention
method
schützen
walking
images
ier
sectors
verpflichtet
genug
ulation
Hei@@
comfort
Cas@@
strategic
tor@@
Natur@@
ack@@
Aspekte
cre@@
teten
außerhalb
Herausforderungen
Kunst@@
ai@@
31
Wein@@
sol@@
powers
z.
folgt
fields
Mat@@
gend
despite
danke
lat@@
processing
gan@@
Directive
san@@
Not
Berg@@
erter
Sti@@
Einige
influence
hol@@
Allerdings
fahr@@
5-@@
legt
32
heutigen
bet@@
hören
fish
tics
gte
Russian
seines
Angelegenheit
Dazu
US@@
abge@@
privaten
letzte
menu
raised
visitors
Kunden@@
loss
neu@@
Wohn@@
innovation
Benutzer
Ireland
amerikanischen
motion
persönlichen
alt
fac@@
Security
cally
25@@
mes
del@@
Only
flexible
vollen
ology
separate
Im@@
wert
Gebäude
Mu@@
doubt
hen
erlaubt
wing
senden
Public
Pri@@
trying
è@@
bessere
Parteien
Schwierigkeiten
trotz
accepted
Obwohl
implement
Berichterstatterin
ir
absolutely
Google
gest@@
join
od@@
Falls
sechs
ausschließlich
regime
75
Star
zation
Staat
Spieler
post@@
map
Sonder@@
Col@@
™
bilden
demands
justice
ole
Neben
Ap@@
Bur@@
folgenden
deten
°
Arbeitnehmer
Gesamt@@
scope
Hinsicht
Ur@@
alität
Secondly
overall
Dann
moderne
Gegen@@
UK
critical
Wer
borders
schwer
affected
cra@@
²
negative
Milliarden
placed
enz
tal@@
Ihres
cover
demokratischen
Einrichtung
Folge
Bre@@
More
verkehr
Praxis
oren
Krieg
ns
swimming
contract
Vertreter
yourself
Prozent
länder
ast
entscheiden
übernehmen
intended
cli@@
Free
gekommen
Ka@@
ls
laufen
e-mail
zudem
getting
Its
usually
running
gang
bitten
wo@@
Denn
Ac@@
SP@@
Wunsch
automatisch
EM@@
Angelegenheiten
Arbeitsplätze
и@@
beide
uri@@
Grand
erinnern
Computer
richten
anti-@@
ki@@
heard
Opfer
Instrument
target
calls
love
suitable
Indeed
30@@
Aufgaben
bewusst
generation
Afghanistan
aff@@
reforms
rel@@
Red
Station
begrüßen
Solidarität
g-@@
deine
adopt
Bus@@
kaum
says
warm
currency
rich@@
relationship
Privat@@
Dra@@
SA@@
nu@@
gebiet
Bra@@
gabe
sierung
in-@@
ear@@
mainly
ierung
evening
Zusammen@@
tru@@
allgemeinen
Frieden
usw.
administration
freie
Ö@@
nt
initiatives
committed
Z
erkennen
namely
gelegen
Systeme
increasingly
3-@@
Organisationen
ün@@
Armut
mor@@
installation
opening
President-in-Office
representatives
om
tour
freuen
vital
terrace
maintain
29
Annahme
expressed
El
Pan@@
traffic
planning
Leute
talking
normal
etc.
tw@@
stand@@
ität
border
Wieder@@
proper
union
ures
6.@@
bald
Nun
Cre@@
Erstens
mission
born
produ@@
tation
structural
ical
sha@@
darstellt
Verfassung
stress
endes
größere
improved
benutzt
students
qui@@
teil
vorgeschlagen
eindeutig
haus
families
Karte
approved
serve
Agenda
ek
Sitzung
goal
rechts
Anti@@
signed
sage
correct
automatically
Sen@@
elt
Verpflichtungen
ws
comments
nationale
Hause
zusätzliche
ado
uni@@
industrie
Reise@@
competitive
powerful
CH@@
onen
zes
People
Außen@@
Anstrengungen
Falle
cker
dri@@
confidence
tourist
Online-@@
Win@@
Funktionen
DVD
zeiten
Costa
ah
Idee
Sub@@
Hu@@
infrastructure
plus
reduced
Iraq
bil@@
unbedingt
Da@@
globalen
rechte
India
decide
Hel@@
tionen
Tran@@
Ca@@
fan@@
beginnen
delivery
feature
Protokoll
entspricht
erenden
unemployment
protected
überzeugt
Fer@@
Enterprise
Kriterien
stärker
super@@
fun@@
collection
photo
Partei
ach
administrative
lt
ße
supports
cohesion
screen
Zustimmung
stu@@
Wahlen
400
4-@@
gesprochen
aktuelle
š@@
began
offen
stable
ren
extensive
covered
format
mindestens
served
Informations@@
Schul@@
schaften
emissions
Produktions@@
langen
circumstances
conclusion
rein@@
а@@
sicherheit
gleiche
eter
anischen
Ist
Wann
founded
well-@@
Nations
sources
Vereinbarung
mark
Ä@@
Verwaltung
tions@@
ca@@
lich@@
contribute
sign
01
worth
Osten
Reformen
rei@@
functions
ational
pleasant
Office
genannt
AM@@
priorities
vorgelegt
iger
gs@@
zug
electronic
financing
likely
selbstverständlich
unterschiedlichen
introduced
gezeigt
UR@@
nor@@
Terrorismus
defined
EL
prozess
Vorteile
min
Gipfel
plants
ban
Just
mittel@@
else
effectively
att@@
larger
Ak@@
cal@@
Anerkennung
Each
prüfen
white
encourage
speaking
ised
Kre@@
glauben
stat@@
Fra@@
ral
understanding
gerecht
Greece
Inhalte
ensuring
DI@@
dringend
exist
Produkten
ars
cia
erwähnt
crime
isch@@
ko
Qualitäts@@
mehreren
Code
Technologien
laws
tabled
risks
ase
verfügbar
schutz
150
Stabilität
managed
wünschen
track
klicken
fresh
ame
Haushalt
positions
ved
wider@@
entsprechende
Homepage
Kern@@
Binnenmarkt
whom
listed
Straße
Cal@@
Mc@@
opened
ik@@
PL
Besuch
Asia
ue
Standard
War
Swiss
victims
erk@@
ple@@
detailed
wonderful
alisierung
played
At@@
50@@
ice
tä@@
wesentlich
Zudem
ha
Sektor
Produkt
participation
Ausschuß
Why
Kal@@
ara
Rec@@
chs
Test@@
....
2020
appear
E-Mail
stated
Val@@
cul@@
ti
berücksichtigen
erfahren
fort@@
agriculture
programs
uli@@
D-@@
hoffen
optim@@
Prä@@
Mark@@
testen
IL@@
Schließlich
record
multi@@
sam@@
Über
wrong
animals
las
Plan@@
burg
Comp@@
Sommer
hinweisen
camera
nachdem
bal@@
discuss
erende
arbeitet
sitting
Volk
paper
kommenden
exactly
Frankfurt
möglicherweise
work@@
shi@@
debt
transparent
bestimmt
sse
selected
manner
1995
De
limit
Zunächst
specifically
Then
siert
ki
becoming
won
beds
akzeptieren
о@@
Durchführung
regular
aimed
markt
si
Mitteilung
partnership
income
door
Nord@@
purposes
ME@@
Sh@@
Medi@@
Plan
Tier@@
linked
zeit@@
benutzen
metres
Bor@@
aktiv
ley
back@@
February
expected
vision
technische
erzielt
wants
votes
ON@@
rü@@
represents
developments
ang@@
és
discussed
sicherzustellen
referred
rural
Chance
bestehenden
fri@@
fahrt
sec@@
Anwendungen
le-@@
Sol@@
besonderen
fle@@
id@@
measure
Augen
assessment
zentrum
Sea
went
tic@@
poli@@
Medien
las@@
cy@@
gelegt
getroffen
Nicht
rop@@
discussions
laden
dienen
far@@
Fin@@
Unterkategorien
ato
scale
marketing
Suche
han@@
euch
Lan@@
geändert
precisely
fying
warten
igen
sub-categories
hor@@
erg@@
thousands
siehe
Einrichtungen
entry
trägt
acht
bedarf
DA@@
teil@@
fellow
Apartments
police
Rooms
spacious
Ski@@
inside
shop
cas@@
unver@@
bro@@
sufficient
möglichen
essen
co-@@
Nutzen
umgesetzt
ig
spend
Wettbewerbsfähigkeit
ration
Kan@@
zuletzt
medical
person@@
tures
enterprises
Haltung
otherwise
erfüllt
ID@@
tisch
ish
introduction
stoffe
Standards
Bild@@
LA@@
earlier
ft@@
wenden
notwendigen
imp@@
arbeit
operations
finanziellen
Kontakt
client
kitchen
Kunst
Social
Cam@@
gener@@
reich@@
followed
Middle
playing
Agreement
dient
liber@@
budgetary
houses
exclusive
Em@@
pol@@
lig
Zeichen
Einfluss
connected
facing
stimme
closely
vari@@
elegant
alism
tional
Monate
Bas@@
Board
achten
Ausbildung
winter
anderes
lä@@
voller
represent
Vol@@
schreiben
rent
á
eingerichtet
ots
jene
oll@@
stone
losen
path
NATO
Tro@@
considerable
stei@@
festgelegt
Char@@
strengthen
select
ON
atic
jederzeit
buildings
elles
Met@@
ergreifen
Most
vermeiden
Best
Switzerland
ner@@
hour
Christian
Gal@@
Super@@
ften
happen
24@@
cher@@
fla@@
beziehen
pat@@
Green
She
lö@@
Klein@@
save
institutional
zen@@
äu@@
blo@@
spar@@
degree
Kindern
Anspruch
shops
supporting
darunter
Pra@@
John
guidelines
shower
geeignet
Film
Schutz@@
lichem
rat@@
season
verfolgen
ingly
pe
Vielfalt
Bro@@
Meter
discrimination
so-called
C-@@
Human
stärken
Menschenrechts@@
Wal@@
dlich
politischer
pra@@
jeweils
purchase
immigration
Innovation
improving
sion@@
Gesch@@
remember
Zei@@
sionen
networks
stadt
ica
Menge
telephone
nisse
High
außer
7.@@
components
Ü@@
ark@@
daten
acts
handeln
angezeigt
Roma
erhöhen
wel@@
Video
Star@@
ey
speech
hear
sicherlich
buy
vern@@
Policy
Konzept
übernachten
erzielen
His
cards
Schweiz
experts
Pu@@
Webseite
http
broad
Czech
welcher
average
fun
entschieden
ckt
stellte
Leistungen
teilweise
Vertrags
cuisine
unbe@@
,@@
&apos;ll
aren
gem
entweder
funktioniert
fs
e.g.
Spa
ologie
gelangen
thinking
Familien
besuchen
fällt
ass
typical
zo@@
stock
tourism
Stand
spielt
suggest
schi@@
ire
Installation
char@@
Fischerei@@
wären
fung
verbessert
spricht
pul@@
gave
seem
Economic
trust
Familien@@
2011
properly
Sprachen
digen
reception
Name
presence
items
rit@@
wood
entirely
Unfortunately
Because
mü@@
IP
Instrumente
Februar
Jetzt
Abschließend
relate
inen
element
Pol@@
ction
Research
Wege
klare
werte
provision
sagt
lungen
erleben
Warum
Stimme
Pe@@
ID
competitiveness
spirit
core
Verwaltungs@@
richtigen
spor@@
fied
ine@@
Veränderungen
Tätigkeit
rat
Leider
Kenntnis
Garten
ella
generally
uren
Vereinten
gebaut
ek@@
ef@@
rin@@
Berichte
dé@@
Arbeiten
spon@@
Poland
difference
stes
com
refer
hab@@
Click
kur@@
Abschluss
oo@@
presidency
lands
Pas@@
Forderung
ona
erstellt
bodies
bes
Fo@@
Modell
summit
display
hervor@@
feld
Initiativen
machines
dro@@
IN
actual
tradition
zing
Brussels
Forum
speziell
reasonable
ausdrücklich
ently
Mitte
authority
ian
che@@
Bürger@@
prior
ged
vorgesehen
domestic
wollte
Vergleich
advanced
coordination
informed
politics
Zeiten
Hor@@
fel@@
dealing
schutz@@
dagegen
Plat@@
betonen
Ob@@
Vielen
PT
Adresse
informieren
win
kom@@
meetings
district
hot
character
Street
Regelung
Engagement
Teile
Once
Abgeordnete
difficulties
95
cap@@
Irak
vehicles
ay
plan@@
parliamentary
Ausgaben
animal
Internet@@
Besucher
condition
les@@
Post@@
Great
coffee
experienced
flexibility
appears
My@@
tt
täglich
durchaus
dete
bedingungen
möglichst
gewinnen
numbers
peaceful
applies
ze@@
Musik@@
zentrale
beschlossen
Transport
told
Herausforderung
All@@
estate
fisheries
becomes
cl@@
Dienste
vorhanden
sets
consideration
permanent
amen
Mitgliedstaat
spe@@
sem@@
lig@@
spiel@@
wenigen
ants
According
Angaben
Mer@@
Gel@@
lokalen
resort
ye
sign@@
haft
Dec@@
rus@@
Zeit@@
Breakfast
nte
Des@@
ath
Werk@@
mark@@
Ziel@@
dly
gefordert
ory
origin
Golf
tere
99
Wer@@
Klicken
heiten
Zeitraum
ty@@
Not@@
angeboten
Komfort
Pap@@
Indi@@
Währung
break
dank
Ph@@
Durch@@
Air
Can@@
benötigt
courses
Mis@@
konkrete
Gas@@
sieren
stein
Druck@@
monetary
wahr@@
--
net@@
Großbritannien
ingen
ink
ware
election
easier
stic
Hauses
freue
establishment
hu@@
veröffentlicht
Multi@@
36
lie
economies
picture
trip
ours
God
Jahrhunderts
Dem@@
ash@@
finanzielle
database
starke
pla@@
gruppe
Mio.
Net@@
analy@@
threat
high-@@
gem@@
ungs-
fixed
Gebieten
structures
führenden
combat
dliche
art@@
aspect
ige
Nieder@@
konzentrieren
practices
ordnung
führte
Wissen
leader
gewährleistet
AB@@
bor@@
aims
ched
forget
geln
kulturellen
gene
weight
ination
Status
Dennoch
34
ships
tätig
erfolgen
attempt
Auto
models
Terrasse
darstellen
nächste
Comm@@
Tour
continued
Madrid
ker@@
arten
entstehen
val@@
erscheint
Beitritt
south
län@@
spent
sides
erstellen
failure
stehenden
sou@@
tät
Herstellung
Programms
Nachfolgend
myself
flow
combination
satz
Kingdom
AG@@
club
Online
buffet
dre@@
Worte
erklären
propose
exp@@
translation
seriously
med
glich
fund
Del@@
geschrieben
tage
Sur@@
Mas@@
dennoch
ery
Einigung
ct
Association
Rede
syn@@
Cap@@
sters
unabhängig
Antrag
Zweifel
cking
schönen
associated
detail
post
е@@
steigen
sischen
vis@@
ater
attractive
Kirche
air@@
dec@@
48
oni@@
Santa
betrachtet
gruppen
nis@@
Zweck
ited
Res@@
promoting
Klima@@
anyone
schwierig
ancient
Spezi@@
himself
Sie@@
ahead
relax
unterschiedliche
Forderungen
off@@
д@@
Kno@@
cke
Pakistan
welt
gegründet
differences
studies
Open
sta
reducing
reservation
Fran@@
availability
finance
brand
fähigkeit
web@@
Belarus
anlagen
ester
Sehr
announced
Kom@@
eingehen
grounds
IF@@
Analyse
beaches
Geld@@
changing
hon@@
ehr@@
gain
pre-@@
reicht
umfasst
Universität
impossible
Regel
carefully
Österreich
sun@@
phase
Einhaltung
released
Mac@@
inform@@
Wor@@
Liefer@@
voice
gestalten
absolut
humanitarian
balanced
museum
Stellungnahme
98
clo@@
Mess@@
Fl@@
Aufnahme
one-@@
asi@@
geschehen
Ã
booking
ziert
shared
2.
sho@@
charged
diskutieren
Firstly
Stra@@
Kl@@
uner@@
consumption
session
dangerous
cars
heraus@@
opposition
ring
Dollar
immediate
Sehenswürdigkeiten
Griechenland
enst@@
kaufen
nahme
Uni@@
names
einiger
producers
Irish
happened
geleistet
dic@@
Private
ists
defence
agencies
learning
hands
Texte
statements
architecture
duty
race
books
liebe
EADS
concrete
As@@
implementing
fire
keeping
Fonds
fore@@
band
läuft
Hal@@
schul@@
Tr@@
harmon@@
trading
gers
-F@@
exhibition
ely
wall
Gleichzeitig
Abend
Trade
Achtung
England
Stellen
regi@@
regionalen
iti@@
rück@@
Ki@@
halt
zimmer
istischen
ertes
Health
Kommunikation
river
arrival
Sil@@
inform
advance
folgende
eck@@
pictures
lets
truly
respond
Angesichts
instance
Vielzahl
Guest
lia
amm@@
article
raise
de-@@
MA@@
button
criminal
introduce
Due
Prime
ée
Sorge
evidence
profitieren
ländern
described
Hersteller
Entwicklungen
Every
Fuß
Cro@@
recommend
Trans@@
don@@
bit@@
Download
verfolgt
Paket
Hintergrund
skills
ning
meters
Aspekt
Sport
improvement
garantiert
überprüfen
600
37
cy
Prioritäten
registered
tten
Dokument
ising
Europeans
Links
ick
relaxing
elected
Voll@@
Arten
guarantees
recognition
zy@@
Casino
calling
passed
ISO
bas@@
port@@
feststellen
Polen
genuine
bt
spending
standing
т@@
tik
possibilities
chi@@
continues
nearby
einander
verlassen
exc@@
werke
Gei@@
Arbeitslosigkeit
sale
ei
System@@
Very
Afrika
Rechnung
у@@
reliable
television
installed
wishes
membership
seite
kosten@@
CA@@
Rot@@
Ja
sort
weiterer
pal@@
Gast@@
unacceptable
combined
devices
Partnerschaft
Stil
persönlich
gef@@
firm
packages
Mann
и
Rad@@
hom@@
gutes
sichern
campaign
color
istische
Stärkung
ack
figures
bauen
dor@@
adoption
empfehlen
felt
Foundation
religious
miteinander
1994
Seine
seek
completed
fiscal
reg@@
Nacht
übrigen
ai
33
enables
bezeichnet
unless
allowing
cat@@
territory
orders
ausschuss
strongly
greatest
black
zeichnet
African
Indien
kept
insurance
Moment
gegenwärtig
sensitive
Kat@@
gent@@
participate
tasks
Deutsche
Gesetz
IR@@
gkeit
angesprochen
st-@@
tly
III
Leistung
Betrieb
sli@@
Grenz@@
surrounding
Lesung
Bedürfnisse
greifen
eingeführt
ante
frei@@
k-@@
•
aci@@
obtain
chan@@
Problemen
2,@@
manage
französischen
Zwei@@
Ideen
Manager
Formen
gegenwärtigen
Beschreibung
zeichen
contain
ander@@
cho@@
hingewiesen
unfortunately
Justice
erhält
bars
Tradition
zz@@
Titel
court
closer
überall
Gemeinsamen
Irland
tend
zufrieden
groß
flu@@
Aussch@@
definition
tiges
fear
positiv
anten
surface
fordert
Another
demokratische
attractions
beginnt
cro@@
ering
ological
middle
Barroso
Banken
desire
absolute
mag
guide
9.@@
ken@@
geschützt
Sinn
0-@@
Player
komplett
Elemente
Last
coast
einsetzen
Richtlinien
OL@@
tom@@
dad
danach
dedicated
Open@@
Priorität
compared
dy@@
Such
TR@@
unterstütze
etz@@
werk@@
alist
platform
Agrar@@
sun
Überwachung
Hamburg
window
beauty
w-@@
Dor@@
großes
signal
to-@@
leistungs@@
piece
listen
We@@
wagen
tens
Pat@@
Ter@@
fälle
lige
800
aufmerksam
keinerlei
indi@@
Fisch@@
umfassende
Federal
38
Bio@@
Vienna
vo
Jeder
Turkish
ausreichend
einfache
lo
kers
interface
End@@
bear
cle@@
wasser@@
Regelungen
forced
Geschäftsordnung
erforderlichen
corporate
mehr@@
punkt
marked
pun@@
Hol@@
route
kes
enormous
claims
besitzt
Meiner
Fortschritt
größeren
gezogen
Bewertung
Anteil
Can
s.@@
cm
failed
sämtliche
spezielle
Verhältnis
bestätigt
biggest
beteiligt
ate@@
Technik
gri@@
Märkte
Ei@@
ön@@
Kritik
vorliegenden
dat@@
Geb@@
individuals
AL
an-@@
export
ands
square
perspective
publi@@
accessible
haften
länger
Größe
storage
entitled
comment
assen
09
luxury
Eastern
moving
55
science
sonst
licherweise
ically
onto
tests
extended
Hin@@
Entwurf
ths
holidays
Stu@@
Poli@@
Greek
exercise
Home
National@@
ins@@
Michael
install
totally
device
Prinzip
story
wind
Inn
Hi@@
trag@@
nennen
write
convinced
Nevertheless
ay@@
tal
rufen
Beschäftigungs@@
railway
ined
rau@@
schöne
Brüssel
Innen@@
wunder@@
mittels
Democrats
iel@@
val
vier@@
Verpflichtung
Ost@@
straße
urgent
institution
hel@@
ends
Mil@@
internationaler
memory
kostenlos
Yet
sation
č@@
fall@@
advertising
verbundenen
Syn@@
d.
nten
hof
dem@@
hergestellt
bul@@
offensichtlich
mail
host
gelöst
garantieren
factors
wil@@
Globalisierung
ständigen
cent@@
ssi@@
discover
tou@@
Agentur
controls
Maße
vit@@
church
Haup@@
Unternehmens@@
flight
ward
engine
starken
Mitteln
advice
drawn
organization
äl@@
Worten
Treffen
expensive
ath@@
bath
ances
Bush
sel
1990
amb@@
alismus
Far@@
führ@@
Betriebs@@
Netherlands
tz
initial
Institute
Fotos
kraft
vers
Lake
08
ka@@
bekannten
payments
Austrian
karte
Kraft@@
disease
seh@@
organised
chosen
stattfinden
granted
dienst
Unterkunft
weapons
bahn
Altstadt
lar@@
nation
Kol@@
unable
zusätzlich
beinhaltet
Gründe
ams
Atom@@
Studio
fern
reisen
ener
schlagen
tig@@
Company
Motor@@
establishing
Men@@
Verkehr
Ir@@
Monat
limits
outcome
ero@@
stan@@
ersch@@
ligen
onn@@
oh@@
mögliche
übertragen
Festival
contrary
28@@
Umfang
deutsche
zählen
perfectly
&apos;re
Kenn@@
linie
Han@@
attack
zeu@@
wirken
Shi@@
Wa@@
update
р@@
Tal@@
6-@@
conclusions
mas@@
print
Resort
ane
Niveau
wesentlichen
Erklärungen
saw
tar@@
adi@@
Control
tried
sell
solcher
massive
mountains
posi@@
Lam@@
7-@@
zw@@
britischen
zufolge
rechten
Beteiligung
Pen@@
ot
Palace
neither
betrachten
ku@@
rightly
fit
OT@@
furnished
Generation
Thus
ambitious
commitments
verloren
water@@
ov@@
zung
Gott
tical
Are
zuvor
olo@@
valid
Foreign
Volks@@
ierte
lag
Gegensatz
ining
finde
vehicle
Risiken
background
existence
eigen@@
Patienten
berei@@
entsprechen
successfully
Reise
minister
sat@@
Politiker
fic@@
relativ
ierten
agency
convenient
maintenance
Sta@@
Europäer
Note
artists
ular
Entschließungsantrag
gelungen
äch@@
komm@@
Schlüssel@@
Option
Flexibilität
register
asylum
speziellen
pos@@
Data
Methode
h.
stru@@
Bildungs@@
ust
Kompromiss
Gre@@
ther
claim
honourable
8.@@
approximately
Palestinian
unto
Eindruck
Mitgliedern
remind
ata
Aktionen
fach@@
candidate
Ereignisse
mei@@
para
wider
older
ol
Mel@@
gehalten
tin
sy@@
ç@@
nation@@
07
Aussicht
Sprach@@
gegangen
Weitere
achieving
TH@@
asking
Absatz
Beim
rechtlichen
constantly
yst@@
PHP
abgeschlossen
Latin
cou@@
surrounded
Peter
kul@@
lungs@@
ett@@
geöffnet
obviously
ía
deliver
jüngsten
targets
monitor
pas@@
Aufbau
Nachdem
intervention
O-@@
lichkeiten
continuing
lake
m2
manchmal
utili@@
produktion
Bis
guter
daraus
unit
stoff
schafts@@
nom@@
goals
expression
mäßig
category
x-@@
paragraph
Located
Wirkung
chs@@
down@@
Sor@@
dungen
foot
Air@@
Verständnis
Begriff
Innen
Empfehlungen
independence
touch
informiert
IG@@
erhöht
xi@@
promotion
reden
Erde
colleague
outstanding
stal@@
nationaler
stations
Projekt@@
alisation
fort
Gebiete
wn
Card
loc@@
Hon@@
nung
contents
Öl@@
в@@
hauptsächlich
Na@@
title
aircraft
laid
Dan@@
gets
Constitution
ch-@@
rep@@
yl@@
Bet@@
Haus@@
Eigen@@
fen@@
Realität
deep
erfordert
wh@@
Lie@@
someone
operate
öl@@
19.
suite
spiel
fte
bildung
Versch@@
Anlagen
Start
ideale
Meeres@@
Botschaft
ischem
obligations
dia
photos
Q
vous
verk@@
factor
Phase
advantages
0,@@
Obama
origin@@
Eing@@
ching
dom@@
Mand@@
Media
north
ri
yesterday
staatlichen
Zahlungs@@
physical
SI@@
Hoffnung
store
rech@@
Risiko
Nutzer
beachten
Those
Farb@@
Führung
contained
planned
Zi@@
SE@@
Regulation
м@@
fühlen
0er
Tu@@
fication
intensive
genen
te-@@
mobili@@
binding
boo@@
ord
Fol@@
emb@@
obvious
counter@@
qualified
Sar@@
dge
berühmten
ink@@
damals
tsp@@
Inseln
looks
recommendations
waiting
öh@@
ari
decades
1992
Mus@@
wichtigste
mass
Grundsatz
equality
PR@@
nearly
participants
Doppel@@
allgemeine
Market
Agency
Tages@@
bringing
hafte
Teilen
denk@@
sobald
capable
geschieht
Vom
ports
situations
Dom@@
ks@@
Off@@
ee
governance
Both
expenditure
recovery
fal@@
oral
kar@@
gol@@
testing
consists
globale
Rel@@
staaten
Rome
lang@@
communities
putting
Paul
führer
tab@@
einzigen
jungen
setzung
pointed
seeking
landscape
Winter@@
hängt
merely
species
hilfe
65
regelmäßig
legung
dimension
ECU
stoff@@
Beach
manufacturing
Süd@@
sions@@
Hinweis
plat@@
wirtschaft
Einkaufs@@
Firmen
smaller
prevention
fonds
aufen
Grunde
servi@@
leads
satellite
MS
Bedarf
trifft
einverstanden
Ren@@
е
festgestellt
nachhaltige
fy
Fraktionen
stor@@
AS
Hauptstadt
persönliche
Beihilfen
Voraussetzungen
read@@
dynamic
н@@
trä@@
Energy
substantial
Vorteil
Hälfte
Gegenteil
fi
Other
medium-sized
mechanism
Ebenso
Square
eli@@
Dimension
Is@@
disposal
sicht
Korea
registration
sprache
i.e.
soft
Pro
consistent
,00
High@@
liste
politisch
physi@@
zugleich
turned
tag
Ham@@
mode
vorgeschlagenen
bewegen
Welche
Gri@@
ré@@
etten
entgegen@@
betroffen
Energi@@
Städte
Bestandteil
64
jährlich
contemporary
Summit
eck
Wettbewerbs@@
dos
Regi@@
fron@@
ge-@@
Any
guaranteed
acceptable
browser
causes
named
echte
Infrastruktur
extend
Out@@
anbieten
Vertrags@@
arms
kor@@
rapid
Veranstaltungen
meaning
glass
Auto@@
Prüfung
Global
spezi@@
driving
Ul@@
el-@@
schneller
brings
Fa@@
Teil@@
Landschaft
Royal
ables
Klimaanlage
wir@@
praktisch
versions
spa
traditionellen
aries
serves
compliance
wodurch
alised
determined
technological
Internationalen
examples
flü@@
Holz@@
u.
stabili@@
Rules
tte
Farben
Ruhe
42
Ausland
fand
resulting
Winter
spread
.de
betroffenen
regeln
Rau@@
beschäftigt
Angebote
minim@@
my@@
treated
herzlich
voran@@
.00
Sweden
by@@
Thanks
sia
Zahlen
wn@@
Time
primary
erin
ately
hau@@
seven
The@@
yn@@
golf
na@@
conclude
ola
Island
Kontroll@@
mut@@
woh@@
object
Details
van@@
enter@@
vorschlagen
Bon@@
Buch
Dienst
gewählt
Unabhängigkeit
Environment
bers
atische
optimal
Zimmern
adequate
pleasure
spaces
wait
Gesetzgebung
block
Erhöhung
liability
früher
stellungen
EU@@
attacks
patients
fuel
explain
addressed
Nu@@
Aufgrund
Struktur
Martin
05
forest
temp@@
JavaScript
Trotz
vollkommen
welchen
stoffen
weiteres
begann
responsibilities
OS@@
Material
nations
Stat@@
gesellschaft
kürzlich
run@@
kun@@
Tex@@
entwicklung
junge
copy
radio
96
industries
strengthening
association
Format
ous@@
besseren
THE
diversity
strategie
extreme
3.
Sonnen@@
Überprüfung
bot@@
asse
Charakter
multi-@@
nis
zurückzu@@
Alliance
fällen
Königreich
ming
bedroom
einerseits
Rom@@
schools
alo@@
zählt
diskutiert
talks
cer@@
Ratspräsident
Bus
identity
49
nden
Unternehmens
ba
Serie
reagieren
sky
IA
technik
Stadtzentrum
fur@@
miss@@
Methoden
Liberalisierung
F-@@
primarily
remove
Quali@@
Laufe
taste
nah@@
entered
sum
evaluation
Pool
temporary
Lau@@
GDP
Männer
urban
notice
schön
Nice
kinds
ion
Mindest@@
97
lots
steel
250
Enjoy
ye@@
previously
thereby
Financial
Bewegung
Dutch
ING
bezieht
Gästen
anda
freiheit
multiple
requested
investments
Kr@@
liefern
bing
es-@@
ball
sam
quick
consensus
Licht
mb@@
digung
einzelne
accounts
Handel@@
imm@@
Mehr
ppen
Diskriminierung
Teilnehmer
Liebe
160
Prin@@
discussing
Romania
л@@
tour@@
ßt
Link
delay
stimmt
explo@@
spezifischen
dest@@
abhängig
squ@@
Absch@@
T-@@
mil@@
esen
delivered
Mad@@
ñ@@
bequem
Vil@@
bereiche
26@@
Grenze
head@@
gone
cam@@
angeht
ena
Netzwerk
Klimawandel
skin
Waren
Fähigkeit
umwelt@@
ktions@@
Leistungs@@
PL@@
Ordnung
1993
ly@@
leadership
barer
seitens
all-@@
weg@@
Despite
representative
8-@@
85
pension
ele@@
Fälle
bildet
willing
competence
pour
Suite
opposite
Pic@@
Dokumente
Westen
rail
Wander@@
Nicht@@
intensi@@
visible
Koordinierung
Industri@@
danger
к@@
sten@@
akzeptiert
default
Maria
Bank@@
feeling
Ansch@@
Tiere
ffen
IB@@
Reaktion
20.
positiven
Brenn@@
Minutes
southern
controlled
manufacturers
holding
Freunde
prepare
tem@@
hy@@
atives
betont
alle@@
regionale
Anpassung
Militär@@
preis
tenden
eng
dealt
Versuch
spezifische
Beh@@
leiden
Kombination
gemein@@
Lehr@@
letter
rati@@
dol@@
Unterschiede
Gefühl
sicherstellen
Willen
affect
SO@@
Amerika
set@@
Pop@@
wealth
urge
Day
PH@@
wirkt
ländlichen
speakers
sanctions
forum
moved
wards
demo@@
PC@@
runs
Dadurch
represented
Such@@
conduct
diverse
Stunde
compatible
ard@@
ez
verlieren
Two
sian
übernommen
breite
presentation
í
Wegen
Umständen
tain
deb@@
destination
Vorbereitung
cies
Körper
höchste
significantly
Before
dlichen
Ther@@
Gesetze
sur
Telefon
fruit
rechts@@
approval
dritten
06
Find
eins
EG
Süden
andererseits
Via
m-@@
parti@@
noise
GB
Zustand
basiert
quote
strength
serviert
nochmals
Nov@@
AT
ked
ehemaligen
author
Kam@@
dig@@
Kri@@
zustimmen
Anliegen
viel@@
Diskussionen
ergeben
verstärkt
shape
recommended
Aqu@@
Strategien
Bahnhof
expertise
alter
Vit@@
tigkeit
Vielleicht
Eigenschaften
hinter@@
sle@@
Teilnahme
Spe@@
ül@@
z-@@
arbei@@
abo@@
launched
gewisse
Delegation
Roman
nötig
preise
locations
wiederum
Einklang
bericht
Anlage
PS
seien
Mul@@
improvements
ón
fr@@
mechanisms
charming
dig
Mein
Erd@@
Nutz@@
highlight
helping
Studie
Bedenken
knows
relatively
websites
ppe
Techn@@
bon@@
soweit
Support
amongst
length
fei@@
cing
Tru@@
Je@@
gestern
helps
mutual
mental
derzeitigen
haltung
Kunde
micro@@
refugees
engineering
expectations
reply
gens
Freude
vielmehr
zunehmend
consultation
abkommen
Verbraucher@@
esti@@
Regierungs@@
zt
grün@@
Schule
sieben
White
Back@@
WC
verlangen
boat
covers
bedrooms
zieren
Kollege
Lebensmittel@@
Gener@@
trees
bung
Poker
Spiele
Verfügbarkeit
experiences
39
en-
interpre@@
delegation
ran
Reg@@
Rotary
except
ile
schei@@
Hilfs@@
requests
sold
keiner
Express
umfassenden
21.
Voraussetzung
acting
Munich
sper@@
MO@@
opp@@
ED@@
amerikanische
Fern@@
X-@@
Che@@
Sanktionen
p.m.
ced
unternommen
attitude
Wien
cel@@
units
Antworten
dir
privacy
Book
schen@@
weltweiten
fill
western
Straßen@@
taxes
Sha@@
solve
tritt
finding
Ob
historische
genauso
anerkannt
lern
preis@@
behörden
werfen
wichtiges
discovered
Fas@@
lauf@@
dert
\
Rou@@
Kosten@@
Prodi
tra
articles
respective
Geist
trotzdem
kol@@
02
Ges@@
Formular
aging
aro@@
furniture
Mak@@
Plaza
befassen
qualität
faced
AU@@
cri@@
din@@
Tod
Tit@@
stro@@
ausschusses
ghts
ong
hilft
streets
l-@@
tau@@
Technology
deiner
03
Standard@@
heraus
th-@@
Allgemeinen
dishes
cheap
ala
aktive
profit
gegen@@
los@@
dinner
Effizienz
höhere
3D
fighting
Wider@@
Take
Grundrechte
drugs
Apartment
behandeln
Zugriff
f-@@
trau@@
obligation
ände
regret
politicians
Raum@@
latter
appeal
Sam@@
Mikro@@
bio@@
Architektur
Untersuchung
elled
spot
texts
kleiner
Verhalten
Karten
rejected
Sitz
ziemlich
Geh@@
Str@@
Definition
hoher
temperature
Küste
tours
ruhigen
sorgt
ktive
appreciate
compensation
fantastic
Berücksichtigung
dans
Vis@@
Übereinkommen
700
River
healthy
Power@@
mitten
techn@@
Industrie@@
gespielt
dienste
kan
walls
emphasis
lam@@
identi@@
Schi@@
Prof@@
jemand
rely
constant
Welcome
tran@@
konkreten
Schäden
120
enth@@
arch@@
emphasise
gsten
Kapital@@
Tatsächlich
recognise
Kauf@@
ativen
Fil@@
extension
centres
willkommen
tho@@
Gold
exists
Beifall
10.@@
ст@@
arrangements
Wil@@
PDF
betreffen
error
producing
Grundsätze
esses
niemand
1000
ktion@@
sicher@@
reflect
menschlichen
ills
watch
ania
buchen
erhältlich
Putin
Auftrag
handling
Britain
figure
hum@@
Mau@@
0.000
gungen
User
resolve
equ@@
Chamber
objects
Sel@@
truth
Paper
cycle
Buch@@
wesen
ble@@
schätzen
xes
suffering
beg@@
not@@
Video@@
Lebens
master
helped
Use
Verträge
ama
q@@
operators
beträgt
intention
karten
duc@@
dates
kat@@
audio
kal@@
Liber@@
sinn@@
44
Pf@@
ered
ligh@@
profile
produkte
eiten
substances
entdecken
erscheinen
comply
proof
lim@@
Letz@@
tern@@
Lord
schau@@
Materialien
acy
Bl@@
Camp@@
tter
log
Friedens@@
parallel
output
Bau
Flu@@
künftig
reich
S.
Kategorie
rup@@
Leitlinien
ared
ads
cent
ello
unge@@
whatever
IP@@
Fernseh@@
OR
Test
Maßnahme
David
schließt
Norden
affairs
NL
Eis@@
omm@@
mobility
Pl@@
Verbrechen
kamen
drawing
begonnen
happens
eröffnet
valuable
School
disaster
cross-border
Werk
reserve
president
pping
chter
kulturelle
comple@@
hostels
info
gei@@
Ambiente
ences
Bat@@
Sand@@
tis
Nachfrage
entlang
formen
confirmed
largely
creative
Anfragen
marks
sh
Kind
inzwischen
AV@@
recognised
applicable
entertainment
tut
friend
Wirtschafts-
Ohne
sla@@
Netz@@
führende
naturally
Völker
Where
glichen
low-@@
Rule
manager
ativ
yes
diseases
renewable
Gol@@
dungs@@
Wahrheit
Sc@@
Landwirte
Datenbank
album
trac@@
Old
ual
wesentliche
Safety
Bil@@
ticket
Dort
assist
Fla@@
Mehr@@
wissenschaftlichen
CO2
eigenes
Essen
zusätzlichen
Gedanken
opposed
Wo@@
RO
brechen
Instead
Absicht
exclusively
dining
ł@@
A3@@
italienischen
Erwartungen
kurzem
sofern
CS@@
staatliche
personally
row
tiv@@
institutionellen
pose
chain
spring
zus@@
ständige
Sach@@
näher
Ferner
43
fraud
automatic
outdoor
interessiert
reali@@
Zoll@@
stehende
Japanese
millions
bus@@
Schaden
Strategy
inv@@
best@@
waters
haf@@
fähig
mitteln
couple
rasch
Rob@@
angemessen
Ministers
burden
sauna
eight
PS@@
schönsten
officials
west
ernst
USD
audi@@
DA
LO@@
installiert
volume
separ@@
whilst
leisure
impressive
fies
Hau@@
fail
ater@@
verändert
Mittelpunkt
charges
atory
zentralen
heavy
determine
arian
tex@@
entwickelten
Swedish
eye
spo@@
serv@@
involving
Rat@@
constructive
grundlegenden
U.S.
dige
B-@@
27@@
ony
rt
Entwicklungsländern
Menschen@@
lay
legi@@
lab@@
offen@@
Fischerei
inf@@
exceptional
load
1991
lon@@
Weiter@@
Stand@@
urs
Experten
zieht
increases
pieces
lle
castle
1989
natürlichen
smus
insi@@
195@@
schwierigen
Alternative
journey
tur
Dol@@
Good
neuesten
hervorragende
ani
Angriff
criticism
Schweden
Beratung
stellten
offices
radi@@
Autom@@
Shop
41
Schengen
Einstellung
zweifellos
freundlich
2013
Berufs@@
gefördert
Charter
BR@@
prove
amounts
equally
post-@@
besitzen
Emp@@
Alp@@
öffnen
dorf
lebens@@
Verbesserungen
Badezimmer
kostet
Bay
Beispiele
ausgezeichnete
Tagung
sup@@
perform
fein@@
cold
meist
niemals
Spar@@
Foto
protecting
decorated
HT@@
Blo@@
SM@@
Cli@@
Verkauf
laut
bestand
command
zuerst
leaving
George
Bru@@
kämpfen
ght
Europ@@
lovely
Englisch
gener
Normen
mandate
Special
fassen
erheblich
q
Dublin
passengers
M-@@
getragen
Klima
ni
Los
5.
sz@@
erweitert
Over
eten
On@@
bedeuten
speci@@
east
lan
westlichen
residence
offenen
removed
obtained
sätze
fran@@
hit
2012
Regime
Fenster
mt
anlage
aden
peoples
doors
tickets
unmittelbar
atoren
directives
finished
ries
prec@@
Stein@@
schnelle
brief
weather
11.
Komp@@
teilnehmen
involvement
Jan@@
kenn@@
organizations
Kab@@
ando
ky
parks
Wirklichkeit
medium
maschinen
lied
weshalb
blu@@
Nahen
treaty
resi@@
Ladies
strategies
erer
password
Canada
happening
father
bezug
täts@@
edge
höchsten
Bucht
einfachen
entstanden
Lab@@
Hil@@
scht
cc@@
Strukturen
Fac@@
mi
Ant@@
starten
proved
combating
ziele
Their
Rechts
Agrarpolitik
seeing
blue
ok
nahm
Unterschied
ausgezeichneten
kurze
allgemein
depends
München
gas@@
berechtigt
anische
sexual
parents
Park@@
Ausstattung
Kommunikations@@
maintained
ú@@
trägen
fee
DS@@
blog
Boden
Websites
Van
verlangt
ktes
Kra@@
eyes
rating
Bes@@
Waffen
Sou@@
11.@@
kung
contributions
remaining
räume
teilt
ele
Sho@@
Ab
tenen
Lag@@
bemüht
grundlegende
stag@@
Tar@@
USB
produziert
launch
Tourismus
creates
chinesischen
aufzunehmen
tter@@
define
Ratsvorsitz
behalten
Croatia
Dusche
organisiert
präsentiert
colour
fäl@@
issued
connections
Sü@@
ursprünglichen
died
Cat@@
abroad
renovated
ktiven
occasion
occup@@
gate
balcony
Halb@@
aktivieren
nam@@
AND
communications
Empfehlung
bli@@
musste
Dorf
Maschinen
Flash
Action
hall
wa
welt@@
entscheidend
Vision
precise
ought
discharge
Kin@@
falsch
10-@@
Dem
tre
Hostelsclub
vorzu@@
meat
drink
rein
gewi@@
Stellung
preparation
stance
R-@@
Hy@@
ett
Anbieter
weisung
King
Bestellung
spanischen
spec@@
Führungs@@
Basi@@
organized
rapporteurs
zugänglich
two-@@
GNU
Ausgangspunkt
bedeut@@
cru@@
divided
wünsche
restrictions
Robert
Ware
Kredit@@
jahr
Jedes
Revolution
riesigen
reserves
Pla@@
kla@@
requirement
surroundings
vast
assure
4.
resolved
uss
markt@@
behörde
pack@@
Hafen
Pflicht
zig
stream
Kamera
lus@@
soci@@
dritte
repeat
für@@
Überzeugung
doesn
Problems
Jahres@@
umzusetzen
sm
weist
classic
Sat@@
collective
iler
Get
Zentral@@
frie@@
messages
TO@@
roads
Kann
abgelehnt
Kooperation
ix
Airbus
Künstler
debates
cable
atischen
elling
definitely
mus
gratulieren
owners
Oper@@
Fort@@
Massen@@
derartige
ó
Krankheiten
п@@
Immobilien@@
let@@
Projekten
identify
hren
Punkten
Trau@@
USS
lautet
verursacht
contracts
04
regulatory
übernimmt
system@@
Des
returned
Lauf@@
höher
dd@@
migration
regularly
owner
Luxembourg
Bulgaria
ain
är
fehlt
Angst
bike
schicken
betreffenden
Verbindungen
opinions
UN-@@
Steuern
focused
pers
get@@
Mitgliedschaft
wirtschaftlicher
signs
investors
ela
chn@@
C.
extrem
characteristics
tierten
vorgenommen
46
bild
dur@@
Abschnitt
47
Boo@@
Music
wirksam
chtung
erlauben
ham@@
termin@@
atten@@
will@@
hardware
PRO@@
resolutions
funktionieren
s.
maschine
systemen
defend
Geräte
Abkommens
ome
etzen
anstatt
pfen
worse
Lim@@
zogen
Front
liberalisation
schafft
extra@@
Harmonisierung
Gleich@@
driver
Under
freundliche
vieler
Post
verschiedener
Erholung
ended
tag@@
facts
Mac
Log@@
Alter
tene
intend
derung
faster
Hinter@@
Mach@@
erei
bekämpfen
Sy@@
EF@@
durchzuführen
Executive
künftigen
MEPs
continent
komme
stände
vollständige
transportation
properties
Java
verstanden
Veranstaltung
glad
Gebrauch
hundreds
sehe
Farbe
recht@@
realistic
involve
Black
conflicts
AP@@
carbon
fordere
proud
ques
Beweis
Ele@@
Klasse
zuge@@
Eltern
prakti@@
sichere
main@@
Marina
isation
ening
Sit@@
mo
awareness
Will
Mich@@
OM@@
topic
ethnic
mul@@
ecken
plätze
Rumänien
impression
Life
echten
Fähigkeiten
Netz
a.
Ausführungen
conducted
leben@@
Polish
S.@@
Film@@
umgeben
ergriffen
V-@@
weiten
facilitate
mod@@
Gestaltung
joined
Ci@@
heating
Sauna
Entwicklungsländer
plays
isi@@
wachsen
operational
starts
suites
Tisch
Partnern
deli@@
jährigen
Wird
gliche
Verhandlungs@@
deals
seat
Ag@@
aufgefordert
sinnvoll
understood
grow
dynam@@
Procedure
¤
lift
frequently
updated
tende
displayed
Organ@@
ino@@
Reform@@
Ausnahme
confirm
Assi@@
ima@@
settings
Box
dam@@
teren
bezahlen
Gegend
depending
.org
license
fizierung
Strukturfonds
wers
IC
kurzen
Buchung
familiar
sole
Ratspräsidentschaft
Ara@@
nachhaltigen
performed
iten
tigung
wär@@
Konflikt
52
nights
printing
mus@@
Las
effectiveness
ê@@
wie@@
enzen
Änderungsanträgen
.000
zahl@@
firstly
Mari@@
schlägt
Ausstellung
conc@@
appointed
Element
sern
mostly
Sommer@@
Staat@@
bre
Übereinstimmung
klaren
9-@@
Wohl@@
gespeichert
annehmen
Austausch
festival
Programmen
int
Institution
Award
Hü@@
u.a.
komp@@
customs
machte
eth@@
Nein
Vorschlägen
satz@@
avec
submit
beschränkt
frag@@
Thomas
irs
Pass@@
aktiven
demanding
formed
ong@@
ausgeschlossen
somewhat
Tom@@
iso@@
ac
Nachrichten
bridge
clubs
schem
Second
Schwerpunkt
ises
electricity
Den@@
wasser
View
Messe
Stre@@
Analy@@
Hostels
Monetary
ron
eignet
uting
ession
lec@@
ader
answers
kop@@
18.
verbringen
gestellten
aller@@
Umgang
reiche
minority
Washington
kno@@
interior
buch@@
decision-making
ultimately
Geschäfte
früheren
universal
sicht@@
notwendige
Beitritts@@
noted
pass@@
ce-@@
Fü@@
interessante
beglückwünschen
sight
Dat@@
Straßen
durchführen
Real
messen
module
Ausführung
library
cr@@
blood
wan@@
ED
Gentoo
emergency
grant
Kilometer
Drittens
teams
gän@@
avi@@
Sun@@
ließ
Wind@@
Wissenschaft
jahr@@
techniques
Fri@@
wen@@
Führ@@
Schlafzimmer
ros
Hall
ny
tes@@
inflation
gold
meant
Brazil
mä@@
tierte
ish@@
Mensch
Whether
personnel
verabschiedet
SMEs
ministers
träge
een
sodass
geo@@
drivers
dru@@
zulassen
visited
Framework
sk
Maß
ton@@
provider
Arbeitsplätzen
sn@@
aria
leiten
bern
massage
ash
parliaments
zugunsten
Übersetzung
hervorheben
stars
Drittländern
51
Deutschen
füllen
Identi@@
iting
а
welfare
cross
ize
sch-@@
Förder@@
einzigartige
islands
bestätigen
lounge
hostel
igkeit
zuständigen
hö@@
Mexico
kanischen
tically
angemessene
accompanied
mar
reported
gehende
verhindert
fru@@
va@@
custom@@
ausgesprochen
Kontakt@@
statistics
ausgesetzt
prefer
career
chemical
li
studio
northern
Luft
mol@@
breiten
grateful
ail@@
bound
lists
metal
well@@
ado@@
theit
russischen
Prinzipien
Gleichgewicht
follows
Komponenten
looked
Cyprus
Planung
or-@@
modern@@
contrast
Ide@@
vorher
farm
zunehmen
Radio
Besonders
Faktoren
Tim@@
geprüft
ased
subsidies
valley
ont
liefert
Yes
windows
Verringerung
Rund@@
Werbung
gearbeitet
relaxation
wann
Alles
delighted
Firmen@@
passiert
rie@@
satisfied
Beziehung
Euro-@@
Miss@@
invite
wines
nungs@@
bom@@
famili@@
druck
Vereinbarungen
aufnehmen
indicated
presents
woman
contacts
corner
Aut@@
Beiträge
deckt
orial
eastern
stored
Gerichte
Saint
pm
erst@@
rou@@
Kas@@
Church
BIP
unmöglich
Außenpolitik
ordin@@
percent
sor
Optionen
cked
Mur@@
Wein
channels
terrorist
Fun@@
Sonne
Plenum
kli@@
Gesellschaften
Schluss
definiert
arrive
flights
Wol@@
MySQL
verringern
aw@@
ita
sucht
newly
Gemein@@
visiting
72
Handeln
functioning
corruption
Copenhagen
î@@
recommendation
feed
tourists
höheren
pped
Lö@@
Les@@
Chinas
Einstellungen
entsteht
exciting
dence
Jede
Festlegung
actively
judicial
kn@@
widely
belie@@
vacation
hot@@
scheinen
Budapest
visa
match
&apos;ve
desk
Congress
Drogen@@
Transport@@
Plattform
welchem
entwurf
Verb@@
tea
elten
entrance
Gespräche
declared
imposed
cosy
Zimmer@@
Report
firms
pollution
careful
bert
Band
verleihen
direkten
bilateral
dan
Morgen
Wünsche
eckt
d.h.
AK@@
showing
dal
Mün@@
Individu@@
burger
Edition
einhei@@
Währungs@@
rock
serving
schlecht
Zusatz@@
86
explore
Friday
nahmen
decken
fläche
inhabitants
afternoon
aged
soli@@
gert
Bemerkungen
gardens
Prop@@
ungefähr
involves
LE
Brand@@
SS@@
cket
Straf@@
cont@@
Prague
Neue
verändern
Garantie
Act
tlicher
rechtliche
priv@@
Pet@@
2.0
ska
configuration
Ausgabe
gebiete
sierte
demonstrated
eres
gestaltet
erreichbar
speaker
expert
vertre@@
gran@@
psych@@
turen
winning
Trek
geboren
deck@@
Noch
Earth
ación
Adobe
nieder@@
dich
formal
PO@@
Regierungskonferenz
Frei@@
e.@@
Aktion
pris@@
News
wollten
reifen
linien
occur
gerichtet
Perhaps
ils
1st
erleichtern
heritage
Sony
ausgeführt
declaration
cast
maintaining
eff@@
Protection
ero
nahezu
assets
licht
werten
sorgfältig
Minderheiten
competent
gg@@
fashion
intellectual
EG@@
Design@@
fördert
aj@@
Verteidigung
Zentralbank
Funds
Deswegen
Haftung
motor
Ed@@
kürz@@
Zwischen@@
Fru@@
spoken
Ziffer
transition
collaboration
reject
boot
begrüßt
ck-@@
Zer@@
gio
erneu@@
Given
ongoing
betra@@
Stück
strict
earth
Soviet
lebt
Justiz
oriented
Ster@@
conditioning
stellungs@@
functional
Baltic
remote
quarter
tennis
heits@@
hinzufügen
resistance
demonstrate
Kurz@@
desired
Je
expansion
settlement
Sicher@@
plenty
brau@@
top@@
schauen
Verbot
high-quality
Gründung
Veröffentlichung
nat@@
Sorgen
präsentieren
kin@@
theme
12.@@
3,@@
Arab
gungs@@
solange
esch@@
überzeugen
ч@@
ère
Port
channel
films
fitness
bemühen
letztlich
bestimmen
illi@@
EM
Golf@@
rapidly
categories
tos
holen
facility
trafficking
staat
bestehende
iner
Datenschutz@@
appearance
documentation
aly@@
hän@@
usual
Kir@@
Sollten
Rom
perfekt
stylish
è
я
heutige
Marktes
committees
Studenten
Einbeziehung
Poly@@
Or
department
Question
Chancen
generated
Rest
spra@@
passenger
gezwungen
organisationen
ausschuß
recorded
frame
ambi@@
Portuguese
regarded
PP@@
Charta
Sozi@@
Werbe@@
gallery
Jun@@
Mobile
Sei@@
educational
Cri@@
billi@@
15.
artist
concluded
basi@@
possibly
gewal@@
verehrte
eing
raw
klar@@
Umfeld
Skype
früh@@
ending
Ferien@@
Insbesondere
geltenden
justified
vil@@
phrase
KMU
sharing
essen@@
Bewer@@
Sollte
swe@@
Description
betrieben
glob@@
Hostel
dokum@@
owned
Marketing
with@@
awarded
glaub@@
conf@@
Applause
exit
containing
cutting
Sim@@
zeichn@@
bottom
einrichtungen
Dru@@
mas
Flo@@
lösung
Mobilität
standen
moral
foundation
aches
auer
ž@@
argument
long-@@
James
bet
replaced
apart
erinnert
G-@@
schlag
hair
54
Software@@
vorlegen
Balkon
dependent
Preisen
mix
britische
and-@@
Obje@@
lasting
ös@@
sierten
beraten
emerging
Webseiten
dürfte
Tou@@
Mö@@
individuelle
Zielen
ond
planet
lokale
selbst@@
ferner
bereitet
Struktur@@
towns
mother
ade@@
Tab@@
sil@@
Fein@@
Eurozone
Plus
Identität
liegenden
lauf
IV
treiben
isen
flows
Town
zun@@
å@@
Untersuchungen
wed
Nah@@
zieh@@
tierung
handel
Vorgehen
installieren
saving
respected
jegliche
count
з@@
overcome
assume
copyright
oc@@
Computer@@
ap
Hungary
Versionen
CE@@
tested
def@@
Quar@@
Kurs
cian
het
Waren@@
Freiheiten
routes
minorities
igung
abgestimmt
credibility
tackle
Acc@@
nit@@
este
eds
spectacular
App@@
König@@
TO
verkaufen
tischer
Northern
Power
TS
Mol@@
spann@@
IT-@@
verdient
Selbstverständlich
Puerto
Vorschlags
entes
benen
partly
crimes
sich@@
wohnen
erfolgreiche
determination
professionals
heat
ham
Training
Update
verhalten
Wachstums@@
MB
satisfaction
organisieren
flat
Glas@@
prozesses
stronger
Fle@@
Cha@@
einig
übrigens
Belgium
respon@@
acted
Fischer
Newsletter
ersetzt
vorschriften
dance
Women
puts
tigt
absch@@
nissen
Kräfte
entscheidende
Gest@@
Werke
ups
Bars
programms
direkte
größer
sie@@
Wir@@
jün@@
individuellen
Signal
Konsens
Ram@@
Gerichtshof
weite
occasions
transactions
verurteilt
oni
su
verkauft
Arbeitsmarkt
vorhandenen
yed
scheme
Politiken
wat@@
marquis
entwickelte
ney
lik@@
kri@@
isch-@@
beziehungen
Mitarbeitern
stischen
dens
zentral
Asien
immigrants
wand@@
sprachen
Verbreitung
Studien
ency
einheitlichen
manufacturer
ds@@
Network
alization
correctly
Internet-@@
Oder
reduzieren
beruht
fans
els@@
geräte
ora
reform@@
replace
rali@@
fon@@
Pact
gewährt
Parlament@@
Within
Fel@@
din
6.
Amendments
ards
Tour@@
enjoyed
inst@@
tables
erhebliche
äußern
cash
weekend
Kli@@
begrenzt
vorstellen
Zwecke
Anschluss
Well
arrived
non
Show
leb@@
bekannte
strategischen
Eu@@
bekämpfung
Besorgnis
EX@@
Desk
sicheren
aussch@@
gerät
grundsätzlich
Krankheit
CE
Nachricht
still@@
gehenden
derer
genannte
housing
Wi-Fi
lob@@
Space
inklusive
liberal
moti@@
slightly
Israeli
kg
ci
Food
miles
Canon
corresponding
sending
ico
quali@@
rental
adults
ental
Städten
Vorstellung
VI@@
Following
Don
drinks
digt
legitimate
Champ@@
mach@@
Einwanderung
constitutional
tives
peti@@
Wirk@@
Rezeption
Cu@@
tan
Page
EP@@
Gewicht
mö@@
räger
Sein
rap@@
industri@@
â@@
Kapitel
solid
herr@@
direc@@
component
kam@@
Freunden
angebot
beschäftigen
Flü@@
ruhig
Hohen
einfacher
Tan@@
genügend
losses
ski@@
youth
p-@@
ées
informationen
distributed
shares
Extre@@
·
nunmehr
kungen
Bedrohung
index
raten
ace
drücken
Taiwan
suppliers
Medien@@
J
buch
funktion@@
aum
banking
providers
inde@@
subsidiarity
sensible
cuts
Schulen
updates
kel@@
angegebenen
versorgung
Videos
steuer@@
tun@@
division
offiziellen
vin@@
destruction
OF
mächti@@
orts
Dach@@
cab@@
magnificent
cial
Bemerkung
rising
constitution
Zone
jenen
wrote
Hier@@
sprach@@
identified
läßt
194@@
EB@@
Kap@@
Asyl@@
aner
effektiv
taxation
Malta
ais
egal
denden
Erzeugnisse
Fal@@
hängen
Pack@@
Denk@@
7.
Benutzer@@
Systemen
addresses
Atlantic
Without
üb@@
zusammenarbeiten
ishing
maritime
elsewhere
dul@@
Selbst
aussprechen
globalisation
führten
sprach
behaviour
interpretation
jo
Son@@
werken
gebieten
considering
kompet@@
eventually
fas@@
Auge
gesellschaften
Wohnung
vorbereitet
disp@@
Europol
NI
außerordentlich
gangs
fantas@@
exception
Ton@@
wege
französische
wear
AN
tered
kel
leistung
VAT
sin@@
sü@@
verstärken
filter
Py@@
secret
gere
ensures
Ah@@
Marke
Zusätzlich
herrscht
milk
erfolgreichen
gewonnen
electric
AD
Termin@@
verbinden
exports
Kauf
thy
71
Fon@@
par
Schwei@@
aufs
etes
ump@@
battle
domain
uss@@
lers
Sektoren
oning
ented
68
Gran
modell
straight
Kyoto
Structural
sit
Hungarian
traditionelle
Kontrollen
Tau@@
tively
preparing
vic@@
but@@
SV
encouraging
extraordinary
virus
Sunday
Neben@@
Gesam@@
Viertel
jener
pot
Herz@@
erhielt
fs@@
unverzüglich
sprech@@
Valley
Mission
schrift
generate
erlebt
wissenschaftliche
decisive
poly@@
53
arti@@
Blog
Thirdly
proposes
courts
se-@@
slow
17.
irgend@@
eingereicht
Vel@@
Eisenbahn@@
wiederholen
politi@@
aux
56
verantwortungs@@
drei@@
Wohlstand
hear@@
liked
gste
motor@@
ologi@@
Balkans
scene
roman@@
Islam
Kop@@
vulnerable
deficit
Charles
Zy@@
TI@@
disk
Salzburg
mali@@
filled
label
dischen
army
asser@@
Year
citizen
Bereitstellung
ständen
prü@@
Einkommen
por
schm@@
66
didn
everyday
Erstellung
Like
op
Vorsitz
enhance
Stimm@@
vieles
lock
topics
entscheidender
vely
schu@@
beigetragen
surely
succ@@
fügt
beschrieben
Lieferung
Beschluss
Dre@@
Schwar@@
plenary
packaging
Cer@@
transpor@@
rum
bonus
complicated
tief@@
substance
großem
portal
sugar
luxurious
UC@@
university
Touristen
Pakete
supplies
hen@@
selling
Roh@@
Verk@@
spoke
et-@@
anz
Einheit
Spaß
finanziert
accurate
lessons
Lok@@
WLAN
Fuß@@
invest
ulate
virtual
organ@@
Client
kleines
ähnlich
inclusion
ites
essi@@
Schw@@
Nos
kts
examine
§
gefallen
Ungarn
directed
Exchange
20-@@
Theater
Männern
connect
patent
sitz
Assembly
bislang
8.
proven
fahrer
verst@@
wunderschönen
Katastrophe
Blan@@
kräfte
Schlussfolgerungen
revi@@
zustellen
Main
selben
zeichnen
specified
jährige
bestimmter
elektronischen
Thursday
excessive
Gran@@
CON@@
Garden
therapy
inger
dende
Mangel
ride
Cra@@
beteiligen
theory
enabled
videos
derte
break@@
intern@@
gestattet
Ansichten
Staates
impose
Person@@
conver@@
Dienstleistungs@@
suffer
verkehrs@@
vermitteln
integriert
Rap@@
concepts
mes@@
Live
heben
mot@@
Pul@@
16.
stolz
itäts@@
renowned
wohl@@
leistungen
erzeugt
absence
ungser@@
fly
deposit
zahl
alized
einzigartigen
forests
teilung
kraft@@
Brasilien
Genehmigung
ping
adopting
shipping
description
asses
dt
wechsel
voraus@@
diplom@@
Sicherung
hundred
viol@@
ahn@@
Einwohner
greatly
gut@@
Kontext
Digital
Ep@@
ag
savings
A.
Mail@@
Polizei
directory
Zwei
Vater
menschliche
proceed
unden
schwer@@
ums@@
BMW
drug
abuse
arm@@
tin@@
tei@@
solches
verbindet
Konto
Rechtsgrundlage
ville
Alt@@
centuries
traditions
hervor
anwesend
handle
ere@@
foot@@
investieren
carrying
finish
geschichte
angegeben
Besides
applying
lad@@
departure
layer
heim@@
suggestions
wonder
arischen
gli@@
gained
Bou@@
Law
voluntary
Rein@@
Grad
akt
Datei@@
Modelle
solely
alities
proposing
Rus@@
eit
schla@@
häuser
raising
equi@@
countryside
villages
druck@@
mischen
subjects
Konsequenzen
Games
BO@@
kette
Guests
ordinary
absor@@
Image
heim
Lounge
Rahmen@@
aqu@@
lined
formation
vent@@
Mail
Gold@@
COM
Bern@@
chem@@
Publi@@
Rich@@
Schiff@@
Provinz
paying
duties
trial
Eli@@
Pin@@
fern@@
AC
supplier
Cup
colours
Gam@@
sische
Darum
Boden@@
Vier@@
hör@@
Gerät
eingehalten
wave
artistic
klu@@
Entscheidungs@@
Dauer
asing
29@@
wirk@@
Fax
Nummer
bereichen
philosophy
representation
trend
gh
59
Hamas
UM@@
freut
gewissen
Landes@@
museums
skiing
CS
Wo
resul@@
ami
trips
lieb@@
geboten
Budget
Sig@@
Len@@
thousand
fuer
beantworten
appeared
treat
fli@@
impor@@
Boot@@
individuell
Positionen
Prozesse
pursue
Tools
grös@@
consent
Trop@@
Beschlüsse
nevertheless
Holiday
ologischen
aut@@
förder@@
aut
Betrag
weitgehend
comparison
toler@@
della
manche
bereitgestellt
promised
Arbeit@@
Kroatien
trag
Maastricht
ator@@
reservations
mati@@
Interessen@@
internen
receiving
Wählen
liefer@@
beobachten
100@@
auto@@
Hot@@
Set
Elektro@@
bedeutende
Glaubwürdigkeit
wert@@
input
inmitten
invited
Egypt
sheet
Tel@@
ähnliche
Having
pression
unity
mussten
wiederholt
40@@
mechan@@
obje@@
Rö@@
difficulty
enswert
sers
ativ@@
Schwer@@
tobacco
yo@@
schie@@
zuständig
root
Tool
ziel@@
punkte
vorge@@
Überlegungen
effizient
wechsel@@
portfolio
award
bekommt
vorher@@
reli@@
-based
Ol@@
bergen
dienst@@
lte
New@@
non@@
nde
ests
Parkplatz
Kopf
Völker@@
ausgezeichnet
Kulturen
Strom@@
mittleren
uted
hr
entspannen
gebildet
sozialer
Islamic
Ganz
sichts@@
Trotzdem
Kontakte
anbelangt
92
sus
pools
Wur@@
erstmals
Legal
smo@@
б@@
überprüft
Quality
Zivilgesellschaft
suggested
Num@@
Gegenstand
Bulgarien
Reduzierung
pes
wirtschafts@@
SA
mid-@@
Hom@@
Suiten
ring@@
58
Gast
langfristige
prosperity
cle
St
Castle
Situated
probleme
zäh@@
laufenden
pure
elec@@
UT@@
Korruption
einbezogen
Sum@@
ema
sicherung
stages
niveau
ursprünglich
Agriculture
Cur@@
dene
Playa
steh@@
langsam
relative
disabled
Menü
Monday
productivity
wach@@
Mrd.
Gehminuten
arguments
periods
pel@@
fertig
eat
Glück
Schlüssel
optimale
quar@@
Professor
Browser
Anlass
oper@@
well-known
welcoming
delicious
Mr.
Geschmack
Mont@@
depend
necessarily
attempts
Blu@@
ization
Körper@@
reduziert
moder@@
GN@@
schwei@@
steuern
ading
CF@@
Gefahren
patient
Budgets
confirmation
Based
ols
them@@
Americans
akti@@
arbeits@@
spartner
wirtschaftlich
weak
ov
Energien
Vorhaben
cleaning
symbol
sounds
angesehen
kes@@
referendum
gerufen
wis@@
Christ@@
AM
a.@@
fang
richtet
Kollegin
import
Stoffe
pä@@
hill
leaves
chtet
religion
ET
Politik@@
Dafür
dauert
ail
Gewährleistung
Strasbourg
tier@@
kunden
Konzer@@
passen
addi@@
Eigentum
verteilt
Offen@@
utz@@
Akti@@
setz@@
shot
esse
pt
Sec@@
ausgerichtet
Lebensmittel
united
AR
verein@@
Finanzierungs@@
Gut@@
stil@@
stern
homes
politically
DO@@
auftreten
steigt
farming
ano@@
enabling
villa
EA
overview
Mes@@
Tip
letztendlich
dream
10.
Aufsichts@@
betreiben
imports
bank@@
Key@@
Apple
Pil@@
reit@@
täglichen
projekte
permitted
lev@@
unds
istic
oria
effe@@
eil
Tem@@
©
lobby
ura
satisfactory
Tele@@
Wes@@
änden
behaupten
sau@@
schnell@@
Place
ausgegeben
entschlossen
inos
gründen
allocated
estimated
regul@@
Bahn@@
Schiffe
Verlust
constitute
Gerade
bach
societies
stä@@
verkehrs
zukünftigen
Tat@@
unforgettable
4,@@
ersetzen
Wirtschaftswachstum
verfügbaren
rare
succeed
supposed
Federation
stab@@
Master
Kriegs@@
ration@@
killed
Bul@@
significance
88
ori
ign@@
Pau@@
ling@@
Bade@@
fü@@
publication
Facilities
Programm@@
cooperate
hierbei
welcomed
Through
vierung
Pon@@
camp@@
kontaktieren
instructions
XP
künftige
continuous
Gaza
gedacht
upper
sah
Fahrzeuge
gnis
recognized
Erfüllung
inten@@
wireless
üt@@
gelingt
Entlastung
kontrolle
zentren
Praktiken
Personal@@
einzusetzen
refer@@
Telefon@@
Sterne
obliged
visu@@
Wald@@
beendet
militärischen
versichern
alt@@
stimm@@
Belgien
unterscheiden
cell@@
Gericht
speichern
clean@@
Asian
größeres
fourth
ame@@
entspann@@
Genießen
functionality
Thailand
Übergangs@@
ECB
Les
mangel@@
verteidigen
ital
individu@@
iPhone
fir@@
sparen
angepasst
altern@@
Cent@@
konfrontiert
specialist
tree
trieben
Kommissions@@
programming
Who
toward
klein@@
militärische
cos
ès
9.
breit@@
Schiff
destroyed
h-@@
й
spiele
Prozesses
konzentriert
ute
initi@@
struktur
gendes
missing
tionally
bis@@
allzu
Pun@@
Rol@@
geschäf@@
Freitag
offene
Verfassungs@@
legte
refers
hardly
cells
contributed
ario
12.
illu@@
Berliner
klein
Ausflüge
Anstieg
actors
Islands
Point
leu@@
stör@@
Gerechtigkeit
Finland
gue
remained
cot@@
aktiviert
richtung
Posi@@
ра@@
Verletzung
Prüf@@
prime
fundament@@
Gemeinde
bares
lived
song
Refer@@
interessant
sections
anc@@
covering
welcomes
organic
griffen
Mei@@
grenzen
fähigen
spa@@
leh@@
pen
inner
ter-@@
Frühstücksbuffet
unabhängigen
Guide
ee@@
Rem@@
hier@@
Perspektive
modules
characters
negotiating
67
Vene@@
Play@@
dau@@
Mut
armed
57
designs
Australia
Drei@@
füll@@
gelegenen
Nachbar@@
HO@@
bestellen
harmonisation
Amt
Sachen
Feld
fulfil
lunch
Kla@@
ose
Übernachtung
13.
Verarbeitung
hospitality
dere
rieren
luss
Runde
brachte
gelassen
Standort
prev@@
supervision
waffen
suffered
trends
Inform@@
Situationen
ssen@@
preventing
Family
ald
hung
Nachbarn
revision
Next
hi
Stad@@
Betten
Schweizer
Flüchtlinge
notes
Terror@@
viertel
wettbewerbs@@
euros
Zeitung
Institu@@
premi@@
thin
amenities
unterzeichnet
institutionelle
classes
fees
Gir@@
Wirtschaf@@
herunterladen
Krisen@@
explained
voc@@
FT@@
mitteilen
Organe
Wechsel@@
anim@@
gemeinschaftlichen
unterstreichen
aming
deswegen
Weiteren
ans@@
adap@@
songs
ehen
bisherigen
illegalen
Anti-@@
sichtbar
productive
fanden
strategische
adverti@@
forthcoming
ford
äh@@
Pläne
none
reaching
Education
komple@@
lieren
Märkten
uter
NGOs
blocks
indicate
kern
könnt
legally
thermal
musical
mitglieder
Tätigkeiten
vorzulegen
barriers
Eink@@
Willkommen
ô@@
betreffend
fax
freedoms
kund@@
vollständigen
lieber
spreche
wirksame
arise
ey@@
Sind
sphere
typ@@
gram@@
Tei@@
abstimmen
Bis@@
anschließend
Should
turning
belief
Finanzkrise
introducing
everybody
empfangen
Director
parameters
zukünftige
restricted
cour@@
Schon
doub@@
saved
hochwertige
Grünen
computers
Rent@@
conventional
pp
angebracht
Donnerstag
Fehler@@
gap
Transpor@@
ologische
Grün@@
Widerspruch
originally
aire
HTML
natürliche
unterliegen
itali@@
sustainability
stocks
tari@@
Wür@@
grosse
verdienen
verwaltung
gewis@@
roll@@
labelling
driven
archi@@
ergibt
Project
movie
wellness
L-@@
günsti@@
Regierungschefs
vorgeschlagene
Auditors
Abendessen
umfangreiche
erzeu@@
Veränderung
coun@@
football
male
Don@@
hart
geprägt
Vorsch@@
sses
Est@@
tory
movements
Hab@@
Redner
enhanced
AF@@
Venice
enterprise
wild
firmly
resource
Schloss
Ankunft
severe
elte
vorgesehenen
combine
Saturday
stück
Andere
PD@@
reflected
hydro@@
praktische
transmission
Schwe@@
fassung
langfristig
showed
realise
dio@@
Geschäft
fairly
sauber
alisierten
modi@@
Institut
Sau@@
halb
unabhängige
Zuständigkeit
materi@@
drop
VER@@
Zug
effiziente
fährt
Ausmaß
anzuzeigen
errors
Single
Hö@@
ffe
Stimmen
Internationale
Stability
vertrag
hingegen
remarks
Mallorca
behoben
beings
pit@@
küh@@
itä@@
fuhr
anhand
Top@@
Ker@@
bed@@
Mah@@
selten
Ablehnung
enge
proceedings
Kanada
anschließen
dering
Leg@@
suit
ras
Weg@@
Cookies
gemeinschaft
nutz@@
Komm@@
reflects
Vietnam
tot@@
sing@@
ungs
gor@@
Does
AIDS
Piazza
14.
imagine
considerably
Gor@@
Fir@@
strukturi@@
wachsenden
Serbia
vorbei
geraten
adapted
gesp@@
schule
Socialist
budgets
boards
kro@@
zeug
gebeten
ließen
lischen
vorschlag
SL@@
Rio
director
gesetz@@
hearing
Bot@@
Ga@@
holds
cancer
Corporate
amazing
Quellen
amt
ed-@@
collected
Vista
Armee
lösungen
ells
bat@@
obstacles
grade
Vorlage
tent@@
gene@@
stieg
Regional
whereas
thi@@
safeguard
nd
edition
Büro
normalerweise
universities
Last@@
Konferenz@@
olog@@
verti@@
parliament
án
Plas@@
um-@@
sab@@
ume
täten
passt
CHF
Zivil@@
Leitung
gewähren
endorse
sogenannten
wahren
Anwendungs@@
Respekt
Roll@@
Reisen
tracks
BI@@
coordinated
elli@@
ete
Captain
adapt
Stockholm
Album
sammeln
tol@@
körper@@
fikation
Bab@@
design@@
Berg
Ari@@
ih@@
pressed
märkte
faith
female
mente
freundlichen
hervorragenden
super
Kranken@@
fügen
acceptance
regardless
Christmas
romantic
züge
ato@@
Sul@@
auff@@
tert
any@@
Form@@
sach@@
dargestellt
dankbar
Ebenen
secre@@
Cho@@
gemä@@
Geneva
Get@@
Freizügigkeit
a.m.
grad
schnellen
Gerichts@@
tail@@
viert
investigation
fast@@
generations
Börse
Mutter@@
normalen
greift
ull
chair
63
sights
fähi@@
decade
consulting
dry
0s
Prote@@
Partner@@
Staatsan@@
Sohn
sw@@
worthy
Road
anner
Führer
gewünschten
servers
Heizung
enthaltenen
birth
letters
König
hohem
dark
Abhängigkeit
wür@@
ux
Meines
vessels
arbeitete
Rückkehr
sierungs@@
vereinbart
federal
konferenz
vorliegende
Indian
besonderer
öffentlich
82
exploitation
ange
undoubtedly
tual
sty@@
Deutsch
verboten
sischer
Aktionsplan
80@@
Abschaffung
Г
shed
till
nec@@
refle@@
alem
managing
reaction
Jugend@@
Forsch@@
zahlung
Urheber@@
methoden
Wochenende
equivalent
amed
Fan@@
eta
flächen
pretty
ollen
SW@@
altet
sought
Erinnerung
heißen
disasters
Mini@@
kontrollieren
Volkes
oned
ichte
tief
politisches
produzieren
Reservierung
ished
ease
compact
Pr@@
dev@@
feu@@
forschung
Entspannung
dialog
bereiten
travelling
Ale@@
xen
gere@@
Regel@@
ernsthaft
Haushaltsplan
Kong
Lizenz
iniert
erkannt
Hong
erfreut
fleet
dict@@
ordered
Teams
Gang
chti@@
ktoren
griechischen
iled
sees
geplant
internationally
lic
Erst
bende
checks
guided
printed
Typ@@
Stuttgart
Sin@@
Maschine
ill
gal@@
zuzu@@
nütz@@
Culture
isti@@
krise
jetzigen
Geschwindigkeit
Befugnisse
automati@@
Konflikte
Beteiligten
step@@
Customer
metro
Lang@@
beru@@
joining
dings
TE
Sammlung
Equ@@
fix
atz
Dritten
Orte
Jahrzehnten
Zahlungen
ind
EP
decline
supplied
sin
restored
rechnen
grenz@@
underground
U-@@
cen@@
ji
zog
Kirk
nungen
Marken
Georgia
Fahrt
externen
bol@@
Got@@
gefragt
bestimmungen
io
courage
inner@@
roots
neg@@
bemerk@@
hervorgehoben
sex
Quelle
Beide
antworten
protocol
script
ätze
komplette
Dam@@
Check
umzu@@
dent
absol@@
brow@@
MA
Binnenmarktes
Planeten
Symp@@
Tibet
mouth
Tür@@
überaus
Ali@@
Gleichstellung
seri@@
vierten
Administration
Top
einheitliche
Seri@@
Blut@@
Berichten
exclusion
Mem@@
Cy@@
vieren
ungsverfahren
sound@@
vali@@
cement
NO@@
us-@@
abilities
nummer
aufgebaut
Investitions@@
anywhere
believes
reliability
excluded
62
pet@@
mess@@
nbsp
mittlerweile
cultures
learned
erfordern
Tourism
mere
i-@@
echn@@
Up
schweren
Exper@@
profession@@
bezahlt
satisfy
trav@@
dische
Euch
tier
wald
Debian-@@
Prozess@@
Geheim@@
graphic
Tor
Handels
penalty
letz@@
entgegen
Kreditkarte
nicht@@
slo@@
play@@
Friendly
steten
leichter
commun@@
Blue
Kü@@
Sitz@@
deep@@
unterschiedlich
erwähnen
Großteil
concentrate
hil@@
Meeting
tiz@@
Dreh@@
Schönheit
regel@@
besu@@
beschränken
shift
Foto@@
klassischen
restructuring
proc@@
spi@@
mini@@
CD@@
Mutter
zugrunde
ökonomischen
Vorausschau
subsequent
diversi@@
Bin@@
entdeckt
sse@@
oms
Darstellung
floors
of-@@
garten
überein
violations
transferred
Allianz
niedri@@
missions
korrekt
bedanken
emplo@@
processed
Opposition
komfortable
clause
analyse
GT@@
gehei@@
letzter
untersucht
justi@@
mine
reck@@
но@@
Ursachen
existiert
humanitäre
ACP
nachdrücklich
77
steam
Tal
bo
Location
perfekte
zurückzuführen
leitung
umsetzen
Alexander
sovereignty
ouse
gestaltung
remin@@
dignity
Diam@@
formats
Schlaf@@
hierfür
Produ@@
Hauptbahnhof
Tausende
anz@@
non-smoking
Information@@
stammt
Notes
Tages
Verteilung
everywhere
69
dating
factory
aside
GU@@
groß@@
heit@@
assembly
eingegangen
irre@@
counter
ories
LA
restore
Ret@@
ure@@
hast
Mir
senken
Optim@@
Waffen@@
Casa
gestal@@
89
Der@@
ко@@
berichten
Faktor
900
vice
Schla@@
umfassend
kir@@
magazine
festzulegen
Kriminalität
Red@@
Küsten@@
Investoren
disc@@
Agenturen
Gemeinsame
Commissioners
rol
Pati@@
kurs
Eingang
Branche
73
melden
reserved
Ori@@
Lizenz@@
geleitet
Spielen
faces
zeugen
einzuführen
prof@@
overlooking
Il
SD@@
grossen
produces
plastic
Academy
deut@@
Balkan
meal
targeted
enorme
Rechten
greif@@
assess
Museen
Emissionen
sichti@@
approve
dead
Nahrungsmittel@@
Passwort
cell
alisieren
panel
Sol
Nero
Generationen
gehör@@
hoffentlich
Vertrages
pon@@
agi@@
Hat
Lat@@
listings
Sudan
tum
kamp@@
Arbeitsplatz
shadow
musi@@
picturesque
accident
nine
lädt
stan
student
deeply
strengthened
gering
miss
undertaken
treatments
ten-@@
Will@@
ae@@
selb@@
Früh@@
nes
ager
kernel
alisiert
Bag@@
Würde
Stock
EZB
Staff
Port@@
wonach
sand
meter
strasse
operates
Parameter
frühen
Bereitschaft
aling
cool
bright
graph@@
Haut
besorgt
ilit@@
Koh@@
Opera
Musi@@
erweitern
Mark
worst
promise
phones
A5-0@@
Somit
geeignete
seu@@
teils
begleitet
fut@@
offizielle
festgelegten
H-0@@
Besitz@@
gaben
richtlinie
Papier
ners
dei
Be
Tag@@
Schön@@
diert
Fernsehen
Ange@@
Haben
gek@@
Innenstadt
Would
Rechtsstaatlichkeit
normally
intelligent
Fr@@
steigern
sco@@
fishermen
Events
Pack
93
Sonn@@
SCH@@
merk@@
executive
reconstruction
ote
mem@@
ähr@@
digitalen
eingeb@@
IMF
Dies@@
bour@@
panoramic
angewendet
gements
stant
SE
stores
max
Deb@@
1980
vornehmen
Anwender
fähige
unfair
stattfindet
entering
collec@@
dness
tionary
luss@@
Parkplätze
würdig
einfach@@
freely
usage
gation
hiking
diskrimin@@
kap@@
Handlungs@@
Among
activ@@
ison
pressing
Speisen
mid@@
Stärke
festen
ausgaben
geäußert
province
izi@@
Registrierung
Spezial@@
Berich@@
posed
anniversary
Öffnung
stran@@
61
Bibliothek
irischen
linken
sende
Bearbeitung
eingestellt
illustr@@
pur@@
Reserve
bathrooms
ütz@@
verwende
presenting
Joseph
trat
individually
superior
Kontinent
Volksgesundheit
ARE
Tests
solar
voraus
Vari@@
Industry
Messe@@
ebene
Miß@@
Verlauf
qualitativ
Spitzen@@
-up
Umwel@@
ativer
gnissen
switch
dated
SC@@
Frist
geber
Strecke
threats
prospects
ares
peri@@
Lern@@
empfohlen
Amerikaner
türkischen
profits
Denmark
tac@@
engines
gin@@
casino
fangen
briefly
Niederlanden
revolution
Content
keinem
manufacture
Dritte
Strand@@
beenden
verweisen
collect
imperi@@
blei@@
verfol@@
highlights
dollar
popul@@
CAP
taxi
30.
konstru@@
Ferienwohnung
lehr@@
prozesse
nützlich
Währungsunion
attached
funded
Kompetenz
gement
reputation
UL@@
Golden
V.
grown
Consumer
Motor
neighbouring
Cou@@
labor
Überblick
liable
leich@@
Dass
poses
adds
Minute
selber
Herz
ecological
acknowledge
fers
Ama@@
Wellness
Wandel
chern
Kategorien
akzep@@
eur@@
cious
Tel
Kapital
bewältigen
wage
adding
94
belong
pap@@
Intel@@
Gelder
teaching
5,@@
Up@@
Jugend
langer
räumen
herrlichen
gestärkt
Consequently
gelesen
mented
dlicher
Wirtschaftskrise
low@@
sleep
gesetzlichen
genaue
strah@@
ehrt
gam@@
aster
antes
öff@@
alu@@
emen
sä@@
flug@@
engaged
60@@
Kampagne
überwinden
varied
operated
struggle
stunning
ati
lichsten
gewer@@
Umweltschutz
zerstört
sichergestellt
begins
synchron@@
Span@@
Herbst
Öl
efficiently
Residence
einf@@
Licht@@
gegenwärtige
BSE
erklär@@
festi@@
Andererseits
kus@@
Autobahn
folge
camp
ats@@
hü@@
gkeiten
stuff
Richard
lü@@
schä@@
three-@@
án@@
loser
meets
sible
CDs
Zürich
ergänzt
eria
ziger
Maschinen@@
Bestimmung
liert
Bord
äm@@
unmittelbarer
Zahlung
Länge
kehr@@
heading
Cel@@
eo
struc@@
ø@@
rad
tain@@
genes
twice
froh
Vereinfachung
Protocol
past@@
Auftrags@@
proportion
Sky@@
antly
Florenz
immer@@
cla@@
Es@@
Instruments
integrierten
Cab@@
cin@@
journ@@
behält
hes
itable
Ke@@
mile
eigener
kennt
Steuerung
Potenzial
Bour@@
riding
Micro@@
CD-@@
wort
stärkere
Debatten
recording
surprise
eurozone
makers
combines
speciali@@
glo@@
78
teste
iel
Dokumenten
76
graphics
Mod@@
Using
ř@@
eingesch@@
sufficiently
mistake
Dro@@
OK
Bed
Hohe
gleichermaßen
aring
Kern
Text@@
zeichnungen
Montag
Belgian
ctions
ent-@@
kontrolliert
ial
bs@@
M.
pillar
program@@
frem@@
Autos
lier
prop@@
DC
Kaffee
Freund
lieben
Resolution
CN@@
Vir@@
Miet@@
zukommen
visual
Tsch@@
pace
Pot@@
rechtzeitig
о
Wesentlichen
territorial
rad@@
Nat@@
Š@@
DR@@
Erhaltung
Berichterstatters
langfristigen
nar@@
urgently
heads
kilometres
Satelli@@
19th
Ve@@
Society
Sound
Beseitigung
phenomenon
Saf@@
seats
altung
zige
angemessenen
warning
sophisticated
push
wendet
codes
Have
Chem@@
Verein@@
rolle
occurred
BC
ho
n-@@
Gau@@
scientists
cit@@
Ven@@
Presse
anzubieten
relates
fro@@
spite
c-@@
legitim@@
ht
acqu@@
EU-Mitgliedstaaten
shuttle
stration
yard
meister
iling
diplomatic
Suites
klassi@@
arising
medicine
negativen
logical
candidates
schnit@@
such@@
shel@@
2nd
convenience
PA
native
Renn@@
Saison
Zw@@
bedeutenden
Tür
Polizei@@
Science
Phili@@
Email
Schn@@
Kandidaten
gia
kanische
derzeitige
inspired
garage
Black@@
Detail
typischen
binden
Oberfläche
erzeugen
ean
zia
Conc@@
feet
mag@@
Schulden
unentgeltlich
specialists
Afri@@
ktor
effektive
Mechanismen
Parlamente
lis
Projekts
zü@@
College
acquired
Bedien@@
stammen
Straßburg
causing
damages
pot@@
lien
spä@@
Gewinn@@
execution
Rh@@
virtually
bly
innov@@
illa
meals
UNO
seconds
FA@@
iens
sorge
besucht
Benutzung
anzeigen
records
mögen
zwingen
Lit@@
appropriations
Ombudsman
gesam@@
ín
upgrade
Pension
ahn
concert
inn
Archi@@
Luxemburg
schö@@
lenken
sit@@
stem
Ok@@
angenehmen
uniform
Area
var@@
sand@@
bot
habit@@
oldest
Children
za@@
recognize
constructed
intends
ici@@
ght@@
fällig
Versorgung
vi
в
reis@@
Bereits
Dingen
rechtlich
honour
Bir@@
projec@@
Lux@@
betrieb
gültig
geographical
choices
highlighted
fing
vis
integrate
Appartements
Personen@@
boost
ı@@
Berge
Explorer
Lastly
rum@@
Professional
Further
marine
ão
Verkehr@@
Bedürfnissen
resulted
bility
pick
operator
GE
Kopenhagen
erstaun@@
stoßen
construc@@
succeeded
rable
engage
oring
ily
74
polis
sichtlich
bewahren
iges
Tonnen
angenehm
untersuchen
ländliche
eld
außen
essentially
ases
producer
EV@@
aktuell
Religion
pas
Patent@@
Direkt@@
wartet
strictly
hidden
referring
consequence
91
free@@
Islam@@
entscheidenden
gradually
Innovationen
Fluss
dres@@
vention
coherent
Mart@@
checked
Bol@@
г@@
tile
boats
prin@@
knapp
urlaub
Gem@@
Audi@@
hierzu
errichtet
Sobald
Leit@@
kümmern
realer
Bom@@
Av@@
ua
SAP
konkret
350
Sierra
bi
wertung
dauer
Eur@@
zy
classical
champ@@
Parti@@
Recht@@
kontrolli@@
manual
Mass@@
tö@@
widespread
hou@@
500@@
CL@@
gehörigen
--@@
IV@@
radik@@
vorgestellt
Augenblick
Nikon
Stamm@@
reporting
Saddam
Sonntag
Eng@@
Ägypten
я@@
losigkeit
beinhalten
affects
narrow
than@@
entsp@@
4-star
explanation
incorporated
restri@@
ologisch
berechnet
müsste
auffordern
bü@@
Hinweise
Lesen
passing
verse
vos
Hum@@
bay
sitzen
denjenigen
tant
Kle@@
Häuser
Regulierung
finanzieren
Imp@@
lian
pflich@@
Hän@@
taining
Differ@@
Tauch@@
überlassen
Senkung
ament
Sup@@
troops
aviation
zel@@
Dialogs
81
Ty@@
Drittel
eless
Common
Nokia
schw@@
Staats-
spezialisiert
favourable
Car
lla
praktischen
grünen
maxim@@
forth
atom@@
colors
revenue
produkten
Fläche
gefähr@@
ington
rot@@
teachers
prote@@
Intern@@
angeb@@
Schreiben
erklärte
human@@
fot@@
Zusammenhalt
Besuchen
gross
hop
klasse
tnissen
Small
Vie@@
Ausbildungs@@
snow
Stock@@
kämp@@
gekennzeichnet
var
dation
gastronom@@
Warcraft
soil
Asi@@
ausgewählt
wechseln
Hindernisse
stories
Govern@@
sement
alcohol
victory
contrac@@
EE@@
wu@@
kolle@@
agents
airports
anne
Porto
Anmeldung
projekt
Nachhaltigkeit
befasst
beer
freund@@
vergleich@@
Käufer
ray
UNESCO
bungen
Vertretern
fted
diff@@
manu@@
geschickt
Höchst@@
Ansprüche
Mechanismus
girls
Hard@@
grund@@
bett
constitu@@
Al
Module
ehmer
cas
Premierminister
Eth@@
renoviert
Studi@@
Beachtung
weak@@
exact
stick
ements
Sicherheitspolitik
considers
¼
Rech@@
llen
Todesstrafe
outs
feh@@
fes
Jugendlichen
sent@@
repair
anwen@@
participating
Macht@@
Pflanzen
ached
wes@@
Mandat
ault
kra@@
Ergebnissen
Pacific
Department
Line
lica
See@@
Erst@@
Urteil
verfahrens
beschrän@@
Danish
encouraged
GR@@
akte
verkehr@@
Cooperation
surprised
lit@@
amp
olive
ires
Übertragung
Brun@@
Ay@@
mouse
stechnik
weltweite
gelangt
sexu@@
atur@@
Glauben
programmen
prosec@@
hole
betrieb@@
Widerstand
gehandelt
geführte
capabilities
stayed
AP
Todes@@
domin@@
CR@@
älteren
diesbezüglich
teen
willingness
Fron@@
specialized
gänge
wesentlicher
keys
west@@
müssten
versammlung
attend
cer
eventuell
beeinflussen
Truppen
chinesische
observed
Poker@@
porting
organiz@@
contextual
übersch@@
ve-@@
Investment
Wirksamkeit
Nor
Constitutional
Helsinki
achievement
hills
aktu@@
Team@@
günstige
Vice-President
world-@@
Airlines
sied@@
25.
Entfernung
märkten
prison
compar@@
Ersatz@@
vable
clock
broken
ost@@
Symbol
gefährdet
utmost
DER
sidenten
Apart
Authority
rank
Marken@@
propor@@
Journalisten
mäßige
tut@@
Chile
Scho@@
Jer@@
bringung
begrün@@
prisoners
Anim@@
europäisches
Aktien@@
hungen
setzte
Finnland
seeks
booked
wander@@
festzustellen
zweifel@@
Civil
Betreuung
tigkeiten
Urlaubs@@
funktion
gewählten
vent
Oliven@@
verletzt
regulated
conferences
geblieben
Erlebnis
fiziert
Mexiko
Eff@@
insist
Louis
Versammlung
know-how
promises
Direc@@
ever@@
thri@@
ober@@
chter@@
wooden
Gewal@@
Datum
opens
bild@@
clarify
preserve
A.@@
Holz
sterben
endet
enne
wonder@@
Netzwerk@@
accidents
crises
roof
IK@@
Plug@@
Weil
oftmals
dest
shore
Ner@@
liger
composition
developers
Inflation
Sound@@
armen
scheduled
arm
associations
Terms
Fehl@@
Cle@@
wahr
akes
ood
Präsenz
87
sequ@@
UR
jedenfalls
neun
angewandt
Nam@@
benutz@@
professionelle
correc@@
spät
abend
ples
Ly@@
moderni@@
Är@@
sauber@@
esc@@
omp@@
Billi@@
BS@@
Visi@@
Fur@@
theore@@
ärer
momentan
illegale
Arab@@
ices
Vic@@
Dokumentation
Einen
Finde
alongside
Seg@@
theatre
porte@@
By@@
Mädchen
convention
roll
Räume
geregelt
kehren
percentage
iring
Jerusalem
organis@@
ý
Franc@@
indoor
alitäten
Strände
by-@@
homo@@
variable
क@@
permission
Portal
xis
soeben
Access
bru@@
frequ@@
Fire@@
reise
daten@@
längst
Kohäsionspolitik
2015
Schu@@
infolge
ergänzen
stätigkeit
Gemeinschaften
crew
quotas
Dresden
Wohnzimmer
evident
Travel
edited
HD@@
HD
Tabak@@
schwierige
purely
dist@@
catch
olo
hopes
recogn@@
bewer@@
harmful
mentation
bun@@
Ken@@
studi@@
convergence
airlines
geliefert
regelung
Ky@@
Rock
wirkliche
IM
navigation
Modernisierung
nehmer
stung
ansehen
verwal@@
oli
&apos;m
6,@@
schwere
Ratschlag
QU@@
Cock@@
festlegen
contradi@@
palästinensischen
Verwirklichung
wur@@
finanzi@@
Frauen@@
Aufzug
Samstag
Vorstellungen
Stell@@
clim@@
Lü@@
dire@@
branche
anzunehmen
Spitze
charakter@@
seemed
Haar@@
gon
Basel
gesetz
Regional@@
dispute
eries
Kie@@
Speicher@@
incentives
Lis@@
discount
hinweg
Vertrag@@
uring
Zuge
Versicherungs@@
regierung
Jedoch
stake
charm
ept
bewerten
loading
vierte
compulsory
calm
Andalu@@
B5-0@@
Wild@@
Florence
Ticket
Spezialitäten
acks
ě@@
Energieeffizienz
199@@
ential
ENT
agne
DV@@
string
clicking
wäl@@
Doppelzimmer
läu@@
alisierte
Wirtschaftspolitik
ned
objec@@
implications
communicate
layout
umin@@
aufzubauen
radical
accounting
suff@@
Muslim
Rin@@
chron@@
kräf@@
humanitären
ansprechen
20th
jk
denkt
Betriebe
relationships
Operation
chtigkeit
Übrigen
governing
encies
Cuba
onal
netz
hur@@
minor
kle@@
Verzeichnis
sektors
ultimate
superb
tious
ao
Burma
fan
adventure
Schulden@@
Errichtung
expand
hervorragend
Weiterentwicklung
organise
distur@@
cky
geschlossenen
Chairman
Riviera
plug@@
entliche
elli
arts
HU
ünd@@
istisch
hinzu
BM@@
expense
array
Feu@@
wächst
transfers
12.00
Product
pilot
enjoys
öl
Bildern
bearing
ened
Michel
Jesus
thaus
Treaties
decre@@
forming
power@@
hä@@
Stiftung
unch
Typ
afrikanischen
verringert
Fei@@
arians
Unterkünfte
initially
meaningfully
ex
stam@@
Milch@@
offenbar
Philosophie
ehemalige
mische
sien
tigungs@@
Verbrau@@
itation
Leipzig
ali
strukturen
Jon@@
believed
medieval
multilateral
tains
Nigeria
.net
Amts@@
Argumente
Viel@@
bahn@@
Search
Außen-
wife
Gay
Software-@@
enger
dunk@@
approaches
Herr@@
Hit@@
krimin@@
м
Traditionen
staying
Edinburgh
zahlungen
Flughäfen
Volkswirtschaften
closure
tagen
Zwar
enthalt
statten
bek@@
Bücher
83
lement
stag
entfernen
versteht
dateien
italienische
stische
manchen
Zypern
iness
technique
gast@@
Rand@@
Joint
nei@@
Werden
äumen
richti@@
Auflösung
Schwellen@@
maybe
Connec@@
IP-@@
Listings
stry
tliches
Werten
Schüler
Verteidigungs@@
berühmte
smooth
Wohnungen
Account
Three
ry@@
Die@@
Inn@@
digitale
enforcement
sively
Jac@@
volles
Bö@@
tags
Engineering
kür@@
magn@@
wind@@
busy
Meg@@
Umweltfragen
Wähler
remarkable
studied
poker
erh@@
Grundlagen
sprechend
digungen
Sektors
Arbeitnehmern
describe
retain
Syria
Jewish
Armen@@
Big
Ausarbeitung
shortly
CEO
woo@@
ücken
mern
Akteure
eland
Hen@@
Schei@@
mel
MP3
addressing
Az@@
Annehmlichkeiten
Objekte
fair@@
entieren
kontextuellen
concentration
Adri@@
Nich@@
Fundamental
mehrfach
Wissenschaftler
entdeckst
employed
Firefox
Vermittlungs@@
Human@@
Safe
arium
SQL
Samsung
permit
eliminate
alists
elev@@
chi
Pak@@
entstand
audience
bought
Valencia
Salz@@
Krieges
endor@@
Read
Peti@@
garanti@@
Glei@@
überzeu@@
verwendeten
saf@@
blan@@
Nord
Kit@@
lio
Wiederaufbau
Fahrer
Danach
Orten
alter@@
repeated
Performance
geograph@@
poorest
portra@@
Jean-@@
grammatically
gäste
kostenlose
schemes
instru@@
ingredients
1.5
zo
Fabri@@
contextually
eingebracht
selec@@
1988
Filme
netz@@
partic@@
Arena
geniessen
hinzufugen
amended
assigned
mon
NE@@
Free@@
enormen
qui
Work@@
sozi@@
alisi@@
Allah
Ehr@@
kontextuell
negotiation
buses
tender
chts@@
erteilt
grammatisch
180
exposed
appe@@
collabor@@
ж@@
Einer
exec@@
Make
Deutschlands
verw@@
Verbraucherschutz
Tieren
constitutes
gy@@
medicines
Jung@@
Gesetzes@@
dial
ados
verhältnis
eur
ype
Bla@@
Himmel
chairman
flat@@
Full
vorzunehmen
Schlusselwort
Schlusselphrase
cop@@
Cir@@
ć
tags@@
verbindung
gesellschaftlichen
nutzt
aufgezahlt
odi@@
Hardware
beseitigen
contra@@
tali@@
Internetzugang
lish
chairs
fehlen
nehme
Appartement
Entwickler
vorliegen
iss@@
Sieg
ship@@
maximal
beu@@
werks
quellen
Ausbau
anwenden
Ech@@
ausüben
caf@@
füllt
H-@@
campaigns
geschäft
hinaus@@
extending
prize
ank
certified
Dänemark
ized
desto
Nehmen
neo@@
gab@@
berger
Aussage
Strah@@
stätten
aufbauen
chapter
Frequ@@
Palma
rö@@
arranged
ausser@@
gering@@
interne
hinzu@@
vorgelegten
translated
Zwischen
Gibt
poll@@
milit@@
cted
reagiert
managers
evol@@
legitimacy
pop@@
Wit@@
Maj@@
Serbien
Denken
dor
terror@@
stur@@
Kommun@@
Go
verl@@
verständlich
Lernen
planen
no-@@
fizieren
beantwortet
überwachen
financed
Kh@@
beln
appro@@
dumping
aking
newsletter
ändert
trained
sad
änder
ope
Wasch@@
shor@@
Pir@@
Together
boasts
Km
bedürf@@
ück@@
Ausweitung
asset
drin@@
til
halt@@
appointment
diving
Wall
Web-@@
grund
ierungen
Russlands
professionellen
110
TE@@
Max
glie@@
Sem@@
ruhige
Übergang
ratification
CA
Zeu@@
städ@@
wissen@@
Plenar@@
desirable
Subject
lass
gemeinsames
fewer
Il@@
Metro
Katalog
gebühr@@
Mängel
neighbours
completion
residential
folder
südlichen
eingeleitet
ede
stens
ech@@
Times
gesucht
eien
baus
umgehen
künst@@
Sowohl
PAR@@
Moder@@
paths
tu
Abfall@@
NICHT
loaded
Start@@
weilen
Vordergrund
height
sizes
autom@@
31.
advis@@
ownership
Burg
ungst@@
bevölkerung
Universitäten
prohi@@
Wand@@
hotel@@
günstigen
teuer
communic@@
Transfer
Satz
bearbeiten
Vorsitzenden
Gruppen@@
gewidmet
urgency
frequency
new@@
sorry
preferred
Program@@
electrical
ji@@
Modul
anen
beach@@
suche
gewöhnlich
suggests
Moscow
BA
Ruf
IWF
Erwachsene
examination
fresh@@
Bak@@
Wednesday
Lor@@
Slovakia
Haf@@
Beru@@
alisten
Green@@
lock@@
hochwertigen
definieren
Besitz
kräften
Cit@@
verstehe
tness
Main@@
gels
hinzugefügt
segment
Real@@
becken
zeichnete
gerechte
richtungen
inadequate
moments
bla@@
enjoying
Bestätigung
solved
IX
Empire
ständi@@
innovativen
Bezeichnung
wand
references
logo
Unions@@
deserves
HIV
GA
Stur@@
gerung
Souveränität
empty
collapse
zugs@@
24.
trags@@
satzes
hist@@
wick@@
enhan@@
fascinating
Siemens
Gegner
ped
SP
Einsatz@@
mäßigen
listening
iron
mixed
thumbnail
elegante
östlichen
Erfolge
exemp@@
Series
Bestell@@
gegebenenfalls
landwirtschaftlichen
appar@@
vez
staat@@
Mittelmeer@@
ury
League
Sens@@
iPod
Export@@
nächster
keineswegs
Spaziergang
herstellen
guar@@
whereby
Arch@@
il-@@
Wen@@
Regen@@
eben@@
üblichen
erhoben
ref@@
broad@@
begun
cker@@
Eines
underlying
Hof
bekann@@
Kooperations@@
fire@@
K-@@
Cr@@
Anonymous
betre@@
erkunden
travellers
LAN@@
proz@@
Immobilien
Rechner
Vereinigte
sely
foundations
freier
Genau
Zweiten
tivity
D.
Können
divi@@
full-@@
Rit@@
os@@
Lohn@@
conciliation
pper
Gottes
ologischer
prefer@@
signing
vacc@@
repeatedly
Sab@@
behand@@
besonderes
Niederlande
gestiegen
escape
utt@@
isse
klin@@
achtet
84
Inc
zin@@
steller
secondary
Edi@@
Boot
Insgesamt
zusehen
sional
compete
journalists
erstes
dramatic
occupation
ausgehen
Argument
Intergovernmental
bonds
RS@@
Café
kün@@
unnecessary
Atlan@@
suited
aden@@
gefährlich
ökologischen
Ehre
Employment
ware@@
Blair
vollem
Werkzeug
sozial@@
Besonder@@
Oli@@
hilfreich
herzustellen
pic@@
cken@@
lor@@
reads
Stri@@
html
saal
Existenz
LIN@@
entsch@@
partial
ille
ms@@
300@@
religi@@
Revision
stärksten
parlamentarischen
bud@@
expanded
ador
Wind
hundert
pft
Monte
Klassi@@
ansch@@
berichtet
bigger
evi@@
loses
cancellation
ME
PM
welle
ktiv@@
Verkaufs@@
considerations
130
cookies
zent@@
würdigen
Anbetracht
Patri@@
kurse
veröffentlichen
angehen
gige
Nichtraucherzimmer
economically
d.@@
offiziell
umfassen
Erzeu@@
commit
kas
sever@@
asp@@
intensiv
ausländischen
observe
Several
ids
Republi@@
Physi@@
gehend
erend
ign
tia
én@@
enheit
Ingenie@@
Ausblick
losing
splendid
Cop@@
erleb@@
hence
Ministry
Prozeß
violation
Saint-@@
natur@@
Sekunden
Glück@@
effizienter
1986
comparable
Effekt
zahlt
größter
gebene
Fisheries
TA
Quell@@
Fassung
Kommentare
bug
forwar@@
Modus
instrumente
höchst
cope
ы@@
gesetzten
verbreitet
OLAF
mass@@
kit@@
principal
tax@@
Nizza
beteiligten
enting
vary
euer
gegenüber@@
konsequent
Internal
Aktu@@
erwiesen
pec@@
Montenegro
Publikum
funden
Ablauf
löschen
Entschlossenheit
characteristic
Ran@@
Konvent
timetable
Kau@@
sport@@
instantly
schwedischen
Anmerkungen
thorough
baby
Swi@@
Düsseldorf
Sun
elektronische
coastal
Prof.
ehm@@
maj@@
vorsch@@
enburg
Gas
Leben@@
representing
incorpor@@
Kopf@@
auswählen
liz@@
gemütliche
Demokraten
false
lively
Stan@@
zusetzen
genuinely
regionen
withdraw
designer
ahnen
examined
sessions
Migration
Nation
Over@@
Corporation
Antri@@
berich@@
prozeß
Chief
reibungen
debating
Lom@@
Cl@@
Edel@@
günstig
Gebühren
generell
Kompetenzen
angle
tat
carte
Filter
existieren
erheben
band@@
Gaz@@
lans
τ@@
paket
gefühl
Verbrauchern
thro@@
smart
stein@@
Arti@@
KDE
bon
Woh@@
Quark
gelegene
Erreichung
gift
informal
fat@@
lette
diver@@
optional
nov@@
textile
Schau@@
ción
purchased
anten@@
Rechnungs@@
Original@@
Entwick@@
Lot@@
Know-how
Marco
möglichkeit
genau@@
Aspekten
bürokrati@@
tätigen
Patten
mung
betriebe
ad-@@
g.
Hör@@
Bekann@@
integrierte
bedroht
thei@@
seiten
izing
Prag
standes
openness
Level
Modern
Tun@@
Bay@@
schriftliche
grenzüberschreitenden
ago@@
slopes
blick
Pflanzen@@
Ausrüstung
loans
Alps
widmen
häl@@
vertraut
high@@
speeches
Coun@@
fare
featuring
autumn
delete
Event
по@@
Ratifizierung
blind
sample
LAN
seln
Heimat
Vermögens@@
hard@@
Bestellungen
eding
intentions
falling
foremost
tolerance
turns
linge
over-@@
schar@@
kter
Palette
Lehrer
ly-@@
Sachver@@
soul
exist@@
perform@@
TV@@
Storage
schung
kleinere
gewicht
adult
apparent
Bü@@
bewus@@
beispiel@@
quest
civili@@
spectrum
Bevor
Stahl@@
pay@@
Chin@@
Inv@@
bruch
Updates
dacht
bewußt
gestatten
ghter
olle
Tickets
alternatives
geous
Solar@@
tigte
Rennen
hohes
situ@@
fft
sichert
Risiko@@
affili@@
schwi@@
Ima@@
früh
Wett@@
horse
1945
dition
Clubs
wehr@@
arabischen
fell
papers
exten@@
accessories
genauer
kostenlosen
Autor
subsequently
simultaneously
vac@@
wel
ktiv
weichen
hafter
bewegt
Source
Ideal
Venedig
strike
Brücke
erfol@@
zeigte
ris
ideally
allo
rated
ethical
Sz@@
Ashton
desktop
moreover
pol
destinations
sunny
Behörde
accuracy
complaints
Laden
förderung
arily
codecision
W-@@
Abteilung
wai@@
History
Morocco
ket
Spor@@
erwerben
beibehalten
viewed
dend
lights
Super
manufactured
Keine
langem
ähnlichen
afford
ffs
destroy
affordable
überrascht
teilungen
verla@@
Vorrang
Greens
branch
finanzierung
logic
onic
atri@@
posts
Rü@@
nich@@
agen
respects
calendar
Val
erie
22.
Australien
Konvention
counts
BER@@
Schad@@
tiere
Steigerung
Weine
vertrau@@
Statistiken
smoking
expenses
Dur@@
Gemeinden
maßen
Slowakei
viewing
Press
vermittelt
terrible
devoted
mechanical
ér@@
EW@@
hielt
zugeben
Soldaten
Durchsetzung
bits
Uns
umgehend
falsche
Festplatte
getreten
measurement
URL
artige
öffentlicher
earn
hang
DS
7,@@
Weiß@@
unterschiedlicher
alls
Klarheit
position@@
sitz@@
ckets
key@@
excursions
spots
emo@@
WTO-@@
Schil@@
gü@@
solch
Wichtigkeit
Run@@
Automati@@
üh@@
на@@
Betrieb@@
arrangement
ior
num@@
derart
chemische
celeb@@
Arts
α@@
і@@
Häfen
guaranteeing
cost-@@
Ausrichtung
zero
shing
accordingly
der-@@
Ursache
Schicksal
venture
Jahr@@
funktionier@@
fahrzeuge
funktionen
here@@
Für@@
erkennt
Kenntnisse
zweitens
survey
drop@@
grand
Schulz
79
Haiti
Village
Kein
stechn@@
attra@@
erteilen
behauptet
zweiter
clarity
ea
fter
som@@
ña
gon@@
Caf@@
Maß@@
wachsende
importantly
Youth
elem@@
ा@@
vocational
xel
Dynamik
bewegung
gebenen
Garantien
verurteilen
sid@@
Otherwise
Formul@@
Growth
tips
nä@@
Palestinians
condemn
1987
bak@@
aben
composed
tribute
acceler@@
gues
1985
Gö@@
LT
icht
anzuwenden
authors
Lager
hochwer@@
Werkzeuge
Vorgehensweise
prob@@
continuously
plate
custom
Reser@@
atik
schwan@@
äden
flexibel
geringen
answered
Section
mur@@
motorway
histor@@
Sports
Export
dal@@
Library
Ach@@
jährlichen
inspection
ph
Audio
Apart@@
Seele
schalten
kombiniert
spanische
relief
Volkspartei
ichten
reibungs@@
verbreit@@
Plätze
jointly
tragedy
residents
Nordic
preserved
frü@@
geren
Lap@@
dien@@
Wie@@
forgotten
transaction
inclusive
Tak@@
FI
Program
ij@@
ancy
Schle@@
Herkunfts@@
Mittelmeer
hell
refused
revised
alled
angebote
herrsch@@
ke-@@
centers
nahme@@
tragic
Dep@@
terminal
aktualisiert
lüsse
maß@@
Gü@@
Kommissionspräsident
gebäude
zierten
Hände
üsse
mäß@@
violent
Solana
Distribution
Spre@@
Fleisch
Lateinamerika
bewertet
komplexe
Bud@@
Bergen
e-
verursachen
äder
Immer
dieren
afraid
sender
gerich@@
Ferienwohnungen
Fortsetzung
beabsichtigt
oppose
scar@@
v.
Menschheit
fifth
pain
noon
mand@@
Mir@@
buying
Versand@@
beweisen
vertritt
wirklichen
ool
urg@@
Felder
Diesen
rene@@
Partnership
William
GO
SDL
Strom
gehörige
taus@@
anzupassen
Entwicklungshilfe
entran@@
FC
Garten@@
lassung
veran@@
blicken
Betreiber
umfangreichen
jun@@
broader
stopped
certification
-und
Zuverlässigkeit
inneren
Versprechen
margin@@
Bun@@
onia
iles
width
behavior
Weltkrieg
befürworten
instruc@@
jurisdiction
orientation
CO
Mobil@@
ен@@
herausge@@
Tief@@
gemütlichen
ava
Brü@@
ausgestattete
Ereignis
ax@@
ð@@
erheblichen
Inhalten
Wünschen
argue
biom@@
Kürze
terin
erarbeitet
Rub@@
Schreib@@
Aussagen
doubts
ceiling
ep
onds
Verwal@@
eure
fünf@@
Water
Francisco
Halle
alistischen
Zimmerbeschreibung
deadline
fix@@
arbeitungs@@
consum@@
deci@@
GAP
assurance
symboli@@
promoted
gradu@@
potenti@@
ktor@@
Service@@
Reinigung
fragt
überra@@
technisch
äuß@@
eriert
Weiterhin
Copyright
gan
traum@@
änge
aush@@
Kredi@@
igungen
External
Docum@@
komplexen
könne
Heads
Ry@@
ku
Tech
begegnen
oli@@
SK
relaxed
vie@@
niedrigen
Offenheit
Alternativen
Einzelheiten
commerce
typisch
stattgefunden
treas@@
Jean
Gui@@
gingen
Kennzeichnung
E-Mail-Adresse
Haushalts
nobody
23.
Betrach@@
finds
Southern
gepf@@
Problematik
depth
Ass@@
brands
zentraler
fertigung
harmonisi@@
insul@@
swi@@
Stau@@
stet
honest
xe
Comple@@
sculp@@
Jag@@
¶
öse
Mischung
zustande
geehrte
calcul@@
add@@
ensu@@
tower
ни@@
engen
Seiten@@
präzise
publish
affecting
chat
kit
derungen
arri@@
yers
po
Sex@@
formular
KG
ständiger
grenze
schutzes
respektieren
perpet@@
arbeiteten
specially
focuses
von@@
terrasse
Gesicht
klären
sake
t.@@
nötigen
angekündigt
Südo@@
Lieferanten
Zucker@@
strebt
viable
tropical
vere
deutliche
fortsetzen
focusing
short-term
enor@@
fam@@
ample
holder
Samm@@
Betracht
uneingeschränkt
auswirken
Avi@@
Hans
ester@@
ре@@
NEW
kunde
Rechn@@
erleichtert
innere
schnitt
Nachdruck
aled
stering
dog
conversion
hem@@
schn@@
Bauern@@
verpflich@@
belongs
Kul@@
davor
eleganten
electoral
Commerce
Dokument@@
Beschränkungen
regionaler
Labour
Jan
Bewusstsein
fungen
Netze
vals
Distri@@
tradition@@
General@@
EG-@@
Wissen@@
Finnish
modify
signals
removal
California
SL
gebung
pensions
knew
exhi@@
quantity
nel
Besu@@
attended
renewed
standardi@@
gemessen
terung
healthcare
Zurich
gestartet
nern
tone
mir@@
arrange
Glob@@
Olymp@@
tung@@
medizinische
spüren
rufe
jüngste
valu@@
ander
wheel
sul@@
einiges
sogenannte
vertrauen
essing
up-to-date
Schö@@
russische
visits
s-
stige
Phil@@
lining
stren@@
éri@@
derselben
vorliegt
dimensions
tempor@@
Wich@@
vermutlich
dian
Gebir@@
gerungen
wirft
Zeitplan
refuse
univers@@
hood
teln
dien
stands@@
Verheugen
cir@@
Monte@@
ausführ@@
recall
publishing
stressed
fin
ystem
Szen@@
issen
erische
ennen
chose
rub@@
Minister@@
Fans
Gute
küste
tigten
Bauern
prospect
integrity
cameras
hn@@
‚
Zielsetzungen
schedule
installations
progressive
kurzer
österreichischen
endgültige
rev@@
wise
Ander@@
Speci@@
pack
stops
cio
automotive
Ministerpräsident
alise
transitional
fts
edy
convert
elen
Eröffnung
übt
sibility
Sto@@
Empfang
Wahrung
gieren
advise
judge
closing
organize
Original
Ford
yo
Contact
wunderschöne
aching
Net
winner
faire
Berlin@@
Baum@@
faszini@@
empfängt
realisiert
whatsoever
missed
expressly
privileged
provo@@
Minderheit
Million
ruppe
Übersicht
getrennt
basically
stil
30-@@
monuments
nie@@
evalu@@
FR@@
redu@@
Block@@
declare
pair
Hä@@
afri@@
baut
Derzeit
angenehme
Südafrika
Protokolls
miß@@
deserve
adjustment
officially
researchers
Übernahme
painting
bag
Schnell@@
Past@@
politiken
mini
institution@@
iet
Kün@@
zimmern
Wäh@@
catalogue
environmentally
ful@@
whe@@
lei
Heimat@@
leistet
Ausnahmen
fairen
tatsächlichen
plane
tie
Galileo
Ski
Beglei@@
verbindungen
erweisen
Sing@@
enes
Hafen@@
Freizeit@@
schir@@
Cin@@
lebenden
Lebensmittelsicherheit
gau
bird
typically
å
GPS
moderner
verwiesen
rela@@
Massage
Funktion@@
Гј@@
ground@@
Schmi@@
od
Nachmittag
Schie@@
nicht-@@
Betrifft
ranging
1970
presidential
Cast@@
Gy@@
icht@@
Meister@@
Georgien
GM@@
herum
Alters@@
posted
Alban@@
unterbrochen
hing
Representative
drives
Č@@
erwähnten
delays
certificate
less@@
trains
Tarifa
Syrien
wol@@
fit@@
Ms
authorized
erforderliche
Kohlen@@
Produktivität
ution
credible
occupied
rational
SS
exhibitions
Order
cles
freu@@
ION@@
Cologne
Brau@@
Olympic
erstreckt
trenn@@
anerkennen
Erarbeitung
drängen
EIB
passion
neighbourhood
Bevölkerungs@@
geringer
begründet
soldiers
technischer
dienstleistungen
uncertainty
symp@@
genießt
fa
Jahre@@
Händen
verzichten
Taten
formuliert
observation
bili@@
promising
GUE
Game
stö@@
kompliziert
at-@@
tica
Kreuz@@
ierungs@@
populations
dity
Ce@@
lossen
Großen
Chancengleichheit
interven@@
arrest
isierung
verz@@
gerechnet
brauch
Landwirtschafts@@
mines
feder@@
kö@@
einst
Verfahrens@@
komfortablen
newspaper
whenever
tion-@@
olen
Illu@@
kunden@@
anpassen
dring@@
May@@
movies
Automobil@@
interessanten
zugestimmt
absurd
holi@@
Imm@@
bezeichnen
Laut
sisch
begünsti@@
Provi@@
red@@
Wat@@
promenade
verstän@@
geeigneten
vorsieht
bedro@@
duration
Zerstörung
Drogen
mechanismen
ignore
pattern
precision
Fischler
ops
gla@@
yang
lion
sovereign
mig@@
gn
freight
icon
religiösen
verabschieden
tension
ateg@@
actor
Engli@@
Augen@@
gebühren
ursprüngliche
beneficial
achievements
virtu@@
zurzeit
Herkunft
chers
Bureau
Yo@@
felder
innen@@
Ref
proximity
tariat
Milan
ehe
klimati@@
kriterien
beef
emerged
ро@@
liter@@
frequent
Force
Select
musikali@@
alisierungs@@
ausländische
vereint
neutral
zip
Ann@@
sandy
lös@@
surveillance
Inclu@@
gelernt
mmen
Kurz
Rückgang
releases
Tradi@@
Clar@@
Bit@@
leichte
aufnahme
liegende
übermitteln
Abbau
erarbeiten
aks
trouble
patri@@
Fang@@
tigh@@
Everything
Set@@
Bürokratie
duplic@@
Solutions
Language
explicitly
unusual
IBM
nem
Digital@@
Aufhebung
ratio
Prize
bles
dress
weit@@
herrschen
emphasi@@
W.
schenken
Gewinn
sailing
cross-@@
Defence
lac@@
IA@@
ento
arbeiter
habt
öffnet
ökonomische
feedback
literature
archive
Co
SU@@
ür
Fisch
eröffnen
Privatsphäre
employers
ingu@@
ller
throw
precious
hire
planung
gewünschte
abgesehen
Until
persi@@
sensor
Index
Tari@@
Berei@@
erien
handels@@
ц@@
dieselben
machinery
err@@
hört
beinahe
tausend
verarbeitet
Zunahme
prestigious
suspended
Nation@@
fitted
diagno@@
här@@
Schrift@@
plätzen
sicherer
tels
Radi@@
institute
nur@@
book@@
vir@@
Fremden@@
gehabt
prinzip
Mittwoch
wahre
Nichtraucherzonen
parameter
Lun@@
abe
Wellness@@
knü@@
marktes
Verfahrens
streben
distinction
pil@@
haus@@
Minibar
Zus@@
Liberalen
fuhren
140
cancelled
zierte
bestände
gehe
anforderungen
granting
marking
logistics
ony@@
ecks
decor@@
krieg
meldung
facilit@@
Presse@@
entlich
Beijing
Audio@@
GP
identification
retail
tner
läge
Wiederherstellung
tech
400@@
Ltd
medizinischen
kritischen
obligator@@
kohär@@
Verordnungen
flying
Ros@@
Photo@@
zeichneten
läufe
Tabelle
Amerikas
Klimawandels
Terroristen
compla@@
bac@@
concerts
Gut
drückt
verschaffen
angenommenen
maps
esta
Sav@@
Det@@
Strasse
zugelassen
kredi@@
taxpayers
xed
postal
premium
toilet
umso
mechanismus
bab@@
dieselbe
chemicals
Experim@@
interactive
deu@@
Gewi@@
eigentliche
connec@@
Fli@@
verarbeitung
dahin
debated
1,5
vermieden
eted
Tampere
deficits
Klin@@
schätz@@
glichkeit
preparations
EURO@@
sized
Mar
relevanten
spektakul@@
orientierte
blieb
announce
methode
Kreu@@
gebau@@
Anreize
Sac@@
Argentina
fahrts@@
Sri
ruling
certainty
territories
plant@@
But@@
Theorie
Händler
Erhalt
Wettbewerbs
utes
Proz@@
feste
ssig
prevented
negotiated
ENT@@
eindeutige
äum@@
Fahrzeug
verteilung
Umstände
gemeinsamer
mist@@
undertake
gression
Roth@@
Quad@@
Doha
nete
Zahn@@
höchster
eting
recession
subscribe
geringe
dasselbe
tauchen
Formulierung
Presidents
reflection
Third
cus
academic
Bridge
Att@@
tisches
integrieren
Finanzen
Tower
revealed
Dri@@
alty
landschaft
berührt
industriellen
gne
kampf
Charme
besser@@
schein@@
Kämp@@
indicators
Strategi@@
favourite
europa
Funktionalität
behandlung
zeichnung
alike
rac@@
realize
Governance
aufgeführt
Begründung
etabli@@
kleineren
consistently
accum@@
Experience
Kapazität
heated
returns
publications
zzo
ien@@
9001
Köln
theater
esten
retten
befürwortet
rever@@
threatened
unde
Bett
tigem
ratified
agen@@
zones
HP
Origin@@
`@@
menge
heutzutage
mistakes
tas
die@@
Non-Smoking
Schaden@@
stützt
verzer@@
secondly
comprises
ession@@
tial
Mode
zwischen@@
Einnahmen
admit
Rural
the-@@
iner@@
zione
Fremd@@
gnisse
Angabe
Richter
ophi@@
elegan@@
26.
Binnen@@
entation
Schuld
problemlos
untern@@
hesitate
29.
berat@@
bedauerlich
deaths
Scotland
esa
necessity
VI
Rab@@
Kel@@
einstellen
Wälder
purchasing
ility
bahnen
zwölf
generous
civilian
statisti@@
Lul@@
TM
lten
kä@@
ht@@
lovers
à@@
gegenseitigen
PPE-DE
flexi@@
Country
innovations
3rd
Verabschiedung
glaubt
insufficient
Lar@@
Fast
Trend
jahre@@
imported
ax
Glas
UNG
displays
mün@@
zweck@@
lusses
Consi@@
rey
Bahn
Brow@@
licht@@
patterns
Nav@@
Well@@
rung
trop@@
Mot@@
fün@@
aufgestellt
Phot@@
stücke
Ausgrenzung
eve
cali@@
gos
XML
inci@@
replacement
lighting
eled
ë@@
En
chtigen
änderungen
führungs@@
m.
pak@@
ml
Anbindung
Versuche
architectural
downloaded
bene
abgeben
Meinungen
tioned
para@@
photographs
hunder@@
Leiter
späteren
enced
thanking
beschäf@@
telecommunications
catering
black@@
s.com
geräum@@
Stufe
rischen
Objekt
Menschenrechtsverletzungen
Mobili@@
esi@@
Präsentation
datei
beruflichen
konfigu@@
profit@@
acquisition
eth
ktiver
durchzusetzen
Peri@@
split
stim@@
elf
frau@@
evaluate
1979
kehr
bisschen
unknown
negotiate
sub-@@
Reich
wärts
Vertrieb
Rechnungshof
Ful@@
Sant
Dok@@
konzep@@
Ausgangs@@
Handlungen
Karl
Designer
wünscht
Jugendliche
Abgeordneter
Dou@@
Holland
kreis
passieren
Logik
Themen@@
entlichen
senior
spare
protest
geld
Bürgerbeauftragten
moves
Lissabon-Strategie
snow@@
airline
Daniel
boxes
bou@@
Konzern@@
Verfolgung
transit
fails
defen@@
occurs
Gallery
Dun@@
ika
Bühne
dün@@
Kontra@@
mail@@
Wald
schönes
basieren
erlangen
guard
DN@@
Mob@@
Kön@@
empfiehlt
konkur@@
spielte
rank@@
weis@@
machten
beruhen
indicates
greenhouse
station@@
tages
magic
performing
sheets
Fak@@
bezogen
Anzeige
2.5
lowing
wars
verage
PER@@
ehrlich
zunehmende
Weltwirtschaft
claimed
tus
Innov@@
gratis
terungen
justify
ature
nos
Demokrati@@
favorite
Satelliten@@
harbour
fahrten
alistische
28.
ears
dollars
Fall@@
Produktion@@
präsen@@
wertvolle
editor
Energiever@@
Fakten
Anträge
Raums
bureaucracy
scre@@
argum@@
lem
Summe
alp@@
PE
erlassen
herunter@@
Schnittstelle
Funktionieren
Excellent
Türen
Wetter
nachzu@@
schlechte
platten
admi@@
Van@@
boden
Aufenthalts@@
placing
notably
top-@@
maximale
I.
robust
patents
alien
J.
wies
gerechtfertigt
Bewohner
lassungen
Ausbeutung
farms
creature
fik@@
polnischen
gelegte
demonstrates
comb@@
doppelt
Linien
atively
Democratic
brut@@
fiel
sofa
sonstige
authorised
mandatory
Route
kostenfrei
quelle
Belastung
Zusammensetzung
endgültigen
umb@@
thir@@
tle
Bonn
veni@@
schreibt
belieb@@
see@@
harm
SY@@
notified
Histor@@
Hussein
angebotenen
Versorgungs@@
Jav@@
supplementary
cooking
grü@@
veranstal@@
gebunden
mittlere
DR
tise
initiated
slowly
worrying
pays
gewinnt
Kuba
borne
dual
Register
BS
A4-0@@
Getränke
EIN@@
Gewinne
steuer
heavily
aul@@
deutsch@@
downtown
einführen
leidet
Außenminister
lichste
Conditions
beschreibt
englischen
Spannungen
unterscheidet
Fremdenverkehr
solven@@
one@@
18th
allocation
Tam@@
Referendum
sto
humanity
invo@@
goo@@
atten
wski
drucken
Erzeugung
timely
Peace
dges
fications
rage
mers
zehn@@
jeglicher
halten@@
Istanbul
rist@@
Metro@@
tec
amente
einzig
ues
care@@
Look
Doma@@
ret@@
Industrial
Intel
Wesen
überwacht
antwor@@
whi@@
measuring
intelligence
clothing
Metall@@
rechn@@
digit@@
schwieriger
geladen
passende
Installations@@
organisierten
condi@@
Install@@
Beste
ausreich@@
ausreichende
Adressen
Ordner
dauern
High-@@
Ot@@
Kn@@
eignen
unions
Alpen
Fußball@@
eingeladen
gründete
normen
citizenship
Georgi@@
iti
qualit@@
Schwarz@@
Heil@@
Osteuropa
terien
Geschäften
effizienten
verliehen
abgegeben
agrees
nationals
voters
Technologies
beeinflusst
specify
etry
Chr@@
Nar@@
Energiequellen
apparently
Olympus
aton
Gan@@
Feuer@@
Wichtig
wherever
pho@@
converted
Invest@@
Intensi@@
brü@@
Risi@@
Beurteilung
caught
potentially
cast@@
anna
oter
ök@@
sq@@
Saal
Rezession
dum
infl@@
Spektrum
geräten
terer
day@@
workshops
9,@@
griffe
sagten
SC
sey
zwanzig
Fünf@@
twin
coal
geplanten
regimes
Muse@@
Handy
inischen
vielsei@@
ablehnen
differenti@@
Lon@@
copies
zi
würdi@@
Fischereipolitik
pling
dominant
Verlängerung
einstimmig
Art.
Left
360
directions
künfte
geachtet
trags
wä@@
Haushalte
expanding
abstra@@
Jacques
nieren
Beratungen
Palästinen@@
bedienen
inated
premises
Dest@@
Insel@@
austausch
question@@
Part
Deposit
gelingen
staatlicher
dargelegt
grat@@
cancel
OECD
alla
israelischen
intervene
pru@@
automation
organisierte
Marokko
tioning
stays
punkten
trei@@
Beamten
govern@@
Mani@@
gang@@
District
Vers@@
gesichert
Fitness@@
Künstler@@
vereinbarten
Ergänzung
investiert
craft
locate
stones
withdrawal
contractual
tranqu@@
Fried@@
r.@@
stret@@
defining
Goo@@
after@@
Visa
Erfol@@
schlech@@
Gärten
aturen
beschleunigen
Menschenrechten
accommodate
Rahmenbedingungen
Proje@@
jour@@
£
ο@@
Studios
externe
eigenem
ärmsten
horizontal
react
settled
Fair@@
ę@@
sech@@
contributing
coordinate
conservation
kran@@
Galerie
aussehen
ösen
zugute
Hung@@
chief
synthe@@
Master@@
Choose
räu@@
betri@@
älter
conventions
Israelis
ESS
Still@@
Ungleich@@
einnehmen
tonnes
Bli@@
gestellte
leitungen
applicant
cut@@
verständnis
unanimously
experiencing
qualifications
Sus@@
onien
Einschränkungen
Gebäuden
structured
tries
sist@@
intense
Spon@@
attrac@@
simul@@
mature
imposing
lux@@
BL@@
Cathedral
Kö@@
betten
proje@@
verstärkte
acci@@
Spri@@
Traum
rahmen
ssa
Mä@@
С@@
berufen
Erwägung
degrees
Eri@@
Which
DP
powered
arom@@
aces
Tö@@
unterwegs
starkes
systematic
Itali@@
Beschwerden
demokratisch
primi@@
tened
platforms
appreciated
pa
Iranian
zur@@
License
gebe
Föderation
те@@
geschafft
Mög@@
Monti
revolution@@
ftung
teu@@
Mengen
erstens
Mann@@
Her
thers
technologischen
exposure
coverage
Similarly
Amp@@
Premi@@
stützen
tons
rix
Diplom@@
mals
bewahrt
Schutzes
Schmer@@
streng
churches
ва@@
zweif@@
Pit@@
flug
vorschläge
dero@@
terrorists
schein
Unternehmer
drinking
emission
authentic
Ron@@
ausgedeh@@
tough
breaking
BE@@
Bell@@
Phänomen
Konferenzen
gebraucht
procurement
Lithuania
Intervention
kei@@
außen@@
franzö@@
27.
benannt
keeps
workshop
Technical
hosts
dnis
versehen
state-of-the-art
Malaysia
stattdessen
fenster
breach
handled
creativity
büro
ausstattung
technologie
benden
inspec@@
controlling
turing
José
Stei@@
iche
t-
Wireless
Class
IR
neten
eigentlichen
Verletzungen
Geben
Aufnahmen
Produzenten
gebnis
Hou@@
ffer
silver
enza
ys@@
Snow@@
Leuten
teilte
nord@@
Secretary
respectively
Termin
probieren
vielfältigen
automatische
Einschätzung
fting
geni@@
CH
agt
Medikamente
Feststellung
Pflichten
Tol@@
ses@@
en.@@
erischen
teilzunehmen
nachhaltig
inakzeptabel
Anwesenheit
silence
headquarters
Terminal
vielfäl@@
igten
vorrangi@@
transformation
biological
operative
laser
approx
Gebühr
Unterhaltung
realen
emerge
Extra@@
watching
racing
ules
erre@@
mini-@@
entries
mien
Fed
Arbeitsgruppe
vorgehen
wahlen
self
ple
zell@@
diger
Prakti@@
Einwanderer
blame
hospital
Alber@@
ingt
grei@@
beliebigen
Verfasser
technologische
minimal
hef@@
arbitrary
lé@@
namen
Feier@@
spätestens
irische
eingeräumt
Madeira
té@@
zah@@
Santer
facto
visitor
ja@@
vergeben
kostengünsti@@
dachte
worry
disputes
urity
unstable
sos
Santiago
CM@@
gische
bereit@@
auseinander@@
Solche
sar@@
Sili@@
Cala
Neues
kommerziellen
competences
handed
adjust
Slovenia
Desktop
proce@@
writer
birds
elderly
illing
vel
jet@@
Lich@@
breit
Betrug
ernsthafte
temperatures
Gali@@
tary
schöner
oberen
Arbeitgeber
half-@@
pet
Beg@@
gesammelt
wör@@
Dritt@@
findings
pursued
warmly
part@@
kids
NRO
Rek@@
Hunder@@
konvention@@
orientierten
lokaler
schränken
überein@@
ressourcen
Steuerzahler
undermine
warming
Info@@
cz@@
orien
kommun@@
eintreten
integral
eas@@
loved
lichkeits@@
Freuen
blin@@
Verts
11@@
Come
rest@@
edit
größe
kontinuierlich
rücken
Friedens
zellen
Innerhalb
Vertretung
consistency
essence
Var@@
Lager@@
auen
rose
fulfilled
motions
cip@@
jemals
Mobiltelef@@
insofern
ambition
etri@@
camps
Pel@@
Darfur
Spy@@
Ferien
alli@@
Venezuela
Work
Fair
wen
ßten
Erweiterungs@@
ate-@@
Obviously
Geno@@
dep@@
rem
Bad@@
tube
gnis@@
Bildschirm
ausgewählten
pro-@@
recep@@
Yugoslavia
equity
dat
Profil
ruhiger
führungen
erfasst
räum@@
emin@@
vels
CP@@
aded
ST
tian
т
gst
assured
dium
ühr@@
PK@@
Gil@@
AKP-@@
perspectives
Maxim@@
derjenigen
credi@@
3000
fangs
Liqui@@
Bonus
Konstruktion
Gum@@
alarm
Bill
Lad@@
Renaissance
geistigen
Lebanon
crops
Visit
то@@
alleine
ebenen
Tourismus@@
Konfiguration
zeitgenös@@
erlei
isn
paradise
Erbe
Emissions@@
compli@@
continental
survi@@
volcan@@
tations
Angel@@
Vin@@
bestens
Tennis@@
fehl@@
erneuerbaren
passes
Fore@@
clu@@
Aro@@
Wiener
wahl
venue
Ten@@
salon
Nom@@
proto@@
worfen
unterstütz@@
Konflikt@@
verwirklichen
ausführlich
Drittstaaten
specialities
Shanghai
gra
modernes
Rubrik
beschließen
controversial
Liberal
biodiversity
sentence
Brok
mut
judgment

tnis@@
itäten
süd@@
bewirken
Communist
ef
restau@@
Mehrwert
Editor
verletz@@
verpflichten
Konzentration
concent@@
well-being
Seen
Europar@@
fuhr@@
Tä@@
stete
iny
196@@
mic@@
Drive
Geräten
legten
Inkrafttreten
verzeichnen
fuels
curi@@
1984
.ch
wäch@@
Grundsätzen
convince
suggestion
anony@@
beginn@@
Profession@@
Ausübung
wirkungs@@
fes@@
aer@@
Das@@
Features
orienti@@
Prozent@@
24-Stunden-Rezeption
IL
graphy
wages
Process
enta
plötzlich
zunehmenden
tured
bags
Zü@@
FL@@
rom@@
Drei
Muster
konzept
basierte
unvergess@@
Krisen
ziel
Aktionsp@@
quot@@
Pur@@
Chan@@
Vertre@@
Gespräch
Tochter@@
pleas@@
gle@@
politan
PCs
uen
como
deutlichen
bill
Mountain
AKVIS
blichen
erheb@@
open-@@
explains
æ@@
Andreas
Woo@@
ruf
eindrucks@@
abilität
respektiert
Rußland
confident
Eco@@
leather
Zul@@
RSS
erweiterten
lowest
receives
hed
agent
FOR
kreu@@
Elevator
Techniken
komfortabel
oured
holes
tro
xy
arische
choosing
lou@@
shaped
Live-@@
Herrschaft
outs@@
defe@@
ough
Organization
TV-@@
Vill@@
Taste
Kais@@
ennung
Konzepte
Studium
Konzep@@
ruft
Palacio
poin@@
inu@@
rats
ät
Sitzungen
weitaus
Tuesday
legislat@@
Om@@
ös
äf@@
Kreativität
Verluste
demokratischer
describes
gend@@
Anwen@@
angelegt
strit@@
berichte
koordini@@
unemployed
disappointed
Develop@@
bearbeitet
periode
sonstigen
schaftsp@@
ordnungsgemäß
Grünbuch
Change
Certi@@
phi@@
Glo@@
mann@@
ahl
affung
Merkmale
cha@@
specifications
Smith
ect
registri@@
Reader
gelt
Gerichten
typische
erbaut
batt@@
Finance
ń@@
Panasonic
normale
kritische
ography
chef
gesonder@@
enswerte
ligkeit
vertreter
gelegten
Ausschüsse
artificial
Taliban
Fernseher
bindung
produkt
Vertriebs@@
erfahr@@
gesundheits@@
Unsicherheit
hl
Rhein@@
Division
messe
feiern
Tob@@
Ocean
vend@@
Double
wiesen
zielt
ball@@
Antonio
gaining
gur@@
ira
dena
schli@@
bildungs@@
threshold
olls
goti@@
II.
völ@@
gefährden
liness
minist@@
FOR@@
Medizin
Alltag
U-Bahn@@
trennen
Kirchen
avoided
eradic@@
adju@@
Milli@@
Rak@@
cache
Cubase
leid
genetic
kab@@
Rand
fortgesetzt
substantially
zon@@
Getrei@@
Nacht@@
voneinander
angewiesen
frischen
demokrati@@
konstruktive
parado@@
gging
estimate
harmony
vern
End
UND
Rassismus
catastrop@@
practically
consul@@
Mom@@
column
Consulting
Zit@@
luß
Beschluß
pron@@
noticed
rom
Virus
hte
isten
Umsatz
bewiesen
flicht
sätzen
vorbehalten
bedauere
cep@@
fis@@
eingeschränkt
wirksamen
meantime
measured
novel
JP@@
bereitung
Innovations@@
Unterlagen
Französisch
emphasised
performances
Light
Hôtel
ohnehin
vernünftige
ords
rubber
inte@@
nötige
Kräften
erörtert
zentrali@@
partnerships
shar@@
Geschäft@@
sheit
qualifizierte
hersteller
Besteuerung
fate
lakes
chens
Sarkozy
Erfolgs@@
beizutragen
essions
consult
teacher
Bosnia
chambres
Äußerungen
incentive
decent
experim@@
Additionally
rob@@
Def@@
450
gelei@@
wendung
versicherung
Angriffe
Gipfeltreffen
bureaucratic
capture
flag
Spi@@
einzugehen
Motto
krieg@@
folglich
treaties
Gulf
Capital
plac@@
girl
theat@@
fühlt
Unterzeichnung
ś@@
getötet
meldungen
Bewältigung
lesson
sear@@
endem
Wettbewer@@
wü@@
Simp@@
gains
aven@@
Feli@@
uma
Sä@@
ль@@
bür@@
basierten
Erforder@@
bürger
fehler@@
ailing
Lobby
heu@@
scenery
Kapit@@
Premium
fliegen
ktivität
Kapazitäten
unterbreiten
realistisch
supple@@
vigor@@
thoroughly
ministeri@@
Host@@
Call
zentr@@
Kongress
spiegelt
ght-@@
ally-@@
Lou@@
rupt
belt
prim@@
EST
eva
piano
Leu@@
klär@@
pursuant
raises
amending
plurali@@
plates
solo
Höh@@
ulen
vernünftig
Konkurrenz
rel
deliber@@
Everyone
ace@@
Angeles
kirche
Bedienung
deutet
hypo@@
doctor
1978
х
bilder
tangible
chro@@
mp
Frü@@
änder@@
verkün@@
plain
Ibiza
angeblich
Aktivität
Anhörung
1967
enlarged
develops
Anna
Release
schil@@
Büros
ungeh@@
Güter
grand@@
komplex
orientiert
glei@@
Vorfeld
may@@
swit@@
shots
indu@@
Buchungs@@
Datenschutz
konzipiert
Natural
S.A.
Kabel@@
Ähn@@
globaler
distor@@
breathtaking
zierung
ältere
Schlag@@
lehnt
Vorgaben
Inspe@@
Energiepolitik
Ath@@
Karriere
schließe
verschmutzung
bilateralen
Verteidigungspolitik
Millennium
Four
institu@@
Flugzeug
Beschäftigten
differ
cum@@
teilten
stoß
flowers
discher
namens
Programmi@@
Kaffe@@
interessi@@
erwähnte
strange
CI@@
Sher@@
Spit@@
Attraktionen
drafting
preliminary
challenging
circul@@
ota
fizi@@
achtung
vre
compo@@
8,@@
etz
guides
buil@@
lingen
Feld@@
gabe@@
Komit@@
übermittelt
befrie@@
fold
predic@@
signature
Merk@@
favor@@
nachdenken
isolated
paintings
Heating
Städ@@
steuerung
tiefe
europ@@
sons
Tut@@
2007-2013
SH@@
Wort@@
Regulierungs@@
Bezahlung
digte
ired
fig@@
stati@@
Young
Whit@@
CC
ausgesch@@
Nonetheless
arity
talked
Palestine
pharmaceutical
scann@@
photography
spei@@
voran
traums
21st
damaged
tailored
etzung
Lasten
schrittweise
Zimbabwe
inbegriffen
verantwor@@
frucht@@
torate
wra@@
labor@@
Luxus
aufgerufen
Missbrauch
jet
finances
detaillierte
ethnischen
verzö@@
Catal@@
Wissens@@
entrepren@@
bone
Parliamentary
incredible
aktualisieren
Mittelme@@
hop@@
MS@@
3D-@@
familien@@
runde
endgültig
verwalten
irgendwo
executed
stipul@@
regulate
conveniently
reiz@@
brech@@
Optimierung
Communication
activated
ε@@
Luggage
24-Hour
Prävention
läne
benef@@
CAR@@
dental
eingerichtete
austau@@
empfin@@
einhalten
ysteme
Fluggesellschaften
acknowledged
centrally
tress
ver-@@
engineers
füh@@
strengen
zielen
formul@@
Tanz@@
erb@@
zips
Abenteuer
nisses
Koordin@@
kontrollen
pedi@@
deemed
Tom
acquire
Hitler
Iraqi
celebrate
TER@@
Papier@@
wahl@@
schnei@@
örtlichen
begrenzte
Flugzeuge
statistical
abund@@
rations
associ@@
Fähr@@
Ecke
Frühjahr
lick
internation@@
Flexi@@
Pass
amo
35@@
nah
Besitzer
derartigen
samkeit
erfolgte
Lehre
forcing
bread
Sper@@
finest
eras
Hügel
Dritter
beabsichti@@
konstitu@@
istischer
holders
tetes
brenn@@
Unternehmen@@
tless
consequently
tering
forums
aggressive
ignored
-in
Hir@@
во@@
dete@@
oul@@
battery
kali@@
characterized
beruhi@@
exklusiven
controller
interview
circle
Ric@@
derived
Regimes
aktion
login
gutem
Kernel
sicherungen
nonetheless
compare
ça
About
sst
gefährlichen
gefährliche
demographic
promo@@
Climate
ston
islam@@
blatt
asen
militär@@
ehrgei@@
keen
peak
themes
bra
Tempo
LCD
griff
lav@@
vorgesch@@
Eigenschaft
thal@@
vity
connecting
Tool@@
DIN
beurteilen
angeschlossen
registriert
gulierung
Abstimmungen
lea@@
provin@@
ann
sporting
phot@@
File
aufgaben
vermögen
dlichkeit
Regionalpolitik
Übereinkommens
eigh@@
haven
exchanges
score
ebs@@
Darin
Transaktionen
zten
übergeben
Übersch@@
Lehren
checking
discre@@
declarations
Konta@@
forderte
Right
gy
Reserv@@
Panoram@@
erfolgreich@@
Dienstleistung
verbesserte
secured
seaf@@
Hannover
größerer
Hektar
unden@@
founding
aya
Gerä@@
fertigt
Subventionen
ggling
rhyth@@
az
Öko@@
deutscher
Classic
konto
Bewegungen
Besuchern
schol@@
surfing
erei@@
KO@@
kurzfristig
Entspannen
Ufer
Gegenwart
schlechten
Zurück@@
Einkommens@@
devi@@
lege
realized
Justiz@@
verwen@@
grenzüberschreitende
Katastrophen
beiträgt
discipline
fought
Advanced
bedien@@
angen@@
unlike
onder@@
ani@@
Alpine
licence
SMS
tool@@
ähn@@
begleiten
konsequ@@
surprising
Schengen-@@
Parks
hervorra@@
halts@@
erreichte
Beratungs@@
rid
skilled
searching
adjusted
foods
cheese
Soweit
dez
environments
pain@@
kultur
Touren
biegen
verän@@
würfe
realisieren
nehm@@
kritisiert
abhängi@@
änderung
abschließend
mithilfe
ption
recei@@
ministerium
neben@@
gewisser
Entdecken
qualifizierten
expressing
walks
Spring
01.@@
Übersetzungs@@
esischen
prohibited
propri@@
TEN@@
bie@@
DL@@
gigen
unterbreitet
Indonesia
jack@@
INTER@@
hit@@
Sign@@
Lanzarote
funk@@
falschen
partei@@
Konjunktur@@
interinstitutional
confusion
spre@@
Taus@@
-Seite
149
Inst@@
Ball@@
Deep
bevorzu@@
reiben
acknowled@@
fears
dominated
victim
Trends
Schatten
schrieb
restrict
recycling

vorteil@@
Subsidiarität
Gefängnis
telling
ext@@
twenty
Leh@@
UM
integri@@
mäßigkeit
downloading
mie
Betroffenen
erinnere
anticip@@
deri@@
optical
ligt
Pflege
unterschie@@
ungere@@
Erwer@@
Vereinigung
gangenen
of@@
akzeptabel
gewinn@@
geordnet
Vergnügen
erörtern
1982
evolution
coordin@@
nic@@
pregn@@
simpli@@
Clearly
monitored
eco@@
Products
gym
denti@@
Zimmerservice
Metern
kulin@@
guidance
wording
acquis
beth
tells
branches
Discover
korre@@
musik
Vermittlung
36@@
dependence
1975
plas@@
Sand
Display
Siehe
gewünscht
्
Kurse
schläge
recip@@
multimedia
Wille
monat@@
herrliche
gebi@@
interessieren
regrettable
complexity
prominent
teter
Gewinner
strenge
ratifiziert
Gepäckraum
Stor@@
geschlagen
beizu@@
elemente
ausführen
Futter@@
Anweisungen
setup
enttäuscht
üblich
äle
ysi@@
gesetzte
dom
spiritual
koh@@
nö@@
beobach@@
berühm@@
Zuständigkeiten
translations
Fro@@
womit
agentur
schlü@@
ermutigen
Socialists
MAR@@
Macedonia
dein
Picard
außerord@@
solide
Generaldire@@
erläutern
stood
abri@@
Head
Supp@@
DH@@
eling
elektron@@
einher@@
pfung
economics
Regul@@
pos
CAD
visi@@
Reaktionen
unerlässlich
thoughts
kommende
genehm@@
rechtfertigen
Aktualisierung
Hence
undertakings
sustained
she@@
Interface
beschei@@
sexuellen
Vorsitzender
Referenz@@
Jackson
15-@@
Cold
dent@@
automated
defense
engli@@
Laser@@
stecken
ahlen
argu@@
hierarch@@
Überarbeitung
deck
dner
Onlin@@
bist
tägliche
Wiederauf@@
vorange@@
reichung
indication
bid
lean
Aff@@
Learning
70@@
onie
Studien@@
erhö@@
stän@@
negativ
kritisch
positionen
shortcomings
langes
survive
manifest@@
5th
energ@@
News@@
Radio@@
dell
leiter
japanischen
Bilanz
steckt
Norway
90@@
fris@@
Barcelon@@
Genuss
blä@@
würdige
Arbeitsbedingungen
Sometimes
pione@@
transatlantic
Dienst@@
Gemäß
Citizens
subsidiary
centrali@@
aps
unzu@@
beschreiben
Freiwil@@
derten
Arbeitnehmer@@
handels
unt
estimates
Nature
dou@@
inters
Labor@@
L.
span@@
tiv
näh@@
treff@@
zigen
meistens
erzielten
ishes
belonging
VO@@
Internation@@
Textil@@
haftet
Parlaments@@
isl@@
gie@@
entscheidet
condemned
lacking
semi-@@
Andr@@
Sevilla
Bewertungen
survival
Meanwhile
ense
seminars
reduces
essed
RI
Wach@@
Tochter
vorn
ansonsten
lohnt
Streit@@
Realisierung
Gestatten
debat@@
backs
hoped
DI
seg@@
hyper@@
Mili@@
fach
Arzt
C5-0@@
bian
editing
Schwimmbad
registrieren
fisch@@
berufliche
Hotelsafe
reverse
oting
notion
Inde@@
Word
Armen
geholfen
weißen
view@@
taught
flav@@
Spec@@
enters
tail
Close
veget@@
B.@@
governed
excellence
administ@@
mirror
ow
Kaiser
trails
schriften
Zufriedenheit
Autoren
erläutert
unfortunate
Cham@@
Buenos
alpine
Victoria
Lido
hüb@@
widri@@
weich@@
Israels
bevorstehenden
sums
separately
beleu@@
fizierungs@@
Zusammen
Spezialisten
accepts
ensured
Naz@@
ECO@@
aves
List
Aires
upcoming
Stadium
Güter@@
Danke
unzureichend
Branchen
Dikt@@
autonomy
mining
ques@@
Rep@@
gewachsen
Vul@@
distri@@
married
Under@@
Easy
kte@@
Aufenthal@@
inhal@@
expec@@
lit
Sir
kas@@
stätte
LateRooms.com
zeigten
ausgelöst
Abstimmungs@@
Weltbank
erial
cau@@
Econom@@
emer@@
block@@
Wall@@
golden
grundlegender
rul@@
rant
3.0
Fot@@
Herberge
accu@@
feels
ritt@@
exceed
Chal@@
Hoff@@
Anreise
Tisch@@
ökonom@@
Weiterbildung
verwöhnen
vorhin
gged
outset
Roman@@
sert
sens@@
6-0@@
samen
verhäl@@
Rande
liberalen
Anregungen
Palästinenser
returning
fts@@
adel@@
fel
fluss
Orts@@
litten
tape
exerc@@
racism
tam@@
ions
lens
zeitig
Verantwortlichen
erneuerbare
erfreu@@
Gipfels
amend
sibly
Dim@@
Stein
ypen
gerweise
mündlichen
bedenken
halb@@
Gesprächen
tiven
Heimatland
mani@@
deser@@
gge
inen@@
Them@@
tika
Europa-@@
Ltd.
Wü@@
Büro@@
wachsen@@
Vertei@@
Tragödie
erworben
insp@@
circulation
migrants
resorts
age@@
Apache
aten@@
Taxi
künstler@@
drafted
immense
amen@@
Müller
Trink@@
Karten@@
Beruf
Abstand
exceptions
unlikely
cheaper
ousness
brain
Enter@@
ular@@
begeistert
Wochen@@
Benutz@@
Verträgen
departments
Fif@@
Philipp@@
händler
verwaltet
ignoriert
incorporate
Non-@@
Manche
Baby@@
seits
keinesfalls
filling
Jazz
Erkenntnisse
Ministerrat
Mitglieds@@
Declaration
13.@@
boy
Army
lon
spit@@
Gewerkschaften
fault
tionality
abandoned
inge
ament@@
fur
weiterzu@@
nutzbar
idealen
invitation
delicate
torture
Currently
Territ@@
flash
Juan
endo
teilgenommen
droht
ökologische
Abschluß
ürzt
simplify
Budgetary
Buddh@@
Building
geom@@
gi
Gru@@
HR@@
rän@@
Moskau
schungen
kore@@
gkeits@@
Nicht-@@
Lebensmitteln
Tschechischen
perc@@
fund@@
grew
Pierre
Privacy
Wikicars
verhe@@
cion
atmosp@@
arge
potenzi@@
Gesellschafts@@
inieren
Essen@@
alogue
Dynam@@
Horiz@@
therapie
Verhand@@
Tee
äd@@
angeben
Übersetzungen
bezauber@@
inations
follow-up
thr@@
responses
ium
Voyager
Zug@@
Sowjetunion
Amtszeit
wan
til@@
implemen@@
kot@@
orten
Beruf@@
schützt
Effekte
Lebensqualität
bekräftigt
inquiry
verdi@@
Watch
Massa@@
dreht
advoc@@
crossing
vine
Steuer
makro@@
speich@@
Anhang
calculated
allies
Patent
yn
eingebunden
badly
publicly
show@@
frist
Erkenn@@
Aktien
roughly
demonstration
accepting
Milosevic
aga
IE
Fahrrad@@
reichhal@@
grüne
jeweilige
verabschie@@
ourcing
preferences
Christ
exploring
sher
Jak@@
Unterdrückung
grants
conjunction
inning
Above
styles
ION
reale
vorkommen
zeuge
ältesten
Wales
infringement
T.
bath@@
angefangen
bauten
rejection
large-scale
daughter
vegetables
simp@@
bands
ul
haltenen
mathemati@@
Libya
attract
fusion
betrag
Empfänger
exklusive
Wartung
Litauen
Mittelmeerraum
penalties
dangers
arab@@
utzen
ale@@
Franz
ungeachtet
Einzelnen
Clinton
internationales
Unabhängi@@
einzelner
Chr.
gesell@@
failing
unification
monthly
discovery
Boh@@
Panorama
Breit@@
Avenue
Investition
Ein-
irgendwelche
Aufforderung
gegenseitige
desper@@
characterised
moderate
1976
crip@@
Naturally
bal
Buffet
Palazzo
orte
Renten@@
fertigen
indirect
celebrated
pragmati@@
Tyrol
landscapes
ι@@
Integrations@@
mitgeteilt
eingerichteten
jects
troub@@
GBP
defects
arte
modes
Fat@@
D.@@
einheit
landes
expan@@
izz@@
glu@@
aciones
Behin@@
gesunden
Cher@@
orca
klassische
Heiligen
Erzeuger
conve@@
mou@@
real@@
advent@@
DIE
lessly
chocolate
doctors
conci@@
trademarks
Sard@@
Problem@@
Schattenberichterstat@@
time-@@
pin@@
Kinnock
line-@@
Rahmenprogramm
Umweltschutz@@
rot
Saudi
1968
Medical
00-@@
hiermit
vereinbar@@
ganz@@
stritten
lehnen
gelung
ror
ria
ographic
RI@@
Service-@@
Dir
plä@@
ausger@@
Kathedrale
VE
Gl@@
alize
Arbeiter
gewählte
Ausstellungen
kompletten
Wachstums
umfassen@@
Finanzmärkte
combining
Schlei@@
GP@@
Erste
Play
freundliches
right-@@
requiring
gru@@
reductions
.The
beträchtliche
Indem
spruch
Libanon
analysieren
substan@@
Cav@@
Universal
Journ@@
athle@@
organ
lah
überwiegend
Archiv
geführten
reinforce
eded
pothe@@
streaming
breaks
Albania
Cultural
Bron@@
poss@@
Neph@@
öffent@@
riesige
deinen
eits@@
ordnungs@@
einheiten
Heran@@
deleg@@
fiable
Heritage
Put@@
ruhen
wenigstens
Lösungs@@
separated
announcement
skep@@
reine
verkauf
quarters
minds
backed
bases
assumed
Terra@@
ßer
Working
humans
Azer@@
Alpen@@
sprachigen
zurückkehren
interim
sett@@
receipt
rolling
Import@@
embedded
magne@@
Adap@@
Yu@@
Zauber@@
hinein
Betriebssystem
Einschränkung
alliance
elson
Analysen
freies
Einwohnern
quantities
homepage
clothes
währ@@
GF@@
Wikitravel
tü@@
gesellschaftliche
kompatibel
zusprechen
einzubeziehen
enemy
tories
Sak@@
Soft
Tennis
kunst
Unterhaltungs@@
ulated
implies
ison@@
fires
weekly
cool@@
Hill
Schnei@@
enorm
pursuing
master@@
deleted
messer
zerti@@
verschiedensten
Finanzmittel
continually
slau@@
orian
API
Lodge
COM@@
stro
Esp@@
verband
vergleichen
Mazedonien
ails
Kun@@
exhau@@
Stro@@
Fab@@
gebühr
Gitar@@
traum
niederländischen
einzuhalten
Gerichtshofs
shareholders
inher@@
Ern@@
atorium
masch@@
einziges
bezogene
wäh@@
unlimited
concentrated
oth
Peru
aufweisen
bte
konsolidi@@
Entschließungs@@
Coast
OP@@
Logo
Kandidaten@@
sl@@
confron@@
zip@@
muy
Arzneimittel
loo@@
identical
unprecedented
simplification
Water@@
votre
Brief
Jahrzehnte
ernste
bten
coinci@@
weigh@@
transformed
ssel
Ji@@
LED
abwechslungs@@
konta@@
beider
notwendi@@
Haushaltsplans
yellow
rence
tip
Frank
Siena
verschieden@@
äufe
übersetzt
steigenden
Legislativ@@
föder@@
exo@@
ric
Ast@@
subscri@@
impres@@
horizon@@
observers
Ear@@
Planet
AV
kos
ogra@@
Moderne
Mü@@
konz@@
wirkungen
verträ@@
undertaking
rem@@
presentations
Moh@@
Barack
lossenen
Kabel
engagi@@
Fahrzeug@@
interaction
ety
ion@@
Chef
Montage
pfe
Konsultation
respecting
defending
denied
labels
oes
68@@
Dach
sprä@@
Verkäufer
Ratsvorsitzes
adher@@
allow@@
partition
ahr@@
Temperaturen
reibung
ständigkeit
gegenseitig
compatibility
p.@@
Zo@@
orie
herz@@
Autor@@
Wahr@@
genehmigt
Zwangs@@
US-Dollar
bench@@
Ré@@
eu
culinary
agements
Therap@@
Niemand
vereinfachen
Ausfahrt
evil
Rav@@
Kron@@
glich@@
klarer
reiterate
continuation
Kaz@@
gres@@
Baro@@
4th
Stich@@
herauszu@@
rs
peace@@
sightseeing
ha-@@
Disk
Frank@@
mad
announ@@
securities
expor@@
thos
bran@@
bliche
hilfen
lot@@
Tot@@
risen
radiation
participated
rus
nau@@
Ris@@
tv
vorherigen
unteren
PSE
charter
wake
Limited
Initi@@
bathing
Weihnachts@@
Anhänger
Superior
bration
lech@@
kultur@@
frisch
spartn@@
Instrumenten
örung
tradi@@
up-@@
ois
Altern@@
Provin@@
FIN@@
ssel@@
Betre@@
nennt
kenntnis
Sozialdemokraten
profound
hat@@
eating
Danube
winners
198@@
as-@@
nen@@
fak@@
disch
U-Bahn
schluss
zerstör@@
tener
extrem@@
shire
Semin@@
Bisher
PDF-@@
Temperatur
konsul@@
sicherheits@@
underline
listened
pin
Fitness
WE@@
jähri@@
Marbella
mieten
trauri@@
kommens
Halbinsel
wendungen
solving
refined
Age
Plu@@
RES@@
Vent@@
gaming
globalization
kennen@@
forderten
Scheitern
anas
practi@@
Autonom@@
chester
5.000
erhol@@
gefällt
Inhaber
beglei@@
jährliche
analyses
heik@@
suddenly
dam
permanently
radio@@
Credit
Standard-@@
antrag
fertig@@
bekanntesten
ausgewo@@
Premier
xx
Store
löst
zuverlässig
schrieben
vorherige
quota
Eisen@@
Europa@@
Entwicklungszusammenarbeit
untergraben
denselben
optimum
banned
commonly
Luf@@
sorgfäl@@
ssigen
Auslegung
einzel@@
ausgewogenen
adaptation
qualitative
jan
Bug@@
FAQ
gekauft
specialised
urban@@
dedic@@
enthusiasm
influenced
rier
Sales
Mun@@
sont
gericht@@
stau@@
Medizin@@
Flüge
Repräsent@@
gerichtete
Ursprung
annte
Stattdessen
investigate
gent
hl@@
e.V.
berechtigten
ри@@
ि@@
dged
Ira@@
thilfe
test@@
bien
Manhattan
Kontin@@
Absichten
consolidation
newspapers
backing
multilater@@
Hochschul@@
kommerzielle
adly
mails
Fig@@
wohn@@
gli
dazu@@
bewähr@@
ï@@
salt
Could
quantitative
Dé@@
rain
ende@@
VIP
konfli@@
Industriel@@
rivers
Kup@@
Geschäftsbedingungen
engagiert
unterhalten
districts
orious
Que@@
ambience
ML-@@
Nä@@
Material@@
menten
niedriger
Richtlinien@@
Sep@@
teenth
computer@@
hops
inal
quer
Med@@
ş@@
stanz
begangen
digten
invested
complimentary
weis
ны@@
samer
aktivitäten
Entstehung
Verhältnisse
Partei@@
Verstärkung
officer
tackling
EMU
ilt
scienti@@
beat
group@@
Add
Überwachungs@@
vernachlässi@@
durchgeführten
Singapore
iser
Ernährung
Key
awar@@
vicinity
sac@@
Segel@@
beeinträchtigt
längere
idealer
streit@@
harte
Berater
verehrten
accused
activate
chner
MD@@
ook
Camp
ш@@
Ank@@
Eigentümer
Leidenschaft
versetzt
leitet
wichti@@
restoration
pren@@
ATION
lief
ceram@@
abgesch@@
Marketing@@
Dienstag
Befehl
etric
ain@@
refurbished
-TV
र@@
trig@@
iere
camping
hebt
Küchen@@
aufgehoben
weitreich@@
Vizepräsident
auswärtige
consisting
ment-@@
kill
toi@@
mysq@@
Marktwirtschaft
is-@@
lending
tening
murder
rows
Broad@@
shof
schaden
isiert
gelang
Geschenk
Bedingung
eness
suspi@@
linguistic
dot@@
ore@@
gross@@
aters
CAN@@
Ring
l.
vermis@@
programmi@@
tiny
Implementierung
vorsichtig
earned
Schre@@
porno@@
luggage
Castell@@
anspruchs@@
effektiver
jahres@@
Perspektiven
Kernkraft@@
sämtlichen
amtierender
Press@@
Wolfgang
RAM
-Spe@@
wiederhol@@
Partnerschaften
Diensten
größt@@
Shar@@
ems
epide@@
etta
CP
ungarischen
debi@@
Berichterstattern
excess
pend@@
ò
Hyper@@
stabilität
häusern
äußerster
durchsetzen
esslich
Four@@
ROM
waves
photo@@
inia
air-conditioned
zon
Internetseite
verhältnisse
schneiden
bezahl@@
erober@@
Komplettpreise
striking
SV@@
Gate
Schwan@@
bricht
sharp
degra@@
Harbour
Chicago
Italien@@
bewertung
verhandeln
Rather
dn@@
short@@
inser@@
maker
Hist@@
Fleisch@@
Kreis
Flug
wäs@@
adv@@
ambitions
revenues
Fund@@
Tunisia
founder
bir@@
achte
vermu@@
wissenschaften
iken
glück@@
Profi@@
schnitte
bedingt
wirkung
führender
aufwand
knowing
upgra@@
demanded
Cour@@
configure
lager
lay@@
Wör@@
aket
Gäste@@
Passagi@@
Grafiken
beseitigt
isolation
tagon@@
fet@@
dive
Toi@@
zahlreicher
Uhr@@
lück@@
unterliegt
befürworte
tab
competitors
Fili@@
DVDs
Swimmingpool
friedlichen
Quoten
commission
contributes
alties
orn
vement
hausen
geho@@
villas
projekten
ausgelegt
Schmu@@
ernden
Initiativ@@
Vorsitzende
Slowenien
strive
mond
clin@@
Bosnien
drück@@
Thermal@@
schlage
dging
Lev@@
ation-@@
Abu
profiles
magnetic
Luxus@@
Fragestunde
dus
Mid@@
harm@@
excee@@
deriv@@
user-@@
ware-@@
verwand@@
Variante
abzielen
arrested
Junior
Slo@@
cycling
Gelände
Koordination
gleicher
aufeinander
stärkeren
Jugoslawien
Marine
Arm@@
17.@@
Stahl
inj@@
colonial
alive
PX@@
gebrochen
Ausgang
Präsidentschafts@@
Wärme@@
gefasst
officers
motivated
carrier
teria
allen@@
Magic
überlegen
schlechter
Zugleich
mitzu@@
differently
rescue
Ernst
Aktiv@@
einzigartig
gebilligt
errichten
ss-@@
tedly
baro@@
Ras@@
charman@@
Aktions@@
amerikanischer
part-session
ide
employee
fai@@
1981
Deut@@
Himm@@
Whirlpool
Feuer
diensten
Kohärenz
clearer
pact
emotional
duction
sweet
hosting
Ze@@
cca
straßen
niedrig
jähriger
freiem
lifestyle
scho@@
Kamp@@
warranty
Freizei@@
Beendigung
Ernährungs@@
Annual
ne-@@
inspiration
discrimin@@
congratulations
seminar
nick@@
R.
acher
Freih@@
Luftfahrt@@
rachte
Skla@@
EU-Ebene
Hop@@
practic@@
destabili@@
&apos;d
rasche
Textes
Aufwand
zusammenzuarbeiten
modest
nowadays
eira
databases
verbrau@@
kin
Mount
Wiki@@
u.@@
Ankündigung
gter
Zahlreiche
unkte
schnelles
dogs
analo@@
brutal
lows
Isch@@
Reb@@
sendet
Hierbei
Verbrech@@
partially
owing
problemati@@
jec@@
pré@@
tch
Dau@@
Juli@@
pis@@
tausende
regelmäßigen
stärkt
capability
Bosni@@
Kali@@
Engine
Wetter@@
Korrek@@
insu@@
distribut@@
Famili@@
differ@@
circuit
Tipps
Kredite
lower@@
Caribbean
extern@@
anded
Minimum
Bali
Ero@@
ICH@@
strö@@
startet
Verein
materialien
bestimmung
Gesetzes
personenbezogenen
railways
bears
vul@@
permits
ule
196
Grande
usses
lands@@
Europä@@
Gew@@
E-Mails
verleiht
notification
stom@@
distinguished
ttes
Fut@@
Residen@@
Beobachter
Migrations@@
Einheiten
ultra@@
currencies
brother
talent
formula
Isol@@
designers
16th
Camping
diesmal
Charak@@
Gegenstände
Banken@@
Opfern
wofür
malerischen
Klaus
PRO
ovo
Loc@@
schön@@
gelöscht
schiff
Spuren
exploit
Hur@@
round@@
ardi@@
Thai
belegt
Blick@@
finanziell
schaftlichen
Besonderheiten
kontroll@@
einzurichten
abkommens
deny
ae
Head@@
han
Ruh@@
vielfalt
neueste
ensystem
Palästina
Oslo
perf@@
query
Theater@@
tzei@@
bew@@
besticht
Ereignissen
portugiesischen
versuche
irgendeiner
obtaining
open@@
trademark
bö@@
Architekten
Produk@@
gäbe
Vergleich@@
veranstaltungen
streichen
agieren
authorisation
tight
render
palace
four-@@
hs
Granada
у
Eintritt
regen
vielfältige
Aussichten
beliebten
glücklich
elabor@@
roles
simil@@
Portu@@
.com.
Dich
eingereichten
removing
asks
emble
yl
electronics
comforts
HS
Auseinandersetzung
einzelstaatlichen
appreciation
explicit
deta@@
aca
transmitted
clou@@
Queen
Demon@@
Hz
Ton
trock@@
besetzt
nördlichen
intensiven
faßt
biologischen
embar@@
avy
1973
nas@@
män@@
erieren
sitzung
inequality
use@@
independently
panels
Yor@@
fits
Retur@@
Infe@@
2014
sinn
zent
entstand@@
auszuüben
Rechnung@@
fruits
begrenzten
Rental
ffene
Mehrwertsteuer
gerei@@
alling
Prac@@
authentic@@
ber-@@
Euros
Meer@@
Deine
Schwimm@@
gehörigkeit
Elementen
europä@@
effektiven
Gelegenheiten
encounter
Continu@@
vention@@
gerechten
Reihenfolge
assessments
mailing
sim@@
rice
festivals
datum
Stadtteil
igkeiten
verstoßen
Verzögerungen
align@@
grave
stakeholders
Future
1983
Benjamin
Technologi@@
plugin
zerstören
stunden
Fehlen
Zins@@
Wachstumsp@@
harv@@
translate
Nie@@
boarding
rez
check@@
atur
einmalige
Bildschir@@
Zinsen
acking
safely
fossi@@
cultiv@@
mounted
220
cap
you@@
kanz@@
Cube
3-star
Zut@@
konstruktiven
Vorbereitungen
schwerer
tensions
cat
Clo@@
woods
Verzögerung
Entertainment
Grö@@
verankert
Kommissare
struck
repa@@
shr@@
gathered
wire
OG@@
mengen
gear
Pad@@
jer@@
embran@@
perman@@
CO2-@@
lli@@
Kanal
-System
Eintrag
gesunde
ichtet
infra@@
attri@@
investigations
ug@@
laboratory
atories
ocean
chal@@
berg@@
Soli@@
Top-@@
Datenbanken
Sorgfalt
nützliche
Guar@@
vy
anxi@@
investing
bey
scenes
rative
gericht
unk@@
Anders
Bür@@
Frage@@
accountability
hectares
Ess@@
Moldova
Listen
0.00
sé@@
Juden
geschwindigkeit
üben
schlimmer
Entschließungen
aufrechterhalten
capacities
utility
weren
Flotte
170
awards
tron@@
Awards
tournament
Ord@@
verbesser@@
Flughaf@@
endete
schulden
Empfän@@
Untersuchungs@@
witness
infec@@
1960
Summer
aterie
Vogel@@
bestä@@
warmen
stabile
zukünftig
menü
leidung
müsse
2000-@@
orient@@
ynn
featured
Merkel
mid
TU@@
Freien
anbietet
ermitteln
Benach@@
ignorieren
observations
recover
classi@@
conscious
EX
raff@@
schaf@@
onischen
Än@@
stringent
Henry
spr@@
ess-@@
Dy@@
atz@@
sser
fortable
verfüg@@
dä@@
breites
scenario
ouring
boundaries
intim@@
Blin@@
MAN@@
DEN
zumal
ellem
auseinander
Gemeinsam
Legitimität
climbing
extends
exquisite
press@@
Job
kilometers
Steu@@
Selb@@
seekers
cinema
Mountains
Theatre
flüge
towels
türkische
Festi@@
zustand
Beweise
Eigentums@@
klares
distribute
inary
it-@@
HR
blau@@
Impulse
kenntnisse
Genf
Between
shoes
TC
zauber@@
verliert
sexuelle
Kompromis@@
enrich@@
hide
Bremen
allo@@
Monta@@
heb@@
verständ@@
gerichteten
erw@@
Aufruf
griechische
junger
touched
preventive
fec@@
1974
Algarve
eption
Let@@
gele@@
amm
krie@@
verm@@
kauf@@
Organen
speaks
household
Relations
Outlook
giert
finanzieller
pati@@
Adriatic
NG@@
mos
ologically
dago@@
Gun@@
Christen
Begriffe
dentally
alia
host@@
luck
titles
21.@@
Sant@@
Spirit
esen@@
bewe@@
Tendenz
verhandlungen
appen
zukunfts@@
analysiert
PPE
profitable
Simply
ind@@
Gebrau@@
firmen
luxuriöse
Kommissionsvorschlag
bereitzustellen
fifteen
cting
promotes
Große
wolle
Konflikts
größtenteils
sson
sanc@@
negle@@
reb@@
zin
studios
Spei@@
wedding
Frattini
DVD-@@
lern@@
Fün@@
Arbeitsweise
wenigsten
bedauern
finishing
coalition
countless
younger
mari@@
Tokyo
vie
menus
unmittelbaren
Integrität
andt
mehrerer
Manchmal
gewiss
damaging
constraints
stimulate
fabri@@
Diagno@@
Acht
authenti@@
ranken
erbar
Sekre@@
verschieben
verschoben
supervisory
reser@@
levard
zö@@
Geschle@@
interessan@@
genauen
Reichtum
adequately
first-@@
installing
surplus
bat
ritt
Converter
Veranstaltungs@@
erlau@@
afterwards
phy@@
cha
Partners
theast
Elektron@@
mittag
Erleben
Tatsachen
Randlage
ints
Forest
Mou@@
free-@@
Frieden@@
Grupp@@
bestellt
trü@@
Kluft
Effektivität
euro@@
Sax@@
18-@@
cooling
ec
Golfplatz
unterstreicht
Trennung
entfer@@
Abgesehen
belgischen
scra@@
besides
-in-@@
gin
musicians
Prü@@
vorne
Kopie
Folglich
angehören
jud@@
consulted
collections
rift
ATA
tainer
geeign@@
Wahrscheinlichkeit
emissionen
Bran@@
angel@@
reicher
zier@@
Abonn@@
gebrau@@
flotte
Aufträge
selbe
divide
weapon
pride
Out
template
Ev@@
starker
E-Mail-@@
Gastfreundschaft
skosten
ecke
reaches
seaside
Kim
wünschenswert
aken
thor@@
Jews
fic
bia
Estonia
16.@@
begreifen
tico
Rosen@@
fälsch@@
delayed
terror
TAC@@
dreams
stitution
ellen@@
Män@@
gischen
wandern
class@@
joy
Cross
vineyards
15th
temperat@@
Trag@@
Hierzu
ulieren
landwirtschaftliche
feelings
sail@@
summary
washing
bloo@@
Holy
Tap@@
ie-@@
Maus@@
wissenschaft@@
umfassendes
Jur@@
Adam
flan@@
hôtel
schuldig
Seever@@
endung
verknüpft
Argentinien
Armuts@@
unanimous
retro@@
interpreted
esp@@
killing
Workshops
bedeutendsten
asiatischen
Weißbuch
cus@@
qualities
elite
ühle
hn
o.@@
nähe
rägern
Energieversorgung
zutiefst
gases
atte
ь@@
gipfel
Vorbild
fristig
ausgestatteten
unvergesslichen
Stabilitäts-
reiter@@
argued
eux
É@@
Blut
stattung
ordnen
dauerhafte
coherence
fat
indigenous
Eurostat
Pie@@
cine
filters
fang@@
Psych@@
Mountain@@
Zur@@
Garda
Nationalpark
Kunststoff@@
stunde
geschätzt
inevitable
saison
blü@@
besseres
Ausgleich
wus@@
gewann
schmerz@@
Regarding
repe@@
Unlike
Metho@@
Deli@@
Teneri@@
lok@@
geklärt
Reak@@
großzügi@@
Inneres
plying
1500
Days
Leid
reib@@
Defizite
ity-@@
spell
Muslims
Directors
UPS
Rechtsan@@
Nuklear@@
parlamentarische
boom
dictatorship
17th
Lav@@
luxuri@@
NOR@@
Rats@@
bereitstellen
wechselt
detailli@@
mono@@
opponents
Prix
SD
cam
Wechsel
Mauer
Zubehör
ströme
furthermore
sincerely
recover@@
rang
ä
Intelli@@
nachvoll@@
wurfs
Fortschrit@@
Versuch@@
optimalen
Zwecken
abolition
ebo@@
Jam@@
Prestige
Rock@@
PN@@
schau
latt@@
verbot
lische
ы
Versand
Fertigung
friedliche
zugän@@
Menschenhandel
reconciliation
influ@@
engagement
más
Dolmet@@
zeitlich
uliert
sieb@@
bedeutend
umgekehrt
eligible
Spen@@
reader
Supervisory
I.@@
Reh@@
Vorwand
Hinsichtlich
korrekte
gegebenen
albeit
125
ames
ees
neys
ror@@
Business@@
ausbildung
mittlung
interessen
tätigkeit
Jahresbericht
justification
dimin@@
disman@@
blocked
delivering
door@@
ALE
Tai@@
umen@@
Oxford
Veget@@
ppen@@
geteilt
südlich
mehrmals
gravier@@
geltend
beitreten
indispensable
tained
moon
Mary
Friedrich
Excel
Ultra@@
Spielraum
sendung
realised
Being
veter@@
Privi@@
therap@@
DJ
Rimini
ermaßen
Vermeidung
institutionen
Korean
Alpha
elegance
Provider
Sty@@
Klar@@
LateRooms
annt
Geschlechter
lägen
Zäh@@
lüssen
separation
helicop@@
â
nik
Print
Sym@@
PC-@@
leihen
krank@@
Zulassung
Funktions@@
assungs@@
erwar@@
veaus
erschienen
außergewöhnliche
Tunesien
lez
essive
lap@@
Fischer@@
otel
Erreichen
müßte
anstelle
ertem
conviction
resistant
Clu@@
umen
Krieg@@
Leistungsfähigkeit
prüfung
gesun@@
gefolgt
Religions@@
in-depth
suspension
klausel
Exhibition
betrug
chemischen
korrigieren
Beachten
gehörte
explanations
mort@@
stit@@
Ny@@
acken
Sky
stroll
Plugin
Zusammenbruch
übrig
Touristen@@
ailed
pipeline
teri@@
ßte
Territorium
unverbin@@
Voraus
interfaces
turn@@
ignor@@
crystal
aders
Cot@@
bec@@
Pfei@@
wunderbare
entworfen
cements
races
beha@@
singer
Alm@@
Schal@@
og
KOM
ölle
taten
untereinander
bereichs
ausgebaut
strafrech@@
wesens
bietern
Wurzeln
durchgesetzt
clarification
Timor
ladimir
eite
Deluxe
Neuigkeiten
Stütz@@
loud
prompt
ruled
recy@@
colon@@
noisy
strategien
frisch@@
Glaub@@
audit
TA@@
integr@@
arran@@
twelve
BAS@@
Love
Univers@@
bereitschaft
Interview
vertei@@
artig
bub@@
out-@@
chil@@
ahl@@

servative
MI@@
outer
arriving
hung@@
Verona
Standpunkte
getestet
attempted
complic@@
fici@@
marriage
erc@@
bark@@
Architek@@
complement
liqui@@
decoration
на
mins
Photo
stischer
wuchs
islamischen
Möchten
mündliche
verglichen
genügt
leichten
Watson
existed
tram
Transa@@
gesorgt
vorhandene
veröffentlichten
Zugangs
Christdemokraten
Allow
1977
invites
obo@@
reproduction
Hav@@
graphical
Telekommunikations@@
stün@@
verbindlich
agre@@
entities
alis@@
sav@@
Refle@@
Karel
am-@@
enjoyable
uten
fache
Offizi@@
beliebt
emandem
single-@@
Dire@@
Besichti@@
runden
vorangegangenen
Komponente
crow@@
contest
hrt
Abfälle
Netzes
Frankreichs
Ganzes
deeper
ger-@@
esco
gebenden
schwarzen
schulen
dauerhaft
weisungen
acro@@
jung@@
inhab@@
designated
Jes@@
FF@@
abe@@
att
12-@@
ital@@
Shopping
ktives
Wohlbefinden
lichung
Tagungs@@
Vorredner
scep@@
calculation
Argum@@
undes@@
keit
räder
weitergegeben
maßgeb@@
FS
lawyers
await
trail
somewhere
conditional
Hunger
Allgemeine
Kro@@
Maison
Video-@@
drehen
Berechnung
systematisch
critic@@
endless
Leonardo
smu@@
Electri@@
processor
Materials
bag@@
Spr@@
kör@@
zeitraum
ssige
vorbe@@
kurz@@
Texas
decentrali@@
cross@@
mountain@@
ually
Laeken
gemü@@
schle@@
erschien
wozu
consist
cts
tchen
Ress@@
faktor
Geschichten
belegen
zulässig
zwangsläufig
reviewed
reinforced
stieg@@
Ersatz
spezif@@
Grundfreiheiten
Albanien
bann@@
massi@@
lag@@
Festung
Heim@@
Informationsgesellschaft
kamera
Zielsetzung
Ausnahmere@@
Ursprungs@@
té
aan
autor@@
anmelden
passenden
lässi@@
Zuerst
Anzeichen
Präsidium
character@@
avoiding
sag@@
event@@
Hilfen
printer
Ben
electro@@
Seh@@
unglaub@@
gültigen
Rahmens
noti@@
packed
Deutsch@@
Recy@@
quet
Simul@@
org
maß
genheit
Ernennung
five-@@
tment
Heb@@
Carlos
Elite
Azur
Sli@@
Schiffs@@
Chaos
industrielle
prechen
ausgewogene
4-Sterne-Hotel
fehlende
weitem
Libyen
counting
anno@@
co-operation
Foot@@
tick
Buil@@
check-in
Jack@@
Fuss
beträ@@
Arbeitskräfte
limitations
ras@@
teach
Consul@@
Cannes
bad@@
Freie
Schlu@@
sozusagen
etten@@
förmi@@
verblei@@
hinzuweisen
fundamentally
admission
libraries
remo@@
Christians
Zent@@
Mailand
Fertig@@
geseh@@
herunter
defizit
entiert
ferenzen
symbolic
Bed@@
expl@@
Sci@@
Petersburg
leg
Focus
hairdryer
ING@@
erinnen
einzustellen
Menü@@
fif@@
Respon@@
enda
Enth@@
Split
2,5
unterhalb
Mühe
gerin
aufre@@
bemerken
Stränden
langjährige
globally
retirement
Liter@@
extrac@@
15.@@
liquid
Mugabe
Monitoring
brand@@
freundlicher
Erfin@@
Stimmung
Konzert
Wahrnehmung
fischen
Mehrere
Simbabwe
distan@@
autonom@@
porte
Kühlschrank
Landschaften
schaff@@
stie@@
Treiber
Betrugs@@
einsei@@
hazardous
wich
hunger
Stabili@@
Child
000@@
Progno@@
rische
Informations-
diox@@
hopefully
dun@@
panorama
cz
Sn@@
DM@@
kommission
USB-@@
qm
erzi@@
Speicher
Fertigungs@@
treibt
outlined
SIS
symbols
eman@@
ruption
onte
ius
Friedrich@@
ielle
bürger@@
lichten
Dörfer
cargo
lays
Somm@@
Relax
bevor@@
stufen
Besteller
verbieten
Gross@@
laying
ask@@
G.
subscription
pe-@@
HOTEL
Train@@
Verbindungs@@
fasst
inevitably
vessel
E.
Label
legendary
utive
Digit@@
Collection
Flas@@
iker
Facebook
turm
ruppen
ausgearbeitet
mean@@
incident
eable
igrant
1950
ckers
Basic
bikes
anstal@@
php
ürz@@
Krä@@
Abend@@
Rezep@@
stechnologie
religiöse
Sämtliche
Binnenmarkts
Feder@@
voices
ians
detection
beautifully
vermehr@@
Gemüse
ausgedrückt
Devisen@@
oods
floo@@
ranges
REACH
gl
Solange
Mitwirkung
year-old
impetus
aggre@@
offset
Côte
on-line
Songs
abends
Konflikten
openly
delivers
oration
shooting
Walter
izes
späten
Wert@@
besagt
Ratspräsidenten
simplified
advances
instability
nobyl
supplement
Tony
Boli@@
Schaf@@
Literatur
bungs@@
Verkehrsmittel
energie
Pfer@@
Ärzte
Konzerte
Gleichbehandlung
fulness
advocate
generating
fertili@@
wasn
Dubai
Wunder
spieler
Applikationen
erweiterte
fabric
intergovernmental
Much
ress
implic@@
antiken
Dringlichkeit
distant
impro@@
highway
Ash@@
que@@
tauschen
gründet
benachtei@@
wahrnehmen
petition
Journal
ty-@@
tale
mming
usi@@
scop@@
Infos
erschein@@
schwedische
Mittel-
carries
capitalism
passi@@
prints
Type
arien
geschätz@@
Einladung
aku@@
ouldn
F.
....@@
bor
Schri@@
entwickel@@
workforce
Soci@@
dust
universe
inne
John@@
SSL
anderswo
Kommand@@
durchschnittlich
dbar
entschei@@
inter-@@
tremendous
maintains
dow
zio
müh@@
verbreiten
Kommentar
schaftliche
traditionell
großartige
tatsächliche
verwirklicht
änderungs@@
anstreben
itz
Commun@@
eme@@
Canaria
asi
adidas
Geträn@@
Nutzungs@@
Vermarktung
notic@@
stating
Save
ICE
abgehalten
cycles
strand
Fis@@
xis@@
höh@@
Neu
pläne
Schwier@@
exceptionally
cris@@
1969
sensitivity
Later
19.@@
Durchschnitt
heil@@
nnen
atemberau@@
infrastructures
Though
systematically
vou@@
manip@@
ance-@@
Feri@@
algorith@@
ju
Visual
Statt
Stellenwert
Automobilindustrie
Unserer
Parlamenten
Ps
abili@@
Review
Panel
SK@@
höhe
ständiges
Bestand@@
indirekt
twenty-@@
ideological
stir@@
insight
Baroness
EGF
christ@@
Substanzen
mile@@
abu@@
mixture
reasonably
horses
refriger@@
Application
tana
Statistik
Beton@@
prochen
deutlicher
Auswahl@@
aktiver
worker
selecting
overnight
robu@@
brin@@
eingang
wickelt
Konkurren@@
Sensibili@@
fahrzeugen
Petitions@@
restra@@
mein@@
wende
bewirkt
Vielmehr
begrenz@@
benötigten
vorschlägt
Round
Teu@@
TEC@@
betreibt
tritts@@
gezielt
Finanziellen
defiz@@
resumed
refugee
cost@@
booth
Bier
Egal
ades
abuses
Peking
Hein@@
mits
law@@
pop
privati@@
newest
EK@@
Everest
Spanisch
Anmerkung
häufiger
Mitentscheidungs@@
assign@@
mineral
oxi@@
tracking
robots
tolle
Energies@@
Gerne
Annäherung
gau@@
aboli@@
1990s
dele@@
container
quer@@
Dr@@
Schiffen
Abwicklung
Kandi@@
Komple@@
Indonesien
donors
borro@@
NE
nutri@@
reno@@
Gefän@@
Einblick
verschwinden
Projektes
Jahrzehnt
vorrangig
Zellen
shaushalt
tunnel
lying
shock
Lama
rarely
Berlusconi
Johannesburg
evo
TNG
Eurex
Verz@@
Benutzern
Begegn@@
eingeben
leute
flüsse
verstärkten
Hintergrund@@
abzielt
prevents
alising
skill
Viol@@
pig@@
attraction
halts
adresse
ktieren
gründlich
pointing
entity
ila
And@@
high-speed
rd
Clear@@
Zugangs@@
harten
defici@@
entrepreneurs
Nothing
Anth@@
berge
Verantwortungs@@
Zentren
Welthandelsorganisation
fließen
Aufrechterhaltung
awa@@
struction
tually
disagree
herself
CC@@
Airways
Copy@@
Gefangenen
erfor@@
zweimal
tiefen
einbringen
Künstlern
opera
ingo
Redu@@
Beobach@@
stehe
proliferation
integrating
incorrect
Wag@@
wache
igte
Norwegen
quiries
yal
sex@@
saubere
Lanka
linking
Channel
aluminium
Direct
sident
befu@@
rechnung
hinterlassen
schieben
Sicherheitsrat
Umstrukturierung
matches
advised
chances
Sofia
Bach@@
ów
Ebenfalls
Einwände
büros
fähiger
stoppen
Barnier
threatening
asting
adjustments
sames
verbin@@
ausführliche
drücke
UNO-@@
kommunistischen
subjected
coach
terraces
Innsbruck
Kühl@@
netze
enthal@@
allmählich
Abweich@@
personenbezo@@
anlässlich
besitz@@
Behinderungen
kapit@@
beantragen
defeat
WW@@
Tourist
buff@@
rer
chts
Fokus
bekam
damaligen
klim@@
vereinfacht
anfangen
layers
decrease
cans
dents
aka
artier
enswer@@
Ansätze
beliebtesten
veröffentlichte
Vorstand
Treibhausgas@@
socially
provi@@
laimed
RE
silent
parall@@
jn
ärm@@
genz
Zeitungen
frische
Direkt
trieb
Eleganz
Pilot@@
latein@@
beding@@
Arbeitslosen@@
capit@@
Environmental
breeding
encomp@@
MIN@@
Mechan@@
Stefan
Verpackung
beantragt
kämpft
Suchen
mache
schü@@
Sicherheits-
Minderheiten@@
gradual
territori@@
Sän@@
Flach@@
Räumen
preisen
ansä@@
schaftlich
exam@@
1.2
judges
brie@@
wishing
jar@@
athon
Auth@@
Kost@@
Gur@@
verteilen
Basis@@
annually
mic
Florida
ismo
on-site
Geschen@@
befür@@
setzten
ventionen
benutzer@@
Fristen
Vall@@
clinical
cover@@
gical
ppy
PA@@
His@@
last@@
Co.
persönlicher
ह@@
Nahrungsmittel
ktiert
Gefan@@
Large
corri@@
arises
reveal
Johannes
giant
walt
ark
oom
ка@@
inspiri@@
gleichzei@@
dänischen
PPE-DE-Fraktion
enco@@
tten@@
Millenni@@
TER
Grafik@@
Griff
beeinträchtigen
abstained
.....
placement
Hun@@
Shop@@
Geo@@
furnishings
vente
Vec@@
С
Kosme@@
holung
aspe@@
Doppelbett
Entschei@@
pflan@@
Indikatoren
interference
terly
disciplinary
OL
dio
gelände
preises
Kompromisse
tling
technically
Nobel
Dör@@
Chechnya
Bern
Frontex
BIL@@
Sofern
moralische
retri@@
Albert
healing
igu@@
ù
Aller@@
Downlo@@
Epo@@
ppt
Klick
Reden
auftritt
Entfer@@
gerer
vernünftigen
deplo@@
jor@@
ellers
bicycle
ż@@
Gletsch@@
keiten
ummer
banken
stärke
akten
Gesetzen
leiste
Nachbarschaftspolitik
incomes
adverse
supran@@
op-@@
scape
therapeu@@
emis@@
partement
Classi@@
MT@@
das@@
stahl
kompetenz
Demokratien
imperative
iz
Nag@@
Som@@
ot-@@
Long
Bluetooth
büh@@
chtige
ли@@
Nachteil
Operationen
Foren
packen
Teilnehmern
Infrastrukturen
männ@@
big@@
criminals
globe
licensed
Kil@@
authori@@
customized
aal
Konstru@@
correspon@@
Bangkok
Sett@@
strecke
Treib@@
installi@@
zuverlässige
affir@@
Especially
kr@@
Euror@@
brun@@
Repar@@
Oracle
Mozilla
aktiv@@
gesetzlich
Internetseiten
Alkohol
shell
crats
distributors
dringen
beam@@
Geburt
mild
asts
gather
beside
Railway
TW@@
Schlo@@
Kondi@@
Klim@@
touristischen
Spielern
Untern@@
veränder@@
Generalsekretär
befreien
nachzudenken
anzugehen
vorhaben
städtischen
sevent@@
ECHO
assador
figh@@
loan
G20
ckte
Busse
frühere
Unless
complaint
utter
sensi@@
etings
Balance
compan@@
grid
Sequ@@
Gleichheit
koordinieren
heres
knowled@@
painted
Athens
vide@@
tta
Forst@@
Pharma@@
beweist
Finanz-
Währungen
Erika
educ@@
repression
carriers
accommodations
umpen
gesetzliche
Souven@@
Spra@@
volumen
Diktatur
Sortiment
meint
Säule
Little
refra@@
attempting
Any@@
terrain
Block
In-@@
kü@@
Gemü@@
thaf@@
hütung
reiten
Augenmerk
criterion
Romanian
hearts
origins
ASA
schreck@@
unzureich@@
civilians
NOT
Upon
revolutionary
samples
couples
18.@@
frau
höchst@@
gebor@@
letztes
grundlage
Signale
energie@@
maßgeschnei@@
resolving
14.@@
yle
H.
stra
eron
metro@@
bahnhof
unkt
Stil@@
bün@@
medizin@@
zeug@@
optimieren
Aufsicht
vigil@@
Criminal
discretion
Statute
boys
Lob@@
σ@@
City@@
Vulkan@@
Statut
luft@@
überflü@@
vorausgesetzt
präz@@
feier@@
Verbrauch
Anreiz
Duis@@
Pom@@
usa
amin
nia
surgery
Harry
länge
Eck@@
modelle
schien
ßes
Minder@@
compens@@
RT@@
Bün@@
keits@@
Exek@@
unvermei@@
harmonised
tible
exclude
Lud@@
bedient
ungsh@@
yp
gelag@@
bemerkt
etzt
immerhin
Übertrag@@
erreichten
mount
Users
Punta
ALL
Fest
Publik@@
Orientierung
Redebei@@
Works
HI@@
Kub@@
wachen
Termine
abteilung
effizi@@
Sicht@@
tragenen
regelmäßige
Etik@@
mangelnde
vacuum
chamber
Local
Kari@@
träglich
fikationen
geordneten
Jahrhunderte
Inflations@@
Swoboda
XX@@
determining
communist
episode
Bruder
regu@@
ausgezeichn@@
familie
besichtigen
kapital
attach
rigorous
sus@@
sincere
totalit@@
Proc@@
passive
ova
Religi@@
Entschädigung
spür@@
ausgeübt
personality
Written
nearest
supporters
queries
Smart
upload
Säu@@
Kleidung
Persön@@
Unternehmer@@
nutzung
schaft@@
öhnung
Gesamtheit
Song
Officer
spru@@
o.
Linux-@@
promp@@
autonomous
perception
figu@@
SM
gun@@
qu
Sternen@@
einlad@@
äler
beruf@@
Konver@@
hinzuzufügen
dauerhaften
vorbereiten
uty
coins
deter
ft-@@
lins
intuitive
gig
Gesetz@@
zungen
schwerwie@@
Transpar@@
solu@@
end-@@
was@@
Lust
automatischen
Passagiere
shofs
tled
distinct
democracies
rts
toll
Dom
bollah
Chat
Ramblas
lichte
Solidaritäts@@
Einfluß
Auftraggeber
margin
examining
locally
142
ferry
accessed
Solidarity
RS
tera
downloads
Messenger
schicht
Früchte
abgestimm@@
engagieren
ernannt
berühmt
Dafürhalten
excuse
-European
Syri@@
comfortably
Vig@@
Solar
Terrace
Paradies
brachten
ttern
beschä@@
thwest
orange
element@@
Autonomie
verschul@@
bezogenen
Insofern
tent
herein
3.5
zel
starb
reciproc@@
boar@@
ño
acht@@
englische
einsetzt
Nichtregierungsorganisationen
pillars
dramati@@
circum@@
rounds
cigare@@
tras
Jack
ffe@@
wy@@
herausra@@
verträge
Vergü@@
genetically
aki
Meister
Fres@@
nische
för@@
guitar
Aufgaben@@
restrictive
indirectly
ceremony
NT
128
gie
pedia
ön
dryer
investitionen
artigen
zunehmen@@
tom
doz@@
Mé@@
ometer
Gab@@
photograph@@
Crus@@
modular
Mira@@
renovierte
fungs@@
erzählt
Einbindung
begab
envisaged
clas@@
ude
cere@@
chip
strom
Vot@@
Newspapers
Möbel
erkennbar
Völkern
bekräftigen
appearing
thou@@
plu@@
WHO
Bulgarian
Studies
perfe@@
audiovisu@@
Nachbarschaft
findung
römischen
gesendet
embry@@
Cru@@
has@@
invoice
instant
lifts
Gä@@
echter
Quartal
beratung
nahen
Naturkatastrophen
reactions
IGC
strikes
theoretical
divisions
pine
Banglades@@
oph@@
andau@@
Maßstab
Zeile
Anpassungen
Gläub@@
angeführt
Erneuerung
procedural
taire
quick@@
Zealand
SOL@@
ás
ños
gen-@@
pf
geholt
mord@@
Ganze
zugreifen
ziehung
corporations
yield
imagin@@
dis
ò@@
protective
formerly
tox@@
delle
Mitarbeiter@@
tionelle
Hongkong
identifizieren
koordiniert
scrutiny
off-@@
cular
urs@@
Dür@@
Vegas
anci@@
Musiker
dynamischen
Campingplatz
quo
workplace
protests
literally
Minist@@
inson
Lobby@@
Klo@@
MM@@
drit@@
Dienstes
vorzubereiten
securing
text@@
Quer@@
bücher
seitdem
ition
hosti@@
segments
Galax@@
cup
nette
Rate
kov@@
keyboard
Arri@@
P.
terra@@
german
Megapi@@
drän@@
zusammenzu@@
Protok@@
billigen
Beförderung
enberg
headed
Freedom
folk
patch
Ja@@
dierung
steigert
behindert
verkauf@@
cils
Turk@@
nai@@
CIA
Tie@@
Downloads
zir@@
Sehen
fortzusetzen
sowje@@
inierten
Gefähr@@
convincing
prejudi@@
Controller
organs
Loch
Willi@@
32@@
wid@@
World@@
Kei@@
Laman@@
echt
Spann@@
kriti@@
Umgeb@@
fehler
Schottland
bewundern
penet@@
disastrous
visas
aving
confi@@
Preis-Leistungs@@
genutz@@
schwäch@@
स@@
Gültigkeit
Netzwerke
webe
compromises
legisl@@
trages
downlo@@
buttons
arme
erfassen
Erstellen
PSE-Fraktion
validity
congratulating
concludes
Rechtssicherheit
DNA
Commander
latt
Brand
Angeboten
äußer@@
Kameras
interventions
enhancing
foster
ageing
jed@@
Keram@@
hunting
endo@@
Disabled
static
altitude
cathedral
ý@@
ORE
Ansprechpartner
beglückwünsche
indire@@
Stellungnahmen
formally
investig@@
arena
credits
wet@@
execute
uner
Night
Memory
geschmackvoll
Schnit@@
gster
erschüt@@
schaftlicher
architekt@@
lassen@@
Lauf
sacri@@
portion
hir
decor
Cardassi@@
geschlossene
Kolle@@
ologen
Beschaff@@
länen
ländischen
Chancellor
formali@@
Andro@@
WiFi
dev
Resultat
raums
vielfach
Rohstoff@@
Kompromiss@@
monopoly
routine
accommod@@
Hear@@
SPA
note@@
categ@@
uniqu@@
1972
pedestrian
Production
Quadrat@@
Direktor
Ungleichheit
mitglied
festhalten
Whilst
sorts
double-@@
Gibraltar
variables
productions
zügen
Hoffnungen
pushed
admitted
dered
py@@
ave
Heu@@
Kloster
Solarium
ALL@@
Breite
blicke
geschütz@@
Herstellern
unum@@
ersuchen
wertvollen
abzulehnen
zivilen
Looking
cotton
modus
fier
zza
Band@@
Modell@@
Vorbe@@
Mensch@@
Mitgliedsstaaten
Haushaltsjahr
ever-@@
Frau@@
6th
insert
Enter
stad@@
FS@@
letter@@
strahlung
Erschein@@
Demokratisierung
onisten
bedürfen
Inanspruchnahme
ventions@@
erfahrenen
preference
fed
consolidated
depic@@
missi@@
ehl
adet
Angebot@@
Schalt@@
Begeisterung
mobilen
muslim@@
Vorbehalte
berau@@
certificates
perceived
unilateral
vian
Latvia
Petitions
tice
cling
galleries
partner@@
esk@@
auto
Schauspiel@@
Ostsee
Folge@@
behei@@
Obst
anti
anch@@
5000
neo-@@
tat@@
iga
Kalender
Formel
Komplexität
dichte
gebnisse
gesenkt
tonight
overwhelming
exclu@@
Piet@@
morali@@
train@@
Volkswagen
versi@@
Navigation
Domain
urop@@
apel
fangs@@
Milch
Flüchtlings@@
Entschließungsanträge
innocent
abandon
verify
Again
arly
intimate
hoff@@
Mario
Os@@
Rücken
bör@@
verschlüssel@@
optionen
Gegebenheiten
Ganzen
wanting
ro-@@
Catholic
Event@@
carri@@
ar-@@
oll
philosoph@@
Trav@@
exi@@
Cash
enzi@@
gerte
diversen
doppel@@
erkenn@@
Italiens
roten
grenzt
Gegenwärtig
Erkrankungen
rungen
Sozialpolitik
worried
preservation
lity
nisch
dramatically
Jobs
hip
rounded
Canal
modernsten
steigende
außergewöhnlichen
Zentralbanken
inviting
Ukrainian
serie
го
anzen
Dutz@@
Fahrzeugen
stabilen
windigkeits@@
ounced
non-governmental
öst@@
vities
lingu@@
burning
sche@@
Später
riert
führend
gins
wished
sib@@
Beauty
norm@@
Learn
bearbeitung
tschechischen
sonni@@
beleb@@
alternativen
assessed
reti@@
Democracy
agra@@
Bundesrepublik
bildungen
attraktive
erung@@
niedrige
aufweist
schätzt
1.1
arest
chno@@
tles
stimulus
sequence
Zap@@
vene@@
IF
standard@@
listet
Festivals
kopieren
dürften
Klang@@
schätzung
Schluß
Höhepunkt
ausmachen
transported
refusal
Gene@@
aran
uno
HA@@
Kanäle
läufi@@
geschützten
packt
grundlegend
westliche
transatlantischen
serklärung
Hoheits@@
Streitkräfte
Anyone
sympathy
Potential
Pots@@
aro
OC@@
Son
alog
Erwerb
fundi@@
Gebi@@
gemeinschaftliche
gehand@@
Redezeit
safeguarding
studying
chips
immen@@
dek@@
tery
tank
dicht
geräumigen
DS9
reiches
mensch@@
Fäl@@
dynamische
Nichts
Forscher
baute
unternehmer@@
Persönlichkeiten
Konsumenten
unanimity
surfaces
Creative
09.@@
Smart@@
minibar
Ausstellungs@@
ästhe@@
Gesundheitswesen
ausgewählte
Störungen
annehmbar
deployment
istan
otive
Veter@@
stairs
readers
scripts
skri@@
ät@@
SQL-@@
Kampf@@
unweit
laufende
Partnerschafts@@
unterstrichen
Entwicklungspolitik
Canadian
Koso@@
Neither
Against
24.@@
Raf@@
mitt@@
sachen
Depending
jan@@
Zah@@
dahingehend
missible
far-reaching
energies
accompanying
thinks
DO
gmati@@
Dr
UK@@
Biom@@
Höhen@@
ignano
Straß@@
lieferung
verlust
Richtigkeit
Zutaten
rahmens
exploited
buyer
20.@@
benachrichtigt
Häufi@@
wiederhole
statute
profession
ank@@
zügi@@
verlängert
basierend
gründe
Gesetzgebungs@@
Linken
verbindliche
witn@@
gress
council
night@@
enten@@
bugs
beobachtet
Flüchtlingen
unified
vertical
artic@@
vibrant
Help
friend@@
RF@@
Jacuzzi
Zukunfts@@
Besetzung
lichere
amtierende
Kapitalismus
bekämpft
consultations
nings
ply
50-@@
escal@@
tzen
IND
ρ@@
österreichische
Krimin@@
Nachfolger
paint
Political
Wu@@
Pent@@
ité
ache
zn@@
fehl
Kä@@
ausgestellt
Zivilisation
Entdeckung
abzuschließen
vorzuschlagen
Außengrenzen
A5-00@@
proves
proportionate
Manchester
GM
hof@@
Stim@@
estro
dion
Kongress@@
Anzeigen
Kernenergie
tori@@
anism
classified
Germans
configured
serial
Statisti@@
baths
nightlife
Zie@@
dimension@@
er-
direkter
Flüssi@@
Direk@@
encing
endeavour
aiming
milli@@
Nit@@
solidar@@
diesel
Photoshop
gemütlich
ruf@@
außer@@
begriffen
aver@@
bets
glas
eig@@
jenige
Kindes
voranzutreiben
endorsed
gul@@
Recently
wisdom
fragile
Ferr@@
teure
Kurs@@
Blizzard
Starfleet
sache
ausgebil@@
Beitrittsverhandlungen
austerity
gresses
lifting
spark@@
Bavaria
ego
ox@@
Kast@@
tei
Dich@@
Blau@@
gesu@@
Hunderte
Meinungs@@
fünfzehn
fläch@@
amtierenden
costly
Hollywood
Hans@@
EZ@@
Interpretation
Porsche
vorberei@@
Gewer@@
ammern
worauf
Geschäftsführer
Buchstaben
Publikationen
versetzen
anyway
memories
spiri@@
smallest
bury
landing
produc@@
beachtet
verweist
vollkomm@@
े
safer
drew
pull
pricing
documented
Ferienhaus
wunderbaren
mittel-
abgeschafft
wash@@
deciding
perfec@@
umping
Along
Lady
Domin@@
probe
zufriedenstell@@
Landwirten
Zinssätze
Lissabon-@@
micro-@@
Phan@@
zeile
gescho@@
Bewegungs@@
inet
Gent@@
zion@@
mac@@
Argent@@
Nul@@
expliz@@
legislativen
tiers
conce@@
Back
chart
1980s
22@@
berry
stitu@@
Budd@@
guest@@
winkel
Norm
pending
limiting
ateway
gewöhnliche
dorthin
bewahr@@
anne@@
confirms
colo@@
author@@
bottle
popularity
Sw@@
Balkan@@
teres
Glücks@@
Autorität
broadcast
medic@@
Congo
int@@
Sydney
Öster@@
lush
Word@@
rent@@
Rohr@@
elung
Weiter
beherbergt
Beispielsweise
Impf@@
haz@@
Imple@@
Pakist@@
7th
Alex@@
Magazine
~
Zucker
freiwillig
oberfläche
Valu@@
brilliant
demonstrations
Medina
neut@@
behold
KE@@
Gutes
abgel@@
Moldau
Strafgericht@@
ergy
diam@@
detention
Dal@@
relie@@
spac@@
writers
developer
gefahren
Zentrums
Durchführungs@@
Toleranz
schwe@@
vereinbaren
Still
ardo
transfer@@
estic
Colombia
gemon@@
Cul@@
Speed
racht
halben
Standorten
Immunität
modification
gigan@@
improves
Produc@@
Harmon@@
Stars
ausgeliefert
indischen
tseite
massiven
rumän@@
six@@
punishment
Alb@@
trans-European
acu@@
ront
750
Investi@@
Kamer@@
english
Wanderungen
Voraus@@
bereitgestellten
bestraft
besteh@@
verschärft
counted
torial
ext
gessen
aktionen
Artikeln
abschluss
steine
lagen@@
adjacent
praise
dead@@
indications
Hilton
admire
princip@@
textiles
path@@
cho
Dunk@@
omo
ont@@
TION
Kanz@@
blockiert
wertet
forderungen
Infrastruktur@@
abschließen
Artikels
begrenzen
geographi@@
Clients
UP@@
Akademie
gebucht
Etage
versprochen
festgehalten
ausgenommen
Tastat@@
grafischen
transp@@
deadlines
gui@@
foo@@
adi
emphasize
об@@
ا@@
Unterricht
Rollen
Wandern
fizierten
bedauer@@
markiert
Diejenigen
Zustellbetten
classification
thereof
portable
ruins
KL@@
correction
ordering
ISA
Prince
positives
SIM@@
stufe
irgendeine
einzuleiten
Seattle
obstacle
Bolkestein
hec@@
listing
counter-@@
horn
Universi@@
uk
Giovanni
Oc@@
snacks
Rose
Turni@@
beeindruck@@
Alkohol@@
Ära
faktoren
Ziels
Kreatur
4-0@@
introduces
Pay@@
seller
essor
BB@@
diente
europas
angemessener
sweise
Anwendungsbereich
Konvents
responding
lend
road@@
Down@@
alpha@@
Gepäck
Olympischen
Beträge
stechnologien
situationen
Verpackungs@@
gemachten
verlu@@
Königreichs
geisti@@
noble
settle
elas@@
critique
Windows-@@
legend@@
Palast
iranischen
ermittelt
verordnung
Aufklärung
inwieweit
23.@@
posing
construct
there@@
gency
trials
rear
cco
Eas@@
BE
schwach
kunft@@
Verwen@@
aufhören
guilty
definitions
standardis@@
limitation
scri@@
visibility
sentation
ACE
Monaco
europa@@
Twitter
vereinbarung
Zuliefer@@
kreative
ierter
tanks
honest@@
sends
advisory
surance
anto
configu@@
bestanden
geschnitten
größ@@
zte
ausgeben
Unterstütz@@
Akzeptanz
anspruchsvolle
Gewährung
gratuliere
Guatemala
matic
dish
wis
cream
loads
tout
ergi@@
38@@
ystems
Benz@@
Wissenschaft@@
Datent@@
herrschenden
Weltkrieg@@
sämtlicher
Gegenden
witnessed
market@@
audiovisual
rors
immunity
Div@@
kunfts@@
Gedanke
ietet
ausreichen
Strecken
übertrag@@
meaningful
delegations
volumes
lun@@
Cards
rump@@
Freizeit
Werken
Assozi@@
wirtschaf@@
künften
Geldpolitik
traditionally
hony
subjec@@
Scandin@@
Nap@@
completing
Virtual
commands
anton
ao@@
tasty
profitiert
annten
zenten
bewegungen
abhängen
bewäl@@
diet
paragraphs
Fau@@
Archit@@
ukra@@
Gift
morgens
Club@@
Lizenzen
durchschnittliche
Gleichwohl
multilateralen
region@@
aments
distinguish
Organis@@
2.2
sprin@@
courtyard
rums
Eurocopter
rachten
ausgeprä@@
gefangen
Bedürf@@
identifying
psychological
advan@@
complementary
sy
oi
Hydro@@
Rica
azione
stuhl
Charakter@@
attraktiven
Szene
signifikan@@
Rechen@@
Lieblings@@
diesbezüglichen
ausgerüstet
pflegen
schlimmsten
Aufnahme@@
apped
modernisation
painful
medicinal
tariff
Priv@@
Bä@@
boutique
gasse
Viel
Inzwischen
wandeln
kümmert
sozial
Schließung
Afrikas
endeav@@
Agri@@
controll@@
Guinea
Ple@@
rh@@
TRA@@
unmittelbare
kapazität
Bestimm@@
deckung
trinken
Präsent@@
henden
illness
insur@@
transpar@@
ART
bunal
ticul@@
bund@@
Kling@@
Europäisches
salle
kommunizieren
Therapie
Hindernis
fulfil@@
dark@@
worlds
Major
Nas@@
Pres@@
Fusion
Depression
serb@@
FREE
Promenade
erho@@
Trainings@@
CO2-Emissionen
eive
reluc@@
short-@@
remedy
disch@@
igration
neutrali@@
screen@@
invasion
mare
Imperi@@
unic@@
Romanti@@
omas
†
Etagen
Sammel@@
Gehir@@
westen
konkre@@
legacy
mood
consi@@
frames
lv@@
Clau@@
einrichtung
Oper
न@@
Vorsicht
ausgewogen
Schwerpunkte
virtuellen
Masse
anwendungen
optimiert
Bedrohungen
chair@@
periodi@@
tendency
FP@@
omen
dop@@
mär@@
ā@@
Auslands@@
Tagungen
Fülle
quoten
inland
gle
modifications
Sustain@@
Sahara
Canary
protot@@
Acti@@
opol@@
Images
ehr
Zwischenzeit
anzusehen
diplomatischen
Daraus
Nutzern
spreading
hair@@
farm@@
Price
astronom@@
Monum@@
wehr
toren
intelligente
siedlung
Übermittlung
folgte
vri@@
intent
irrespective
Expan@@
priced
terie
Mathemati@@
GEN
Designs
timm@@
statt@@
wurf
Zeitalter
Verhinderung
definitive
wheels
desc@@
efs
Americ@@
baggage
fabulous
Delta
liv@@
Updat@@
Shutt@@
sele@@
reihe
vergleichbar
Jahreszeit
eventuelle
Europe@@
Whatever
problematic
ried
distinctive
Warsaw
repar@@
dioxide
sleeping
Crist@@
Cruz
197@@
assen@@
favor
betreut
10.000
fassten
Monats
Visum@@
consolidate
dle
stants
suits
smoke
exotic
Las@@
très
Kyoto-@@
Heiz@@
en-suite
Trä@@
laufend
Turm
fän@@
Elektriz@@
mittelalterlichen
Benutzern@@
Auflagen
Katastrophen@@
bekanntlich
fasc@@
tum@@
Championship
FT
samt
geräumige
druckt
Schritten
iell
reservieren
ausdrück@@
ausgehend
Meinungsäußerung
wirksamer
prerequisite
seas
opping
Multi-@@
stent
agu@@
Fam@@
Darauf
Schwach@@
Folgendes
Kriterium
Endes
compet@@
undi
ake
slide
Chris
Oliver
Dry
setzungs@@
Schätzungen
schriftlichen
anien
Davon
Spiels
zurückkommen
regelungen
herrschaft
wirksam@@
coastline
stream@@
gambling
Ansprüchen
Mitglie@@
gerlich
weal@@
recru@@
blocking
wholes@@
yiel@@
OM
Holding
Johann
birthday
Malaga
stas@@
uta
Scrip@@
S-B@@
affen
Beleu@@
Durchschnit@@
Bestrebungen
pflanzen
abzugeben
gezahlt
Befu@@
evaluated
ultra-@@
cattle
lling
administrator
aboard
Trin@@
exe
Protot@@
unglaublich
geschenkt
Sozialisten
kontra@@
Vertrieb@@
Sitzungsperiode
reimbur@@
stically
Jordan
Annex
tied
Tuscany
Kok@@
kat
μ@@
ICH
stück@@
Zeitschrift
Ticket@@
verhandelt
Kommunikation@@
Folter
gestrichen
Dienststellen
disappear
disabilities
Applic@@
casting
sere
lings
ith
24-hour
af
Hob@@
не@@
Verbin@@
beginn
scheinbar
erholen
Erdbeben
Cohesion
persu@@
Lange
dairy
pushing
defin@@
jazz
Subje@@
Anschließend
verwandeln
Herzlich
Formate
aufrufen
dität
clauses
protects
Meas@@
concep@@
broadcasting
uit@@
Active
sth@@
Ih@@
Check-@@
selts@@
-Sterne-@@
genommenen
reaffir@@
apar@@
home@@
emit@@
etto
LI@@
pets
aggressi@@
ole@@
Attra@@
veranstaltet
tiker
Pfad
Genauigkeit
Zyper@@
Behandlungen
escap@@
Algeria
dereg@@
Posselt
detect
doc@@
lov@@
viewer
Psy@@
betragen
Haltestelle
Ungleichheiten
Hotelzimmer
merken
Pazi@@
effizienter@@
zusammengestellt
Chinesen
Wäscheservice
contam@@
flora
damp@@
conducting
Lee
Secure
Princ@@
Shuttle
mediterran@@
Häusern
Nachteile
ehren
Bürgerrechte
themen
Hochschulen
Überleben
perfekten
Temperatur@@
contro@@
draws
aker
aba
ons@@
Files
linder
spam
oasis
Comfort
personen
bestätigung
Flächen
Allein
danger@@
wild@@
E.@@
RA
ane@@
Brown
nav@@
Tier
kum@@
ansprüche
Erfassung
erzeugung
Konzern
problemen
privater
erweise
sichten
gewöhnlichen
möglicher
Nordkorea
retained
in-house
DC@@
arre@@
ggen@@
1971
onna
Blei@@
х@@
verdanken
leuten
vermieten
zweit@@
Zertifizierung
rieben
beunruhi@@
grafische
hygiene
metals
temporarily
Temp@@
π@@
Räumlichkeiten
jemanden
Defizit
enswerten
Schlußfolgerungen
renewal
economical
south-@@
fitting
tiveness
card@@
pots
Additional
brea@@
fridge
tranquil
Fan
Frühstücks@@
Zigare@@
gelan@@
gebrachten
versorgen
consu@@
cooperative
miner@@
abetes
thur
erender
Vermögen
beeindruckende
einbeziehen
bürgerschaft
Hague
DE@@
Amat@@
64@@
Arbeiter@@
Vorgang
Blä@@
Aufpreis
durchschnit@@
erzielte
fizierte
Beobachtungs@@
Want
Equipment
vign@@
Wissens
verbundene
klarstellen
feasible
passion@@
enforce
coura@@
Ala@@
dants
sau
econom@@
Somalia
fried
Jet
č
couldn
Un
italien@@
läufigen
bege@@
künstlerischen
ktivitäten
traf
erhebt
exacerb@@
compiled
ideology
energe@@
stle
passport
mma
Sites
Points
Portfolio
FTP
heimischen
trächti@@
sparteien
Übereinkunft
confidentiality
Mercosur
surf
Beau@@
Gestalt
irgendwann
zulegen
herbei@@
biologische
lemma
multinational
veri@@
fairer
condem@@
aman@@
cians
cabin
Wri@@
β@@
Tempel
wirst
Broschür@@
chie@@
frank@@
continuity
Stephen
Translation
etti
Zak@@
Machine
geschul@@
untergebracht
versprechen
gefertigt
fluss@@
atta@@
echo
servatory
trendy
Ds
Orchestra
Hof@@
dringlich
gangene
Tiefe
Stabilisierung
fulfilling
Century
Some@@
diplomacy
burn
automobile
ğ@@
Cafés
amento
Parking
turel@@
Schuh@@
Rettungs@@
le-Distribution
comprehensible
navi@@
inch
Iron@@
utz
Has@@
geld@@
schwarz
Erweiterungen
Schlacht
quoted
shes
thick
safeguards
encourages
Conci@@
2.1
Tok@@
dei@@
Lufthansa
irgendwie
Küh@@
existi@@
funktions@@
zuführen
Erhebung
erstre@@
Phasen
responded
Kart@@
edo
humane
enses
keln
Trock@@
mord
wenngleich
abschließ@@
Behandlungs@@
Instabilität
Finanzielle
Tschetschenien
prescri@@
donor
timing
Versicherung
optimized
kultureller
stisch
riffe
einhalb
Gemeinschaftsrecht
anzuerkennen
scand@@
evenings
Croatian
ATE
tration
lateral
Manuel
model@@
ло@@
Ball
Verhaltens@@
geschnit@@
stür@@
exzellente
Umstellung
menden
mächtigen
höherer
shorter
households
Lyon
som
13th
enni@@
tima
Vern@@
Anleitung
Ec@@
dimensional
Guantánamo
Borg
Layout
verschi@@
erwarte
Funktionsweise
Kongo
zuständige
lasten
Reichweite
eigent@@
Migranten
pfei@@
assessing
confidential
Herzegovina
simulation
mau@@
änen
Script
Stern@@
soren
überwälti@@
Schlacht@@
ueber
belastet
stellbar
erning
congress
unge
Secretary-General
even@@
resear@@
Leb@@
stadium
Heidelberg
UT
machung
lieferungen
Eingabe
flexiblen
zugang
Industriepolitik
Mitgliedsländer
Felsen
andin@@
chet
stock@@
10th
sh-@@
Marx
amendo
SilverFast
Drucker
vertrag@@
Fischereiabkommen
gathering
incidents
forestry
settlements
attacked
ateur
Christi@@
femin@@
oro
azz@@
Para@@
Instrument@@
holt
formuli@@
Anreis@@
Aufstieg
Ergän@@
aston@@
eping
impressed
Gom@@
firma
Model
Inspi@@
Verwand@@
ographie
Begrenzung
Netto@@
Fundament
bestehend
definite
port-@@
opou@@
Fiel@@
St.@@
rassi@@
schlag@@
Boutiqu@@
lierung
geber@@
Änderungs@@
akadem@@
sided
experiment
Swe@@
proch@@
CV@@
Bek@@
Mön@@
BSD
erhielten
stetig
drängt
Konfigurations@@
Six@@
valued
propaganda
locked
Unit
dak
Pod@@
Metrop@@
Verw@@
tierenden
griffs@@
Mannschaft
Zusammenfassung
vollsten
einrichten
Poettering
earthquake
architect
erup@@
suppor@@
plot
roler
Koch@@
DEN@@
Nachrichten@@
ungsphase
Begleitung
Bandbreite
Kohäsion
fortsch@@
organising
Jen@@
German@@
Bike
problematisch
schlicht
unkten
nachfolgenden
ranks
Fortunately
uts
Bologna
Graphi@@
ffern
zuhalten
Modellen
ttaus@@
recur@@
opt
batteries
sade
IK
platt@@
Entdeck@@
schlim@@
zug@@
Entscheidungsträger
bition
dropped
imbalances
municipality
righ@@
satelli@@
marble
MB@@
Minim@@
zern
ю@@
soll@@
schweigen
übertragung
verknü@@
ergänz@@
kritisieren
Objective
llo
heimer
Import
agn@@
sung
Mini
veau
Bele@@
Dolomites
schal@@
prozessen
etwa@@
Vertrau@@
auseln
behindern
gewaltige
Mittagessen
Steel
cane
pir@@
debts
Evalu@@
Continental
Hygi@@
iors
antique
Func@@
YouTube
exakt
Aparthotel
zeh@@
Gesprä@@
Fotografie
Verbündeten
Finanzminister
defines
Krem@@
toxic
purchases
Eich@@
Legi@@
NA
за@@
Tepp@@
Logistik
Button
tritts
ratify
anticipated
understandable
ure-@@
recognises
pit
Cancún
Barro@@
park@@
andel
Erziehung
Gewerk@@
übernahm
vorgesehene
toys
Sv@@
magazines
entre
bedded
LabVIEW
wälte
gieb@@
Dolomiten
berechti@@
Minde@@
wahrgenommen
erhöhte
Tabellen
nahe@@
harder
Nepal
ssi
animation
mware
Verlag
Beibehaltung
CPU
köst@@
ggf.
besuchte
encountered
cation
Domini@@
Terror
linen
Wand
heruntergeladen
Texten
Griechenlands
beauftragte
anerkannten
widerspiegelt
hebung
attentive
preserving
barrier
veness
grey
attitudes
viruses
Economy
ny@@
Finn@@
beh@@
Mic@@
Hybri@@
Steinberg
мо@@
Konsolidierung
employ
demon@@
ligence
County
aph@@
24-@@
Labor
Stern
unzählige
Haut@@
kenne
erbringen
japanische
komplizierten
Datens@@
Ausschüssen
visten
sored
conservative
sprung
captured
dex
kus
ь
Auskunft
einigt
Motoren
spreis
Erkenntnis
verantwortung
aufhalten
mietung
Estland
coup
transi@@
varying
dying
macroeconomic
entary
ump
transform
hosted
Revolu@@
Us
dealer
GA@@
partment
ThyssenKrupp
gebo@@
Wikitravel-Benutzer
Rohstoffe
bemü@@
erstklassige
gliches
Kompetenz@@
tigsten
gehalt
potenzial
versuchte
broadly
ethn@@
Leon@@
jana
offer@@
Stab@@
α
schwä@@
übergreifende
aufgeführten
zonen
floods
enemies
seed
spati@@
merchan@@
asso
Nan@@
Shops
Workshop
κ@@
Chianti
Vide@@
tigkeits@@
Reparatur
forder@@
getre@@
Hauptziel
Gemeinschaft@@
ancies
Montreal
husband
WE
45@@
ITY
ktem
Screen@@
Management@@
Machen
klick
ünsti@@
Reisenden
Skand@@
befreit
trug
Darlehen
Klaren
Castro
oming
avian
midst
ranking
.-
measurements
eso
eno
Info
Engine@@
YORK
Misch@@
Maus
unüber@@
esenen
streiten
qualification
revol@@
aven
Cash@@
vereinbar
Arbeitszeit
geeinigt
amoun@@
experiments
closest
Police
wins
cons
N-@@
Wolf
endums
limm@@
Welle
haber
sfer
medien
aufkommen
Beschäf@@
Unterbrech@@
aked
boy@@
onian
activists
sic
Offic@@
Organ
.NET
Mercure
kost@@
stungen
verläuft
Plattformen
Bestände
Wollen
israelische
Rechtsrahmen
transnational
detected
need@@
ow@@
PVC
vin
10.00
Pisa
mé@@
thotel
wohnt
tigste
verkörper@@
offizi@@
Wartungs@@
erzählen
Verschlechterung
maßgeblich
geheim@@
demselben
Hinzu
Militär
debatte
wood@@
2050
ASEAN
Sey@@
bie
nier
privilegi@@
kostenfreien
auswahl
ereien
Konvergenz
crimin@@
organisms
imagination
prison@@
senses
CD-ROM
TEN
Mix
coating
Malware
komplizierte
Kamin
Wohl
korrigiert
partnern
Prüfungen
potenziellen
privileges
Far
horiz@@
warrant
hardt
refreshing
rocks
U.@@
ces@@
Leiden
geschicht@@
holz
westlich
christlichen
dossier
inspections
linear
warran@@
diagnosis
tops
Baden
ld@@
bik
stationen
zwecken
wünsch@@
terten
Schwi@@
Vollständigkeit
Korrektur
Erwachsenen
Ministerpräsidenten
verlängern
verursachten
Anleger
Sozialpartner
abor@@
timent
numer@@
ott
Medium
Salon
Astrium
Hochschule
schmer@@
Spock
versorgt
Zusagen
random
journalist
gence
launching
extremis@@
atar
Reno@@
tot
Volk@@
Blü@@
solarium
Schnee
definitiv
Mineral@@
Harmonie
vorzugehen
gemeint
Gebäudes
Klassen
Ersten
schrei@@
aufrechtzuerhalten
formity
grass
promin@@
accessibility
cel
Cardiff
én
Kath@@
Fou@@
Aar@@
ret
modul@@
Lab
versu@@
hielten
Berechn@@
denkbar
genetisch
stituted
Obst@@
voltage
Qui@@
gängig
Tauchen
gelegentlich
slowak@@
weakness
rewar@@
pressures
logan
Wh@@
mah@@
riften
ernde
zurufen
Öff@@
discipl@@
initiate
Associ@@
Norwe@@
Cleaning
Impul@@
ICA
NH
Komplex
begeben
gnü@@
Spannung
Franzosen
Gremien
stres@@
Ali
Upper
pository
retention
Jord@@
tim
ckness
Base
ermög@@
zuverlässi@@
Nordirland
Wärme
ichtungs@@
help@@
handi@@
Á@@
Catalunya
splan@@
Note@@
dachten
folgedessen
bold
aults
kne@@
oked
Alz@@
tien
Me
ubs
Neut@@
fert
Oran@@
Oster@@
verwandelt
Geschlech@@
entnehmen
Regierung@@
sätzlich
widerspiegeln
Müt@@
eks
kom
adar
ula
demnächst
Herstell@@
stabil
entsprechender
anschauen
juristischen
bedaure
semin@@
our-@@
trace
Mozart
Core
Gothic
v.@@
IRC
Erwäh@@
Südtirol
liebt
aufgeben
griffs
widmet
Periode
Subsidiaritätsprinzip
particip@@
commodity
Property
statutory
reserv@@
enna
intu@@
1930
kking
CMS
Seel@@
Wagen
gelassen@@
aufnahmen
mutz@@
Einsparungen
Konferenz-
Quite
heav@@
lack@@
fastest
Diversi@@
competitions
Harv@@
Alli@@
unen
plung
Ursprün@@
parent
Secre@@
Franç@@
stretch
conditioned
Explo@@
Doctor
disc
backup
Slovak
sky@@
PT@@
Appell
eb
Spiegel
gewalt@@
Fahrzeu@@
Amerikan@@
verbrauch
transparente
Ermitt@@
Überwindung
edly
voir
isons
Soft@@
Upgrade
Fahrrad
stellvertre@@
Birma
Messen
mittelständi@@
beugen
adop@@
respec@@
inappropriate
bend
14th
Cambo@@
Nic@@
anding
Vati@@
manually
lov
scan
22.@@
Monitor
e.
esthouse
Design-@@
Seminare
artikel
verwendete
bilaterale
Pakt
withdrawn
Competition
recreation
ström
vegetation
Emer@@
Lig@@
enzo
Lamp@@
arbeitenden
entfernten
tagung
Sicherstellung
priori@@
Thessaloniki
successes
dose
ograph@@
G8
Napole@@
eggs
continu@@
Map
Fuss@@
Sandstrand
.jpg
Technologie@@
Preises
Jahrestag
einheimischen
Aussehen
Handhabung
Tragen
oberste
topical
nee@@
long@@
hoping
Iz@@
ernity
collecting
shut
zar@@
Dres@@
Vö@@
Grie@@
Wiederein@@
disku@@
Klassen@@
Kontinents
Warnung
vorherseh@@
spir@@
pursuit
grain
Geor@@
Rie@@
katho@@
nder
unterschiedlichsten
verteidigt
überdenken
kehrungen
educated
convey
eiro
liner
ida
deutsch
tücher
fahrt@@
Spekul@@
Ergeb@@
Ehe@@
öser
gee
dum@@
acou@@
Ign@@
Temple
Flor@@
Inc.
neighb@@
1.000
Lande
wöch@@
Zahl@@
Inneren
steil@@
untersagt
Arbeitsplat@@
weiterentwickelt
beheben
Nazi
plo@@
Moz@@
screens
inas
bow@@
Below
Mär@@
ritten
Allgemein@@
Geschäftsreisende
Fotografi@@
Zweifel@@
weaknesses
disappeared
Mut@@
foodstuffs
slight
attending
prises
Exempl@@
Cape
fu
Donn@@
energi@@
QuarkXPress
Laundry
Wunder@@
schiff@@
Bibliotheken
Terrorismus@@
territorialen
Bemühen
sp
dirty
transl@@
Scottish
Symb@@
beauftragt
speisen
griff@@
strukturellen
Tschech@@
beloh@@
definierten
enfor@@
eliminating
stresses
relevance
Ecu@@
quiry
injury
macher
Proven@@
rasse
installer
Dame
ν@@
erbe
Dekor@@
galt
Unser@@
hervorzuheben
Viren
vernünf@@
chtest
Krank@@
beschleunigt
satis@@
minded
affair
genocide
steep
liquidity
sortium
café
Mare
ers@@
alb@@
Verkehrsmitteln
Multimedi@@
günstiger
stellern
usamment@@
Kompromiß
Stoffen
erbare
Biokraft@@
live@@
precautionary
anymore
Schü@@
recti@@
desert
ito
A1
agua
tub
sensors
Angestellten
Gerü@@
Angehörigen
Schne@@
assungen
sympath@@
thrown
networking
Natura
Wilhelm
bookings
hochrangi@@
beunruhigt
vot@@
indul@@
happ@@
axis
positioned
spiegel
ussy
Art@@
Garage
Badewanne
Schwächen
Gewähr
Viertens
Kommissars
Delegationen
101
rhetoric
forever
stence
passage
motivation
Fire
pedition
Mono@@
Clean
Male
grö@@
halle
¿
Sisko
Nächte
einfaches
ा
Konservativen
concessions
density
deliberately
wet
dra
gentle
K.
Al-@@
Torre
YOU
verzeichnis
hinnehmen
vereinen
Filmen
beihilfen
nutrition
Euro-Mediterranean
geable
prostitution
vegetable
Traff@@
Law@@
Egyptian
ALDE
ört
extremen
zufriedenheit
Strafe
Asyl
bedeutender
schreiten
gewaltigen
Questions
Likewise
thirty
Angola
broadband
ASP
EI@@
apo@@
Profile
Nachtleben
anscheinend
konzer@@
Daneben
blauen
Ents@@
einstellungen
Articles
Niel@@
pretext
stered
lieu
bauer
abel
Wid@@
Gardens
Garanti@@
hauses
verläss@@
Standor@@
Algerien
Chemikalien
Anlage@@
represent@@
peripheral
overseas
coordinating
san
1,000
List@@
progressi@@
Fundament@@
convi@@
Palais
Ausnahme@@
gangen
Kriege
offensich@@
ückt
entziehen
belast@@
Aufstellung
belebung
outermost
instances
shame
municipal
establishments
crash
mie@@
Beschränkung
chio
sprachige
asten
Reda@@
idylli@@
ausgegangen
Einerseits
stenten
OSCE
wearing
persuade
archives
buffer
Museums
SEO
`s
Momente
katastrop@@
ämp@@
Erwachsen@@
erzeugnisse
berechtigte
versichert
geschah
specul@@
persecution
umbrel@@
family-run
screening
pension@@
muster
Japan@@
organizing
chtig
klo@@
graben
Autob@@
glicher
glän@@
äume
Meilen
blich
zügig
Dokum@@
belastung
repräsent@@
osteuropäischen
Gewässern
vising
mption
conscience
void
Turin
yacht
Stay
Einleitung
nächstes
formulieren
Gemäl@@
artiges
wissenschaftlicher
gewähr@@
Mitbürger
105
ologies
positively
Chirac
do-@@
cion@@
03.@@
Ansehen
Verzeichn@@
zucht
leisch
aufgegriffen
Fax-
uneingeschränkte
Gesichtspunkt
modernis@@
protectionism
Five
state-@@
DF
tenden@@
ags
lifelong
Modi@@
auction
consec@@
dh@@
Vet@@
Verhaltenskodex
ме@@
Genau@@
Katalo@@
Typen
Lieferungen
Rechtsprechung
preci@@
racy
Cypri@@
thful
bron@@
celebration
jack
Zar@@
BA@@
Course
merkt
nett
Bonus@@
mitzuteilen
polizei@@
schrän@@
Schulungen
Pfeiler
Veranstaltungsräume
lou
mysteri@@
laim@@
cocktail
Jas@@
MAS@@
ITE
Bisch@@
Wellnessbereich
versicherungs@@
betreffende
Gegen
herkömmlichen
birgt
Werkzeug@@
afft
Freilassung
Damals
accomplished
sidy
Kurdish
boot@@
halls
laundry
malen
tura
sprechende
Einfach
verarbeiten
Löhne
älteste
handelte
cure
springs
ket@@
eph@@
Glan@@
zoom
Agent
grande
Samu@@
travel@@
aufrecht
steigerung
म@@
Berat@@
anschließ@@
steu@@
ancen
emergence
deployed
accompany
populi@@
Davi@@
present@@
stainless
NATO-@@
Kit
spri@@
jour
pfer@@
höher@@
speculation
bay@@
ventions
eder
anta
eme
arch
Carl
dler
Volkswirtschaft
faden
Unregelmäßigkeiten
Spek@@
Interventionen
gewichte
appelliere
Streben
Verwenden
drag
democratically
anger
ush@@
Rober@@
sat
gian
mounting
Et@@
act@@
KM@@
Eis
sensib@@
Ausgleich@@
gekrön@@
eingeschrän@@
unternimmt
socialist
Malm@@
xion
Metal
ą@@
apaz@@
asien
komfort@@
Werde
kub@@
Gemeinschaftsebene
poorer
Incre@@
stly
inion
Ment@@
spiritu@@
та@@
Radisson
Toskana
Filter@@
Blumen
euer@@
Schwanger@@
bester
entdeckte
wählt
abgedeckt
reminded
shortage
influences
intensity
Check-In
Ausserdem
bestrebt
schär@@
hinreich@@
wünschte
contradiction
enny
Scientific
incredibly
experimental
varieties
Neigh@@
liest
Romul@@
zweites
Aufteilung
förderungs@@
elektrischen
Auszeichnung
inierte
teilnehmenden
gänzlich
repräsentiert
getroffenen
täu@@
correspond
Alle@@
GMOs
orph@@
Alexand@@
llon
Near
1956
gemeldet
ehrgeizige
reinen
Leser
Bearbeitungs@@
grundsätz@@
Gesetzgeber
geehrter
bürgerliche
denom@@
hne
irregularities
COD
turnover
tissue
eventu@@
dialo@@
Schuld@@
loten
geschlossen@@
loh@@
angekommen
Aufbau@@
Ausbruch
Plätzen
ordnungen
veranlassen
barely
servatives
reveals
put@@
Commer@@
real-time
Virtu@@
Clin@@
kaner
äck@@
Befürchtungen
Vieh@@
einschlägigen
chains
acres
objections
possession
light@@
spective
picked
masters
itar@@
flower
mill
Iran@@
tiles
Estate
verbesserten
NCC-@@
setzungen
mög@@
antwortet
gewahrt
bilität
embargo
gated
replacing
resist
facilitating
roph@@
accoun@@
fred
mais
leck@@
Inhalts@@
zivi@@
geplante
zusammenhän@@
Klausel
vertrieben
liberty
Happ@@
sheep
BSE-@@
economists
Fit@@
Bah@@
hine
dü@@
gesetze
Entschul@@
rationen
anbieter
beliebige
herauszufinden
agenturen
überwachung
nels
thirds
ex-@@
moment@@
multitude
Motion
built-in
donation
Istri@@
det@@
kilom@@
USE
Boutique
rek@@
komb@@
aufw@@
pflicht
isieren
lässigkeit
wiederherzustellen
Rotterdam
dening
EEC
upgraded
LL@@
etch
nein
steil
rechnet
Eintritts@@
Freihandels@@
infrin@@
attracted
nine@@
mili@@
infection
11-@@
Gad@@
ckey
hion
VA
zuvor@@
ängen
Rhyth@@
gelte
Schauen
Schienen@@
Münzen
zweier
Speicherk@@
bridges
billions
second-@@
directors
Appar@@
diameter
king@@
Gat@@
Ethernet
Schriften
Genfer
vorwiegend
richtete
vorüber@@
Almost
normali@@
designing
descriptions
manipulation
earnings
German-@@
moul@@
Business-@@
rays
Provence
DB@@
Dorf@@
Aluminium
amentos
umfangreiches
Enga@@
Anstatt
Wohlergehen
Gleiche
Gründer
crop
sanit@@
osity
ographi@@
telefon@@
brücke
Flair
etern
aussieht
Variablen
denz@@
schwachen
Politikern
Reisende
ganzhei@@
verlang@@
spektrum
Exporte
part-@@
Seven
Partic@@
mitig@@
outline
momentum
updating
pse
consultants
Alicante
protein
speeds
matching
itement
UP
Records
Klu@@
ени@@
Freund@@
polnische
mende
ultur
häufigsten
verlor@@
enttäu@@
Diskussions@@
unverändert
Gefühle
socio-economic
eliminated
Cadiz
Care
alleged
Legisl@@
She@@
hafen
Vali@@
rics
Hart@@
rede
Größen
zyklus
Botschaften
obliegt
geprä@@
Erwärmung
Schriftliche
utor
1957
motto
assu@@
xing
basin
fem@@
lus
Bayern
PayPal
Conil
veränderten
glichkeiten
aufgeteilt
Spaniens
sozio@@
Wechselkur@@
unilater@@
Dalai
preparatory
cultivation
ounce
wns
Di
successor
Electronic
mobil@@
NT@@
Moo@@
personalized
install@@
decke
großzügig
Autovermietung
inequalities
voic@@
Sich@@
olf
acid
atus
C.@@
voor
dec
Check@@
schot@@
inkl
Spiegel@@
terte
Bestandteile
vergabe
wachstum
sprüche
stärker@@
shipment
hospitals
exemption
codi@@
fossil
tract
yen
fortress
call@@
reward
zona
Bec@@
partments
Profil@@
kommend
Verhältnis@@
behilflich
historischer
einwand@@
überschritten
Symbole
willigen
Herzegowina
variations
ested
mitting
disadvantaged
Maybe
best-@@
izza
Bilder@@
³
tschaft
LK@@
Verstöße
Persönlichkeit
Flusses
Wallström
glas@@
hosp@@
factories
sof@@
Fass@@
ccer
ти@@
weiß@@
ле@@
Varianten
ihrerseits
Unfall
älen
Heraus@@
gedenkt
dlern
Aufstockung
rial
strongest
shoulder
alleg@@
ularly
uries
Marra@@
injection
Sciences
kW
Magazin
bräu@@
virtuelle
schlu@@
Teilnehmer@@
schwar@@
Dauer@@
folgend
Applikation
sensiblen
Anbau
Wiederaufnahme
teeth
Iber@@
rises
atis@@
nesses
progno@@
Afghan
Mr@@
enab@@
rote
php@@
bibliothe@@
ühlen
Meeres
graf@@
tilien
halbe
verlaufen
Besatzung
unterrichtet
multination@@
ode
Official
Exist@@
11.00
strip
Arabia
ic-@@
analog
privat
Funk@@
fängt
Berichterstattung
Energiet@@
lebens
Nahrung
Genehm@@
Stärken
häufi@@
Evaluierung
einräumen
obgleich
treating
1900
001
wag@@
1965
Seminar
api@@
Made
gängigen
erledigen
Lettland
verweigert
Protektionismus
abzustimmen
instruction
Russians
acity
edt
ILO
predictable
thou
atics
ser-@@
forti@@
Simon
Nau@@
lub
Feedback
ausch
Anmel@@
strei@@
einzeln
Camping@@
ganzes
prüft
Belastungen
unterstützten
folgendes
tigungen
besorgniserre@@
Bügel@@
altogether
stamp@@
115
beck
bring@@
ism@@
AVI
beau@@
verfü@@
verfassungs@@
Dün@@
ziehungs@@
sitzt
entscheidungen
hinausgehen
Lebensbedingungen
recipient
Claude
trun@@
mont
Markus
Tunes
Color
Streit
Erdgeschoss
echtes
ähnlicher
disadvantage
guiding
commissioned
deterior@@
cham@@
cryst@@
scrat@@
assor@@
Around
dul
proofed
Stoff@@
protesti@@
Beantwortung
Sün@@
Experten@@
organisator@@
Erzeugnissen
varies
undering
Certainly
posting
rand
deliveries
signatures
Stress
1.0
Kreis@@
auber@@
punkt@@
igungs@@
Paar
traten
commend
generates
rab@@
fully-@@
Flora
Lic@@
gage
ção
bettzimmer
EM-@@
Villen
Vertrauens@@
Befreiung
studierte
Vergabe
wesent@@
rüstung
befürchten
threaten
sme@@
bond
Zoo
Mist@@
bein@@
Kirchen@@
Riesen@@
Konsu@@
zwecke
orientieren
vermei@@
ehemali@@
Fische
Verfas@@
broke
attach@@
tackled
energy-@@
asymm@@
tired
INI
sciences
esto
geschäfte
Coff@@
Palm
längeren
Gebäu@@
wissens@@
europaweit
verfasst
accountable
Cany@@
tune
Arafat
Christop@@
Cambridge
Cyber@@
São
mmer
Chro@@
baum
ambots
Eingan@@
üpp@@
ethnische
Größen@@
schrecklichen
impe@@
vulnerability
offensive
Reich@@
transform@@
Venti@@
Übersetz@@
wirtschaft@@
vertrags
hten
tar
gaps
pragmatic
strich
ampli@@
vio
Vinc@@
Wan@@
ă@@
Quick@@
catalog
befin@@
streng@@
Fahren
zwingend
Erleichterung
vertrauens@@
Kolumbien
Kohle
renovation
elimination
distances
ill-@@
Liikanen
corresponds
asty
psycho@@
Patch
Weihnachten
umfangreich@@
Oase
begannen
Teils
lässig
fachen
richtlinien
unglück@@
daraufhin
gates
attack@@
tti
cand@@
erospace
phar@@
Brüder
krei@@
sahen
sofor@@
stuft
beeindruckenden
unterschied@@
Wäldern
vorgaben
redund@@
avoid@@
refund
Farm
land-@@
bezir@@
TP
Partition
Atlantik
gleicht
befindlichen
Erlaubnis
zusätzlicher
operieren
yards
staff@@
Exc@@
Corbett
architects
CR
arks
bean@@
Ferrari
POR@@
XL@@
appe
Serviceleistungen
Auseinandersetzungen
Einwander@@
Has
lifetime
GAT@@
displaced
Peru@@
Canc@@
Frankfurter
Nikol@@
wap
later@@
Polo
baden
Stä@@
ergie
ablen
Erholungs@@
lebte
unvergleich@@
leisch@@
Dienstleistungsrichtlinie
einfluss@@
exercises
Reding
cury
confronted
eco-@@
unab@@
ma-@@
monastery
temple
ause
1200
ffer@@
Lock@@
Patente
Zertifik@@
Gescheh@@
persönliches
Füßen
überarbeitet
ausschließ@@
gefährlicher
derartiger
liance
1948
Dell
finan@@
fireplace
fabrics
ritte
DER@@
Speise@@
konvention
restlichen
erledigt
CNS
delightful
grades
EOS
fortgeschrit@@
Schauspieler
Zufall
Züge
rations@@
Richtungen
beanspru@@
gesetzgebung
exportieren
iden
negligence
infin@@
promptly
incurred
ň@@
präsent
östlich
Logos
zeugt
empf@@
läufig
haltungs@@
Rücksicht
komponenten
ehrgeizigen
Kürzungen
sidents
grace
Total
symptoms
accus@@
bene@@
Chur@@
hill@@
enchanting
neuro@@
ELL@@
Hypothe@@
unterstützte
Währungsfonds
konkreter
ermutigt
shores
grav@@
Isa@@
bulk
gic
eses
twi@@
lars
Fris@@
honor
Infineon
Süß@@
fabrik
marken
Instanz
zögern
esische
einzigartiges
nachkommen
abhängt
inau@@
Liberals
ceas@@
college
reas@@
metal@@
Try
gress@@
jen@@
Italia
rag@@
GL@@
atin
Mitt@@
informations
zün@@
Flugzeug@@
gesteuert
seitigkeit
währung
Verurteilung
rehabilitation
livestock
stron@@
PE@@
Erdo@@
Sogar
gestütz@@
Abfahrt
Konsequenz
berechnen
oun@@
simpler
rami@@
cks@@
Rosa
laptop
Meerblick
щ@@
Kongre@@
Ostse@@
bevorzugen
siven
Forschungs-
Demokratischen
inische
Eigentums
fürchte
empfehle
emotions
fortun@@
mothers
forbidden
Nei@@
vas
Arn@@
Strei@@
Auslieferung
Durchbruch
staates
angehört
unberühr@@
Stabilitätspakt
envis@@
dened
echo@@
coin
cave
Posten
news@@
Saudi@@
Prot@@
lich-@@
Zir@@
woll@@
heiligen
-Seiten
GVO
Urlaub@@
Akteuren
liberale
transeuropäischen
Tunnel
compensate
Spiri@@
Dub@@
Málaga
da-@@
Schulung
Dien@@
freiwillige
jeglichen
Mitentscheidung
haltens
AKP-Staaten
pity
allevi@@
MEP
rigor@@
vei@@
ference
103
ologists
recreational
dies@@
juice
Carl@@
actu@@
Imperial
entino
pher@@
Liga
gl.
Gestern
Konz@@
Körpers
Gastronomie
läßlich
dliches
fehlenden
anspruchsvollen
Behauptung
Pestizi@@
Bestreben
millenni@@
sooner
Ethiop@@
age-@@
mg
E-mail
Walking
Innenhof
ärten
möge
lindustrie
äter
Zusammenhalts
decides
deter@@
repercussions
own@@
casts
YO@@
drawings
Klei@@
HER@@
HT
ф@@
anmerken
komplizi@@
nördlich
Milliarde
Dienstleister
Klärung
unterricht
Vorsorge@@
Privatisierung
fruit@@
collap@@
aspirations
blen@@
Rum@@
VII
1966
perat@@
scanner
Brief@@
Student@@
deinem
nachtei@@
seinerzeit
competing
prevail
ammer
ologist
investi@@
entin
fisher@@
frozen
lib@@
pump
gger
allet
Photocopying
Käl@@
stehend
umgewandelt
Entsor@@
entierte
allgemein@@
ffekt
Ausgewogenheit
complied
vocal
assemb@@
Liechtenstein
itiner@@
rats@@
Graz
seating
Linz
Edit
könig@@
Öffnen
ordentlich
verlin@@
gewöh@@
tragene
Ausdehnung
unterzeichnen
Sozialdemokratischen
parliament@@
regulating
endt
la-@@
iten@@
WAR@@
Wertpapier@@
Residenz
offenkundig
ernsten
Jarzembowski
Baden-@@
Sla@@
IS-@@
Län@@
gangs@@
umfassender
historisch
Kino
EWG
ägyp@@
ernähr@@
Fotokopiereinrichtungen
Amb@@
Yesterday
accurately
NA@@
interoper@@
aesthetic
dine
amos
Hot
Strö@@
Marktan@@
vertiefen
diesjährigen
Konsum
Erläu@@
positiver
Friedensprozess
Lyn@@
verification
notify
erous
formulated
third-country
arious
SR@@
Mec@@
alar@@
gourmet
Zeitsch@@
äuft
jenseits
gewäs@@
ankommt
abstimmung
alisierungen
meisterschaft
Etiket@@
seasonal
enshrined
chaos
rea
tends
Uganda
coa
promotional
versatile
ender@@
Dolom@@
EST@@
mittelalter@@
soviel
Verband
schlug
nahmen@@
Energiem@@
gendsten
Betrieben
Informationsschalter
dear
LT@@
occurring
spot@@
wholly
tings
tariffs
Impro@@
Salvador
Eden
Agen@@
voraussichtlich
massiv
einander@@
juristische
gebil@@
ämmen
technologien
güter
Haftbe@@
herbeizuführen
substitute
occasionally
sors
anth@@
5.00
assumption
finger
chas@@
jury
Mam@@
intern
gt@@
toff@@
ausstellung
Zuschauer
sphase
aktuell@@
hoben
tschech@@
auszubauen
luxuriösen
specification
tism
Serbian
Starting
Sech@@
Expo
Kohäsionsfonds
Servic@@
Weitergabe
begrüß@@
gnügen
elektro@@
Standorte
geordnete
ambiguous
coupled
demic
PR
drama
therapeutic
shapes
dener
photographer
48@@
Käse
Fußgänger@@
Fotografen
Lärm
blieben
Laufzeit
commission@@
professor
wle@@
conceived
Gall@@
Gig@@
biking
erholsamen
Telekommunikation
wendi@@
Kuli@@
dafri@@
willen
tlichkeit
Wirtschaft@@
Nachweis
fragte
verhaftet
augen@@
voranzubringen
critics
gher
hun@@
concer@@
conversation
zzle
orthodo@@
Spo@@
aga@@
Krebs
Snacks
Ansonsten
zusammengefasst
konver@@
Akt
langjährigen
Gewis@@
Themas
verurs@@
credited
Democra@@
geared
oul
seem@@
sno@@
1962
reprodu@@
ascript
Acrobat
stücken
Vorbeu@@
allgemeiner
Director@@
sister
republi@@
ld
Platform
Orange
Miner@@
ANT@@
Silver
Schir@@
Frühling
Ideologie
herum@@
Wunsch@@
Branchen@@
gebern
absoluten
großartigen
Unrecht
kontinuierliche
IMO
intermedi@@
ssed
aber@@
Zagreb
adas
Restau@@
erstattet
schätze
Verpack@@
strecken
kontinuier@@
Mitgliedstaates
financially
licences
Myanmar
vic
Ves@@
Audio-@@
Authenti@@
Krankenhaus
ankommen
Fachleute
Pflan@@
risiko
Rücktritt
ं
appropriately
utable
manoeu@@
applau@@
Codes
ican
chill
process@@
royal
encryption
discounts
blas@@
Dav@@
cafes
Zoll
flich
Vormittag
Lagerung
Unfälle
agnen
Streitigkeiten
ject
Fine
balls
Dek@@
Öffent@@
Deck@@
Verknüpfung
vocation
Iceland
vens
business@@
realities
profi@@
Australian
sko@@
Buyer
cozy
Richt@@
aufgegeben
rahmen@@
angezogen
excluding
Ou@@
thema
alarming
bow
manipul@@
Naples
connects
thy@@
gion
liberalization
Share
Spam
Baby
MAN
Jeden
lität
Dimensionen
überschreiten
dehnen
Errungenschaften
einnahmen
Haushaltsausschusses
Meinungsfreiheit
sixth
staun@@
privilege
absta@@
bekistan
Commons
240
horri@@
biotechnology
barri@@
pause
Carmen
-and-@@
1939
Koalition
Kunsth@@
CAD@@
Arten@@
Zeichen@@
Stück@@
räte
jahres
stanzen
fasste
operativen
konzentri@@
Kommunismus
extre@@
Finan@@
Teh@@
Arctic
Hack@@
Universitäts@@
ouren
Fitnesscenter
Konzeption
pakete
containers
eler@@
issuing
conven@@
amaz@@
zh@@
Cotonou
Sounds
08.@@
й@@
höchstem
gepflegt
Glückwunsch
angem@@
melten
Aktualität
stamm@@
Gesundheitsversorgung
Auswirkung
essimis@@
besie@@
Integr@@
tails
istics
mediterranen
Anfänger
einziger
Telefonnummer
solle
Folgenab@@
conception
9.00
ambigu@@
Carlo
Rhine
lical
tap
Trading
Seville
SI
did@@
kov
Pilot
attle
foun@@
Brot
öne
kunft
unternehmen@@
Bedauern
Haushaltskontrolle
Reservierungen
dable
exceeded
ghty
Acces@@
geist
Transfer@@
Divi@@
och
elligkeit
angebot@@
sebene
schwarze
Ausflug
Einigkeit
initiativen
Abent@@
wörter
Betrü@@
beurteilt
Elisa@@
alistic
elo@@
voy
Zen@@
film@@
Jesolo
amerikan@@
Meilenst@@
Messung
Kampagnen
geschaff@@
ausgeht
exklusi@@
Renten
persistent
Kis@@
1961
lamp@@
Dubrovnik
rale
ischerweise
Auftritt
ordnet
Naturschutz@@
Auswertung
[...]
